#version: 0.2
Ġ t
Ġ a
i n
h e
o n
r e
e r
a t
o r
Ġ s
Ġt he
e n
e s
i t
Ġ c
a n
Ġ p
Ġ w
i s
o u
e d
Ġ f
in g
a l
Ġ o
Ġa n
i on
Ġ d
Ġ b
i c
l e
Ġt o
Ġ m
Ġ in
a r
r o
Ġan d
Ġo f
en t
a s
Ġ n
Ġ re
u s
o m
Ġ l
c t
Ġt h
Ġ e
i l
Ġ y
v e
at ion
Ġ h
o t
e t
Ġy ou
Ġ is
l y
i m
Ġf or
Ġ A
i g
c h
a m
Ġ C
er s
u t
u n
Ġ S
o w
s t
Ġ T
Ġb e
Ġ I
i d
a g
o l
Ġ on
c e
a d
Ġ (
Ġ g
Ġp ro
â Ģ
Ġ W
Ġ or
Ġth at
it h
a y
Ġc on
Ġ us
e l
a b
u r
e m
Ġ v
i k
u l
Ġw ith
i f
a c
at e
Ġs t
o p
Ġ it
Ġ M
Ġa l
o s
r i
Ġa s
ã ģ
Ġ P
e ct
Ġd e
m ent
i r
p p
t er
it y
es s
o d
Ġc om
v er
u b
he r
es t
Ð °
Ġe x
Ġa re
i a
q u
e c
Ġ 2
is t
o c
Ġ D
Ġ G
ig h
ag e
r a
Ġw h
ou r
p l
Ġn ot
s e
Ġ Ð
Ġw e
Ġyou r
f or
Ġ B
an g
Ġ F
Ġ k
o re
Ġc an
a k
ou t
i ve
e w
à ¸
u re
n t
Ġ r
Ġb y
Ġ 1
igh t
or k
Ġ un
p t
il l
or t
an d
i es
ro m
Ġ L
Ġ H
ar t
u d
ion s
Ġ R
a in
i v
n d
u m
âĢ Ļ
i p
for m
Ġ E
Ġa t
Ġcon t
ab le
ĠT he
l d
Ġf rom
u p
o g
an t
ã Ĥ
en d
Ġth is
Ġ2 0
Ġs e
a ve
us t
á Ģ
T he
i z
à ¤
Ġ U
Ġ O
Ġs u
Ġa d
ã ĥ
Ø §
i al
ed ia
e re
Ġ he
à ¦
' s
Ð ¸
Ġs h
l ic
Ġc h
re s
Ð ¾
t her
ac k
Ġ im
c c
Ġs p
en s
Ġ N
Ġw ork
Ġ ×
Ð µ
Ñ Ģ
a re
Ġ âĢ
Ð ½
Ġ "
Ġt r
Ġh ave
ar d
i b
Ġ le
om m
i re
Ġa pp
ic h
c l
i e
Ġa r
o st
Ġa b
Ġus e
at ed
Ġcom p
Ġal l
id e
al ly
ation s
as e
Ġd o
ĠW ik
Ġ en
al l
s o
i le
Ġin t
an s
p er
ou ld
Ġt e
at a
j ect
in e
Ñ Ĥ
Ġw he
on s
Ġ j
Ù Ħ
ul t
Ġ -
a il
ĠI n
Ġre p
or y
Ġ J
Ġw as
Ġw ill
a p
om e
Ġo ther
t h
u e
Ġa cc
it e
r ou
b er
Ġm ore
Ġn e
ic e
Ġan y
ig n
Ġp l
× Ļ
Ġs o
Ġre s
o k
am e
. [
d u
Ñ ģ
Ġh as
Ġal so
p le
ri b
Ġwh ich
Ð »
a ct
form ation
ve l
e p
as s
od e
à °
h is
g r
l ow
Ġcom m
Ð º
in d
Ġd is
Ġb ut
Ġp er
Ġre qu
ag es
g h
Ġ up
e b
d er
Ġ V
or s
a ch
Ġ qu
Ġ z
er v
f f
on e
Ġm ay
an ce
ou nd
Ġc re
cl ud
Ġm e
ang u
ment s
if ic
im e
on g
ĠC omm
ik e
ĠS t
Ġp art
as t
in k
×Ļ ×
Ġ K
op y
x t
a v
g e
Ġ our
re e
Ġ if
el l
os e
0 0
Ġin formation
Ġad d
at es
e ar
Ġs c
Ġd es
p h
Ġc l
Ġn ew
a w
Ù ħ
Ġd ata
ar y
Ñ ĥ
I n
Y ou
Ġthe y
Ġthe ir
ter n
Ġp ub
r ight
Ġf e
Ġ Ø
l l
at ive
on t
ou nt
ar k
ak e
y p
Ġit s
u al
f ere
f t
ent s
× ķ
or d
Ġab out
r u
Ġin clud
Ġm an
i ew
¿ ½
ct ion
Ġ out
ou s
Ã ©
Ġl angu
ï ¿½
a ce
) .
it ion
Ġpro v
opy right
rib ut
Ġl ic
Ġg o
Ġsp ec
Ġa ut
o b
Ġp re
t e
Ġon e
Ġs ub
ic al
H ub
Ġe v
y st
it Hub
Ġp age
ate g
Ù Ĭ
ic es
en ce
en er
o ve
Ġl ike
. .
Ð ´
res s
ĠâĢ Ķ
Ġp r
o ok
) ,
Ġ20 2
c es
le ase
pp ort
Ġs ome
il ity
ip edia
Ġ $
o ad
ect ion
at ure
Ġh ow
n g
ĠI t
Ù Ī
Ġwhe n
Ġsu ch
Ġwe b
M L
in t
Ġre c
Ġ 3
er m
r y
Ø§ ÙĦ
Ġ20 1
Ġr ight
ow n
Ġim p
on d
âĢ Ŀ
vel op
ĠComm ons
Ġa g
Ð ¼
ri v
is h
Ġb u
ĠP ro
ers on
gr am
Ġe m
ro w
ing s
ĠG itHub
Ġn o
Ġ ed
Ġs ec
Ġne ed
Ġp h
Ġcon s
Ġus ed
en se
at ing
Ã ³
le ct
Ġar t
yst em
×ķ ×
a h
Ø ±
Ġv al
Ġc opyright
os it
Ð ²
im edia
Ġse e
g an
Ù Ĩ
ĠA I
Ġthe m
ver y
Ġf ol
Ġde f
ĠR e
ib le
Ġf ir
ay s
i an
Ġpro ject
Ġtr ans
Ġin st
ĠU n
Ñ ĭ
o v
Ġthe se
w are
ĠF or
Ġt ime
Ġs et
Ġa ct
Ġf il
Ġl ist
n e
is e
Ġpub lic
r it
i ed
us e
p en
Ġacc ess
à ¹
Ġbe en
is s
Ġ i
Ġc ol
ĠT his
Ġon ly
ch n
Ġfor m
Ġin d
ic t
Ġthe re
ï¿½ ï¿½
Ġth an
Ġof f
id ent
Ġus ing
Å Ĥ
k s
à ¥
Ġint o
il d
Ġcont ent
Ġm od
Ġex am
Ġch ang
ĠWik ipedia
Ġ1 9
T ML
er t
s s
u es
Ġde velop
Ġs erv
Ġo b
Ġsu pport
Ġd if
Ġsh ould
Ġm at
e e
ĠWik imedia
l es
it ed
Ġun der
em pl
c ess
Ġfol low
Ġre l
Ġc ode
ri pt
ĠW eb
à ¬
oc u
Ġpro gram
Ġrep osit
ĠâĢ ľ
c ed
Ä ħ
he n
Ġpro du
Ġat t
Ġk n
rou p
Ġrequ est
h at
Ġ Ø§ÙĦ
Ġre g
Ġpro t
ik i
Ġb ack
a j
Ġo ver
Ġas s
Ġlangu age
Ġis s
Ġex p
Ġl oc
Ø ª
Ġbe c
Ġwh o
Ġg et
Ġfe ature
w n
iz ation
ar ch
rou gh
Ġp e
l p
Ġdo es
' t
iv ers
ur ity
ul l
em ent
Ġ You
ĠA r
ic s
as ed
it ies
ac y
Ġg ener
ar i
Ġw ould
á »
al k
Ġwh at
Ġhe lp
ĠC h
Ġin ter
w o
Ġa v
Ġa c
Ġp erson
Ġus er
n ing
v iew
ol og
ers ion
ra ct
un ity
Ġfir st
ad e
he d
Ġm ake
Ġb et
Ä Ļ
s er
em b
Ġexam ple
op le
Ġf un
ĠH TML
an y
a x
Ġs ystem
ce pt
Ġm ost
Ġl a
ãģ ®
Ġwhe re
Ð ³
Ġk e
yp e
Ñ ĸ
our ce
Ġor gan
Ġ u
Ġre m
ul ar
ĠI f
Ñ ı
Ġth rough
al e
it s
Ġpro cess
ou gh
T his
Ġwe re
if y
c y
f ul
Ġe le
at or
I f
Ġv er
l ed
à §
Ġhe ad
i x
Ġ à¤
Ġto ol
Ġ ent
ĠS p
Ġspec ific
t ing
fere n
F or
i o
w e
ocu ment
t en
Ġ 5
on es
Ġm y
r ing
Ġprov id
Ġs im
Ġte chn
Ġp ar
Ġe very
T C
c k
ra ph
ru ct
ire ct
in es
Ġ ro
ft ware
Ġy ear
Ġus ers
es p
i ent
Ġo wn
ot h
Ġ 4
Ġf ile
Ġl ink
Ġj ust
Ġl aw
Ð ·
Ġrequ ire
Ġm et
o y
Ġb l
Ġdis c
and ard
a use
ion al
le t
Ġall ow
R e
c ript
Ġex t
Ġpe ople
Ġo pt
o x
Ġdes ign
o int
Ġin v
Ġa m
Ġ ì
Ġd et
a z
or ies
Ġreposit ory
Ġt empl
per t
ê ł
oc k
g et
Ġc all
c i
u g
e ver
Ġs a
f ore
s p
or ld
Ġm in
e k
r an
ere d
Ġkn ow
p ro
Ġle g
Ġapp lic
Ġlic ense
Ġw ant
Ġm ust
ĠW e
i er
os s
in al
Ġ /
Ġed it
a ir
i el
× ¨
ur re
p r
Ġc o
Ñ Į
U TC
f ter
Ġf ree
Ø ¯
ust om
Ġo pen
Ġ20 0
9 9
m in
ail able
ur n
Ġthe n
Ġfollow ing
e g
Ġt est
as es
ol ic
ã Ģ
Ġm ark
fere nt
at form
l ass
Û Į
Ġph ot
ic ally
t o
É Ľ
y s
ic k
Ġin c
à ¨
l ine
ation al
iz ed
Ġres p
Ġre ad
Ġun d
ÑĢ Ð°
Ġs ame
2 0
re at
as h
Ġw ay
ro p
Ġst art
Ġlic ens
Ġp riv
Ġprodu ct
ivers ity
Ġst at
iz e
ol ut
in ess
Ġ Y
Ġdif ferent
ul es
er n
Ġn um
Ã ¡
y m
Ķ ×
re d
Ġwith out
W e
Ġre t
ar b
Ø ©
un g
Ġcon f
Ġav ailable
Ġpart ic
Ġright s
u ch
in ed
Ġc ateg
Ġte xt
Ġ Ñ
Ġinclud ing
Ġn ow
Ġn ame
Ġde c
Ġpro f
a pp
u ally
Ġacc ount
Ġd ocument
Ġval ue
Ġfil es
re ad
res ent
Ġto p
l ish
Ġ [
.. .
Ġt erm
Ġg u
ĠD e
S S
us s
i ous
us iness
Ġwork s
ple ment
it al
h ip
Ġsec urity
Ð ¿
Ġst andard
ĠG o
Ġpro b
he s
Ġte am
m at
ĠÐ ¿
h or
Ġo per
ĠA pp
Ġ ident
ab ility
in ce
Ġg roup
e xt
Ġso ftware
Ġw ell
Ġf ind
Ġ .
Ġ à¦
ak ing
n er
ĠT h
ot e
am p
Ġper m
Ġev en
Ġman y
Ã ¤
Ġ 7
Ġcre ate
Ġbu ild
f er
Ġor ig
ro ss
Ġt wo
Ġart ic
ol d
Ġst r
ĠC C
ow er
am es
l ess
P I
t s
ŀ ×
Ġd i
ãĥ ¼
Ġn a
Ġh ad
Ġc ustom
Ġl ook
om p
à ±
Ġp ur
Å ¼
S t
Ġs m
Ġcomm unity
ãģ Ļ
Ġres ult
el f
i en
Ġsp e
Ø ¨
iel d
Ġm ain
á º
Ġe ach
ot her
Ġg r
Ġ er
al ity
en g
Ġ Ùħ
urre nt
Ð ¹
Ġc ould
Ġwh ile
Ġn on
ect ed
Ġc he
Ġd irect
Ġbec ause
e x
i ence
Ġ &
e f
p os
Ġpl atform
Ġd on
if ied
iss ion
Ġs ource
Ġfeature s
Ġs er
ĠS erv
w ork
Ġb row
le m
il y
Ð° Ð½
om ain
l i
ur ing
t alk
Ġim age
ent ial
Ġth ose
Ġr un
Ġlangu ages
Ġl ong
lic k
Ġim plement
ĠT e
Ġ end
Ġv ersion
Ġad v
Ã ¼
Ø ³
' re
Ġa fter
n y
á ĥ
ib ility
Ġaut om
om et
ph ones
Ġs ign
Ġd own
al s
Ġprov ide
Ġv ari
Ġcont ribut
Ġv is
Ġcons id
Ø ¹
Ġm ult
Ġin tern
ĠE x
ide o
Ġre view
Ġe as
Ġ 6
ĠâĢ ĵ
w ard
ĠA d
Ġob ject
Ġ X
l is
1 0
t he
A r
Ã ¨
Ġperson al
s ite
× ľ
Ġf ound
pl oad
d it
iv es
Ġper form
Ġc ount
Ġre st
Ġcont ro
Ġw rit
il i
m ing
Ġrep ort
un d
ak es
Ġbe ing
ĠA PI
Ġv iew
z y
ä ¸
Ġtool s
at h
Ġbe fore
at ch
Ġw orld
Ù ģ
ĠA t
el s
Ġex pl
Ð ±
Ġex per
ĠA nd
cc ess
Ġ 0
âĢ Ķ
Ġde v
we en
Ġc ase
v en
Ġb est
Ġr ules
ou n
Ġm on
Ġp ost
Ġcont ain
Å ĭ
Ġb oth
Ġch ar
Ġcomp ut
it t
et a
ou d
Ġinclud e
Ġiss ues
er ial
et s
ãģ «
Ġin f
l ob
C omm
Ġsh are
ed i
Ã ł
ãģ ¯
Ġhead phones
g u
Ġd el
Ġ201 6
olog y
Ġnum ber
p ut
Ġbet ween
er ing
ĠC ont
Ġcon n
Ð° ÑĢ
Ġt ra
Ġ× Ķ×
e ad
Ġm ade
Ġn i
Å Ľ
Ġst ill
Ġa ud
og raph
Ġhe re
Ġtempl ate
T o
Ġc urrent
Ġh igh
og le
Ġre le
c rib
ĠI nt
Ġ â
Ġe l
A T
à¸ ²
Ġp olic
Ġd ist
ĠÐ º
Ġf r
Ġwith in
Ġim ages
Ġsh ow
Ġchang es
Ġleg al
ure s
Ġup d
emb ers
a a
is m
ĠA l
Ä ĩ
Ġf ield
Ġde p
Ġaut hor
} }
ĠA m
Ġen g
Ġatt ribut
a ult
Ġl og
an k
ir d
end ed
Ġfun ction
Ġex ist
Ñ ĩ
oc i
n ot
ì Ŀ
z e
Ġ Ñģ
Ġb usiness
ig ital
] [
{ {
ro du
ang e
Ġd omain
Ã Ń
Ġ1 0
pl oy
Ġimp ort
Ġu pload
it es
Ġc or
ver n
1 9
Ġiss ue
h ing
à¦ ¾
Ġserv ices
Ġch o
is ion
and s
Ù Ĥ
o ber
re am
Ġin s
W ik
em ber
Ġloc al
ãģ ¾
oc us
Ñ ħ
Ġ á
pl es
o op
u le
ĠUn ited
ur al
Ġyear s
Ġdisc uss
l a
Ġp oss
feren ce
Ġl at
ĠC on
ĠH ow
v ent
pl ay
Ġele ment
in s
k t
Ġcomp le
Ġadd ress
v ed
Ġe ff
× Ķ
à ½
Ġprob lem
Ġst ep
Ġqu est
ist r
an a
Ðµ Ð½
Ù ĩ
ĠO ct
W iki
Ġsub ject
Ġprot ection
Ġorig inal
× ª
ãģ §
iv id
Ġ Z
ere st
ĠS h
Ġ Q
Ġproject s
Ġl im
Ġh is
ĠT r
Ġorgan ization
il t
Ð° Ð»
Ġl ar
c om
k i
Ġs ection
ad em
Ġse lect
à¤ ¾
Ġt yp
it ut
Ġem ail
Ġp ages
Ġcall ed
Ġd er
00 0
Ġs ince
Ġan other
Ġgo od
Ġver y
. "
o ol
h od
Ġt ype
Ġret urn
a pt
as on
Ġbe h
à¸² à¸
Ġs ing
ri es
Ġtrans l
re t
Ġre al
Ġimp ro
Ġchang e
Ã ¢
Ñ Ĩ
Ġtr ack
o ard
at ors
lob al
Ġs ens
om s
ĠGo ogle
ĠA n
our ces
Ġse arch
Ġen c
g est
Ġd id
Ġmat erial
r ay
ĠA s
Ġadd ition
Ġp oint
áĢ º
ert ain
Ġ ra
Ġv ideo
Ñ Ī
Ġ ë
Ġ {{
ess ional
Ġs omet
Ġcontro l
Ù ī
ĠC re
Ġapp ro
ĠOct ober
Ġ '
ip le
Ġdet ail
t ain
u k
or m
ar s
ar ly
Ù ĥ
Ġac ross
i ÄĻ
à¦ °
a i
ab or
et work
b ack
Ġc le
v ers
Ġt ake
ãĤ Ĵ
e gr
it her
ãģ Ħ
É Ķ
Ġb as
u c
Ġmin im
ĠD ata
Ã ¶
Ġb ased
lis hed
Ġpriv acy
Ġrequest s
Ġe t
ĠM eta
ĠE ng
im es
Ġar gu
Ġw iki
o in
Ġweb site
I t
r al
Ġer r
1 2
×Ļ× Ŀ
d e
y n
Ġcon st
ivid ual
j i
he re
Ġwhe ther
Ġdevelop ment
H ow
us ic
ãĥ ³
" ,
l oad
Ġf ocus
ag ement
Ġle ad
Ã³ w
Ġdef ault
Ġlicens es
Ġst ud
Ðº Ð¸
Ġform at
Ġserv ice
ĠS ec
Ġc our
y le
Ġp lease
Ġpartic ular
read y
Ġ est
ĠÐ ¼
led ge
Ġp ull
à§ į
an n
ĠP l
Ġag ain
in a
Ġm ight
Ġme ans
er c
em s
olut ion
Ø ¬
ĠN ot
re n
en cy
ur a
Ġre se
ĠServ ices
b it
n ess
Ġmet hod
Ġm uch
Ġor der
Ġf ull
Ġcon c
Ñģ ÑĤ
Ġm ess
Ġbet ter
ĳ ×
Ġp ass
1 6
A s
ĠÐ ½
u a
ãĤ ĭ
The re
Ġext ens
Ġartic le
o f
p ar
al t
Ġon line
Ġele ments
P ro
Ġcomp any
th ing
A d
i or
l ing
Ġh and
ial ly
Ġke ep
cript ion
Ġche ck
at her
Ġd em
Ġar ound
ord ing
ĠÐ ±
Ġ à°
Ġf ew
Ð° ÑĤ
Ġad min
Ðµ ÑĢ
Ġ202 5
Ġprogram ming
E x
i qu
ate ly
r ic
ãģ ¦
Ġcl ass
ent ly
ĠN ew
ink ed
Ġc lick
ĠU S
Ġgo vern
Ġs ound
Ġth ough
ĠC ode
Ġle ar
ruct ure
m ber
á ı
Ġre lease
Ġrequire d
Ġre ce
ers t
1 3
Ġint erest
Ġind ividual
p or
ĠI nd
Ġ ens
ï¿½ï¿½ ï¿½ï¿½
ãģ Ĺ
Ġt ag
ĠG roup
W hen
Ġ 8
Ġ ÙĪ
ĠF ound
í ķ
ord s
er y
Ġd at
Ġm edia
Ġback up
Ġautom at
en c
Ġb ran
am et
1 5
O M
c on
an ia
Ġcont in
Ġdis play
Ġev ent
Ġs he
Ġre f
1 8
d ay
Ġal ready
Ġrep resent
feren ces
Ġ Â
Ġg iv
ash able
Ġterm s
v ious
Ġ ÑĤ
Ġc ases
Ġf l
Ġcre ated
Ġm embers
Ġpro pert
Ġp ract
Ġsystem s
Ġprof essional
ĠÐ ´
Ġstat us
Ġl if
Ð¾ Ð²
ĠS o
ĠØ ¨
ĠA ct
ãĢ ģ
Ġth ink
S p
g o
ĠB l
ĠHow ever
arb on
Ġposs ible
a u
Ġ202 6
Ġdep end
Ġse ver
1 4
i j
Ġbe l
Ġs ur
ä ½
Ġs ite
Ġpl ay
as ter
ab ly
ight s
Ġmon th
W hat
Ġ1 8
iv ity
Ġab ove
Ġg reat
Ġar ch
Ġcomm un
Ġdes crib
Ġproduct s
m e
ĠThe y
in ing
Ġcateg ory
Ġimport ant
ãģ¾ ãģĻ
T h
ĠT hat
ific ation
Ġcol l
W eb
w ays
Ġth ird
Ġs k
ĠT o
a im
o ver
Ġe ither
ĠM ashable
Ġas k
ãĤ Į
Ġpl ace
Ġint egr
um an
t t
Ġp ower
ĠB ack
Ġle vel
ec ess
Ġun iversity
Ġ× ľ
c z
à Ń
ĠÐ ²
for t
f low
Ġan al
og n
cl us
Ġsa id
inked In
Ġb r
ĠO n
Ġexper ience
Ġk a
Ġorgan iz
Ġlink s
Ġsing le
Ġre ason
lass es
il ities
um m
ĠE n
Ġapplic ation
Ġrese arch
s ers
Ġc ertain
Ġf act
ire f
ĠFound ation
arbon ite
l and
× Ĳ
Ġn etwork
Ġl ast
ect s
Ġsever al
Ġa ff
Ġd igital
Ġ- -
Ġcom pl
b e
r ict
ut ure
Ġcol lect
Ġcomput er
1 7
ĠThe re
Ġp ort
ac es
Ġc ap
Ġapp ly
Ġpolic y
Ú ©
E D
Ġ áĢ
iref ox
c hes
m an
Ñ Ĭ
et ing
ĠC SS
op e
ĠH e
Ġ her
ar ing
ro ot
il ot
ac he
av ing
C ont
Ġan n
ĠW ork
a ut
d ition
ant s
. âĢĿ
ĠCre ative
ent ion
ist ory
Ð¾ Ð»
" .
Ġh ard
ach ine
C h
a f
Ġke y
ãĢ Ĥ
Ġde let
ateg ory
5 0
Ġp op
is k
ib r
ĠV ersion
Ġknow ledge
Ġmult iple
Ġof ten
Ġn am
Ġopt ions
Ġbrow ser
D e
o z
as a
ĠIn tern
Ġphot ograph
W h
ic ro
ĠM edia
ãģ ¨
ort h
ĠO pen
ãģ Į
ĠApp le
Ġstep s
adem ark
p ort
Ñ į
Ġ 9
ĠW h
ore d
Ġadd ed
Ġprovid ed
c he
Ø Ń
Ġus es
ur ther
i um
ub lic
2 3
É £
lass ian
erst and
O N
et y
Ġv i
ĠM an
ĠP r
ĠB ut
Ġto o
ind ow
æ ĸ
Ġh app
Ġem ploy
O n
ĠM ac
Ġd ie
Ġwork ing
ff ic
ep end
Ġbu ilt
A n
Ġf re
v ir
Ġn y
à¸ Ļ
Ġun t
Ġgu id
. ,
Ġsec ond
Ġbl ock
an i
ĠS e
ect ive
Ġm aking
Ðº Ð°
à¹ Ī
s ide
re en
áĢ ¬
Ġcomm on
Ð¾ ÑĢ
Ġconf ig
Ġ ide
ĠThe se
Ġstandard s
Ġsomet hing
. )
ĠC ol
ĠW H
Ġchar act
Ã ª
Ġal ways
Ġcont act
ond on
E R
Ġn orm
ĠL inkedIn
Ġrec omm
Ġtechn ology
Ġtempl ates
Ġspe ak
l er
al i
Ġex cept
ĠL e
Ġne xt
Ġcoll abor
Ã §
Ġin it
Ġre nd
Ġg lobal
ĠUn iversity
Ġpar amet
Ġpartic ip
S ee
ist s
iv ed
Ġn ecess
Ġinst all
rou nd
t ic
ç Ķ
Ġo p
Ġapp l
Ġimpro ve
k e
p ose
on y
Ġc opy
ab les
Ġsub s
à¥ į
' ll
t on
Ġd one
ir t
ĠEng lish
w ay
ë ĭ
ĠL ondon
j e
k a
Ġb ook
ĠR ep
Ø§ Øª
Ðµ Ð´
Ġme an
ĠØ ª
æ ľ
Ġre ally
il ar
ut ers
Ġdirect ly
E S
ä »
Ġ Ä
Ġval ues
Ġdevelop ers
m s
Ġst ate
f ace
à¸ Ń
Ġsm all
Ġdev ice
v es
Ġl ay
ch ool
oc ial
Ġapp ear
Ġcomm it
Ġreposit ories
Ġbe low
Ġ× ©
W G
er g
Ġm aj
Ġh ost
Ġpro m
Ġpro pos
Ġwork flow
Ġresp ons
Ġ Î
Ġth ree
Ġother s
Ġconsid er
Ġâ Ī
Ġattribut e
vir on
ç ļ
Ġerr or
Ġre pl
un e
Ġpub lished
Ġco ver
s h
Ġe qu
or age
Ġl ot
op ilot
riv acy
Ġautomat ically
y nt
Ġp ay
ĠW ith
Ġcan not
ĠBack up
âĢ ľ
ãĥ «
à° ¿
y a
Ġt ax
Ġc rit
Ġf uture
Ġl ine
ver t
ãĤ ¹
à¦ ¿
Ġle t
Ġab le
angu age
b ased
ar a
Ġexp ress
çļ Ħ
v ant
Ġt able
Ġd ra
ĠL ic
à¤ ¿
Ð¾ Ð½
å ı
Ġv ia
Ġfe ed
ec ut
Ġprovid es
Ġsu g
Ġpl an
o ot
an c
ĠC l
ad a
Ð¸ Ð½
av a
Ġperm ission
à¤ °
×ķ× ª
s ing
Ġs l
ĠRe uters
Ġexist ing
Ġsens or
Ġf ac
ĠP lease
Ġsc ript
Ð ¶
Ġ1 2
Ġcont ext
Ġmod el
ĠâĪ Ļ
ĠM od
ĠP re
ĠSt ates
Ġund erstand
Ġdetail s
N ot
s w
Ġqu e
AT WG
Ġlif e
S cript
n i
r on
ĠA g
ĠW hen
ĠB e
ĠAr q
Ġgiv en
' ve
Ġp ot
Ġp res
Ġw r
Ġv ers
Ġse par
Ġtr y
ĠIn st
ĠAt lassian
Ġdist ribut
Ġt ak
Ġt alk
ic ation
Ġl ab
C on
w ise
Ġp at
ri ve
Ġpr in
Ġass oci
Ġsim ple
Ġallow s
o ÅĤ
an ced
Ġw ik
Ġl oad
ĠP h
are nt
Ġqu ality
Ġsim ilar
Ġdesign ed
Ġstr ateg
Ġlar ge
Ġp a
ra p
Ġlaw s
Ġminim is
O S
n o
it ive
Ġc ent
our s
Ġresult s
Ġcho ose
Ġsug gest
A R
Ġ× Ĳ
à± į
Ġconn ect
Ġeng ine
ĠK ing
Ġcl aim
1 1
n a
in i
Ġm en
ill ion
Ġprot ect
à§ ĩ
oms on
h i
ä º
ot ype
Ġst ream
ĠF irefox
ob ile
Ġtechn ical
Ġbran ch
Ġ Ð°
Ġo ld
ic ated
ĠÐ ¸
Ġaud io
d om
t ings
in ation
Ġf in
ar get
Ġl ess
ãģ ª
n ers
s c
× ł
Ġth ings
Ġpriv ate
2 4
T r
Ġ ÙĦ
ĠC opilot
os ed
ĠÐ ¾
Ġdef ined
Ġmaj or
l u
r ation
r am
is c
Ġf am
Ġm akes
ie ve
Ġd ay
Ġg ive
pro t
ab ase
Ġspecific ation
pr ise
Ø µ
Ġh uman
ĠA b
ol ved
ĠR es
Ġ ê
Ġs ay
Ð¾ Ð³
Ġrest rict
2 5
Ġd uring
Ġm usic
Ġex pert
Ġwe ek
ire d
Ġneed s
A l
C A
is ing
ĠI s
ĠComm unity
Ġpropert y
Ø ®
ĠU R
Ġser ver
Ġwrit ten
à¸ ¡
Ġtr ademark
Ġ )
an ces
Ġf ix
Ġm ov
ag ing
ad oop
ĠR ec
For mat
Ġspe ed
g er
á İ
ĠO r
ove mber
3 0
w a
ãĤ ¤
Ġreg ard
Ġdoes n
it er
Ġ× ĳ×
Ġgener al
Ġartic les
ĠQ u
g or
Ġ1 5
du ct
Ġrec ogn
Ġinst ead
p art
Ġen viron
Ġcateg ories
Ġmain tain
o od
ĠIn c
Ġcl oud
Ġquest ions
Ġagain st
à ®
Ġp ut
Ġtr ust
Ġneed ed
Ġrel ated
Ġinc re
Wik ipedia
Ġit ems
erson al
Ġsa f
Ġp ri
Ġent ire
olut ions
ĠY our
d en
d ict
ar m
ur ation
Re lease
Ġvi ol
o id
å ħ
al th
Ġm ove
2 6
U n
Ġinclud ed
e es
at s
Ġb en
, [
A I
b y
× ĵ
Ġ Ċ
Ġc amp
Ġf air
Ġv ol
ĠPro t
Ġimplement ation
Ġconc ern
, âĢĿ
à ©
is ed
Î ±
er ic
Ġp resent
az on
o h
Ġc y
ed er
Ġdef in
Ġkn own
Ġtyp es
Ġt as
Ġg lasses
Ġst yle
Ð¸ Ñı
Ġpre vious
v al
å Ī
è ª
Ġ1 6
Ø§ ÙĨ
Ġin form
ĠC omp
ãģ Ł
Ġval id
Ġsign ific
u j
Ġc ult
ĠWeb root
Ġedit or
c hed
g a
Ġb re
ĠS ee
Ġinter act
ct ions
Ġg raph
Ġinclud es
Ġeas y
4 0
S A
i ance
is ions
ĠIn formation
pos es
ynt ax
F ile
L oc
Ġt it
Ġoff ic
Ġrem ain
rop ri
Ġcomple te
C re
an e
ĠC arbonite
t ime
Ġd ate
Ġinv est
Ġt arget
Ġw ays
le ction
Ġn ames
Ġperform ance
Ġcount ry
indow s
u ly
Ø Į
Ġ× ŀ×
Ġbeh av
iqu e
Ġorganiz ations
G L
j a
v ing
Ġc od
op t
Ġreturn s
Ø ´
å Ĳ
Ġc ost
Ġm achine
ãģ ķ
ĠG u
Ġpr ice
Ġsec ure
Ġact ually
itt ed
Ġdiscuss ion
p s
× ĳ
Ġs end
al es
Ġb ig
Ġto get
ĠN ovember
Ġapplic ations
N S
Ġne ver
Ġz esp
Ġgo ing
ĠÐ¿ ÑĢ
ĠKing dom
Ġtoget her
m a
ĠWH ATWG
ð Ł
Ġe ar
am i
Ġwh y
e ed
s ave
u f
w it
Ġs umm
us h
ãĥ Ī
Ġvari ous
Ġextens ion
r ast
Ò ¯
Ġ esp
Ġd en
à¸ ģ
Ġch ild
ĠSec urity
ĠNot es
gor ith
A pp
s ch
Ġint rodu
Ġed uc
Ġdocument ation
Ġdel i
o or
Ġ1 7
Ġoff er
ĠØ§ÙĦ Ùħ
Ġteam s
Ġdown load
Ġintern et
Ġargu ments
I R
ee k
empl ate
Ġsm art
s el
Ġ es
ĠM ay
Ġev ents
Ġadmin istr
Ġs ure
Ġaddition al
Ġ Ùģ
Ġs it
Ġcom ment
Ġ1 1
Ġnew s
à¹ ī
Ġfield s
i res
w h
el ines
ell ig
Ġmess age
Ġens ure
y t
an ies
ĠA ll
tern al
Ġ3 0
Ġac cept
g ed
á Ī
Ġt akes
ĠM ark
iz ing
Ġman agement
S h
l ike
Ġf it
Ġh istory
ac ed
ĠSt ud
A b
D F
] ]
ĠA ccess
if i
Ġr ather
ĠTe chn
Ġcle ar
R S
å ®
Ġp ol
Ġk ind
b u
× ŀ×
or ing
ãģ ĵ
ew ork
Ġsu ccess
Ġres ources
Ġact ive
Ġmat ch
alt ura
p oint
p ache
ĠD at
Ġuse ful
olog ies
Ġcount ries
ĠP rivacy
ĠInt l
Ġd ays
Ġcom e
ap s
Ġbec ome
Ġdet erm
Ġlat er
G itHub
Ġh ours
em pt
ĠM al
for ce
ĠO ne
ĠJ ava
itt le
d z
at t
Ġb ro
Ġal gorith
are d
am a
Q L
n ie
u ation
× ©
Ġf urther
ĠA ir
ĠC om
ul ner
Ġj ob
Ġspec ial
r id
Ó Ļ
Ġd a
Ð¾ Ð´
Ġsp ace
Ġle ast
Ġfe el
Ġgovern ment
Ġrecomm end
prot otype
an ie
Ġp ict
ro ll
Ġsu pp
Ð½ Ð°
so ft
Ġj ur
Ġbuild ing
Ġpur pose
Ġconsid ered
b oard
Â ®
or n
ar ies
Ġits elf
à¥ ĩ
ocu ments
Ġunt il
u x
Ġc are
ĠH adoop
Ġpur poses
P A
ĠS er
Ġ1 4
Ġpr im
ĠAm azon
Ġquest ion
an ning
Ġan sw
av ig
ear ch
Ġfun d
Ġrele vant
it ect
am b
ĠC an
Ġex ecut
ĠN o
Ġother wise
Ġstart ed
Comm ons
Ġnecess ary
S ec
Ġt ri
Ġs ong
ec ially
Ġapp s
Ġcre ating
à¹ Ģ
Ġevery thing
I m
Î ¹
Ġg row
ĠM icro
Ġsh ort
ĠRe g
Ġmod ern
Ġsignific ant
Ġ à¨
Ġs ays
Ġs ocial
ĠA N
ĠC ategory
Ø§ Ø±
Ġopt ion
C SS
p ly
ĠA f
ĠA cc
Ġcon cept
ĠWik ip
Ġcons ist
ĠCont ent
j p
p re
u rop
er a
Ġre du
Ġon ce
Ġcom b
Ġnot ice
ĠØ £
ĠPro ject
o o
Ġre v
Ġl ittle
ch ange
un t
Ġet c
ĠÐ½ Ð°
ropri ate
I nt
at ter
Ġf ail
ĠP ersonal
Ġzesp oÅĤ
G et
od y
Ġcomp on
Ġimp act
Ġrem ov
ĠÄ ĳ
ĠLic ense
I D
ĠC ap
ĠU se
Ġqu ick
Ã© s
c omm
le x
le vel
Ġre fer
âĢ ĵ
Ġv irt
Ġ1 3
×Ļ× ª
Ġoff ers
à¥ Ģ
× ¤
Ġ ut
ro id
Ġim m
Ġcomp anies
Ġevery one
Ġcurrent ly
Ġlim it
Ġ à¬
ĠD es
iss ions
è ¨
Ġ Ã
Ġt i
Ġw on
Ġl ive
Ġh old
ĠC our
Ġsome one
Ġwrit ing
Ġlim ited
jp g
n ow
s ites
Ġp ack
ic ate
Ġm ail
Ġl ibr
à° ¾
Ġprot ected
Ġcor re
Ġpri or
ol ve
Ġst orage
Ġen ough
Ġdis cl
ĠServ ice
Ġel se
A N
× Ľ
Ġ ess
am ent
ĠW eek
Ġv ulner
à¸ Ķ
Ġr ule
ĠIntern et
Ġtak en
Ġp air
Ġd aa
Ð¾ Ð¼
Ð» Ð°
Ġme et
Ġ19 8
Ġprocess ing
Ġdec ision
Ġny ÉĽ
k o
Î ¿
Ġ +
le te
Ġin put
Ġre d
Ġe f
ot s
ik a
áĢ ¯
Ġ202 4
Ġtop ic
Ġident ity
Ġcomple x
ĠUR L
s elf
ab led
Ġdev ices
erc ial
b ers
i od
Ø ·
à ¼
Ġd u
Ġb ox
Ðµ ÑĤ
Ġen able
ah asa
Ġrequire ments
b ox
Ġ êł
ĠA ut
em ents
Ġal ong
Ġact iv
Ġprogram s
Ġtest ing
Ġgr ant
Ġcharact er
N ote
Ġ @
or g
ur s
ĠÐ ·
Ġdes cription
Ġfil ter
Ġinter face
T T
u pport
Ê »
Ñ İ
Ġs olutions
ou b
Ġd ocuments
Ġlike ly
I N
Ġa ction
Ġs iÄĻ
ĠI m
ag ed
à¸ «
Ġind ust
Ġlear n
k en
al a
ab ilities
Ġsub m
Ġest ab
Ġpot ential
Ġ ...
Ġto day
ĠU ser
ĠO ff
×Ļ× ķ
Ġapplic able
Ġgroup s
g in
× ĺ
Ġf ont
Ġh aving
ĠTh omson
æĸ ĩ
c ome
g ing
at er
ot t
Ġr isk
um e
O ur
c ing
Å ¡
Ï Ħ
Ġw ide
Ġl ow
ol l
ĠP art
ĠG it
Ð½ Ð¸
th ough
Ġacc ording
Ġla un
Ġent er
e y
h old
Ġ #
Ġt re
ĠW orld
Ġ19 9
Ġw ar
ãĤ Ĭ
ci ples
2 2
i h
ar ily
Ġus ually
ir st
ĠL anguage
Ġfir m
E C
i i
n cy
t r
Ġd ue
ĠA pr
Ðµ Ð»
Ġwr ite
urop e
ĠS c
ri end
ir a
Ġesp ecially
H TML
w here
or por
Ġw y
Ġm a
ĠC opyright
ĠG ener
Ġpre vent
Ġdescrib ed
Ġvers ions
I T
P l
Ì ±
Ġl i
Ġ2 5
ĠF ile
pt ion
ud s
à¤ ¨
Ġenviron ment
èª ŀ
t ers
re ement
it ing
un i
Ġ× ķ
Ġz u
Ġdif f
Ġrel ations
z a
Î ½
Ø º
Ġt ree
ur y
ĠØ ¹
ĠSp ec
Ġcontain s
Ġdelet ed
ĠMicro soft
M A
a ff
is dict
Ġb ar
à¸ £
Ġte ch
Ġlat est
Ġben ef
A t
Ġs chool
Ġw ords
il it
Ġde al
Ġad opt
Ġset tings
ÅĽ ci
a ign
Ġs ites
Ġst ructure
à¸ §
Ġme as
Ġrem ove
' m
m ost
Ġm em
im ate
st ract
Ġper iod
Ġmat ter
Ġav oid
Ġcour t
U ser
g es
n ov
Ġ Ø§
an u
Ġn at
ĠT H
à¸ µ
ãĥ ª
Ġexp ect
Ġproblem s
E N
ic it
Ġm obile
ĠC ent
oc s
erm s
Ġbrow sers
Ġ ,
Ġh ome
ir c
ap e
av or
Ġ[ [
Ġorig in
Ġappro ach
atter y
P h
ð Ĳ
Ġ Ñĥ
Ġo cc
ãĤ ¯
Ñģ ÐºÐ¸
Ġz a
ear n
Ġupd ate
Ã ´
Ġt imes
Ġs olution
ĠT V
op p
ĠE dit
end er
à¤ ķ
Ġpub lish
Ġprof ile
Ġstr ong
u ed
Ġt urn
Ġf ar
ĠW indows
ãĤ £
ãĥ ĥ
Ġag ree
let ion
Ġdat abase
T ime
Ġs ent
Ġs ort
Ġf our
Ġb i
Ġad apt
Ġch all
ove red
Ġupd ates
Ġlear ning
l ig
å Ń
Ġs up
Ġun less
Ġj oin
Ġag ent
ĠÙħ ÙĨ
Ġobject s
Ġ um
Ġp arent
Ġm illion
os ition
ill s
end ing
Ġapp ropriate
Ġass emb
Ġread ing
Ġpolic ies
Ġcompl iance
Ġparamet ers
b ol
ar ter
Ġal ert
res p
Ġsc anning
ys is
ĠMedia Wiki
ellig ence
c ont
Ġ í
in o
Ġh ig
Ġar bit
ost ed
ãģ¦ ãģĦ
Ġann oun
C C
m l
Ġ x
Ġy et
Ġst ring
Ġtr ue
Ġinst itut
Ad d
ĠCour t
b a
h ors
Ó ©
ì Ĺ
on se
Ġp ast
te e
Ð² Ð°
Ġreg ist
Ġeas ily
a us
Ã ²
Ġnot e
iv ing
ĠO b
ĠJ une
Ġlook ing
Ġexpl ain
Ġassoci ated
Ġs am
ic ult
il es
Ġcom es
um p
Ø§ Ùħ
Ġmark et
ĠEn ter
z en
re l
Ġc ar
ĠD o
áĢ Ń
à¦ ¨
Ġbel ieve
Ġalgorith m
e o
e le
Ñ ĺ
å ¤
an ish
ĠA ss
Ð½ Ñĭ
Ġany one
Ġsub st
Ġoper ation
IR ED
? ?
Ø ²
Ġ Ú©
Ġn avig
if t
Ġal tern
Ġex act
Ġrequ ires
Ġpart y
Ġcopyright ed
Ġgener ally
Ġphot o
Ġfeed back
Ġjur isdict
c ent
g ress
t i
ou se
ly ing
ist ic
à¤ ¤
ÙĬ Ø©
Ġlong er
I S
i et
j ek
Î µ
Ġ :
Ġ ß
Ġs yntax
al if
Ð´ Ð°
ãģķ ãĤĮ
Ã «
Ñ Ħ
× Ŀ
ë Ĭ
er o
Ġe arly
ĠW hat
à¦ ¤
Ġreg ul
Ġvirt ual
ĠApr il
2 8
al f
Ġb attery
Ġg ot
nd er
ĠE urope
Ġcont ract
ãĥ ©
Ġident ify
Ar ray
con om
Ġnorm al
P lease
ce ll
Ġspec ified
ĠØ§ÙĦ Ø
Ġcustom ers
Ġintern al
Ġsepar ate
Ġoffic ial
2 00
E n
g ener
o very
is ter
Ġis n
os ing
ĠP ublic
ĠB u
ĠJ uly
Ġmod els
dit ions
enc ies
6 0
Ġa way
Ġw a
Ġd z
ĠD OM
ĠG erm
ĠL aw
ĠE m
Ġem b
Ġcorre ct
à¼ ĭ
, "
Ä į
en ing
Ġre ference
áĢ ±
à¦ ®
Ġrep rodu
ĠV er
Ġam ong
Ġstud ents
Ġbehav ior
p ret
re g
Ġd in
Ġd ial
Ġth reat
ĠS m
Ġas p
Ġ2 1
Ġhow ever
Ġsim ply
ĠSe pt
4 9
it ions
as ing
ĠT erms
ub ator
à¸ ±
Ġloc ation
ĠAm eric
Ġlay out
D L
Õ ¡
Ġt ab
he ck
Ġf aster
ad u
out h
Ġint ended
Ġsupport s
ëĬ Ķ
× ¢
en n
Ġp ath
Ġm ember
Ġm ention
ĠS he
Ð» Ð¸
ruct ions
Ġshare d
Ġeff ective
ĠCl oud
S o
d own
n ame
Ġw ord
Ġm er
om en
Ġv an
ra w
Ġ1 00
um ber
Ġbu g
ĠAr t
Ġlicens ed
Ġcon ditions
ĠP olic
Ð° Ðº
à¸ ĩ
Ġun s
Ġhelp s
ãĥ³ ãĥ
Ġrece ive
7 0
è ¦
Ġst ore
ĠM e
Ġphot os
çĶ ¨
Ab out
M edia
ì ł
Ġto t
Ġde cl
Ġpr z
Ġrec ord
Ġdevelop er
Ã¼ r
Ġvis it
Ġworkflow s
at ory
ot ify
ĠA pache
ĠM arch
and ing
ãĤ ¢
ãĤ ¦
Ġab ility
Ġdo ing
Ġenc our
Ġdid n
ĠLe vel
ĠP ar
Ġag ents
Ġtechn ologies
A nd
Ä ģ
Ġ ve
Ġd ed
à¤ ¸
ign ed
eb ru
ific ations
Ġlist s
arb uds
ìĿ ´
ĠProt ection
z yst
ì Ħ
ac ji
áĢ Ĳ
à¦ ¯
ans l
×Ļ× Ķ
×ķ× ¨
ãĥ¼ ãĥ
Ġinf ring
ĠSo ftware
ëĭ ¤
ĠSept ember
Ġc op
le y
pl ore
um b
The se
ĠWik i
Ġexam ples
Ġmin ut
) :
Ġo d
Ġus age
el come
ĠF r
Ġ× ¢
Ġpart ies
Ġsupport ed
Ġallow ed
Ġplatform s
ĠAd v
Ġarch itect
clus ive
Ġspeak ers
anu ary
O U
d ent
å ľ
Ġ Ã©
Ġm o
Ġe ver
à¸ ¥
áĢ Ģ
Ġmonth s
Ġdra ft
k u
m ium
Ġt em
ĠS ome
ĠD NS
à¸ Ĺ
ill a
Ġqu ot
ru ction
Ġdec isions
Ġexpl icit
ĠWork ing
Ġappl ies
part y
× §
he nt
Ġth ing
ĠU K
ĠV is
Ġsc reen
Ġout side
Ġà¤ ķ
Ġtop ics
Ġgu ide
Ġreport ing
Ġupload ed
Ġpop ular
Ġide a
rast ructure
- -
U S
s on
Û ģ
Ġs ide
Ġc al
Ġb it
ĠC o
Ðµ Ðº
clud ing
Ġweb sites
Ġindust ry
c her
Û Ĵ
Ġc ur
el p
ãģ Ĥ
Ġ2 4
Ġab stract
Ġman age
Ġset up
L ist
P U
h ib
h ana
Ã ¥
le ge
ĠB r
ĠB usiness
à¤ Ĥ
Ġen h
ĠAnd roid
2 1
c ul
Ġm ind
ac ity
ĠP er
ect ions
Ġ202 2
Ġ202 3
Ġact ivity
g round
Å Ħ
le g
Ġn g
ĠA ug
ĠI P
ub e
à¸ ¢
Ġle ft
ide os
Ñģ Ðº
à° °
Ġprob ably
ĠTe am
ĠP al
qu est
ĠB y
ĠL ua
ĠJ anuary
Ġcre ation
Ġcl ose
à¥ ĭ
Ġbec om
ĠDe velop
Ġbro ad
Ġc ross
Ġw orth
Ġf ast
id er
áĢ ¸
ie f
Ġass ist
Ġresp onse
Ġtas ks
sel ves
3 5
l ock
Ġp ress
Ġb ad
op s
ĠÐ ³
Ð¾ ÑĤ
ful ly
Ġcommun ities
Ġtit le
I C
N o
i Äħ
k l
z Äħ
Ġc r
Ġn ie
Ġ202 1
Ġinter pret
Ġ5 0
Ġexper ien
Comm its
Ġupd ated
resp ond
2 9
l im
l ight
Ġf ul
al id
Ġd rive
Ġh ol
ĠC ons
ik el
Ġcomp et
Ġ201 2
Ġprovid ing
Ġmethod s
Ġfre qu
ĠStud io
O R
W ith
] .
ê ³
Ġ il
Ġf avor
Ġm al
Ġy a
ot el
Ðµ Ð¼
Ġcomp at
ĠSt ring
Ġsc he
Ġph ys
Ġeff ic
ĠÂ §
Ġ %
Ġt ell
Ġs em
Ġs elf
is es
Ġun ique
ĠO ur
à° Ĥ
×Ļ× §
Ġev al
Ã³ n
Ġdevelop ed
esp ace
Ġoper ating
Ġinit ial
B u
Ġe in
ĠI D
ĠM ich
ĠÐ Ĵ
Ġ× Ľ
Ġadd ing
Ġcl ient
sp ec
Ġintern ational
Ġindividual s
clus ion
opp ing
R ec
h a
y ch
× Ĺ
Ġf all
Ġin nov
ĠS ystem
ĠS ony
Ġde ploy
áĢ Ļ
à¤ ¯
Ġacc ur
Ġ202 0
Ġinst ance
Ġrun ning
Ø³ Øª
Ġrele ases
Ġá İ
Ġconst ruct
Ġtag s
Ġappl ied
ĠAf ric
Ġrelations hip
d ed
n et
ç ī
ì ļ
Ġl oss
os ure
ip s
Ġany thing
Ġrec ent
Ġcontribut e
Ġeas ier
Ġargu ment
ĠInd ones
Ġess ential
A ll
I nd
M an
a Äĩ
e ople
l ist
Æ °
Ġs ources
Ġw atch
Ġm iss
Ġy ang
ad ing
Ġpro per
Ġst y
ir m
Ġpart ners
Ġaut hors
Ġreg ular
Ġfun ctions
ef ined
ward s
Ġrele ased
Ġconcern s
E O
G ener
Ġp o
Ġo m
Ġb oard
Ġm ag
Ġl iter
im ent
id ence
if f
og rap
ĠK altura
Ġinst ructions
ÑĨ Ð¸
Ġrece ived
Ġanal ysis
h t
à ¶
ì ŀ
re me
Ġs ize
it ation
Ġp i
Ġe arbuds
ig en
Ġex ternal
ĠB Y
Ġsh aring
Ð¾ Ðº
Ñĥ ÑĢ
Ñĥ Ñģ
Ġaccess ibility
Ġopt im
Ġprofessional s
ä½ ľ
Ġdeli ver
A L
A M
B e
C l
O T
im a
ow ered
ĠW IRED
ĠM usic
à¸ Ħ
ÑĤ Ð¸
Ġtra ining
Ġins ights
3 9
e v
l ier
o ice
s k
á ģ
at ives
Ġs at
is on
Ġn ative
Ġsh ÉĽ
Ġcre d
Ġno ise
ĠX ML
Ġcor respond
àŃ į
Ġmean ing
Ġprin c
Ġsaf e
Ġactiv ities
c ast
d ate
Ġp od
Ġre ach
Ġg e
Ġst ates
Ġ× ĳ
Ġ× Ķ
Ã³ ÅĤ
Ġedit ors
ym bol
ĠÑ ĩ
ĠWh ile
Ġemploy ees
Ġlab el
ĠJava Script
Ġnat ural
O B
Ñ Ĺ
ĠD ocs
ĠF ree
Ġad vert
ens or
Ġj e
Ġnam ed
Ġlibr ary
TT P
2 7
A ut
U se
f ree
Ġa ch
pp ed
ure d
ãĤ Ĥ
Ġar ray
ãģ® ãĥ
Ġcontain ing
B est
D ata
S P
b ook
r ics
Ġs ale
Ġl ove
ort s
à° ¨
à¬ ¿
Ġget ting
Ġoper ations
ãģĻ ãĤĭ
Ġperform s
Ġshow s
istr ation
' d
c os
w ith
y e
qu ire
ĠWik im
ne y
Ġbl og
Ġconfig uration
Ġmail ing
1 00
i ents
at ic
or ial
Ġm it
Ġm om
as c
ers hip
Ġpro gress
ĠF it
xt ens
Ġcons ent
Ġam ount
Ġcult ure
9 5
f r
p a
Ġ ÙĬ
Ġc irc
ut sch
ag er
ãģ ĭ
ra f
ra ft
Ġr ange
ĠSt andard
Ġtrans fer
Ġload ing
eder al
ĠPolic y
I s
b re
b ar
j s
u uni
× Ķ×
Ġf ace
Ġm id
Ġg ives
Ð° Ð¹
ĠB est
ãĤ ¿
Ø§ Ø
Ð½ Ð¾
gr ade
×Ļ× ł
ĠSp otify
Ġro le
Ġconn ection
Ġsomet imes
Ġdelet ion
ffic ient
wh ich
T e
à ·
in ate
Ġ2 2
ĠÐ ļ
Ġsc ope
ry pt
Ġbu y
Ġatt empt
Ġgener ation
Ġown er
ĠAPI s
Ġpract ices
Ġrespons ible
S e
T op
T ext
o le
Ã £
å Ĭ
iv al
Ġ× Ļ
ĠJ ust
Ġwho le
tic le
Ġbre ak
Ġdiff icult
S ome
b r
in st
Ġm ode
Ġl ack
Ġh im
Ġfor ward
Ð° Ð¼
Ġ2 3
ĠComm it
Ġloc ale
Ġcontin ue
ĠSer ver
Ġhig her
j ust
n own
t y
Î »
Ï ģ
Û ķ
á ī
Ġp ers
is i
ion e
Ġbe gin
ĠG hana
ĠF ebru
ok e
ĠPro gram
Ġrel i
Ġrem ote
áº £
Ġinf rastructure
Ġparamet er
Ġpropos al
wit ch
ĠÙģ ÙĬ
alif orn
w ord
z er
è ¡
Ġt er
Ġs ense
es tern
Ġm ax
ĠA v
st r
Ġst ay
um n
Ġcomm ercial
Ġpart s
Ġthem selves
ìĹ Ĳ
Ġminut es
aliforn ia
g g
r ant
× ¡
Ġo pport
Ġm is
ĠA ust
oc ks
ĠD ay
pl ace
se e
lic ens
Ġchang ed
Ġedit ing
Ġperm issions
Ġfr am
Ã¢ n
Ġcour se
Ġaff ili
ĠWikip edi
N ew
Ġind epend
íķ ľ
Ġpract ice
Ġpat tern
Ġeduc ation
ĠAcc ount
ĠAug ust
( )
C omp
D N
ing u
Ġv ideos
Ġint el
du c
Ġme eting
yp ed
ĠPro f
Ġph one
ah i
ĠAl so
Ġfunction ality
Ġpict ure
A S
O L
m er
n h
s uch
á ĭ
Ġs i
Ġb ase
Ġb ring
ro s
pp ing
ĠD irect
ive ly
um er
Ġhe alth
Ġbut ton
Ġ201 7
Ġob lig
kt op
Ġtransl ation
Ġfit ness
Ġtot al
e ature
p are
× ŀ
á Ĥ
á Ĭ
en ior
Ġc am
Ġb o
ãĤ ī
Ġsh all
Ġout put
ä¸ Ń
Ġcollabor ation
3 1
3 6
Ã ¬
Ġd r
Ġst aff
ĠO ther
Ñģ ÑĮ
Ġlist ed
Ġinv olved
Ġvari ety
Ġreport s
Ġbas is
Ġclaim s
Õ¡ Õ
D o
c le
× Ĵ
Ġ ÑĢ
Ġ ðŁ
Ġs om
Ġp ush
Ġw sp
Ġcon vers
Ġit er
ĠM embers
ãģ Ĩ
se qu
à¸ ļ
ĠE dition
Ġcol lection
áº ¿
ential s
Ġref lect
oz illa
Ġdefin ition
cos ystem
u ck
ß Ĭ
ë ¥
it or
Ġc apt
al se
Ġde als
Ġde lete
Ġcom ments
ĠD ocument
Ġch art
ĠN ational
ÙĦ Ùī
Ñĥ Ð»
Ġprocess es
Ġpur ch
Ġvis ual
Ġins ide
Wh y
ĠEdit or
ĠFebru ary
B y
P R
o oth
p i
w ide
à ´
é Ģ
Ī ëĭ¤
Ġs ol
Ġd an
Ġd ig
us ed
Ġl ight
ĠS up
ce mber
ĠW atch
ay u
áĢ Ķ
Ġtr ad
Ġj ak
Ġpr int
Ġro z
eg o
Ġphot ograp
Ġmult i
Ġfl ag
4 4
Y our
t est
Ġb ÉĽ
ch an
ĠT emplate
Ġal t
ĠD is
à¸ ª
à¸ ´
Ð¸ ÑĢ
Ġint elligence
Ġqu ite
Ġì ŀ
ny ch
Ġexcept ion
O ther
j oy
ì ĸ
Ġs z
en ge
Ġc ard
al am
Ġo h
Ġd riv
Ġd rop
Ġde b
ec ause
Ġse ems
Ġen force
ative ly
Ġlicens ing
ìĿ ĺ
Ġ×© ×ľ
Ġimm edi
ĠWeek ly
yped Array
L earn
O ne
O pen
Ġp an
Ġm ar
Ġn ar
ce ed
op er
ĠE C
Ġaut hent
aj Äħ
Ġaccount s
à± ģ
Ġmess ages
Ġinit i
Ġsubs cription
Ġcompon ents
4 5
B ook
Ġs oci
ou ch
Ġm ed
ĠC OM
ĠS et
ĠP a
Ġwh ose
form ance
Ð¸ Ð»
Ġcomp il
Ġup on
Ġaccess ible
Ġob tain
Ġcustom er
Ġtrack ing
Ġphotograph s
ĠInc ubator
ðĲ Į
G o
P D
c omp
t Ã³
Ã º
Ù ¾
Ġb a
Ġm ap
ĠA R
ut e
ãģ £
Ġex c
ist or
Ġcont ents
ãĤ Ī
Ġse en
Ġhe t
à¦ ¬
Ð¸ ÐºÐ¸
Ġj our
Ġj ud
à° ²
ĠSt at
á» ¥
Ġeff ect
Ġerr ors
Ġstream ing
Loc ale
T M
k an
p age
in ary
er ies
Ġp ain
ic ations
ĠS ection
Ġcomm and
Ġsim pl
Ġmark eting
eng th
Ġoriginal ity
Ġguid elines
Ġstrateg y
Ġcamp aign
Ġintrodu ced
A m
V E
l t
Ø ¶
ç ´
Ġt u
an ks
Ġb al
ow e
Ġv on
ĠM ore
ĠL ist
ne j
Ġallow ing
Ġstart ing
Ġcontribut ors
Ġthough t
anc ial
Ġfam ily
oh n
ĠnyÉĽ la
×Ļ×ķ ×ª
ĠVis ual
Ġfram ework
A C
I ON
d es
f ect
y d
à ²
id en
Ġal most
Ġ2 6
ĠD igital
ĠÐ Ĳ
Ġhe ld
ib ly
Ġpre fer
Ġfil m
ĠAr ch
Ġcateg or
ĠTH E
Ġannoun ced
ĠEnter prise
f ig
ig an
ĠI E
ac i
iz es
Ġind ex
hen s
Ġatt ack
Ġbec ame
ify ing
Ġcontribut ions
Ġattribut ion
Ġquick ly
w iki
z i
Ġt w
Ġt aking
or ter
Ġs ave
Ġw ish
am m
ĠS im
ĠS af
ãģ Ŀ
à¤ ®
ĠO T
Ġab s
à¬ ¾
Ġì ł
ĠDe cember
Ġregard ing
Ġcamp us
ĠIndones ia
6 5
g en
Ġ =
he ad
Ġp ick
Ġb ott
ĠC alifornia
un te
ag ram
Ġg ame
ul ation
ac ing
Ġit em
Ġk tÃ³
rom e
áĢ ķ
one y
ph one
Ġ201 1
Ġinf lu
Ġcontrol s
Ġsk ills
Ġdeterm ine
Ġef fort
ĠEurope an
ĠCommit tee
áĤ ı
E dit
O P
t a
Ï ĥ
in cluding
Ġf riend
Ġd oub
le ment
Ġl ib
Ġe cosystem
am s
Ġg en
Ġst re
Ġnot es
Ð¸ Ðº
Ġne g
ateg or
Ġ201 9
Ġact ions
Ġform er
wo od
eg al
Ġtest s
Ð¿ ÐµÐ´
lick r
Ġbas ic
Ġhapp en
ĠMod ule
Ġwik is
" )
" .[
Ø «
Ġa im
ic on
ãģ į
ess ion
Ġare a
ib u
ap an
Ġcall s
Ã¶ r
Ġcharact ers
ëĭ Īëĭ¤
Ġestab lished
C an
C ode
P L
Q u
d o
n al
s et
ì Ĭ
ì ľ
Ġ ill
Ġ Ñı
Ġ Åĭ
re w
Ġs av
Ġin sp
Ġre n
Ġpro jek
Ġsc ale
ĠRe view
Ġform s
Ġext ra
Ġresp ect
Ġadv anced
ĠEx change
ãģ§ ãģĻ
Ġder iv
Ġprin ciples
Ġsumm ary
Ġansw er
3 2
3 8
T ube
Ä ĥ
on ym
at al
Ġw er
Ġf ore
ic a
if ier
à¤ ²
ĠâĢ ĺ
Ð½ Ñı
Ġen abled
ĠJ ud
ÙĪ Ø±
Ġset ting
Ġdif ference
Ġ200 8
Ġfr ont
Ñĩ Ð°
Ġcover ing
Ġengine ering
ĠOb ject
Ġemb ed
e al
Ã ±
Ġ Õ
Ġf inal
Ġf alse
ĠA nt
ol s
ac hed
Ġde g
Ġyour self
à¬ °
ĠApp lic
Ġtyp ically
Ġpass ed
Ġpropert ies
Ġcy ber
ĠDat en
ĠMal ay
è¦ ģ
l og
r z
× Ł
id es
Ġ( "
op h
ĠG et
à¸ ¹
ãĤ Ń
Ð¸ Ð¼
Ġtrans form
Ġloc ated
emb ang
áº ¡
Ġlead ing
Ġcrit ical
Ġmen u
Ġchild ren
Ġalert s
L et
M ore
è Ģ
Ġ Ãł
in y
is p
Ġm ac
ĠS ch
ĠS outh
ad ata
el ine
ĠM et
ĠSt r
ĠØ ³
Ð´ Ñĭ
Ġrel oad
á» ĩ
ä¸ Ģ
Ġpoint s
Ġpol it
ĠCom ments
Ġremov ed
c ks
d i
y ond
Ġp osit
Ġf low
un ch
ak an
ĠH ere
à¦ ²
Ġch ann
Ġdis put
Ġme chan
Ġinc orpor
Ġaud it
ĠPl atform
Ġide as
Ġtrust ed
Î º
å Ľ
he ther
Ġs w
Ġc ore
Ġp osition
Ġn ational
Ġe en
ab ling
ĠP ort
Ġcom fort
Ġare as
ĠJ im
Ġpublic ation
ict ion
Ġla pt
Ġ200 9
ven ue
Ġinterest ed
Ġcontin u
ĠCol lege
Ġrepl ace
Ġmove ment
Ġenter prise
Ġphotograp her
c ut
æ ³
æ Ī
æ Ĺ
Ġa ware
Ġs n
Ġs yn
Ġto ok
ĠS ub
Ġpro ced
à¤ ª
Ðµ Ð·
ich t
act ion
Ġstat ement
Å¼ e
Ġconn ected
Ġded icated
Ġful ly
P osted
y w
Ġ ir
Ġs ections
Ġb and
as i
ĠS ince
ur u
Ġ2 8
ĠG lobal
In tern
ateg ories
Ġ201 8
Ġact ual
Ġbeh ind
Ġask ed
Ġpower ful
Cont act
Ġhard ware
ĠMan agement
S c
n en
ì §
Ġw id
Ġf ive
us ing
Ġe lect
Ġv end
Ġk ar
à¦ ķ
Ġcre ative
Ġgener ate
Ġmin or
Ġser ies
Ġmaterial s
Ġstud ent
Ġchall eng
ĠAust ral
j ÄĻ
k nown
m ark
Ò £
Ú ¾
Ġc overed
ro te
Ġh arm
am ing
id ed
ĠW estern
ul i
od ing
ĠL a
Ġen joy
×ķ× ł
Ġcol or
ĠØ§ÙĦ Øª
Ġì Ŀ
Ġ200 7
Ġcho ice
ĠÂ «
Ġintegr ation
Ġguid ance
Ġrestrict ions
Ġredu ce
Ġexact ly
ĠGerm an
Ġeval u
ìĸ ´
M I
å ł
Ġp or
Ġp om
Ġd as
Ġd la
Ġb er
ch t
res hold
ap ter
ov ers
Ġexp ected
Ġ6 0
Ġcap abilities
Ġappear s
Ġarchitect ure
K it
× ¦
è ¯
Ġa f
or a
il ing
ĠP R
ĠR ights
ĠO R
Ġcomp letion
à° ķ
ÙĪ ÙĨ
Ġrec ently
use um
à¹ Ħ
à¥ ¤
ĠAr ray
Ġlevel s
Ġvol unte
ĠEC MA
6 7
P ress
s i
à ¯
æ Ŀ
ë ¡
Ġ ãĥ
Ġ ÙĨ
Ġ Ã¨
Ĩ Ĵ
er ia
Ġs us
Ġs ell
it able
Ġe conom
et her
ig u
ĠC heck
Ġpro p
Ġr ac
up s
Ø§ Ø¨
Ġgo al
ian o
Ġass ign
Ġpar a
Ġparticular ly
Wh ile
ĠAg reement
Ġinfring ement
3 3
C arbonite
P art
d a
he mat
Ġp us
Ġis t
ac hes
Ġst ored
od s
Ġr ate
ĠE v
ous ly
Ġserv ers
pro f
Ġresp ond
ĠÑ į
ãĥ¼ ãĤ
Ar t
itut e
à¸²à¸ £
Ġdetail ed
ren ch
R el
c ode
d ata
j Äħ
m y
s u
u ff
in ux
or ient
ed om
Ġf lex
un a
ĠI T
ore s
Ġun a
áĢ Ħ
Ġcl ar
aw a
Ġspecific ations
urre ncy
ĠNew s
ĠAccess ibility
è¨ Ģ
Ġaltern ative
ĠMich igan
ĠOT RS
H ere
n u
Ã ¹
Ĥ ¬
Ġd est
Ġb ud
Ġn as
om in
Ġth us
ĠS w
ãģ ı
Ð° Ð·
qu e
à¸ Ľ
ĠH ead
ens es
Ġ× ł
Ġqu ery
Ġnum bers
ĠTe ch
Ġlog o
ĠTr ans
íķ ĺ
ĠIntern ational
Ġimprove ments
ĠRep ort
Ġpay ment
ìļ ©
Ġmax im
D is
F DL
U h
Ġ ]
Ġs low
en ces
ro l
as ons
Ġl ower
im b
ĠA ny
Ġg ain
ĠM on
Ġex erc
ist ics
ĠB ar
ĠF ran
Ġun ivers
ĠR oad
à¦ ¼
Ġper fect
Ġcol umn
Ġtest ed
." [
Ġdem on
Ġbr and
Ġnam espace
ĠAmeric an
Ġphys ical
spec ific
O r
l ands
n ect
v i
Ġt im
Ġc ame
is l
Ġl es
ĠS ie
Ġbe yond
ĠI h
ad get
lic h
ÑĤ Ð°
Ġj est
Ġres olution
clud ed
Ø¯ ÙĬ
ĠÑ ĺ
ĠDe v
Ġadv oc
ÅĽ Äĩ
Ġlar ger
Ġrend er
Ġprom ot
Ð¾Ð³ Ð¾
Ġtrademark s
Ġsubm it
ĠCent er
áĢŃ áĢ¯
3 7
R C
y cz
at i
Ġb an
ol ving
Ġare n
ĠU p
Ġpl ans
Ġso on
Ġres ource
Ġcre ators
Ġfe es
ĠÂ »
go ing
Ġlaun ched
3 4
8 0
C om
S ub
c a
k y
å ¹
Ġc aus
Ġw rote
ic ks
if ies
ĠP C
Ġse qu
áĢ ŀ
Ġsh own
ens ive
all ery
ok en
Ġem p
Ġà¦ ª
Wik imedia
Ġmom ent
duc ation
b ut
r or
Ö Ģ
ß ¬
Ġ Ùĥ
in ch
as y
am ple
ĠM ar
ĠM ost
ĠF rom
Ġk l
ust ain
ãĥ ĩ
ult y
à° ¯
ific ial
av en
Ġman ual
Ġpre tt
Ġdef ine
Ġmark ed
ÛĮ Ú
Ġimplement ed
Ġview s
Ġdist in
iÄĻ ki
Ġbas a
à¸« à¸¡
ĠSm art
M e
V G
a ur
× ĳ×
Ġa uf
Ġs il
en e
es e
Ġd am
Ġd iv
Ġm i
ĠA c
Ġst ory
ĠG r
end s
Ġ× §
Ġpl us
Ġpl ug
ĠIt s
Ġed ition
lect ual
ident ial
Ġ19 7
Ġent ry
Ġchar ge
A ny
E ng
r ist
Ġ ign
re qu
Ġf a
Ġan g
id ents
Ġon es
Ġk om
Ġcomp ared
Ñĥ Ðº
Ġpublic ations
Ġimplement ations
Ġadv ant
Ġfr ame
Ġtransl ations
Ġrepresent ation
Ġgiv ing
Ġspeak er
Ġear lier
EN T
Ã£ o
4 7
D es
U p
c ie
p is
å ¾
ç Ľ
Ġf oot
ĠC amp
ĠS on
ĠS chool
ĠÐ ľ
Ġr is
ĠE ven
Ø§ Ø¯
Ġwork ed
ĠIn ter
Ġper cent
Ġthere fore
Ġmod ify
Ñĸ Ð½
Ġspecific ally
ÃŃ a
Ġop in
åı ¯
Ġcent ral
Ġprim ary
ĠAN C
Ġasp ects
Ġmention ed
Ġhol der
quire ments
ĠFit bit
orient ed
e it
ç Ĳ
re ens
is f
Ġb ody
Ġbe gan
pp er
ĠF l
ant ic
Ġrep o
Ġpl aced
Ñĥ Ð½
à¹ ģ
ï¿½ï¿½ ï¿½
ĠYou Tube
Ġ200 1
Ġbusiness es
How ever
Sp anish
ĠPr in
ifi able
Ġmem ory
Ġreli able
Ġprett y
I A
c o
f ix
r s
æ ¬
æ Į
Ġ ou
Ġan im
Ġd ost
Ġb ahasa
ic ode
Ġe th
ig e
ud e
ust r
áĢ ²
Ġsu fficient
th at
Ġsc ience
âĢĿ ,
ĠPro cess
Ġset s
Ġback ground
oth ing
Ar ch
Ġrepl aced
Ġdra w
Ġtry ing
Ġfin ancial
åĲ Ī
Ġdeli very
ifi ers
Ġenh ance
M E
U nder
m ail
z ÄĻ
Ã ®
Ġw or
Ġl ed
ot o
ĠA re
ag en
Ġg ames
Ġde ep
Ġ2 7
Ġcan cell
ĠE d
ĠU s
Ġab y
ors k
Ġgener ated
Ġro b
Ø¨ Ø±
ĠAd d
ili ar
yn am
Ġextens ions
Ġbran ches
Ġdisplay ed
Ġreason able
Ġincre ase
Ġtas k
Ġcost s
ãģ¦ãģĦ ãģ¾ãģĻ
Ġbecom es
b ani
c re
Ġ ÙĤ
Ġc ause
Ġn ature
ĠS u
ad o
ir ing
ill ing
ĠJ ohn
Ġlist ening
Ġover all
Re ferences
Ġco ord
Ġ200 6
ĠY ork
ìĿ Ħ
Ġá ı
Ġdepend s
CA OB
Ġsty les
R es
W S
on a
Ġh ar
ĠA fter
id i
el t
ĠM y
ĠM ove
ir us
ĠÐ ¡
ĠB oard
Ġk ont
ĠO ut
Ð¾ Ñģ
Ġim pl
ens us
ĠN ow
Ðº Ñĸ
Ġcre dit
Ġimp ress
Ġform al
Ġmark up
Ġdiscuss ions
Ġcle an
Ġhost ed
ĠAb out
ĠOr gan
Ġsit uation
unt u
ĠÐ· Ð°
Ġarbit r
rel ated
6 6
A cc
f in
r im
ä ¾
é ģ
Ġs ymbol
Ġf ig
Ġm oney
Ġre asons
im ately
ĠS upport
ĠI ll
Ġv ot
og raf
Ġpublic ly
ild ing
Ġfollow s
Ġver ify
Ġmet adata
Ġbl ack
ĠÑ Ħ
ĠGo vern
Ġsens itive
Ġcle arly
Ġpropos ed
Ð¾Ð³ ÑĢÐ°
Ġfont s
gener ation
1 99
A D
B L
C ategory
X ML
l aw
p e
Ã µ
Ó Ģ
an o
Ġf an
Ġf ra
Ġm il
Ġm ission
as k
ĠI S
ce ler
Ġst ruct
ĠÐ ¶
Ð¸ ÑĤ
riv en
ĠCh ar
ines e
Re ad
ĠÑ Ī
Ġadv ice
Ġreport ed
Ùĩ Ø§
Ġdistribut ed
Ġentire ly
Ġprevious ly
F rom
s erv
Ð ¡
Õ ¥
Ġd ro
Ġm aa
am ples
id ata
ol low
ad es
ad min
Ġor d
el ayu
ĠJ ira
Ġqu al
Ġ201 4
Ġcons ult
á» Ļ
olog ical
Ġread y
Ġlook s
ĠCont ribut
Ġ×Ķ× ŀ×
Cont ents
ĠPre mium
Ġsong s
Ġconsist ent
Ġcompon ent
Ġcorrespond ing
Ġcam era
A G
C opyright
F S
b o
s a
Ð Ĳ
å Ł
Ġt reat
or zyst
Ġc overs
Ġm erg
ĠC L
st er
ĠP at
ĠE U
Ġad just
res ents
ĠN ote
Ġint eg
Ġfree ly
Ġanal y
Ġrecomm ended
Ã§ a
Ġdistribut ion
Ġexpert s
yt ics
Ġgrant ed
Ġassemb ly
Ġimmedi ately
A ccess
B ut
l o
Î ·
æ ı
æ ĺ
Ġw ater
ic ious
ar ant
il a
ĠA ng
ĠT ime
el a
ab a
ra v
ĠÐ ĳ
à¸ ķ
and a
ĠH TTP
ere n
Ġtr ade
ind ing
ach ines
Ġsc al
ition al
Ġsub t
own load
Ġdef ines
Ġmod ule
ĠAr ticle
Ġac adem
ĠAt t
Ġrules et
oun ter
Ġstud y
ĠBl ack
ĠTechn ical
Time Format
Ġjurisdict ion
Ġthreat s
4 1
M ost
P re
T emplate
Ï Ģ
Ġt a
ro om
ĠS ci
for d
à¸ °
ard s
ÙĦ ÙĬ
Ġcl ients
Ġpr acy
Ñĭ Ð½
Ġmark s
à± Ģ
áĥ Ĳ
áĥ ĺ
Ġbook s
no ÅĽci
Ġexpert ise
Ġcod es
ĠCan ada
Ġwide ly
ĠGener al
Ġsup er
Top ics
Ġderiv ative
J oin
S H
i ans
° Ģ
Â ¶
Ġt ick
Ġs witch
Ġc ele
Ġm ix
Ġre use
us i
Ġl ines
Ġl ength
Ġh ope
ag a
ad d
ĠD epend
áĢ ½
ail y
ĠIn v
Ġcre ates
Ġprodu ce
Ġget s
Ġprovid er
Ġinc ident
Ġreview s
Ġcommun ication
Ġlab els
ãģĵ ãģ¨
Ġpict ures
ĠDes ign
Ġexplicit ly
Ġbud get
4 6
C P
P N
P ods
i ver
Î ¬
æ ķ
re hens
or al
us ter
Ġl o
ve y
Ġh istor
ol it
Ġst ack
op edia
ãĥ Ĺ
à¦ ª
Ð¾ Ð±
Ġcomp ly
ber g
Ġag re
à¨ ¾
Ã¡ c
Ġret ain
Ġ7 0
Ġclass es
Ġaff ect
Ġinstall ed
Int l
Ġbenef it
Ġregist ered
Ġfavor ite
pare ncy
C ap
l ov
w er
w eb
Ġd ire
il ter
Ġh on
ĠC ustom
st ruct
ĠM DN
Ð° ÑĪ
ĠE ach
ãĥ ¬
ãĥ Ń
Ġen ables
Ġso le
ĠØ ¥
Ġem erg
ĠFor mat
ĠCh rome
Ġtra vel
ĠÑģ ÑĤ
ĠOpen Text
ĠPr ime
Cre ative
à¸ģ à¸²à¸£
Ġinstitut ions
Ġcirc um
ì§ Ģ
ë¡ ľ
) ;
4 8
A fter
a ÅĤ
d riven
m en
s ub
Ġ ur
er ce
at ar
or ig
is ation
Ġm ass
Ġth reshold
ĠS ign
ĠW est
Ġnot hing
à¸ ·
ãĤ ³
ĠN etwork
Ġcomp ar
ribut ion
Ġpre c
ÙĬ Ø±
ook s
Ġfir ms
Ġinst ances
Ġreg istration
Ġwant ed
Ġbeh alf
Pro t
æľ ¬
Ġold er
Ġarbit ration
Ġprinc iple
prof it
çĲ Ĩ
M y
O ver
m i
p o
u i
é ĸ
Ġ Ò
Ġa ge
on om
re et
er ve
as o
Ġh otel
ĠA ud
ut h
ĠW ord
ĠM ozilla
ĠD on
ra in
ĠF lickr
Ġun it
ĠL inux
Ġrep resents
ru pt
Ã© n
int s
Ġag o
Ġcons ensus
Ġreg ister
Ġbl ocks
Ġresult ing
ĠPl ay
Ġhand le
ä½ ¿
å® ļ
Ġmatch ing
adu ate
ë¥ ¼
Ġdemon str
C ry
l ar
m ore
t ype
å ¼
æ ł
Ġf Ã¼r
un ities
ĠM at
ĠM ax
oc ol
ĠD ep
ĠÐ ¢
Ġwe ar
ĠE ducation
Ġse em
ĠO F
Ðµ Ñģ
ink s
Ġfollow ed
ĠWeb site
Ġprovid ers
Ġche cks
Ġhigh light
Ġaddress es
Ġtransl ate
Ġfocus ed
Ġintegr ated
Ġnetwork s
Ġparticip ants
×ĳ ×¨
Ġdz iÄĻki
pis ode
T ype
h o
m on
on i
Ġw in
Ġw alk
ĠS ing
st ra
Ġbe z
ĠI N
Ġcon duct
est s
ĠB row
ĠR el
iv il
um a
ant ly
cl ass
Ġen cy
Ġpl aces
Ġcomm ons
Ġpub lis
ĠFor m
Ġass um
à§ ģ
Ġmet rics
Ġopt ional
êł ¤
app ing
ĠEx plore
Ġpost er
Ġlar gest
Ġcap ital
Ġexpress ion
ĠAir Pods
Ġansw ers
Ġut il
Ġvulner ability
PU B
Ġmiss ing
ĠshÉĽ li
Ġprojek t
% .
S et
T hat
V al
b untu
p ack
Î ¼
Ð ļ
Ġ Ê»
Ġs le
Ġo vers
Ġm ere
ig r
ĠI dent
id elines
ul a
Ġst op
Ġst and
Ġ201 3
Ġ201 5
Ġhead er
Ġpar ser
let ed
Ġext ent
ever Cry
pr ac
olut e
ĠÑ ħ
Ġcontro ll
Ġstrateg ic
Ġadopt ion
Ġexperien ces
Ġadvert ising
æ³ ķ
5 5
] ,
m b
å °
ç ®
Ġf ine
ĠT im
ĠP CAOB
Ġle ave
Ġcomm its
Ġsee k
Ñĭ Ð»
Ġmat hemat
Ġà¤ ¸
Ġ200 5
Ġperm itted
oun sel
Ġauthor ity
ĠMod el
Ġjurisdict ions
Ġaccur ate
Ġach ieve
Ġmechan ism
Ġcancell ation
ĠMove ment
C L
P S
d le
s ource
u z
z n
Ø °
Ġc ou
Ġb es
om at
Ġth row
ut orial
un ction
ĠD i
ĠO K
Ġsh opping
omm end
all s
Ġne arly
Ġman ner
×ķ× ľ
ĠUn ivers
Ġchang ing
ÄĻ p
êł £
Ġrend ering
App le
Ġsit u
IN G
Media Wiki
Ġcal cul
Ġeffic ient
ãĤŃ ãĥ
Ġadvant age
Ġris ks
O V
W ork
i ri
m od
p ass
z h
Õ «
is ory
im al
ĠS earch
ĠT am
ĠW ill
oc al
ĠD ec
Ġwh ite
Ġnot ed
ĠF rench
ill ions
áĢ ®
ãĥ ķ
Ð¸ Ñģ
Ã© d
ĠIt al
Ġrec ip
Ġinst ruction
Ġfil ters
Ġind ic
Ġass ess
Ġleg isl
Ġend point
ĠÐ½ Ðµ
ä½ ĵ
Th omson
Ġann ual
Ġhapp y
Ġcrit ic
Ġpa per
Ġsuggest ions
ino is
ĠØ§ÙĦØ £
ìĦ ľ
åľ ¨
ĠPal embang
alid ator
ht ml
Ġsat isf
Ġsoci ety
P r
o ff
s hip
u it
Â »
Ð Ĵ
Ø ¸
ĠW ar
ri an
ub lish
pt y
ĠO ver
Ð¸ Ð·
Ġcomp rehens
clud e
à¹ ĥ
Ġmat ters
air s
ãĥ¼ ãĥ«
Ġworld wide
ĠTr ust
Ġlead ers
Ġfam iliar
Ġrecogn ition
ĠOff ice
Ġbenef its
Ġmer ge
Æ° á»
licens ed
åł ´
B Y
i y
o om
Ï ħ
ç Ļ
ê µ
Ġa ir
re ci
Ġan t
ĠS EC
ĠT ur
id den
op ed
ec urity
for ts
Ġr ank
ĠE l
ĠJ apan
ple te
×Ļ× ¨
ĠPro pert
Ġsec ret
Ġexp and
Ġro oms
St ring
Ġrest ore
crib e
ĠCon f
Ġens uring
Ġscript s
Ġpa id
Ġcult ural
Ġremain s
Ġeduc ational
ĠAdv anced
Ġpattern s
ĠStat ement
0 1
0 4
D isc
M F
M S
N umber
c ia
o j
Å ¾
ì ĭ
Ġt ouch
Ġs ix
Ġs ales
it ch
Ġp ow
Ġm icro
Ġn h
Ġn ice
Ġn ode
Ġh y
ut ation
ĠI RS
Ġcon ven
ver age
ĠD isc
iv en
ĠU lt
ãĥ ĳ
Ġch at
Ðµ ÑĢÐ°
ib er
ĠV ideo
Ġcre ator
Ġsc ient
Ġdes ktop
Ġpre d
ĠPro duct
Ġart ik
Ġthrough out
Ġpar sing
Ġconf irm
ĠBl og
Web root
ĠRec ommend
Ġviol ation
now ledge
à¸µ à¹Ī
Ġreprodu ction
Ð¸ÐºÐ¸ Ð¿ÐµÐ´
ĠìĿ ´
5 9
6 4
A Q
U sing
h r
h am
n ic
t ed
à ª
æ ī
Ġc it
is ch
Ġin i
Ġl ang
ĠS enior
ow ania
st ream
ĠT op
ĠP e
Ð° Ð²
qu are
ĠG e
ĠG FDL
à° ¡
Ġpr ze
ĠUn icode
Ġprodu ction
Ġrequest ed
Ġà¤ ¹
Ġhigh ly
Ġattribut es
Ġdescrib e
Ġparticip ate
Ġconnect ions
Tr ans
Ġincre asing
Ġfund ament
ãĥª ãĥ¼
?? ??
Ġdecl ar
I I
L e
M any
P er
n ap
p owered
w ords
Ï Ĥ
ĥ ½
Ī ĺ
Ġto k
Ġre ferences
im i
ig ible
Ġon going
Ġpro hib
Ð° Ð´
Ġ2 9
Ġk m
Ġr out
Ġhe ar
Ġle ts
ĠSt e
Ġgo als
Ġthan ks
Ġserv ed
Ġhead ing
Ġro ll
Ġlink ed
Ġstat ements
Ġser ve
ĠAd dition
ä¸ Ĭ
}} .
Ġformat s
iqu es
ãģĹ ãģ¦
Ġmembers hip
Ġgreat er
ĠMac Book
ĠÙĦ Øº
Ġmeas ures
Ġindepend ent
ç´ ł
Ġexerc ise
ĠIll inois
H elp
U R
d y
l ines
m ap
Î ¯
re c
Ġan onym
Ġb ank
Ġto ken
Ġn or
ĠC EO
un k
ĠS ource
ow aÄĩ
ĠT ool
Ġg l
Ġal though
ub y
ĠB it
ĠF irst
Ġk i
Ġk it
ĠH igh
ãĤ °
Ġse x
ãĥ ĸ
Ġsh ik
ire less
Ġ201 0
Ġro ad
Ġdirect ory
ny a
Ġcompl ain
Ġhapp ens
Ġfre edom
åŃ ¸
Ġproper ly
Ø§Ø ¦
Ġsus p
5 7
e ks
r ang
Ġ ÑĢÐ°
Ŀ ¼
Ġt en
at an
al d
Ġm ga
Ġl ate
ve al
ĠS VG
id s
ĠP ark
Ġex clusive
um s
áĢ Ľ
à¦ ·
Ġsp oken
ie j
ĠIn f
Ġup grade
Ġag reement
Ġind icate
ĠCh inese
Ð³ ÑĬ
Ġrun s
Ġselect ed
Th ank
Ġcover age
ĠRes earch
Ġcomplete ly
ãĤĬ ãģ¾ãģĻ
Ġchall enge
Ġnavig ate
Ġcompat ible
Ġcred entials
6 9
P ar
S im
m d
y ar
Õ ¶
Õ ¸
Ù ĭ
â °
æ §
è §
in n
Ġp ip
al le
Ġd ynam
Ġm ot
Ġn aj
Ġh ab
ol a
ĠM any
ĠF eature
ĠL og
Ð¾ Ð·
ĠN OT
ie ce
×Ļ× ľ
ell ing
Ùħ Ø¬
ÅĤ ug
Ġgener ic
Ġleg it
Ġperm an
Ġvari able
Ġexist s
Ġtransl ated
ĠEng ine
Ex plore
Ġbel ong
Ġparticip ation
ä» ¥
Cre ate
Ġtre nd
ĠSpec ial
Ph one
Ġsubst ant
ĠAfric a
Ġpurch ase
ÛĮÚ º
L a
f ol
g ment
g reg
s im
ê ²
Ġ icon
Ġo pp
ic ed
le an
Ġn ight
Ġre ly
us ion
Ġl it
Ġh a
Ġh o
et t
ĠT ext
Ġcon dition
Ġv s
Ġv ac
ĠL ibr
art ment
ĠR E
ĠE xtens
Ġapp reci
th on
ite ly
ell o
ĠØ ¬
Ġspec ify
ÙĬ ÙĨ
Ġrec overy
âĢĿ .
Ġoff ice
Ġmod ified
ĠCh ina
ien cy
Ġautom ated
ograph y
vent ion
ke y
Ġcrit eria
Ġcod ing
ĠProject s
Ġlaun ch
æĹ ¥
Ġchalleng es
I L
M od
N U
P C
S ince
b an
u v
u able
ß «
å Į
æ İ
Ġ Ã¼
on ly
at o
Ġs ch
it i
Ġf ran
Ġm us
Ġof fere
ĠC ar
Ġg round
Ġv ert
ri e
ĠÐ »
Ġr ound
ĠThe n
ĠU I
ĠU sers
ĠO per
ÑĤ Ð¾
ĠSt art
ĠØ Ń
ÙĬ ÙĦ
ÙĪ ÙĦ
Ġprodu kt
Ġent ity
Ġam b
Ġconf lic
Ġdec ide
Ġtra ffic
Ġshow ing
Ġcour ts
Ġdepend ing
ĠWh oop
uj Äħ
Ġinvest ig
Ġjob s
PA C
Ġestab lish
Ġwar rant
Ġpublish ing
×Ļ×§ ×Ļ×
Ġbott om
ĠÅĭ ÉĶ
Ð¾Ð³ÑĢÐ° Ð¼
Ġinteg er
áĥĲ áĥ
Ġcomprehens ive
A P
A ss
D ate
E ach
S ON
g l
l s
w i
Ã Ł
æ Ķ
ç §
è ®
Ġ row
Ġt ables
Ġp en
ic ip
Ġin line
ĠT ax
ia ÅĤ
ĠD em
ĠG l
ill ed
ĠH elp
Ġad m
Ġch ance
ĠØ ¯
Ġgo es
Ġem pty
ah a
Ġmost ly
Ġprocess ed
oss ible
ãĥ¼ ãĤ¹
ĠInt el
Ġtrack er
Ġdem and
Ġequ ival
ĠCap X
ĠCap acity
Ġschool s
Ġcop ies
zÄħ dz
Ġoblig ations
Ġwsp Ã³ÅĤ
Ġwer den
Ġembed ded
Ġtok ens
Ġoffere d
4 2
T S
W elcome
u ge
w ik
Ñ ī
Ñ ŀ
á į
å į
è ĩ
Ġ ult
it a
Ġp un
is hed
Ġm ak
ol o
Ġv ary
Ġv ote
Ġv oice
Ġal le
od es
ĠD av
Ġk an
à¸ Ĥ
áĢ ľ
Ġhe art
à¦ Ĥ
Ġsh ape
Ġ× ĸ
Ġpart ner
In st
Ġman ually
Ġed its
Ġcons umer
Ġdif ferences
Ġ200 4
Ġstr ings
Ġser ious
Ġautom ation
Ġvis ible
Ġlog ic
Ġpract ical
Ġprom pt
Ġtri al
Ġred irect
ãĥ¼ãĥ ī
ãģĤ ãĤĭ
Ġstre ng
ĠPrin ciples
Ġency cl
8 6
f l
u et
â ĨĴ
ç «
Ġw ent
Ġf ederal
ing ton
ar zÄħdz
Ġl ost
ĠI ss
ag i
Ġg i
ay a
if e
ĠM us
od ay
Ġwe eks
ĠB as
ĠE le
end e
Ðµ Ð²
Ġacc ident
ĠV iew
ĠComm on
Ġpr zy
ĠRe ad
ĠRe quirements
Ñĭ Ðº
ari o
Ġcor por
à¦° à¦
Ġformat ting
Ġexcept ions
Ġpres ident
Ġdistribut e
Ġenviron ments
à© Ģ
Sec ond
Ġrefer red
Ġef forts
Ã´ ng
Ġiter ation
Ġmaxim um
6 8
O ps
l in
n ia
Ñ ĳ
Ö Ĥ
on ical
Ġs ustain
Ġp ra
Ġw s
Ġd ot
Ġth ous
Ġh it
ĠA ff
ĠT aj
ĠM in
ĠM ah
ĠP res
ĠP ower
her n
est ed
ĠD raft
Ġun e
ĠH er
ĠO nt
Ð¸ Ð¹
ĠN orth
Ġ× ŀ
Ðµ Ð¹
Ġtr ig
ĠWik idata
Ã© e
Ġpr ac
Ġlist en
Ġhelp ful
Ġà¤ ª
Ġvis ibility
Ġra re
Ġunderstand ing
Ø® Ø¯
Ġsuccess ful
ĠDevelop ment
Ġlapt op
Ġcircum st
) .[
N ow
a res
Ġc ut
Ġp as
ed n
ic ing
Ġre venue
Ġl and
am less
ĠC y
ĠC ity
ĠC ases
ab ot
ĠM ary
ĠM achine
ter m
ĠB ose
ĠB rit
Ġk o
ãĤ ·
res h
Ġsp am
Ġ× ª
ail ability
à° ª
ĠComm ission
ook ing
Ġatt ention
ug u
Ġresp ective
Ġà¦ ķ
Ø³ ÛĮ
Ġdepend encies
à¸Ń à¸ĩ
Ġmov ed
Ġbehav i
ĠÐ¿ÑĢ Ð¾Ð³ÑĢÐ°Ð¼
Ġmeas ure
Ġfrequ ency
Ġrelationship s
Ġsom ew
Ġìŀ Ī
Ġdeg ree
Ġacadem ic
5 1
V iew
c ol
n s
n on
p ress
Û ĩ
Ġw omen
Ġn u
il os
et ary
ch a
id ing
Ġcom ing
Ð° Ñģ
ist ry
ĠD ate
ĠB ro
ĠH ar
iz able
ÙĦ Ùħ
Ġsc reens
à¹ į
ĠÐ¿ ÑĢÐ°
Ġà¦ ¬
ĠAd min
Ġins ert
ãģ§ ãģ¯
itut ion
On ce
Ġlay er
DF S
Ġprim arily
bers ecurity
ĠFr ance
Ġcompat ibility
Ġinnov ation
Ġroz w
Ġjour nal
Ġdisput e
ãĥĩ ãĤ£
Ġmil est
ĠWord Press
Å į
Ð Ł
ä ¿
é «
Ġc urrency
us er
Ġl oop
Ġh um
et z
ut z
id a
ag n
ĠW G
ac je
os en
ĠF in
ak a
ĠE r
Ð¸ ÑģÑĤ
Ġz e
ĠSt reet
Ġval uable
Ġmod ules
Ġob vious
Ġexp ensive
Ġinter oper
à§ ĭ
Ġdisc ount
Ġinv ite
Ġund efined
Åĭ a
com ing
Ġbackup s
Ġautomat ic
ĠOn ce
Ãª n
Ġnorm ally
Ġequ al
Ġfac ilit
ĠInst ead
Tr ansl
Ġes c
Ġadministr ators
ĠTechn ology
ê³ ¼
Ø³Øª Ø®Ø¯
Ġopport unities
ä¸Ń æĸĩ
åł´ åĲĪ
ĠUlt ra
7 9
R ep
v ision
w rit
è ĥ½
re ach
or re
Ġs on
Ġh ands
ĠC all
Ġcon ference
Ġal s
ec z
ĠB er
ĠL FS
ĠR uss
Ġsu ite
Ð» Ñı
ĠV alidator
Ġme ant
Ġag encies
Ġoff ering
Ġprogram m
Ã¤ r
áº ¥
Ġpost s
Ġreturn ed
ĠAn al
ars h
Ġrespons ibility
Ġvol ume
Ġtri ed
Î¹ Îº
Ġtre ated
Ġadopt ed
Ġbegin ning
Ġintel lectual
ĠktÃ³ re
à¯ į
Acc ording
åŁ º
Ġlegit imate
ãĥĩãĤ£ ãĤ¢
5 6
C oll
D K
D R
M eta
P eople
T ypedArray
V er
t hen
Å º
Ġt al
Ġc z
om a
Ġth read
Ġh alf
ĠC ore
un ately
ĠT wo
os h
her s
ec k
à¤ µ
Ġen abling
Ġrep e
ind ex
ĠV i
Ġadd s
ĠØ ´
Ġman aging
ĠUn ion
Ġhelp ing
ten ance
Ġmon it
Ġlog os
Ġimpro ved
Ġconst ra
Ġà° µ
Ex ternal
Ġarch ive
Ġnecess arily
ES T
ĠComp any
Ġorigin ally
Ġencour age
è¡ Į
Go ogle
Ġill ustr
Intern et
8 8
F i
F urther
b all
m et
Ä ±
Ì į
Ñ Ķ
Ø £
ë ¦
Ġ ÅĽ
Ġo der
Ġb ot
ar ge
Ġe ine
ch ron
ĠS am
ow anie
ur ch
ĠM ember
ri ver
ĠP age
ĠB en
ĠB ig
ĠB el
ak t
ĠE nd
Ġpre ferences
Ġi Phone
ced ing
arb eit
ung en
Ġident ified
Ġfind ing
Ġadv ance
Ã¶ n
Ġinterest ing
ï¿½ï¿½ï¿½ï¿½ ï¿½ï¿½ï¿½ï¿½
ãģĹ ãģ¾ãģĻ
Ġfact ors
Ġemploy ee
æľ ī
Ġmajor ity
Ġgrow ing
Ġpack age
ĠAss oci
ãĤ¦ ãĤ£
Ġencour aged
Ġabs olute
èĢ ħ
Ġchann el
Ġdistin ct
Val ue
Ġcircumst ances
B M
R em
a eo
c il
e ep
f irst
h Ã¢
r ag
y ear
© çĶ¨
å ¸
å Ĩ
Ġb illion
Ġm ent
Ġm ut
il arly
Ġfor ce
am ed
id ate
ay er
em ini
Ġal one
ãģ ł
ĠP ost
ĠG lasses
ĠB iden
Ġk h
Ġr ul
Ġcont rib
à¤ ¦
Ġsh ap
Ġte le
angu ages
×Ļ× ĺ
Ġcl osed
Ġman ip
×ķ× ¡
Ġunder lying
Ġinter view
ĠSp anish
Ġown ers
Ġext reme
Ar q
por ary
Ġê ²
Ġgrow th
ĠÄĳ á»
riend ly
Ġfra ud
ĠTaj ik
E very
T est
å ½
Ġa pl
in ter
er ous
at ible
Ġs ession
Ġd aily
Ġto ld
us ers
Ġl ub
Ġg it
el le
ab ases
Ġst able
ãģ ¤
oc ab
ĠG raph
pl ing
ĠF ol
Ġk u
à¸ ¸
ĠE very
ãĤ »
à¤ ¹
ĠO S
ack ing
Ġ× Ĺ
Ġj o
ail s
à° ¤
à° Ĺ
ĠSt ate
ual ity
Ġtrans parency
ĠWeb Kit
Ġprodu ced
Ġac celer
cript ions
ĠDe utsch
Ġident ifier
Ġexper iment
Ġá Ĭ
ĠCon duct
ĠSh are
Ġenc oding
ĠPl us
Ġlet ter
Ġfix es
Ġfix ed
Ġinteract ive
Ġlibr aries
kl ore
Ġauthent ication
ãģĿ ãģ®
ĠECMA Script
ĠIh re
uet ooth
5 2
E xtens
I dent
J ames
L at
O ption
R E
Y es
a Ã±
k ed
y ek
å º
å ĩ
å ī
æ ¨
Ġp atch
Ġf ot
Ġd ash
im in
ĠS ave
ce l
ith ub
Ġst uff
ĠÐ Ŀ
ang es
ĠL at
ĠL ike
ĠU r
Ġsh i
à° ¦
Ġprov ision
Ġsub sequ
à¥ Ī
Å¼ y
Ġfound ation
com es
Ġhand ling
ãģĹ ãģŁ
Ġanal ytics
aut hor
Ġconfig ure
lu ence
Ġrestrict ed
ĠGu idelines
Ġconcept s
lim ited
Se lect
adget s
Eng lish
êµ Ń
F irefox
I P
L ic
a el
j et
k it
p op
w an
Ġa ward
Ġp iece
Ġw ir
Ġd Ã©
Ġb ed
Ġm achines
ar cher
et er
ĠS ur
Ġbe g
ol ves
Ġ( âĢľ
ĠW ide
Ġst ated
op ing
ĠM c
ri ef
ight ly
art h
og ether
Ġ20 00
Ġse amless
áĢ Ŀ
à¦ Ĺ
Ð¾ Ð¶
Ġsp aces
Ðµ Ð³
Ø± Ø¨
Ġsupport ing
ivers e
ix el
Ġro ot
Ġread ers
Ġcontribut ing
ĠHe alth
Wh o
Ġinstall ation
Ġwr ong
ãĤ¤ ãĥ«
Cre ating
Ġinvest ment
Sec urity
Ġcomb ination
Ġvulner abilities
Ġli ability
Ġnavig ation
çī Ī
Ġopport unity
Ġtrad itional
Ġvolunte er
ĠSon os
ĠSci ence
5 3
F in
m o
m edia
o e
v as
á ¹
ç ¤
Ħ ãĥªãĥ¼
Ġp oz
Ġy uuni
ĠA L
Ġg lob
ab e
ur ance
Ġst ra
ĠM ult
ĠP ract
ect or
ĠB ecause
ĠF ederal
and om
à¤ Ĺ
Ġsp ent
Ġdis p
Ġrec ords
Ġart ikel
Ġtrans formation
Ġi OS
Ġover view
Ġdesign s
Ġì Ĥ¬
eg u
arb y
Ġdec ided
Ġvis ion
Ġsens ors
Ġra p
Ġinterest s
ĠAct ions
Sp ec
ĠBl uetooth
Ġdescrib es
ĠCol l
Ġplan ning
Ġfac ilities
Ġmov ing
Ġregard less
Ġrecommend ations
ĠSpec ification
áĢ± áĢ¬
Ġenforce ment
Ġiniti ative
ĠStr ateg
Ġcomfort able
ĠEv ents
ĠRecommend ation
0 2
4 3
6 3
N everCry
O b
d em
d efined
g n
w in
y c
y thon
¯ ¸
× ĸ
× ļ
Ġc rypt
Ġw indow
is a
Ġo k
Ġd ates
Ġy i
et h
ĠA S
ĠT est
ri ed
ew s
Ġr ich
ĠL ive
ãĥ Ĩ
Ġsp ot
Ġacc ord
Ġany where
Ġcl uster
yp es
Ġaut o
Ġpre mium
Ġsub c
Ġag ency
ĠØ§ÙĦ Ø¹
Ġrem ember
ÛĮ Ø§
Ġgu arant
und red
edi ans
Ġeng agement
vers e
Ġminim um
ĠSec ond
ann ed
Ġpass word
Ġkeep ing
enc ji
Ġcollect ed
Ġsmall er
Ġsignificant ly
Ġhold s
ĠGerm any
iÄħ z
ĠWikim ania
Arch ive
Ġequival ent
5 8
6 1
9 7
A ct
C heck
G u
c hen
e ur
h aps
l NeverCry
n ed
Ð ľ
ê °Ģ
Ġ Ñĸ
Ġa y
he st
ar ian
om an
Ġl ives
Ġex change
se ud
ĠÐ ł
ĠF rid
à¸ Ī
à¸ ŀ
ĠL earn
ĠL egal
ĠR em
áĢ Ĵ
ĠO pt
Ø§ Ø³
Ġapp eal
ep h
à° µ
Ðº Ñĥ
Ġrel atively
á» į
ĠTe le
omet imes
Ġpost ed
Ġcomput ing
Ġimpro ving
Ġappro ved
Ġrepresent ed
fort unately
Ãª s
Ġmov ie
Ġtit les
Ġdiscl osure
Ġwy k
Ġasp ect
US T
ĠAfric an
Ġintel ig
ĠAustral ia
Ġsle ep
Ġlegisl ation
ĠFrid ay
8 3
O W
T ag
b l
d oor
f aces
f riendly
g ent
y l
É Ļ
æ Ľ
ç ¶
Ġ *
Ġ Ùĩ
Ġ Ûģ
Ġt ur
Ġc ity
al o
Ġo g
il der
ĠS em
ĠM ag
ãģ ĳ
Ġde ad
Ġun c
ĠH all
ãĤ ¸
iz er
iz ations
ãĥ »
Ð¸ Ñĩ
Ġtr uly
ÑĤ ÑĮ
Ġup gr
ell a
Ġsc en
Ñĥ Ð²
Ġ3 1
Äħ cz
Ġreg ion
Ġown ed
Ġrequire ment
Ġread ings
Ġstart s
Ġsign ed
Ġreview ed
Ġeff ects
à½ ²
Ġappro x
ĠÐ¼ Ð¾Ð²
Ġrese archer
Ġbel ie
Ġhost ing
ãĥ« ãĥ¼ãĥ«
Ġexpress ed
ĠInst agram
ĠRec ord
ĠAcc ording
Ġvulner able
ĠSup reme
è¯ Ń
Ġthous ands
9 0
B T
L T
c ore
m p
r ite
s v
¤ ë
å Ģ
é ¡
Ġ ãģ®
re cht
en z
it age
Ġc atch
Ġf ood
Ġy e
ĠS uch
st e
Ġg ave
ĠW n
ul ate
Ġst ation
Ġit al
ĠM ed
ĠM ad
ĠP eople
Ġex cell
ĠD an
ra z
ang ing
Ġun like
ort ium
ĠH is
ĠO f
Ġad s
Ġsp orts
ĠN e
Ġ× ¤
Ġpre dict
te xt
ÙĪ Ùħ
Ġag greg
Ġart ificial
à¹ Į
Ġrel ig
á» §
Ġcontribut or
ĠX M
Ġrules ets
Ġcomput ers
ograph ic
ÉĶ Åĭ
Ad dition
ĠÐ± Ð¾Ð»
Ġbr ings
ĠInst itute
Ġfin ally
Ġadministr ator
ĠAN D
Ġza Åĭ
Ġquot ation
ãģĭ ãĤī
Ġbal ance
zÄĻ dz
ĠIS O
F ac
H e
H istory
O f
P rivacy
R DF
S upport
l wood
ä ¼
å ¿
at en
Ġs old
Ġc art
Ġw elcome
Ġm edi
ent y
Ġl ik
Ġh undred
ĠA z
ĠC he
ĠS nap
ow ied
ĠI MI
id o
id th
ul u
ĠG emini
ra ch
ĠF ace
ĠL ab
Ġse ar
Ġse lection
áĢ ¹
ĠN othing
Ġ× ¡
omm ended
Ġcomp are
Ġcomp leted
Ġne ar
Ġqu ant
Ġz ero
ĠK ore
ru ce
ry ption
à¹ ĩ
rough t
Re quest
êł ŀ
Ġopen ed
ym i
eng g
Ġsound s
Ġdepend ency
Ġaff ected
port ant
äº º
Ġexecut ion
ĠCent ral
zen ia
Ġeffective ly
ĠWikim edians
ìľ ł
ĠJud aeo
æ¬ ¡
Ø¨Ø± ÙħØ¬
ĠDepend abot
orig inal
ĠExplore r
Ġaccord ance
lwood ward
S u
o ices
Ã ½
ç ¨
Ġ ?
Ġ áĥ
in v
Ġc ert
Ġb ound
Ġm ist
Ġre ached
Ġl as
ĠC am
ĠS k
ĠT ypedArray
Ġg ender
Ġcon vert
ĠG en
pt h
ĠE PUB
áĢ ģ
áĢ Ĥ
áĢ ļ
ĠN ame
Ġwork out
Ġdo ct
Ġwas n
Ġres il
Ġres erv
ĠV al
Ùħ Ø§
Ġcons um
Ġart work
à¹ Ĥ
ÅĤ o
Ġdevelop ing
Ġserv es
ĠØ§ÙĦ Ø±
ĠØ§ÙĦ Ø¬
Ġass ume
Ġinter pre
Ġac qu
Ġcustom ize
Ø¨ ÙĬ
Ġcopy ing
Ġrecogn ized
Ġfund ing
Ġalong side
Ġfilter ing
ãĥ© ãĤ¤
Ġcop ied
Ġmo Å¼
Ġbecom ing
Ġya É£
ĠProf essional
Ġren ew
Ġprop ri
Ġrac ism
5 4
7 6
A pache
C ustom
H ello
P F
P ort
U s
c itation
f s
l eng
z nej
© »
Ù ı
á ŀ
é ĥ
é ł
ê ©»
Ġ Å
Ġa w
Ġs pl
en ia
Ġo ch
Ġb und
Ġin her
Ġn om
Ġre ject
Ġh ack
et ch
ĠS QL
st yle
ĠT ype
ad i
el d
em in
ate ver
Ġst age
Ð° ÑĢÐ°
oc r
ĠD omain
ak er
Ġun known
end ar
áĢ ¡
à¤ ¡
ĠU N
ĠU buntu
à¦ ¸
Ð¸ Ñħ
Ġch ain
ĠJ e
Ġres olve
à° ®
Ġcomm itted
ĠSt orage
Ġimp ossible
Ġrel ation
Ġac k
ck et
Ð¿ ÑĢ
ĠÐ¿ Ð¾
urrent ly
zy b
Ġeng ines
Ġcheck ing
Ġgovern ance
ĠOn line
Ġcollect ive
Ġunt uk
Ġrend ere
Ġcent er
Ġsay ing
ãģĵ ãģ®
Ġdiscl ose
ðĲ į
ãĤ¦ ãĤ
Ġconvers ations
aci Ã³n
ìĬ ¤
Ġposit ive
èĩ ª
ĠPres ident
ãĤ¦ãĤ£ ãĤŃãĥ
7 5
8 4
A PI
A tt
B ahasa
I F
N ext
W hether
b en
c ase
h ow
h osted
á Į
è ¿
Ġ ãģ¨
Ġs aw
Ġc ell
Ġf ans
Ġn ang
ĠS che
ĠS yntax
ĠS ensor
ad ow
ik ip
ac c
Ġst ories
os es
ri a
ĠP ay
ĠÐ ĺ
ak ers
à¸ Ĭ
ĠL ast
ĠU TC
Ġch osen
Ġsp ons
Ġar g
Ġne arby
Ñģ Ñı
ach ing
Ġz g
Ġz n
ance ll
Ġart ists
×ķ× ©
ee ch
ĠCh ief
Ġ4 0
Ġext ended
Ġì ľ
Ġleg acy
ÛĮ Ú©
Ġinc red
oun cil
Ġupload er
à¸²à¸ ¡
Ġsearch ing
ĠCode QL
Ġkey board
Ġcollabor ate
ä» ¶
Ġassoci ate
Ġaccept ed
Ġêł ¨
Ġzu É£
ãĥĥ ãĤ¯
Ġcar ry
Ġregul atory
Ġbroad cast
ĠCons ortium
Ġmal icious
Rec ommended
Ġpers p
Ġchart s
Ġnar zÄĻdz
ĠApplic ations
Ġcontrib s
James lwoodward
S ystem
a e
h ol
l ers
v ersion
Ã »
æ ŀ
Ġ ãģ¯
Ġ ÏĦ
Ġt end
in c
or der
Ġb rought
ic he
ic her
et te
ĠW i
el low
ĠD R
ĠG ard
ens ka
Ġ× Ĵ
ĠâĢ ŀ
ap ore
×Ļ ×Ļ×Ŀ
act ions
Ġz m
Ġz one
Ġcre at
ĠComm un
ĠK ind
Ġfe els
Ġrel ative
ĠØ§ÙĦ ØŃ
á» ¯
á» ģ
Ġhelp ed
ĠCh apter
à§ Ģ
Ġent ertain
ĠSp ace
Ġleg ally
×¨ ×Ļ×Ŀ
min ute
Ã¡ n
Ġbuild s
Ġvari ables
Ġselect or
Ġbr ack
De v
Ġcommon ly
çĶ Ł
ram ework
Ġrecogn ize
Ġsupp ly
cont ent
Ġexplain ed
Ġassist ance
Ġeffic iency
igen ous
Ġdrop down
Ġdoub le
ìĬ µ
æĪ Ĳ
Ġflex ible
çĽ ®
ĠÃ¼ ber
ugu Ãªs
ĠAssoci ation
éĥ ¨
B C
R ed
T am
b rid
k ins
r is
Ð ł
ç ¾
Ġs wo
Ġs olve
Ġc Ã³
Ġp our
Ġan ch
Ġd ans
Ġd alam
Ġm aps
ent ure
Ġh uge
st rap
Ġpro x
Ġor az
Ġcon form
ac z
ĠM useum
ãģ Ľ
ĠP D
ĠP an
ir th
ess ions
ist ent
ĠD et
ĠD ie
ĠG ree
ra el
ĠÐ Ł
ĠF re
ĠL et
ĠR ich
ĠThe ir
Ġtr oub
Ġapp oint
Ġqu eries
Ġz ap
ĠSt yle
×Ļ× ¡
×Ļ× ĳ
ĠØ ±
Ġem ot
Ġed ge
Ġaccess or
à¥ ģ
à¬ ķ
Ġke pt
Ġro les
pr int
Ġproduct ivity
Ġstr ict
St art
ĠEx per
Ġdep ict
}} ,
Ġlocal es
ĠTr ump
Ġminim al
ĠGroup s
ĠÙĪ Ø§ÙĦ
Ġport ion
Ġrend ered
ä» £
oot strap
Ġsl ot
Ġpat ent
ĠPh ot
Ġsuggest ed
Ġpresent ation
ĠGu ide
Ġbig gest
ĠSer ies
oo lean
å¤ §
Ġbug s
Cl oud
Ġattack s
ĠGovern ment
Ġhistor ical
Ġtrend s
ĠLibr ary
Ġws zyst
ĠMary land
ĠFol klore
1 000
D on
D ef
F ree
F irst
L og
d ef
g ra
p arent
t z
u h
u w
Ï Į
ç »
Ġ ri
Ġa head
at u
Ġf ill
al ah
Ġd uration
Ġl ingu
Ġh ier
ĠC ult
ĠS il
ĠS ound
ol i
ãģ Ī
ĠG NU
Ġwe ight
ĠF AQ
Ġby pass
Ġcont rast
ant i
ÑĤ Ð¾ÑĢ
ap i
act ive
ph as
Ð² Ð¾
ne go
Ġloc ations
Ġver ified
Ġdisc over
Ġext end
Ġmin i
pro gram
Ġgr amm
ĠX HTML
Ġmon itor
Ġ×Ķ× Ĳ
ìĿ Ģ
Ġdomain s
Ġupload ing
ĠTr ansl
ÑĨ ÑĮ
Ġë ĭ
Ġcontin ues
anc ing
Ġscript ing
Ġ×Ĳ ×ª
Ġsaf ety
Ġdefin itely
Î¿ Ïħ
Ġstructure d
Ġexpect ations
ìł ľ
Ġdeploy ment
Ġpartners hip
Ġobtain ed
Ġpolit ical
Ġkom un
Ã§a is
æĺ ¯
Ð¸ÐºÐ¸Ð¿ÐµÐ´ Ð¸Ñı
ìĬµ ëĭĪëĭ¤
C H
D C
F C
W p
f e
m it
o ch
u el
w orld
z es
Ä ĵ
Å Ł
Ð ĳ
æ Ń
re m
Ġm igr
Ġe pisode
ĠA WS
Ġbe aut
ol id
Ġ( #
ab l
ul ary
ãģ °
ĠP ers
ĠP ol
ĠD ag
ĠÐ £
ĠÐ ĵ
ĠB ank
áĢ ¼
ĠU nder
Ø§ Ùģ
ĠN umber
ÑĢ Ñĥ
ult s
ind er
Ġz arzÄħdz
Ġmay be
×Ļ× Ł
Ð¼ Ð°
Ġph r
Ġcopyright s
Ġdif fer
Ġloc ally
Ġuser name
Ġro om
Ġdet ect
Ġcall back
Ġund ers
mat ter
áº Ń
Ġbrow sing
ä¸ ĭ
AT ION
Ġeng age
Ġemail s
ĠSec ure
Pro ject
áı į
ĠOn ly
Ġblock ed
Ġpropos als
Ġexpress ions
Ġfac ulty
isc o
Ġê ³
Ġcod ec
Ġcare er
Ġpotential ly
ĠØ¹ ÙĦÙī
Ġturn ed
Äį ina
Ġexperien ced
Ġmal ware
Bu ild
Ġprinc ip
ĠPa per
Ġhappen ed
è¦ģ ç´ł
à¸¹ à¹Ī
Ġvend ors
å¹ ´
Ġmathemat ical
ublish ing
ĠFeature s
ocab ulary
aÃ± ol
K altura
W here
b ase
g y
m m
â ±
å ¯
æ Ģ
é Ļ
he et
or ama
Ġs Äħ
Ġd iverse
ut er
est ions
ĠD el
Ġk am
Ġby t
ĠH ouse
ĠH otel
ĠR ing
iv irus
áĢ ¶
áĢ ·
ãĥ ŀ
lic ense
so le
Ġdis abled
ĠV PN
ĠØ ¦
Ġrec over
Ã³ b
cept ion
Ã¡ s
ä¸ į
ath on
Ġexpl ore
Comm unity
ĠInt egr
Ġauthor ized
Ġimport ance
Ġappro val
Ġlead s
Ġlead ership
Ġcontin ued
æĸ ¹
ĠRep ublic
Ġsumm ar
ĠØ£ ÙĨ
Ġti Åĭ
ÑģÐºÐ¸ Ð¹
Ñĺ Ð°
Ġdial og
Ġinterpret ed
Ġmag az
ĠWikipedi as
Ġpan el
Ġfriend s
ollow ing
ĠAddition ally
ĠÙĦØº Ø§Øª
ĠBrit ish
Ġstra ight
Ġcreat ivity
L anguage
P ublic
S E
c ions
g al
i u
u an
v a
¸ °
ß ²
Į Ģ
Ĵ Į
Ġt utorial
Ġa k
Ġa verage
Ġm illions
Ġh idden
ĠS ocial
ĠS quare
Ġg ather
os p
est on
and al
Ġsu ff
Ø§ Ø¹
Ġhe av
Ġim ag
Ġsp end
ens ion
Ġrep orter
ff ee
ong o
ink ing
ÙĬ Ùĥ
Ġart ist
×ķ× ¤
Ġob s
ĠCh arter
ÄĻ zy
Ġke ys
esp aces
Ġown ership
Ġmet a
let ter
Ġì Īĺ
Ġwant s
Ġaccount ing
Ã¤ n
ĠÙħ Ø¹
Ġrest ored
Ġexpl an
Ġdist ingu
Ġcho ices
à½ Ĥ
ĠQ uality
It al
Ex ample
Ġ8 0
Ġevent ually
Ġsur round
Ġcap acity
Cont ent
Ġsecond s
Ġstrateg ies
Ġsuggest ion
Ġsaf egu
Ġvalid ation
Ġaccept able
ĠMark et
Ġmeet ings
Ġwa it
Ġcorrect ly
Ġpath s
Ġuns igned
Ġvend or
ĠHead phone
Ġmere ly
Ġsubstant ial
Ġìľ Ħ
" ).
B ecause
H TTP
L egal
Ã ¸
Å ³
å ĴĮ
ç Ń
é ĩ
Ġ ÅĤ
ı Ħ
Ġc á»§
Ġb rief
Ġre veal
ĠT ra
ay out
em on
ul ated
ĠM aster
ĠÐ ¥
ang an
Ġk p
ĠL L
ĠR DF
ĠE nt
ãĤ ĵ
à¦ Ł
Ð¸ ÐºÐ°
Ġsh ift
ib ilities
Ġle aving
ast ic
In ter
Ġatt end
ĠAr ab
Ġà¤ ®
Ġ5 7
pro ve
Ġworks h
Ġend ors
Ġexpl o
Ġcontain ed
Ġaud ience
Ġel igible
not es
Wik ip
ÑĨ Ð°
Ġconst ruction
Ad min
Ġmonth ly
Ġask ing
Ġguid es
ãĤ¹ ãĤ¿
Ġtalk ing
no ÅĽÄĩ
à© ĩ
Ġdefin itions
ĠAN Y
comm ercial
Ġannoun ce
Ġidentify ing
Ġfrequ ently
ìŀ ĳ
Te chn
Ġaffili ates
RC E
Ġsole ly
Ġcou ple
Ġanonym ous
alle l
æĹ¥ æľ¬
Ġmonit oring
Ġentertain ment
Ġcá»§ a
= "
C o
F ind
F ilter
L ua
O pt
c er
g i
l anguage
w idth
Ø ¦
à ¾
ë Ĳ
Ġs á»
Ġw ur
is er
Ġb ul
ic o
as ion
Ġn one
om as
ĠC red
ĠT O
ag ers
Ġg ap
âĢ Ĳ
Ġv en
ĠM elayu
ĠD ol
ĠF ramework
Ġk orzyst
ip er
ĠU sing
Ġsp read
Ð½ Ñĸ
ÙĦ Øº
ĠIn s
Ġres olved
Ġres idents
Ġdis s
ors hip
Ġsc ans
In c
Ġout comes
Ã© r
Ġrec ording
×ķ× §
Ġtrans ition
ov ed
esp ite
Re g
Ġdet ection
Ġ200 2
Ġconf idence
Ġmain tenance
Ġdirect ed
ĠEx pert
Ġfound ed
ili ates
Ġfr ames
Ġclick ing
Ġdat abases
Ġref ers
Ġthink ing
au gh
Ġ×ľ ×Ĳ
áĢ¬ áĤı
Ġsl ightly
ĠRes ources
Ġalgorith ms
itect ure
Ġdu pl
Ġsent ence
ĠAmeric a
ĠSystem s
áº¡ n
Des ign
struct or
ãĥķ ãĤ
Ã©d ia
ĠConf luence
ĠEngine ering
Ġdot ycz
Ġconstra ints
Option ally
0 7
9 8
B ack
D ownload
K ey
c all
c zy
i os
p ublic
u at
Ä ķ
Ð ¢
Ð ĵ
à ³
æ Ĭ
Ġa us
re p
re v
es ter
Ġp le
Ġw at
Ġf ire
Ġre feren
ĠC ouncil
ut ral
id d
ag s
Ġpro ceed
Ġv oor
ĠM ain
ĠM UST
ri or
ĠP ython
Ġnot ify
Ġnot ifications
ĠÐ µ
Ġr at
ĠR ed
ant ics
ĠO N
Ġsh ip
Ġ× ĵ
ÑĢ Ðµ
Ġle x
Ġint ention
his hing
Ġsc ore
Ġfol der
iss ues
Ġcol le
Ġorgan ized
à¨ °
Ġprof iles
Ġdi agram
Ġview ed
ĠCon nect
ĠAn n
Ġfocus able
Ġsur ve
Ġ×ľ ×Ķ×
àŃ ĩ
ffic ial
Ã§ Ã£o
Ġprom ote
Ġcontext s
Con ven
Al so
Ġcy cle
åĪ ©çĶ¨
Ġadministr ative
ĠzespoÅĤ y
Ġlimit ation
ãģ¦ãģĦ ãĤĭ
Ġinterpret ation
Ġconvers ation
ãĤĪ ãģĨ
Ġinflu ence
Ġsequ ence
Ġopin ion
ĠAtt ribution
å¼ ı
Disc over
Ġgramm ar
Ġdotycz Äħ
2 99
A A
E s
H i
R iver
S earch
T F
W H
d ated
e qu
o on
u ce
z b
è ĳ
Ġ id
it as
Ġp seud
Ġw al
Ġb ur
Ġl ose
Ġh ous
ĠC la
Ġg aming
Ġk on
ak i
ĠR ay
um ni
ie g
Ġdis able
Ġz ur
Ġcl one
Ġev idence
Ġpr ices
×ķ× ĳ
×ķ× Ł
Ġthem e
Ġfol d
empl ates
Ġrel ating
Ð³ Ð°
Ð· Ñĭ
Ġinv ok
20 26
Ġcontribut ed
Ġinf o
ìĿ ¼
ãģ§ ãģį
Ġtrack s
Ùĥ ÙĨ
Ġdem o
Ġcommun icate
An other
åĪ Ĩ
Ġeditor ial
Ġden gan
OU RCE
Ġmid dle
áº£ n
Ġframework s
ĠSaf ari
ĠProcess ing
Ġfig ure
áĥĺ áĥ
Cap X
ĠDep artment
Number Format
Ġfundament al
æ§ ĭ
Ġdynam ic
Ġvac u
Ġappreci ate
Ġmus ical
Ġscreens h
Ġhum ans
Ġresearcher s
+ +
B S
C r
G OL
I M
L D
L ike
P ages
b ury
b lock
i ant
k c
ç ½
é Ŀ
Ġ íķ
Ġt ail
Ġthe ory
it o
Ġp uuni
ing er
Ġd ies
Ġb inding
ic ework
om i
Ġl u
Ġl ands
Ġe ight
Ġh or
Ġh ot
ĠC ON
ĠC orpor
Ġcon vent
ur pose
ik an
ri j
ment al
ir it
ĠÐ ŀ
ĠB et
áĢ ³
áĢ ħ
à¤ ľ
Ø§ ÙĤ
Ġch a
Ġj u
à° Ł
Ġdis app
Ġz w
ĠSt ream
In formation
Ã© t
Ġpre fix
Ġcopyright able
ĠRe quest
Ġoff line
à¬ ¨
ĠØ§ÙĦ Ø¨Ø±ÙħØ¬
Ġexp ose
Øª ÙĪ
Ġver b
Ġdisc overy
Ġì ķ
az a
ĠInt elligence
ĠAl though
Ġdiscuss ed
ĠSh ow
à¸²à¸ ĩ
de velop
Ġrece iving
ĠMan ager
Ġshort cut
Ġrev ision
Ġocc ur
Ġ×¢ ×ľ
ĠProgram ming
Ġbring ing
Ġbo ost
alam an
Ġprefer red
Ġdoub t
Ġneg ative
Ġsav ed
ĠApplic ation
Ġkar im
Rel ated
Ġcele br
Ġrap id
Ġapprox imately
Ġexcell ent
ruce ID
Conven cions
èĳ Ĺ
B el
C ons
I G
P T
S m
S ensor
b ody
c ape
o i
p erson
r as
s l
s es
w all
y ou
~ ~
Ï ĩ
æ º
re st
or gan
es z
Ġo s
Ġb inary
il le
ig a
un der
ĠS an
ĠS DK
ĠW ay
ĠW here
ik l
ĠM A
Ġwh atever
and o
and box
ãĤ ı
Ġse ven
Ġhe ard
ÑĢ Ð¸
ans om
ail ing
ite xt
du le
Ġcomm ission
ph a
Ġout door
Ã© c
Ġpre view
Ġem phas
Ø± Ùī
ĠWeb sites
Ġver ification
Ġà¤ ħ
Ġent ries
az ing
eg ment
read able
Ġ[ ...
Ġà¦ ¸
ĠTh us
Ġbuild ings
à± ĩ
Ġ0 8
ĠCont rol
Ġtra in
Ġposs ibly
kt y
à¸²à¸ ¢
ÑĨ Ñĸ
Ġra ised
ĠUS B
Ġarch ives
ĠThere fore
De letion
Ġcommit tee
Ġfail ure
Ġprior it
Ġhig hest
Ġsam pling
Ġregul ations
Ġdr ag
áº¿ ng
iling ual
Ġeconom ic
ĠCamp us
ĠwspÃ³ÅĤ prac
Ġcorpor ate
Ġpropri etary
Ġwszyst k
Ġê³ µ
æĹ¥æľ¬ èªŀ
icework s
0 5
0 8
8 5
D igital
E M
E ven
G r
N C
O C
U D
d ocument
h an
h al
u ci
v is
w rite
y o
å ±
in ja
Ġc at
Ġc ivil
is ource
ar r
Ġn an
Ġn icht
Ġh yp
ig er
ĠC hat
ĠI BM
ag o
ad ig
Ġpro te
ur i
em a
Ġv Ãł
Ġal ign
ĠP S
pp ose
ĠD r
ant o
end en
áĢ »
The y
ens itive
Ġle tt
Ñĥ ÑĤ
Ñĥ Ð´
×ķ× ĵ
Ġtrans cluded
ov es
Ġmat ches
Ġprogram mer
ĠØ§ÙĦ ÙĨ
ĠAr ts
Ð³ Ð°ÑĢ
Ġstat istics
ĠÐ¿ Ð¾Ðº
ĠTh anks
Ġconsid ering
Ġá ĭ
Ġsubject s
de v
Ð°ÑĤ Ð°
amet ers
ĠÐ´ Ð°
ĠAg ile
åħ ¨
Loc al
uf act
Ġpack ages
ĠURL s
Ġsubm itted
Ġjoin ing
Ġprz ep
ĠAdv isory
Be fore
Ġmit ig
Ġter rit
íķľ êµŃ
áĬ ķ
ams ung
á»ĩ t
Ġsyn c
Ġeth nic
Ġwor ry
rav atar
Ġtick et
lov en
ä½¿ çĶ¨
Ġcit iz
Ġshik uru
ĠEle ments
Ġapl ik
ĠKind le
WH ATWG
Ġ[... ]
F requ
G B
M al
M ain
b or
b ana
h ouse
t uc
y es
Ê ĭ
Ò ĵ
Ġ >
Ġ {
ī ¡
Ġa p
on ing
or b
or ge
Ġs we
Ġs zyb
Ġto ward
Ġm u
Ġm oral
Ġn ga
Ġl Ãł
ig ration
ow ych
ĠI an
ab i
ur able
qu ality
ist ribut
oc ation
ĠH eston
ĠE X
ĠE s
ãĤ ģ
áĢ ¾
ĠN ext
Ġwork ers
all eries
ĠJ ames
rib a
act s
Ġsc roll
Ġspec s
Ġpre ced
Ġtrans clusion
Ġatt ract
Ġloc k
á» ĥ
Ġu w
Ġext ract
Ġinv olve
ĠY OU
Ġconf idential
plement ation
Ġoper ates
ĠApp River
amp aign
Ġcould n
Ġperform ed
Ġcontro vers
Ġwrit es
zy ch
Ġdel iber
ĠInt erest
Ġlim its
Ġtransl ating
Ġë °
alt y
ĠUS A
Ġplay er
Ġher itage
ĠMan aging
çĶ »
sh ot
Ġcent ury
AR N
Ġadministr ation
Ġkind s
Ġlimit ations
à¸Ķ à¸«à¸¡
Ġsche ma
Ġoptim ization
Ġpain ting
Edit ing
atal og
Ġchann els
Ġproced ures
æł ¡
ĠSing apore
Ġscient ific
Ġprze z
Ġsch ol
Ġencycl opedia
emin ism
Ġlett ers
" ),
0 9
8 9
A v
E L
T R
c an
w orth
y ing
y les
Î ³
í Ĥ
Ġ Å¼e
Ĥ ĺ
er as
it le
Ġd im
Ġd ut
Ġb ath
ic ial
le ar
Ġm as
ent ed
Ġn ull
Ġh our
ĠC r
ĠS ol
Ġg one
ab el
em i
ac jÄĻ
Ġal b
ist ed
ĠD PF
ĠG al
ra ce
pl atform
Ġwe aring
ĠF und
ĠF OR
ĠL ocal
ĠH istory
ĠH DFS
form at
ĠO ura
ĠN on
ĠJ oin
à° ¸
Ġdis pl
Ġqu i
×Ļ× Ĳ
Ùħ ÙĦ
Ġprov isions
Ġph ilos
Ã³ l
Ġback ed
ĠAr bit
ough t
Ġmy self
Ġinv alid
êł ĺ
sp rach
Ġ200 3
ÑĢÐ° ÑĹ
Ġstat ic
Ġoper ate
Ġà¦ ı
Ã¤ ng
à± ĭ
Ġcontribut ion
Ar ticle
Ã¨ re
Ð°ÑĢ Ñĭ
Ġ×Ķ× ¢
rodu ction
Ġupload s
Ġcor ner
ober t
à½ ¼
Ð°Ð» ÑĮ
ret t
oin ter
Ġplay ing
Ġcertain ly
Ġfact s
De utsch
ÐºÐ° Ñı
ES OURCE
ĠPre ceding
Ġengine ers
sc ope
sc reen
ĠÐ¾ ÑĤ
eder lands
Ġtarget ed
ellig ent
áĪ Ń
bu cket
Ġexecut ive
Ġcomplex ity
At lassian
Ġfour th
Ġsam ples
ê³ ł
ÑĥÑģ ÑģÐºÐ¸Ð¹
è¡ ¨
Ġcompil er
Ġexc ited
ĠSaf e
Ġsn iff
Ġevalu ate
Ġsymbol s
ĠPropert ies
Ġroad map
) (
A ng
E T
N on
N ame
S erv
_ _
i am
n ce
r d
Ó £
Û Ĩ
á ¸
å ĥ
Ġ Ãª
Ġt ang
Ġs essions
es ch
it led
Ġc ounter
Ġw iÄĻ
Ġb ah
le ading
Ġm aster
ar u
Ġn il
Ġre ality
om plete
Ġl abor
am an
ĠT re
ĠT oday
Ġbe i
Ġon to
Ġg allery
ĠW hether
em ed
Ġv ast
ĠP DF
ir l
Ġcom o
ist an
pl ain
ĠÐ Ķ
Ġcan d
ak s
ĠL isp
ĠH ay
ĠR SS
ãĤ Ħ
Ġ× ¨
Ð» ÑĮ
eb rew
×Ļ× ©
ear ning
Ġsc r
Ġman aged
Ã© p
Ð´ Ðµ
Ð¼ Ð¸
ov ing
Ġfil en
aj a
Ġiss ued
ĠSp iceworks
Ġtechn iques
Ġpar se
Ġknow s
to od
à¨ ķ
Ġund e
Ð°Ð½ Ð´
ny ÉĽ
oun ce
Ġlat ter
ĠSec ret
Ġextens ive
af e
Ġpop ulation
Ñį ÑĢ
æĸ °
Ġblock ing
Ġconfig ured
Ġinit ially
Ġpres ence
Ġmov ies
ĠTechn ologies
Ġactive ly
Sec ure
Ġprior ity
Ġelse where
Ġdz iaÅĤ
So ftware
ãĥ³ãĥ Ģ
Ã¼r k
Ġsche dule
Ġadvoc ates
æĮ ģ
Ġstruct ures
ĠContribut or
ĠCL I
ĠIdent ity
Ġrank ed
ĠDav id
Ġbehavi our
Ġabsolute ly
Ġextreme ly
gra ined
ĠØ§ÙĦØ¨Ø±ÙħØ¬ Ø©
ansom ware
) [
0 6
7 4
B lock
C ategories
O K
O ut
O ff
R est
V ersion
a per
e j
l ik
n Äħ
u je
u itive
Æ ¡
ä ¹
å ĳ
é Ľ
ë ¶
Ġ q
Ġ ing
Ģ ìŀĳ
Ġa kt
re r
Ġw ireless
Ġo ct
Ġd ark
le ting
Ġto wards
ar ia
ot a
im m
ĠA P
ĠC ount
Ġor ient
ac ock
ĠM art
ec es
à¸ ĵ
ill ance
ĠR et
ĠR ob
ĠE conom
Ġcont r
ãĤ µ
end a
ãĥ ī
Ð¸ Ðµ
ĠN ort
ĠN ov
Ġapp e
Ġint ent
ind i
ph ab
Ġpre v
Ġ3 5
Ġ3 65
erm an
Ð¼ Ðµ
×ķ× Ĳ
Ġgener ations
ĠCh rist
cy ch
Ġpar allel
Ġco ol
Ġà¦ Ń
Ġsm ooth
Ø¨ Ø§ÙĨ
Ġ0 9
ĠCont ents
Ġfunction al
ìĿ ¸
ze ÅĦ
Ø¬ Ùĩ
Ġkeep s
Ð¾Ð² Ð°Ð½
Ġcommun ications
Ġreason ing
ĠáĢ ķ
Ġ9 0
Ã§ e
Ġimprove ment
ron ic
ãģª ãģĦ
25 6
à® ¿
Ġconcern ed
Ġinform ed
Ġbre ach
Ġgraph s
Ġgraph ics
ĠzespoÅĤ u
Ġà¬ ¸
now led
Ġexplain s
ìł ģ
Gener al
Ġach ie
Ġdig it
Ġfore ign
Ġclar ity
Ġunivers ities
ĠDev Ops
Ġcoord in
Ġimpress ive
Ġprec ise
Ġovers ight
Æ°á» £
Ġconflic t
ĠIss ue
Ġfot ograf
Ġinterpre ter
B an
R et
S pro
T able
T ok
U I
b ul
c opyright
c ss
j ud
l ied
m es
r um
z one
¬ ¸
Ä «
Î Ń
Ú ¯
å ĵ
ì ķ
Ġ Ïĥ
Ľ i
Ġa part
in f
at ur
it an
it ative
Ġc ited
Ġp al
ed a
Ġm and
ar o
ent ral
il s
ot i
Ġfor th
ĠC R
un to
ĠI SP
ad y
ĠW ell
Ġcon sequ
ul o
Ġst ru
Ġst ick
ĠM ake
ri p
ãģ ©
ment e
ang a
ang er
ĠF ull
ĠL ead
ĠL anguages
ĠR ight
iv a
ĠE ss
ant e
Ġse ason
áĢ °
à¦ ¦
à¦ ¹
à¦ ĩ
ap at
ell en
ĠØ ®
Ġman ager
Ġ3 2
×ķ× Ĵ
Ġcol on
Ġass ets
Ġperson ality
any ch
Ñĸ Ð²
Ñĸ ÐºÑĸ
Ġlink ing
Ġinv ited
az ione
ĠTh ank
Ġrun ners
Ġimplement ing
und ay
Ġâ Ĺ
Ġder ived
Ġenc ryption
Ġconst itut
ãĥ³ ãĤ¹
Ex amples
ĠÑĤ Ð°
Ġfl at
ĠSe lect
Ġlarge ly
Ġconnect ing
äº Į
Ġ×ĳ× Ĳ
ĠÐ¿ÑĢ Ð¾
à¥ĩ à¤Ĥ
ĠØ£ ÙĪ
Ġfail ed
ĠBu ilding
ĠPar is
Ġaccur acy
ĠStandard s
Ġsz tuc
ĠSet tings
Ġpus hed
Ġemp ower
Ġkl ient
Ġdam age
ĠOrgan ization
SH A
à¸· à¹Ī
ãĤ³ ãĥ³ãĥ
Ġsitu ations
Par ameters
åĮ ĸ
ĠGree k
Ġunders tood
D ocument
I ss
S ymbol
W indows
f ound
n ew
o ose
u ro
Ġ ich
ľ à¦¨
Ġc ru
Ġf elt
Ġb ass
Ġl os
Ġth umb
Ġh air
Ġh aven
im s
st ep
ĠT ik
Ġbe at
ad io
ik Ã³w
op en
Ġde i
Ġde ath
ĠD AG
ĠF ac
ĠH ome
ĠR EST
up y
áĢ «
cl es
Ġar rang
ÑĤ Ñĥ
ĠJ SON
ap ers
Ġcomm ands
ĠK n
ĠK ar
×ķ ×ķ
Ġman agers
ÙĪ Ø³
âĢĿ )
Ġsee ing
ĠRe al
Ġcol ors
ÅĤ a
Ġexp osed
Ġfeature d
Ġdisc rim
ash ington
Ġret rie
Ġterm in
uss ion
Ġhad oop
Ð°Ð½ Ð½Ñı
Ġreview ing
Comm on
Ġà° ¸
Ġens ures
ĠÐ´ Ð¾
Ġka Å¼
Ġcollect ions
Ġphotograph y
æľ Ģ
Ġpres erv
Ġwik itext
Ġprotect ing
Ġmaintain ed
Ġmaintain ing
Ġincre ased
Ġviol ate
ãģĵ ãĤĮ
à¸§ à¸Ķà¸«à¸¡
Ġstrong ly
IC E
AM E
Ġpod cast
ĠJust ice
Ġopin ions
mon th
ê² ½
Ġbeg ins
Ġmedi um
ĠFace book
Ġsear ches
ÙĬÙĥ ÙĬ
íĤ ¤ë
ĠâĹ ı
6 2
C D
D rive
G e
L inkedIn
M ult
P op
S V
a an
b i
f ill
f rom
l or
l ink
n aj
r v
u É£
Ò Ľ
ç ķ
è ©
Ġt in
Ġa u
he t
or row
Ġs qu
Ġc el
Ġp am
Ġp ure
is che
ed s
Ġan ti
Ġb us
Ġb right
Ġm og
Ġm ali
Ġyou ng
ĠA ction
ĠA lex
ĠC I
ĠS umm
st on
ĠT able
id ad
ĠW oo
Ġcon ver
ac cess
ĠM obile
ãģ Ĭ
ĠP rom
ĠG ravatar
ĠB ahasa
ĠF urther
Ġr uby
Ġr ansomware
Ġun n
iv o
Ġsu itable
Ð¸ ÑĪ
ĠN ations
Ġup coming
Ñĥ Ð·
ĠØ ¢
ÙĪ Ø¹
Ġact s
Ġact ors
ÅĤ y
Ġmod er
Ġnum erous
Ġgr adu
ĠÙħ ØŃ
Ġsign al
Ġ0 3
tain ment
Ġfew er
ĠInd ia
Ġsur pr
Ġintegr ate
ĠAg ent
ĠBe fore
Con fig
Al though
ĠRec ords
×ĵ ×Ļ×Ķ
Ġinteract ion
Ò¯ ÑĢ
Ġdeal ing
ĠBr and
Ind ex
ĠDirect or
Ġoblig ation
Ġdriv es
ãģ£ ãģ¦
Ġincorpor ate
ĠFran c
icks on
Ġign ore
Ġmerg ed
Ġcompar ison
Ġmechanism s
ĠItal y
ĠPe acock
Ġperman ently
fol io
ĠExtens ion
ĠBas ic
ĠVi á»ĩt
Ġshi pping
ĠAz ure
ĠDag bani
Ġmagaz ine
8 7
: [
B row
C ounsel
D PR
E r
L L
L X
M at
P ay
T im
b as
m ar
n am
o ÅĽci
p ng
r Ã³
t ons
u y
z ys
Ð £
å İ
Ġ Ð°Ð»
Ġa uch
re ch
Ġs ab
Ġp oor
ion i
Ġin clusive
ct uation
ch i
ri al
ess age
ist ing
ĠD rive
Ġnot ices
for ward
Ġun se
ĠL iter
ãĥ ¡
lic ation
ack s
Ð½ Ðµ
ap a
Ġpl enty
Ñģ Ñĭ
à° ļ
ĠV ikip
clud es
ast on
ĠK ey
Ġdes p
Ġart istic
ÙĨ Ø¯
Ġset t
Ġ19 60
á» ±
Ġbet a
Ġu pper
ĠSp ruceID
Ġ5 00
sp ace
Ġedit ions
×¨ ×Ĳ
à¨ Ĥ
20 24
Ã¤ t
Ġcustom izable
Ġpur su
ili pp
ĠCont ract
Ġdiscuss ing
ĠTr ademark
Ġgood s
Ġra w
Ġargu ed
Ġgovern ments
ĠInd ian
Ġdat i
Ġemploy ment
ĠLic enses
Ġsl ots
ĠQu iet
Ġput ting
Ġpresent ed
Ġinteract ions
ĠDat abase
ĠDes ktop
åŃ ¦
à¸¥ à¸°
ĠDevelop er
Ġwatch ing
áī µ
ĠðŁ Ķ
Ġcapt ure
rz eb
Ġmac ros
Ġlapt ops
Ġcontinu ous
æı Ĳ
Ġsomew hat
Ġinteroper ability
Ġbrack ets
Ġreferen ced
èĳĹ ä½ľ
ĠÐ¿Ð¾Ðº Ð¾Ð»
! )
) =
B rian
C lick
P at
P ol
S D
f a
i em
j al
j ar
k er
m aking
o is
s upport
ß Į
â µ
ë ©
ë Ŀ¼
ĵ uv
er d
at ial
or i
Ġs wit
Ġc i
Ġw ra
Ġw ym
Ġf etch
Ġd ari
Ġm useum
Ġl ing
Ġl iving
Ġe ye
il ig
il ip
ĠA D
ĠS ites
st anding
ĠI I
ad os
ĠM it
ess or
od ed
ub b
Ġk un
Ġk pa
Ġk Ã¶n
ak en
ust ed
áĢ ĺ
iz on
ãĥ ¥
lic hen
all enge
ÑĤ Ñĭ
th is
ber t
gr aduate
Ġcl osing
Ġman ufact
ĠPro v
Ġcons ists
ne g
Ġaccess ing
Ġatt or
Ġover l
Ġass ert
Ġexp ort
Ġinter faces
any a
ax y
ash ion
Ġgr ad
Ġgr ants
Ġlog ged
ĠCon ference
à¸²à¸ Ļ
yn c
Ġapply ing
ĠCol lection
Ġcollabor ators
tic a
Ġconsider ations
oot ing
ĠQu estions
åħ ¥
Ġsend ing
wh ile
Ġdeterm ined
roll ed
Ġremov al
hold ers
Ġbar ri
gener ated
Ġdial ect
ìĦ ł
Ġeval uation
Ġmeaning ful
ìĹĲ ìĦľ
Ã¬ nh
ðĲĮ °
Ġexc iting
Ġjud gment
Ġband width
Ġpom oc
Ġaf ford
Ġvolunte ers
Ø¯ÙĬ Ø§
Ġdire ction
Ġincreasing ly
ĠTool s
Ġprodukt Ã³w
Date TimeFormat
author ized
Ġsubc ategories
è¯Ń è¨Ģ
Ġhundred s
ãĤ¦ãĤ ¶
á»¯ ng
Ġappoint ed
Ġhier arch
ĠPers ian
Ġsá» Ń
augh t
Ġcitiz ens
Ġdispl ays
åĥ ı
aston bury
E E
J ust
M et
P rodu
R ules
c are
c oin
e i
r ine
t ion
z ym
¤ ×ĵ×Ļ×Ķ
Î ®
Ú Ĩ
å ·
æ ±
Ġ Ù¾
ł áĥ
Ġt we
in ar
he l
re ts
at ie
Ġs r
Ġs el
Ġs ys
en a
en kins
it ors
Ġw ied
Ġd á»¥
Ġb ag
Ġb áº¡n
ic z
Ġm or
Ġh ouse
ĠA M
ĠA ce
ĠS ale
ĠS amsung
ĠI RC
Ġpro of
Ġpro yek
Ġcon sole
if est
ĠM a
Ġal ter
os er
Ġde emed
od ies
ub s
Ġex ceed
ĠD ownload
pl iance
à¸ ł
ĠH ickson
art a
ans k
Ġrequ iring
Ġz as
×Ļ× ŀ
Ġsc hed
Ġdes c
Ġaut or
te chn
Ð´ Ð¸
Ġpr on
Ġbu ilder
Ġno vel
Ð² Ð¸
Ġtrans actions
ÅĤ yw
Ġprocess or
we ight
Ġinv olves
pro of
Ġco ffee
ĠDe ep
St ep
Ġdon ation
Ġautom ate
Ġpost ing
Ġauthor ization
Ġaddress ed
ĠSh opping
à¸²à¸ ģ
Ġreal iz
Ġappro aches
ãģĦ ãģ¦
ĠPl an
Ġhand led
Ġrepresent ing
vious ly
ĠØ¨ Ø±
au f
Ġport able
De velop
Ġnorm ative
Ġequ ip
Ġwik il
Ġload ed
ĠÐ° Ð²
ĠIs rael
Ġmaintain s
Ġsmart w
ĠÙģ ÙĦÙħ
Ġhold ers
Ġassemb ler
ĠEnter tainment
ĠÚ© ÛĴ
ãģķãĤĮ ãģ¾ãģĻ
ãĥ© ãĤ¦ãĤ¶
ĠArt ikel
Ġloss less
Ġpo ly
ìŀ Ĳ
Ġsol id
Ġaim s
Intern ational
Ġdest ination
ĠBar rett
Ġrob ot
Õ¥ ÖĢ
æķ Ļ
Ġagre ed
Ġemerg ing
arsh all
Ġrepe ated
Ġexplan ation
ĠTik Tok
5 00
7 7
9 1
B l
D one
D epend
H P
M elayu
S T
V D
f und
g s
g it
l ib
m ission
Ä ĳ
Ò »
Ù ¹
æ ĥ
æ Ļ
in u
re es
ar n
Ġn ad
Ġn omin
Ġn ested
us es
ch ain
ĠC or
ĠS H
ĠT PAC
id uci
ol en
ce j
ce ived
ad ian
Ġ( $
ĠW ashington
Ġus ÅĤug
em u
os ite
ĠP ublishing
ment ed
ĠD rop
ĠD uring
Ġnot able
ĠF uture
Ġk al
Ġr ise
ĠH ol
ĠH ebrew
Ġat h
à¤ ·
à¤ ĩ
Ġsp os
are n
ib a
Ġint elligent
ÑĤ Ð°ÑĢ
ÑĤ ÐµÑĢ
ĠJ et
Ġne ither
ass ment
Ġnew er
.. ..
ress ion
×ķ× ¦
Ñĭ ÑĢ
Ñĭ Ð¼
Ġprot ects
Øª Ø±
Ð³ Ð°Ð½
ĠSp ain
ĠSp eed
Ġbl ue
ock er
Ġknow ing
Ġread er
Ġtext s
ĠTh ose
Ġmain ly
Ġ0 1
Ġcontain er
Ãł i
uk a
Ġpass ion
Ġclass ification
Ġref resh
Ġsur vey
ogn ition
Ġbr ands
Ġreason ably
Ġcompl icated
ĠáĢ ¡
Ġsubs cribe
Sh are
rid ge
Ġexecut ed
Ġcomb ined
Ġremov ing
ĠÄĳ Æ°á»£
Ġwon der
ament e
Ġ199 0
Ġadapt ation
Ġinstitut ion
Ġinstitut ional
å¤ ļ
ĠEm p
Ġcal endar
ĠMich ael
Ġpi ibu
Ġattempt s
Ġaffili ate
ĠArch itecture
Ġìł Ģìŀĳ
ìľ ¼
Ġdisput es
Ġflex ibility
Or gan
Ġfa ith
Ġrob ust
Ġconven ient
Ġsex ual
×Ļ×§×Ļ× ¤×ĵ×Ļ×Ķ
Ġtrig g
é« Ķ
orre ct
Ġanch or
ĠExper ience
ĠkÃ¶n nen
ĠÄĳÆ°á»£ c
' .
9 4
B ig
C y
E vent
F r
G lobal
L ast
O ppose
P E
U sers
X M
d is
f ers
f Ã¼
f ocus
l ong
o ly
w ill
¶ Į
Å ©
Ġ ud
Ġs un
Ġs ung
it Ã©
Ġc Ã¡c
Ġp Ã¥
ed e
Ġf Ã¶r
Ġan c
Ġb áº£n
Ġin qu
Ġin box
Ġin clusion
Ġl anding
il m
il er
Ġh om
ĠC and
ĠS l
ĠS ER
ow i
ĠT a
ag raph
Ġus ual
ab il
if th
ĠB o
Ġr ing
Ġun limited
ill er
ĠH y
ĠR esp
ĠN am
ĠWik isource
Ġrep utation
ĠJ ul
ĠSt ory
Ġsc an
Ġout reach
Ġed ited
Ġart if
ĠRe lease
ian u
Ġfil ed
Ġaccess ed
Äħ d
Ġu Å¼
Ġà¤ µ
Ġpar adig
Ġlaw y
Ġdisc ret
Ġconf using
Ġident ifiers
Ã¤ nd
Ġnon profit
ĠX R
ĠAnd a
Ãł n
Ġfr ag
Ġtrack ers
áĢº áĢ¸
Ġrepresent ative
tt p
Ġfre el
Ġcollabor ative
Ġlay ers
Ġappear ance
ecut ive
Not es
Ø® Øµ
áİ ©
à© ĭ
Loc ales
Ġoffic ially
åĲ Į
Ò¯ Ð½
ĠMark eting
Ġbro ken
Im prove
ĠAut omat
Ġwy d
Ġside bar
ãģĤ ãĤĬãģ¾ãģĻ
Ġinnov ative
Gener ated
rypt ed
ĠAv ailability
Ġflag ship
Ġdeb ug
Ġmed ical
Ġposit ions
ĠCheck point
Ø§Ø¨ Ø¹
Ġdost ÄĻp
Ġanaly ze
Î· Î½
Ġagre ements
ĠÑģÑĤ Ð°ÑĤ
Ġpublis her
ĠTam ale
???? ????
Õ¸ ÖĤ
è§ £
Ġbelong s
ç§ ĳ
Ġstreng then
ĠOnt ology
Ġsubsequ ent
Ø±Ø¨ ÙĬØ©
Ġrelig ious
ĠyaÉ£ ili
æĢ §
Ġsurve illance
Cr unch
iduci ary
Ġdiscret ion
C urrently
F eature
M B
P oint
d n
i at
i est
k its
l ined
l ists
m ain
o Å¼
v ol
w ell
x ml
³ ´
Å «
Ð Ŀ
Ñ ļ
Ġ ãģ«
in ations
on ent
re le
re land
at ural
Ġs ym
Ġp ending
Ġw ie
Ġb irth
ic ating
as il
Ġn ation
Ġl ahi
Ġl enses
ers ive
ut a
ĠS P
ĠS ales
ĠI ran
Ġg adgets
ĠW MF
Ġv ict
if ul
ĠM ode
Ġal umni
Ġr u
Ġr andom
ĠR ules
ĠE lect
Ðµ Ñħ
Ġab use
Ġen for
Ġen erg
Ġint uitive
per anto
ÙĦ Ø§
Ġne utral
Ġpl ain
Ġnew ly
Ñĥ Ð¼
Ñĥ Ð±
tern atively
ll a
ark ing
ÙĪ Ø¯
Ġ3 00
riv ate
row ad
Ġph ase
ĠRe act
Øª Ùħ
ser ver
ough ly
Ġro t
Ġam ended
Ġam azing
pro ject
×¨ ×Ľ
urre d
Ġmark ets
Ġconf ident
Ġconf usion
mat erial
Ġlook ed
Ġer a
ĠÙħ ÛĮÚº
ex p
Ġbrow se
Ġsign ature
Ġreview er
Ð°ÑĢ ÑĥÑģ
Ġ×Ķ× Ĵ
Ġlog ical
ĠÐ¼ Ð°
Ġconc ert
Ġsur face
ĠWh y
Ġhapp ening
ĠRep orter
à¸Ń à¸Ļ
Ġlot s
Ġclaim ed
Ġremain ing
Ġsumm er
Ġintrodu ction
Ġsuccess fully
à¹Ģ à¸Ľ
ĠDes cription
AN T
Ġ198 0
ĠIm age
Add ing
Ġsubst itut
ìĿ´ ìĦł
Ġtem porary
Te ch
inst all
Î» Î»
ÑģÑĮ ÐºÐ°
éĢ ļ
ãģ£ ãģŁ
ols ki
ĠPort ug
ĠAustral ian
Dis play
à¦¼ à¦¾
Ġign ored
ĠSign ature
à¹ĥ à¸Ļ
ìĭ ľ
Ġhy brid
ĠÑĢÐ° Ð·
ĠEnd point
Ġdash board
owied z
Ġdoct rine
ãĥ©ãĤ¤ ãĤ»
íķľêµŃ ìĸ´
Ġcru c
Ġdesp ite
ĠðŁĶ ¥
ìĿ´ìĦł ìĬ¤
7 2
7 3
? )
A c
C ol
L ab
L ink
P M
P ersonal
S egment
d omain
£ áĥ
Ï ī
× £
æ ĭ
ç Ĥ
è Ń
Ġ 00
İ ãĥ¼ãĥī
Ķ áĥ
at able
Ġs an
Ġs ud
Ġs enior
en en
Ġc e
Ġc able
Ġc aÅĤ
Ġf ashion
us k
om b
Ġl y
Ġl iv
ĠC PU
ut ter
un ctions
ĠS a
ĠS cript
ow ane
ad ium
ĠW al
ur ations
ac a
ac cept
ĠM ass
ĠB ur
ak ed
Ġun ified
ill age
ĠL arge
ĠH uman
ĠU t
Ġsu k
Ġch amp
Ð¾ Ð¹
Ñģ Ð°
Ġbut tons
Ġqu ote
×ķ ×Ļ×ķ×ª
te x
Ð´ Ð¼
osit ory
ĠRe le
Ġmod es
à¬ ĩ
Ġass igned
Ġgener ative
á» Ľi
Ġà¤ Ń
Ġpriv ile
Ġterm inal
Ġgu ess
ĠDe f
Ġoper ator
Ġident ical
Ø¹ Ø¯
ĠEx amples
Ġrest aur
Ġ×Ķ× ª
Ġni Åĭ
ĠÐº ÑĬ
ÃŃ cul
Ġë Ŀ¼
Ġbas ically
íķ ´
Ġplay back
Ġdescrib ing
ĠWork s
ĠMac int
Ġide al
CA G
Ġspeed test
val ue
åĪ ¶
Ø´ Ø±
ĠStud ent
Ġfund s
Ġconsist ently
Ġfirm y
ÐµÐ» Ð°ÑĢÑĥÑģ
ĠØ§ÙĦØ ¥
åľ °
Ġclose ly
Ġcompet ition
Ġ×Ľ ×ľ
Ġtransfer red
comp atible
Ġjour ney
Ġtw or
Qu ery
ether lands
ãĥ¼ãĤ ¸
Com fort
Me et
Ġà¦ķ à¦°
ĠìŀĪ ìĬµëĭĪëĭ¤
Ġmilest ones
Ø³ØªØ®Ø¯ Ø§Ùħ
ĠLat in
ĠTele gram
ancell ing
ÛĮÚ© ÛĮ
ĠCommun ications
Ġalb um
ĠGal axy
ÑĢÐ°ÑĹ Ð½
phab et
ĵuv re
ĠëĿ¼ ìĿ´ìĦłìĬ¤
8 2
A nt
C II
E l
E m
I ME
M in
W ell
c ons
h and
n ote
p ub
r un
t re
w ec
x x
Ò ³
è Ĥ
é ¢
ë ıĦ
Ġ Ã¡
Ġt ips
on n
Ġs y
es ome
it em
Ġp u
Ġp ag
Ġd ar
Ġb ÉĶ
Ġm el
Ġm apping
ro d
Ġl ain
Ġe ase
il ies
Ġy ÉĽ
et ies
ĠA V
ch o
ut zer
ĠS en
ab b
Ġv a
ik o
ul pt
ac ja
Ġde pth
ia k
ist ance
ĠG reen
ĠÐ ¤
Ġk od
Ġk ids
Ġr an
Ġun its
ĠE ast
ĠE sp
ant ed
Ġch air
Ġch apter
Ġsp eech
ĠN a
ib li
cl aim
ÑĤ Ðµ
Ġwill ing
ff er
×Ļ× ĵ
av es
Ùħ ÙĥÙĨ
ÙĬ Ø¯
Ġ19 70
les h
Ġgener ates
Ġwould n
ĠCh air
Ġperson ally
Ġdesign ated
Ġopen ing
Ġoper ational
Ġident ifiable
St at
ien ces
Ġser ial
Ð°Ð½ Ð°
li ers
the re
Ġwrit er
Ġ0 4
ãģ« ãģª
aa S
Ġá Ī
ĠCon vention
ĠAn other
ĠInd ust
ï¿½ï¿½ï¿½ï¿½ ï¿½ï¿½
ĠØ¨ Ø§ÙĦ
Ġarch ived
Ġintegr ations
Ġport al
ĠÎ º
Ġpay ing
ãģķ ãģĦ
Ġdownload ed
ĠMark down
ĠMal ays
nie js
Im portant
ĠzespoÅĤ Ã³w
Å¡ t
Ġparent s
Ġdial ects
ĠPar ser
Ġassist ant
Ġhol id
fr ont
Am azon
áº¡ i
Ġaware ness
Ġwid th
Rel ative
Ġcaus es
à¸«à¸¡ à¸§à¸Ķà¸«à¸¡
Ġdraw ing
Ã©n Ã©
Ġexpand ed
Ġprohib ited
ĠBit bucket
ĠOper a
Ġrespective ly
Coll ator
Ġglob ally
ãĥĨ ãĤ£
Addition al
ç¨ ĭ
Ġrendere r
ç¾ ©
Ġphilos oph
Ġdá»¥ ng
A g
F ine
N ames
S k
S w
T P
U N
W P
d aa
k ing
l en
o a
p et
© ëĭĪëĭ¤
Ä Ĺ
Æ Ļ
ç ¬
Ġ ÏĢ
ĥ ģ
ļ ãĥĩãĤ£ãĤ¢
Ġs al
Ġs izes
Ġthe ft
en ced
it les
Ġc zy
Ġc atalog
Ġp os
Ġp owered
Ġw p
Ġo t
Ġb old
ĠC lass
ĠS ite
st art
ĠT er
Ġg reen
Ġcon v
el ij
Ġst ars
ĠM ap
ĠM CP
ãģ ¹
ist a
ist ant
Ġnot iced
ĠB ud
ĠB right
ĠB oth
ĠF e
ĠF ont
ak at
ÑĢ Ð¿
Ġhas n
Ġcomm a
Ġper haps
aw s
Ùħ ÙĨ
Ñĥ Ñİ
ll o
ft en
ÙĨ Ùī
Ġdef ining
Ġact or
Ġthan k
à¬ ª
Ġprot ocol
aj o
Ġpe ers
Ġà¤ ľ
Ġbl ank
à¨ ¿
20 25
Ġret ail
ĠÑ Ĩ
Ġfind s
Ġà¦ ¹
Ġperm it
Ġchar ging
Ġdep art
Ġlog in
Ġins urance
ĠCon formance
à½ ¦
ĠCre ator
ai ver
ãģĦ ãģĨ
Ad v
Ġtag ged
ĠÙĪ ÙĬÙĥÙĬ
íķ ł
Ġref und
Ġrepresent ations
Ġfact or
epend ent
ani u
áĢ¬ áĢ¸
ĠRep orts
ÐµÐ´ Ð¾Ð½
ä» ĸ
ĠÄ į
Ġhost s
ĠBe ats
Ġpot rzeb
Ġpres erve
Ġstream s
Ġfin ish
ĠÐ¾ Ð±
Ġput s
Ġviol ations
ats ki
Ġcy bersecurity
Ġspecial ized
ÓĻ ÑĢ
ĠReg ion
Ġà¨ µ
ĠAf r
×¤ ×¨
è¨ Ī
Ġsup erv
ĠMe et
ĠCo Counsel
ĠÐ³ Ð¾Ð´
ĠID E
Ġáİ ¤
Man aging
áģ ĭ
Ø§Ø ¡
ĠAv ailable
Ġindepend ently
ĠAccount ing
pi ec
éĢ ł
des c
aci Ã³
ĠSw ift
Ġplug in
Up date
åı¯ èĥ½
æĮ ĩ
ĠEd ge
ä¾ Ľ
BL E
Ġcontroll ed
Ġefficient ly
Work ing
ĠJapan ese
ĠPropert y
itch ie
ĠTop ics
ĠGl astonbury
Ġfacilit ate
Ġcz as
ë¦ ¬
ĠAL GOL
ãĤ¦ãĤ£ãĤŃãĥ ļãĥĩãĤ£ãĤ¢
Ġzg od
ĠCorpor ation
ãĤ³ãĥ³ãĥ Ĩ
ĠQuiet Comfort
Ġath let
ĠSER V
ãĥ©ãĤ¤ãĤ» ãĥ³ãĤ¹
ÑĢÐ°ÑĹÐ½ ÑģÑĮÐºÐ°
3 00
B as
D NS
L A
S G
S er
U T
U nd
b es
c lick
d at
e ven
h our
i áº¿ng
l ights
n ym
r t
z o
Ì ģ
å ¦
ç µ
è µ
ê ¶Į
re te
Ġs ou
Ġs ich
it u
it ude
Ġc row
Ġf ost
Ġd ating
Ġd ied
Ġd oll
le h
Ġm n
ar cz
ct or
Ġy es
ig ation
ĠC ass
ut ch
Ġon board
Ġpro ve
ur t
if ferent
Ġde leg
Ġex empt
ĠG DPR
ĠF air
Ġcan onical
Ġcan cel
Ġun f
Ġun authorized
ud io
ĠE vent
Ġse g
ãĥ Ħãĥªãĥ¼
omm od
Ġapp arent
Ġar ising
Ġcomp rom
Ġte ac
ĠJ our
Ġacc ommod
Ġres ident
Ġdis k
ĠSt an
ast e
×Ļ× ¢
Ġfe e
ord ers
ob s
ÙĪ ÙĤ
×ķ× ¢
Ø± Ú©
Ġcol lege
Ġform ed
à¬ ¤
à¬ ¬
acy j
á» ĭ
Ġac yc
ract ions
emb ly
Ġà¤ ¬
Ġro y
let s
Re view
ock et
ug a
Ġlicens or
ĠÑ ŀ
Ġdec ade
Ġstandard ized
Ġspe aking
Ġadv is
Ġreview ers
Ġ0 2
ze j
ĠTr ade
apt ers
Ġra ce
uk u
Ùĥ ÙĦ
Ġfocus ing
ÑģÑĤ Ð²
áı Ĥ
ij a
ij n
Ġsur v
ÑĬ Ð»
Ġtax es
ĠPh ilipp
ĠÐ¾ Ð´
ĠAb original
Ġspeed s
Ġ×ĳ× ŀ×
åħ ±
GL s
wit ter
ĠMark up
ĠOne Drive
ĠReg istry
Ġconsist ency
EC T
tr ans
Ph ot
ãģķãĤĮ ãĤĭ
Ġrecord ed
Ġliter ature
Ġpi eces
Aut om
Ġmom ents
åĬ ł
Ġoutput s
ĠMembers hip
Ġaim ed
Ġsyn chron
ãģı ãģł
á»Ļ t
æķ °
ĠCustom er
ĠRel ated
ĠUnivers al
iven ess
Ġdeclar ation
Ġalle ged
Ġjo ined
win ning
ÑĥÐ² Ð°Ð½Ð½Ñı
ĠØ§ÙĦØ± Ø§Ø¨Ø¹
Ġprincip al
Ġbyt es
Inc ubator
Ġdeliber ately
ĠFranc isco
ĠCand idate
Ġenerg y
Ġcruc ial
Ġacyc lic
7 1
9 2
B usiness
F ran
M ac
O D
P ad
W orld
b lem
c ceed
i as
l am
m edi
o T
p ages
p urpose
r ich
v o
y an
y our
Ã ¯
â ĸ
å ĭ
ë Ĥĺ
Ġ à®
Ġt ing
on ents
er ge
en abled
Ġp ool
Ġp hishing
Ġan not
Ġb ill
om pl
Ġl ia
Ġl ies
ve re
Ġfor get
ĠA B
ĠC ou
ĠS EO
ow ers
ad or
Ġg ym
Ġg ithub
el ess
ul ations
Ġst ake
os a
ĠP ages
ĠD ar
ĠG ames
ĠÐ ¹
à¸ ĸ
Ġr ates
Ġr Ã³
ĠR ender
form ed
Ġsu i
Ġsu cceed
Ġtr uth
act er
Ġdis aster
ĠV P
ĠV im
ach t
ĠSt ore
Ġcl imate
ru ption
Ġprov en
Ġaut onom
Ġpre p
Ġph ones
×ķ× Ľ
Ġdef end
Ġdef ense
ĠUn ix
Ġpublic ity
Ġind icated
Ġob serv
à¬ ®
ĠØ§ÙĦ ÙĤ
Ġver ifiable
Ġà¤ ²
Ġà¤ Ĩ
Ġpar agraph
Ġinc orrect
Ġread s
ĠY ARN
ung s
app ropriate
mat ic
ential ly
Ġexpl oring
Ġaud i
ĠÑģ Ðµ
Ġlocal ization
ãģ¾ ãģĽ
ins i
à½ ĳ
Ġappro ve
uk an
Ġcheck ed
áı Ĺ
Ġshe et
Sp e
Th anks
Ġkey word
ĠPr ice
Ġparticip ating
Ġcommit ment
Ġrespons ive
ĠÎ ±
Ġconsider ation
Ġpay ments
ĠWith out
Con nect
Ġprotect ions
×ł ×Ķ
Ġfam ilies
Un ited
Ġbre aking
wh ite
ĠPart y
ĠGener ation
Ġstrong er
Ġregist ry
å¤ ĸ
ĠBu ilt
Ð°Ðº ÐµÐ´Ð¾Ð½
ĠBr asil
Ġsche me
Ġein er
Ġconstruct or
Ġdeliver ing
Ġadvert is
áº¿ t
Ġimmedi ate
ãģĿ ãĤĮ
Ġdeg rees
Ġmac ro
Ġincorpor ated
åĽ ½
à¹ģ à¸¥à¸°
ä¾ ĭ
Ġord ered
Access ibility
Ġendpoint s
æī Ģ
à¦°à¦ ľà¦¨
Ġmilest one
æ¨ ©
ç¤ º
Ġintelig encji
ĠKore a
Ġconsum ers
Ġzap ew
Ġwur de
call ed
Ġfold ers
Ġvacu um
Ã¼rk Ã§e
äºĮ æ¬¡
Ġsztuc znej
ĠMacint osh
ãģıãģł ãģķãģĦ
8 1
A re
G roup
I V
K eep
M ake
P G
P ost
P ower
P olit
R un
S ony
b ot
d raw
h yd
j u
l ooking
t able
Â °
Û Ķ
è ¾
ë ĵ
ï ¸
Ġ iz
Ġ 000
re al
re pre
at ge
at ches
Ġs ont
Ġs ynt
Ġc ache
an ima
Ġw el
Ġd iversity
Ġb illing
Ġm ir
ar c
Ġn ach
Ġn odes
Ġh ide
ĠC ong
ĠC VE
ut en
ĠT ab
ĠI M
ag ue
ad ed
Ġg a
Ġpro min
ur d
ik ing
ul s
op i
ĠP ress
Ġun lock
ĠL ayout
ĠR obert
ãĥ ģ
Ð¸ Ð¿
lic e
ĠN etherlands
Ġwork load
ĠIn g
ound s
ĠSt ep
Ġsc oping
ĠØ µ
Ġed ges
Ġfil ing
à¥ Ĥ
Ð³ Ðµ
Ġver arbeit
Ġtool kits
Ġent itled
ĠSp ring
Ġtechn ique
Ġdesign ers
Ġam end
Ġdet ected
êł ¦
êł ĩ
Ġcall ing
ãĢ Į
20 16
ãĥ¼ ãĥĪ
St orage
Ġgr aduate
Ġrun ner
Ġsign als
Ġvari ant
crib unto
Ġel imin
Ñĩ Ð¸
ĠCre ate
ÉĶ n
ĠNot ice
Ġpass words
Ġà° ª
Ġfl o
clus ions
ĠEn viron
Ð¾Ð» ÑĮ
äº ĭ
Ġstream line
ĠÐ¸ Ð·
Ġsumm aries
Ġintrodu ce
bu ilt
Ġsupp osed
Ġcomb ine
Get ting
Ġdiscl aim
Ġindust ries
Ġstore s
And roid
Ġliter ally
åĬ Ľ
New s
uck er
Ġdriv ers
atal Ãł
Ġflow s
Ġproced ural
ĠTech Crunch
ĠInternational ization
Ġfoot ball
ç® Ĺ
Ġnh á»¯ng
ĠGe orge
Ġkit chen
Ġperman ent
Ġtrig ger
Ġrare ly
Ġesc al
ĠDeutsch land
Extens ion
Ġguarant ee
OW L
ç¶ Ń
ĠVal ley
Ġspl it
Ġinher it
ĠSche ma
Ġpersp ective
ĠzarzÄħdz ania
zb ek
Ġschol ars
ĠArbit ration
bul lying
ĠProm o
æıĲ ä¾Ľ
Ġequip ment
ç¬ ¬
ãģ¾ãģĽ ãĤĵ
hyd r
repre ne
B A
D i
D et
E lement
F ollowing
M icro
T emplates
f ield
i Ã³n
l an
o oms
t ml
Ð Ī
Ø ¥
ê Ļ
Ġ âĢĻ
Ĥ ¨
ŀ ß
Ġt un
he ets
en i
en u
en ie
an z
Ġd ass
Ġd omin
Ġd river
le ft
Ġm eng
Ġm ilit
Ġin cl
Ġth á»ĥ
ĠC al
ĠC overed
ut ing
st ar
ĠI reland
id ers
Ġ( [
Ġcon formance
em e
Ġv andal
Ġst ands
ĠM ond
ĠM arshall
ĠG old
Ġwh it
ĠB ootstrap
ang k
Ġun w
ĠL i
ĠL ink
art ner
um at
Ġat au
ust ration
à¤ ¼
Ðµ Ð¿
all ow
Ġte k
ĠJ un
eb ook
Ġqu iet
ĠK ern
Ġcl osure
Ġnew sp
Ùħ Ø©
ru it
Ġlic ence
Ġpre ference
Ġpr icing
Ġimp ly
Ġph Ã©p
Ã³ j
×ķ× ĺ
×ķ× Ŀ
ian a
Ġtrans action
Ġshould n
Ġatt ach
Ġreg ions
Ġreg istr
Ġorgan ize
Ġà¤ ¨
For m
oy al
pr ises
Ġterm inate
ĠÐ¿ Ð¾Ð´
Ġoper ators
St ay
áº §
Ġvis ited
Åĭ sim
Ġchar ter
Ġ×Ķ× ¤
Ġni et
Ġâ ĨĴ
ĠÑģ Ð¾
Ñħ ÑĮ
à½ ĸ
ĠZ one
Ġenc ounter
ĠAs ia
ĠAs ked
Ġë ¬¸
Ġorder ing
Pro gram
Ġdem ands
15 0
man age
aut eur
Ġnam espaces
che ck
ĠPr im
çĶ ±
Ġop art
Ġsubs crib
Ġrepl acing
Ġwik ipedia
AR QL
ĠUR I
áİ µ
ãĤ¤ ãĥ³
Ġviol ates
åĲ Ħ
×ŀ× ł
Ġredu cing
ĠAut hor
Ġlearn ed
IT Y
ĠØ§ ÙĪØ±
Ġocc asion
Ġsort ed
Ġregist ries
ìł ķ
Ġvisit ors
Ġcr im
Ġil leg
Ġtell s
Ġsem antics
Ġregular ly
Ġbuy ing
Ġpan orama
ĠArch ive
Ġsav ings
Ġeconom y
Ġcaus ed
Ġanim ation
idi oma
Ġincident al
ĠØ¥ ÙĦÙī
Ġhighlight ed
çĻ ¾
Ġbank notes
Ġcomplain ts
åŃ¸ æł¡
Ġpun ctuation
Ġaccident ally
ĠAff iliates
Ġrozw iÄħz
Ġprogramm ers
ĠAnal ysis
Î¹Îº Î¬
Ġê² ĥ
ĠGraph QL
åĩ º
Fin ally
ocr atic
Ġincred ibly
ĠGard en
Red uce
Ġtroub le
å¯ ¾
ĠìľĦ íĤ¤ë
Ġappe ared
ê²½ ìłľ
à¸ł à¸²à¸
Ġsched ul
ĠÙģÙĦÙħ Ø¨Ø§ÙĨ
ìľ¼ ë¡ľ
Ġfreel ance
ÐµÐ»Ð°ÑĢÑĥÑģ ÐºÐ°Ñı
ĠCong ress
ç¶Ń åŁº
0 3
A f
B asa
C E
C ore
F ix
G allery
S i
T ax
c ies
g ot
g ie
i w
l ang
n ik
r ide
± ê³¼
Î ´
à º
å ķ
æ °
æ ħ
ç Ł
ì Ľ
Ĭ ¸
Į Į
Ġt an
Ġt our
in formation
on o
Ġs Ã¨
Ġp in
Ġp et
Ġp ode
Ġw ired
is y
is ons
Ġf ight
Ġf oto
al so
Ġd al
Ġb atch
Ġm á»Ļt
as z
Ġn omen
Ġy u
ĠA C
un ting
st ron
ĠT imes
ad ded
Ġg h
Ġpro ces
ac le
ĠP ri
igh ter
ra wn
Ġr Ã©
Ġ1 000
ĠH ack
ĠR on
ĠR est
um eric
Ġse b
áĢ Ĺ
Ġch ief
ens ing
ens ions
ĠN or
Ġar riv
Ġj oint
ÙĦ Ùģ
ĠJ awa
ĠJ enkins
ok Ã©
Ðº Ð¾
ĠV ision
ĠK nowledge
Ġspec ifying
Ġev olving
riv ial
Ġfol ks
Ġtrans parent
ĠUn like
Ġmod ifications
Ġatt ached
ari os
á» ĳ
Ġprocess ors
êł Ł
ãĢ į
ÛĮ ÙĨ
Ġgu ests
ĠDe fin
ĠGo od
ĠTh omas
ãĥ¼ ãĤ¯
Ġpur s
áº ·
Ġgr and
áĥ £áĥ
Ġmult ilingual
ĠEx p
Ġ0 6
Ð°ÑĢ ÑĤ
ÅĽ l
Ġâ ī¡
ĠÐº Ð¾Ð¼
Ñĩ Ðµ
Ð°Ð» Ð°
áĢº áĤı
Ġë ĮĢ
ĠCre ating
ãĤĴ åı
Ġcour ses
alt ies
Ġgovern ed
ï¿½ï¿½ï¿½ï¿½ ï¿½
ĠÐ´ Ð»Ñı
Ð¾Ð² Ð°
Ġport ability
Ġcap able
Ch ange
Ġkey words
ĠCol or
ĠÎ µ
Ġequ ity
Ð¸Ð½ Ð°
ĠInst all
ĠPh one
Ġ×Ĳ ×ķ
ĠProt ocol
Î± Î¹
val u
Sh ort
×ŀ× Ķ
att le
Ġcare ful
Ġexecut e
Ġredu ces
Ġcomb ines
Ġpair s
×ĺ ×¨
tr ansl
Ġocc urs
Ġsam ple
jek t
En ter
ĠDevelop ers
Ġsem antic
Ġessential ly
Ġoptim ize
Aut hor
asc ading
Ġbreak s
ĠDis ney
Ġdriv ing
ĠAR M
ĠSim ilarly
ĠObject s
Ġreplace ment
Ġharm on
æĿ Ĳ
ĠÑĺ Ðµ
Ġenhance ments
Ġanaly z
Ġscal able
Ġmix ed
sub st
ĠWest law
ĠBrow sers
Ġrecip ient
Ġindic ates
çĻ º
Ġant ivirus
Ġpow ers
Ġhy per
writ ten
ĠRuss ian
Ġtur ning
à½² à¼ĭ
ìľł ê²½ìłľ
Ġresil ience
ĠØ§ÙĦØ¬ ÙĬÙĦ
Ġdistingu ish
Ġsafegu ard
ãĤ¹ãĤ¿ ãĤ¤ãĥ«
Ġemphas is
Frequ ently
sprach ige
ï¸ ı
' ,
G en
H E
N D
S he
T PAC
a it
a uc
c ancelling
d ro
e a
l ie
m ates
m ax
n ings
s ystem
w y
² ķ
Ò ¡
Ò µ
æ ´
Ġ !
ĵ ×Ļ×ł
ĺ ß
Ġa le
or ia
Ġs en
Ġs ind
it Ãł
an cy
Ġp s
Ġp ahi
Ġw ider
Ġb in
ic ates
Ġn et
Ġh at
ot al
ĠA ward
ĠC rit
ow a
ĠT w
ab u
Ġv irus
Ġst e
Ġst olen
ĠM or
os eph
ĠP HP
Ġde e
ĠG reat
Ġwh om
Ġnot ification
ĠÐ Ń
ĠB re
ĠF ort
Ġk omp
ĠL im
ĠL ess
ĠL oves
ĠH ill
um es
ĠE pisode
áĢ ĸ
ĠU nd
ere s
ens i
Ð½ ÑĮ
Ġcomp osition
Ġj edn
Ġne igh
Ġpl acing
Ġpl anned
gr icult
Ġdis rupt
Ġqu alif
Ġpart ial
Ġsc ulpt
âĢĿ ).
×ķ× ŀ
Ġinst ant
ov o
Ġact ing
Ġunder graduate
à¬ Ĥ
Ġreg ional
ÄĻ d
Ġinv olving
pro v
urn s
... )
Ġà¦ ħ
ĠTh rough
ĠCC PA
Ġsign s
the y
Ġcomput ed
ograph s
Ġcho osing
ÑĨ Ð¸Ñı
Ġenc rypted
Ġpoint ed
iÄĻ ks
Ġlead er
Ġest im
ĠÐ¼ Ð¾Ð¶
Ġpass ing
ĠAct ive
au er
Ġplay ed
Ġplay list
ĠÐ² Ð°
ĠáĢ Ĳ
ĠWh ite
ØŃ Ø¯
irt y
Ġrespons es
Ġlet ting
Ġsepar ately
ĠÐ¸ Ð½
Ġmov es
Ġregard s
ĠComp uter
Ġfeel ing
ĠCan adian
Ġfail s
Ġimpact s
comm erce
×Ľ ×ķ×Ļ×ķ×ª
Ġ198 8
ĠAut om
Ġsubm ission
Ġturn s
ãĥĥ ãĥĹ
Ġagent ic
Ġum a
Ġaltern atives
ĠBu ild
ê³ µ
ĠÐĴ Ð¸ÐºÐ¸Ð¿ÐµÐ´Ð¸Ñı
Æ° Æ¡
ĠshÉĽ Åĭa
OB OL
SP ARQL
ĠProf ile
Ġiniti atives
Ġsimpl ify
æĪ ĸ
Ġpromot ional
Ġarbitr ator
Ġord ers
Ġscal ing
Ġhon or
Prot ect
ĠAud io
stra ction
ĠBrow ser
OV ID
ĠDec lar
ãĥĳ ãĥ¼ãĤ¹
Sim ple
Ġult imately
à¸Ĥ à¸Ńà¸ĩ
ĠCy bersecurity
é« ĺ
Lic ense
æĽ ¸
Ġbund le
Ġëĭ ¤
ĠON ESOURCE
Ġlands cape
æº Ĳ
Ġsniff ing
ĠHay wood
Ġstru gg
æĥ ħ
ĠAutomat tic
ĠJour nal
Ġcrim inal
Æ°Æ¡ ng
9 6
B ase
F iles
M ar
M ail
N e
S am
V is
d ing
g eb
i us
i ries
i hi
k ie
m iss
o es
p act
r at
r ange
v ideo
w est
¡ ãĤ¤ãĥ«
Ð ŀ
å £
í Ļ
Ġ 99
Ġ à¶
Ġ ä¸Ńæĸĩ
er i
er ning
Ġs aving
Ġs oph
Ġp ump
Ġw all
Ġf ant
Ġf av
Ġd ia
us able
Ġe k
Ġh tml
Ġfor um
Ġfor ks
ch airs
ĠC D
ut able
ĠS olutions
ĠT ay
ĠW p
ay an
ur ring
ik uru
ac ent
Ġst ar
ĠM un
ĠM em
ĠM ight
ir y
Ġex hib
oc ols
ra ction
our th
ĠÐ Ĺ
ĠB ad
ĠB ox
ĠF eminism
Ġk ick
Ġk ann
ore n
ak u
Ġun able
ĠL ock
ĠL earning
ĠR uby
ĠR FC
ĠR itchie
ain t
ĠThe ora
ãĤ ¨
ĠU V
ĠU pload
ĠO ak
ĠO ffic
à¦ £
à¦ ¶
à¦ Ń
Ð¸ Ð±
Ġsh ares
Ġsp atial
ĠN ode
ĠN ob
Ġapp ropri
Ġj ÄĻzy
ÙĦ Ùĥ
Ġacc ompl
Ġres idence
Ġinformation al
Ġdes ired
aw i
Ùħ ÙĬ
ont akt
Ġman ages
Ġpre pare
Ġwhen ever
Ġinst ru
Ġinst antly
Ġexp ired
Ġgener is
ĠCh ange
Ġrem ind
Ġver tex
Ġà¤ ¦
ĠSp e
Ġpar s
Ð· Ð°
Ġdisc overed
Ġext ends
ÛĮ ÙĦ
à¨ ¤
hip s
ĠTh ird
Ġdirect or
Ð°Ð½ Ñĭ
Ã¼ n
omet er
Ã¨ n
Ġperform ing
oun s
Ġimport ed
ĠCon fig
Ġselect ing
Ã¢ m
Ġra ise
Ġconc erning
Pro pert
Ġshe ets
ij e
Ġbel ief
Ġnetwork ing
ĠáĢ Ģ
aut ore
ĠRep resent
AR IA
ĠÙĦ ÙĦ
prot ected
åħ ¬
×ĵ ×Ļ
Ġ×ŀ× ©
eed back
ĠAccess ible
Ġsupp liers
Î¹ Î±
ĠWikip ed
Ġrefer ring
Ġ198 9
Ġbox es
Ġwar ning
Pl us
ĠTV s
Ó© ÑĤ
Ð½Ñĭ Ò£
ãĥ© ãĥ¼
enn is
ĠCo ach
Ġbroad er
ĠÐĴ ÑĸÐºÑĸ
çī ©
ãĤĤ ãģ®
áº£ nh
ĠOther wise
cle ar
ĠDocument ation
Ġcard s
Ġinflu enced
Ġinsp ired
Ġcyber bullying
íķĺ ëĬĶ
ĠÑĺ ÐµÐ·
Ġplug ins
Ġdro pped
Ġmerg ing
ĠInv est
Ġhon est
å®ļ ç¾©
Ġseek ing
Ø° Ø§
ĠTur k
Ġrout ine
Ġult imate
Ġsomew here
Ġrul ing
Ġexperiment al
ç¤ ¾
ĠStrateg ic
sv g
Ġprox y
Ġstrict ly
Ġven ue
Ġpriorit ize
Ð³Ð°ÑĢ ÑģÐºÐ¸
ĠwiÄĻ cej
entral ized
ĠFurther more
Ġbarri ers
tion ary
å¦ Ĥ
Ġmn emon
ÑĬÐ» Ð³Ð°ÑĢÑģÐºÐ¸
ĠCou p
Ġnomen atge
; [
A fr
C O
D B
D irect
E st
E nd
F l
J SON
P al
S ource
a fter
b ro
b olic
c ard
c ases
d oc
h u
i om
l age
m ac
n olog
p an
t to
u ine
ç ¹
ç º
è ²
ë Ķ
Ġ ice
Ġt am
he red
on k
on ic
Ġs v
Ġs ow
it ure
Ġc itation
Ġp ada
Ġw an
Ġf resh
Ġd ow
Ġd os
Ġb are
ic ine
as an
Ġre in
Ġl an
Ġl ÃŃ
Ġe yes
Ġh Ã¬nh
Ġis ol
ch ar
ĠC ivil
st itution
ag on
Ġg Ã©nÃ©
Ġpro pose
ĠW ir
ĠW ireless
em porary
Ġv ocabulary
Ġal phabet
ĠP et
est amp
ec ko
ĠD en
ĠD VD
ĠG ar
Ġnot ation
Ġnot ably
ĠÐ Ľ
ĠB al
ang g
Ġ1 50
ip e
Ġcont est
ãĤ ª
à¤ ĸ
Ġhe aring
à¦ ļ
Ð¾ Ð¿
are r
gr und
ĠV R
ast s
ĠØ °
ount ain
Ġev olve
Ø§ÙĦ Ø¹
Ø± ÙĬ
Ø± Ø©
Ġthem es
Ġind irect
Ġkn ew
Ġrequest ing
Øª Ø¨
Ġhead ings
Ġent ities
Ġtechn olog
esp read
Ġ4 5
pro cess
Ġinc omp
Ġstat ut
app lication
Ġgu ard
Ġà¦ ī
Ġ7 5
à± Ĩ
ien able
Ġlong desc
áĥ Ķáĥ
Ġsign ing
10 9
Ã¨ s
Ġpersonal ized
ãģ« ãģ¯
Comm it
Ġdel ight
Ġ×Ķ× §
orm al
13 9
Ġfl u
Ġsk ill
ĠEn c
17 9
oz naj
Ġphotograph ic
ĠCol lect
irt ual
à¸Ń à¸¡
Ġprom ise
à°¿ à°Ĥ
AR R
sc ale
Ġrestrict ion
uration Format
Un it
Ġinvest ors
Ġdownload s
]] :
Ġconsist ing
Ġut ility
Ê» i
Ġ199 8
ãĥĥ ãĥģ
ĠÚ© Ø±
Ġwa iting
Ġreprodu ctions
Ġtem por
Ġquot es
çī ¹
asc ade
bre vi
Ġwsp ar
Ġsz abl
Ġcompil ation
owe j
ĠktÃ³ ry
Ġlib ert
Ġfront end
Ġsell ing
Ġunivers al
Ġpercent age
Ġdost arcz
Ġsufficient ly
×ĳ×¨ ×Ļ×ª
ĠTur key
Ġconven ience
Ġopp osed
wik imedia
å¸ ¸
Ġacceler ate
ĠPract ices
Us age
leng uat
Ġack nowledge
Ġack nowled
ĠzuÉ£ u
ĠPhot os
Ġbeaut iful
ĠArab ic
à³ į
ieg el
æ§ĭ éĢł
Ġscreensh ot
ÛĨ Ø±Ú©
Ġorient ation
ĠEconom ic
Ġmog Äħ
Produ ct
ĠuÅ¼ yt
Segment er
èĤ ²
lesh ooting
ucker berg
ĮĮ ìĿ¼
ĠOffic er
Ġpars ed
) ?
7 8
B en
C R
D at
E SS
I VE
M ark
S L
S O
S ign
S QL
W rit
W IRED
b row
f ile
g roup
k in
n es
s ec
v ue
w end
w hat
w anda
z og
ª Ĵ
Ð ĺ
Õ §
Ø ¤
å ªĴ
ê ¸°
í Ĭ¸
Ġ ic
Ġt id
Ġt ap
in en
re f
re y
at uring
Ġs in
en be
Ġp on
Ġp ing
Ġp ark
Ġp raw
Ġw ers
is an
Ġd om
Ġd apat
Ġb its
Ġb orders
ent e
Ġre name
om ing
Ġy o
im age
am y
ĠC irc
ut s
ĠS ud
id ge
ad ino
Ġg est
âĢ ŀ
Ġv o
if fer
ĠM SP
ĠP okÃ©
Ġde utsch
ir al
est ival
ia jÄħ
qu ery
oc a
ĠG PC
ĠB ook
ĠF ind
ive red
ĠL ife
ĠE th
up date
end o
ĠU k
ĠU m
Ġsh ar
Ġch m
ÙĦ Ø©
Ġres erve
×Ļ× ¦
ĠK om
Ñĥ Ñĥ
Ñĥ ÑĪ
Ã© l
ress ed
Ġart ÃŃcul
ah an
ov en
Ġi Pad
Ġ19 50
Øª ÙĤ
Ġtechn ological
êł ģ
ran ch
Ġinc ome
20 20
Ġdec ades
app ings
Ġfiles ystem
Ġrun time
Ø¹ Ùħ
ĠEx press
ä¸ İ
Ġdel ivered
ÅĽ li
Ġauthor ities
Ġlog s
ĠÑģ Ð¿
ĠTr ack
Ġtrack ed
12 9
yn chron
Ġconst ant
Ġconc rete
Ġà° ķ
Ġthough ts
ructure d
15 9
Th ird
cz eg
af ish
ãģĮ ãģĤãĤĬãģ¾ãģĻ
Ġconfig urations
tic les
Ġsubs et
æľ Ī
vant age
Ð¾Ð½ ÑĮ
Ġque ue
Con f
oÅĤ Äħcz
Ġ×Ĳ ×Ĺ
×ł ×ĺ
Øµ ÙĪ
Ġê °
Al ike
CA D
Ġfair ly
Ġear ned
Ġden ied
Ġcare fully
Ġdiscl osed
ĠIm ages
ĠØ¹ ÙĨ
ilit arian
ãĥª ãĥ³
ĠÑĥ Ðº
Ñĺ Ðµ
ĠVer izon
ĠPolic ies
à¥ĭ à¤Ĥ
Ġáİ ł
Ġcam eras
ĠSup er
ĠPa ul
ãģ£ ãģ¦ãģĦãģ¾ãģĻ
ãĤĪ ãĤĬ
Ġtw ice
Ġneg oti
ãĥ¼ãĤ µ
è¨Ģ èªŀ
Ġgain ed
Ġpromot ing
ĠAc adem
Ġeth ical
Õ¥ Õ
ĠPat ent
ÑĭÐ½ Ð´Ð°
Ġincident ally
ãĥ¬ ãĥ³ãĥĢ
Ġmass ive
éĸ ĭ
Ġassum ed
Ġcontroll er
Ġsatisf action
Ġpip eline
æĶ ¿
agi ar
Ġpra kty
writ ing
Ġshap ing
ĠStrateg y
ĠOpt im
ĠÛģ ÛĴ
Ġreserv ed
Ø¨ÙĬ Ø¯ÙĬØ§
leng a
hol der
ĠSound core
ëĲ ĺ
ĠExpert s
ĠdotyczÄħ ce
Ġpseud o
Ġtail ored
Ġconvent ions
document ation
Ġterrit ory
ĠVikip edi
Ġpassion ate
Ġartif acts
Ġrestaur ant
Ġholid ays
è¨Ī ç®Ĺ
piec zeÅĦ
çĻ¾ ç§ĳ
Ġsoph ist
A ff
C he
D uring
E v
H and
I AL
L AN
M ag
P rz
S ing
T O
T ENT
b ay
b and
b ie
c ategor
d ec
d ates
e urs
f ind
f ast
g ement
h im
i ate
j unction
l ies
n ative
o Ã«
s m
s ensitive
w hen
y cle
z ÉĶÅĭ
° ±ê³¼
· ¸
Ð Ķ
Ú Ń
Û Ī
æ Ĥ¨
ç ł
ì ĺ
ì Ĥ¬
Ġ ul
Ġ ÑĸÐ½
Ġ áº£nh
Ķ ìĸ´
Ġt el
Ġa id
or is
es i
Ġp it
Ġf inger
ic l
ic ular
le matic
ro t
Ġn ima
Ġre vert
Ġre verse
Ġl lenguat
Ġh alaman
am ount
st aw
st ring
ĠT om
Ġg alleries
ab ric
em p
em y
ac j
ĠM er
ĠM IME
Ġal ive
ĠP eter
Ġde leting
ir ation
Ð° Ñħ
oc ale
ĠD ial
ĠD espite
ĠG ap
ĠG lass
ra it
pl an
Ġwe ird
ĠB i
ĠB eta
Ġ1 20
Ġun ter
pt a
ĠH en
ĠH ub
ĠR am
ãĤ «
ãĤ ½
ãĥ §
ãĥ Ĳ
lic he
res se
Ð¾ Ñħ
Ġim per
Ġsp r
cl osure
Ġcomp r
Ġj ed
ĠIn sp
ĠJ on
Ñģ Ð¿
Ð» Ðµ
à° ·
Ġdis ag
Ġz aa
ear s
ord in
Ġ3 60
Ġtrans itions
Ġind eed
ÅĤ ad
à¥ ĥ
Ġprodu ces
Ġatt ended
ĠØ§ÙĦ ÙĦØº
Ġback ing
ivers ary
Ġorgan is
ale go
Ġì Ĺ
êł Ĩ
ock ed
ÛĮ Ø±
to ol
Ġinc ons
à¨ £
ÑĢÐ° Ð½
Ã¡ ch
Ġtext ual
app y
Ġà¦ ¨
ĠTh reat
Ġcustom ization
St ream
Ġend s
the less
×ľ ×Ĳ
Ġfound ing
Ġ0 7
ĠCont act
Ġ×Ķ× ©
Ġshow ed
Ġá ī
istr ict
istr ators
here nt
Ġ8 00
Ġstatus es
Sp otify
14 9
Web Kit
ãĤĮ ãģ¾ãģĻ
Ġ×ľ ×ŀ×
àŃ Ł
ĠÐ² Ð¾
É£ i
Ġemploy er
Ġexpress ly
Ġdra wn
Ġsuggest s
24 9
ĠAb s
ĠQu ad
26 2
Î± Î½
Ġvalid ate
áĪ į
å® Ł
Ġjur y
Ø§Ø± Ø³ÛĮ
Int erest
comm ons
Ø· ÙĪ
Ġcharacter istics
Å¡ Äįina
ÏĦ Îµ
Pl ural
ãĥĥ ãĥĪ
Ġadapt ations
Ġsup ers
Ġassemb lers
Ġí Ļ
200 6
ĠBu y
Ġminut e
Ġod p
Ġcur ated
Bu ilt
AL L
×Ļ×ł ×ķ
ĠWikipedi i
Õ¡Õ µ
Ġpurch ased
Ġtrad ition
Ġjak o
Ġmar g
Ġgen uine
Ġsn ap
Ġwid espread
Part s
Ġtim eline
Ġdistin ction
Ġdam ages
fin ity
Ġvot es
Ġdro it
Ġsubt le
Ġcele b
ç® ¡
ĠìĿ´ ë
Ġshik ur
Ġvert ices
Ġaccident al
ĠOnt ario
Ġprac ÄĻ
View ing
Ġrul ed
ĠUr bana
Ob ject
Fac ulty
Ġreject ed
Ġcell s
ĠtiÅĭ g
Ġreveal ed
Opt ions
Ðĵ ÐĪ
ĠMA Y
Ġbath room
ĠÃª tre
åĵ ģ
Ġunn ecess
Ġspos Ã³b
ĠJet pack
Ġly rics
accept able
Ð°ÐºÐµÐ´Ð¾Ð½ ÑģÐºÐ¸
ĠMond ay
Afr ika
ëĶ Ķìĸ´
Ø§ÙĦØ¹ Ø±Ø¨ÙĬØ©
C at
E sp
J S
K ategor
L ois
M M
M a
P age
S te
T V
T ab
U buntu
V ideo
b b
f unction
g t
j an
k g
m al
r ill
t d
w u
w al
¡ °
Ï į
à «
ç ħ
è ³
è Ī
é Ĺ
í ļ
Ġ rom
Ġ Ø§ÙĨ
Ġa an
he tic
it ial
Ġc ro
Ġc as
Ġc ast
Ġp ointer
Ġo leh
Ġd s
Ġb oolean
Ġm dn
Ġn Ãł
et e
ĠC ert
ut t
un s
ĠS el
ĠS ide
ĠT alk
ad s
ad an
Ġg b
ĠW elcome
Ġus ability
el igible
ĠM S
ĠM ov
ĠP ub
ĠP ass
ĠP iper
ĠG artner
ĠF ield
ure auc
and on
ĠH D
ĠH and
ĠH ard
iv i
ãĤ §
Ġse gment
áĢ Ĭ
iz a
Ð¸ Ð»Ð¸
Ð¸ ÑĨÐ¸
Ġsh adow
ens ation
ĠN ative
ĠN utz
Ġcomp ile
ans ion
rou d
ass ing
Ðº Ð»
ific ate
ong a
Ġdes criptions
aw ai
yp ing
Ġaut h
Ġrec re
Ġ3 3
own ikÃ³w
Ġcons olid
à¬ ¡
à¬ Ĩ
aj or
Ġexp anding
Ġav ailability
Ġrem ix
ĠSp ot
Ġevery where
ever al
Ġco oper
min imal
to String
Ġinc omplete
Ġlicens ors
app ed
read er
Ġperm iss
St yle
Ġview ing
Ġtra ined
Ġauthor ize
Ġauthor itative
ÃŃ tica
ÐµÐ½ Ð¸Ñı
ãģ§ ãģĤãĤĭ
ĠZ uckerberg
Ġtyp ing
Ġtyp ical
Ġfocus es
erc ially
Ex cept
ĠBl ock
cz i
Ġorganiz acji
aut ion
On ly
ĠMod ern
ĠBe z
Ġsepar ated
Ġassoci ation
äº Ľ
ĠÐ¾ Ð¿
Ġê °Ģ
Ġweek ly
áİ ¾
ãĤ¤ ãĤ¢
×ĵ ×¨
à© °
SA VE
Ġtit led
Ġzesp Ã³ÅĤ
Ġredu ced
à¸« à¸¥
Ġenter prises
Ġí ĮĮìĿ¼
zen ie
ĠÚ© Ø§
Ġcontract ual
Ġmer ch
ãĤ¦ ãĥĪ
Ġenh anced
Ġpress ure
Ġdeploy ed
Ġconstruct s
Ind aba
Man ual
Ġamount s
à· Ĵ
Ã¢n Äĥ
Ġprint ed
Ġnar row
Ġauthent icated
ajÄħ c
Ġcategor ize
ĠJud eo
èĢ ĥ
Ġmac OS
á»ĩ n
ĠØ§ÙĦØª ÙĬ
Ġpus hes
Ġnas z
Ġperfect ly
Ġadvoc ate
Ġwor se
Ġarbitr ary
Ġvot ing
Ãµ es
Ġqual ify
ãĥĹ ãĥŃ
Ġutil is
Ġcomplain t
Ġinvestig ation
ĠIntel lectual
ĠMah am
Ġà¤ª à¤°
ĠÐ¿ÑĢÐ¾Ð³ÑĢÐ°Ð¼ ÑĥÐ²Ð°Ð½Ð½Ñı
ä¿ ¡
ä¿ Ŀ
ĠBer ne
Ġmut ual
åī į
Ġseamless ly
¯¸ ëĶĶìĸ´
Ġunlike ly
Ġworkout s
Ġacqu ired
acc ur
Ġkomun ik
ĠPaper white
Ġstraight forward
Ġgather ing
Ġworksh op
ĠCla ude
éĿ ŀ
Ġdisapp oint
Sm all
áĢ¾ áĢº
Er ror
åİ Ł
èĳĹä½ľ æ¨©
ĠÐ¿Ð¾ÐºÐ¾Ð» ÑĸÐ½
Ġvandal ism
ÛĨØ±Ú© Ø¬Ùĩ
çħ §
ãĤ¤ãĤ¢ ãĤ¦ãĥĪ
1 19
3 99
9 3
A W
B o
E PUB
F air
H ave
I ES
K e
M ozilla
N ederlands
P ER
S ie
S ometimes
T a
T alk
c r
h ar
h adoop
h ood
j on
l ook
m ed
m akers
n is
p res
u vi
w g
Ï Ĩ
å »
é ļ
ë ł
Ġ ÛĮ
Ġt ill
Ġt ier
on der
Ġs ector
is hes
ed y
Ġf ifth
Ġd ang
Ġd ream
Ġb odies
ic ians
le ps
Ġin appropriate
om o
Ġl ag
Ġl osing
ut i
ĠS eph
st ate
ĠT witter
ag ai
Ġg ate
Ġg ran
ĠW E
ĠW P
ĠW iss
ur poses
em ail
ik u
Ġst ays
ĠM el
os i
os ures
ãģ ¡
ĠP ear
ment ion
Ġex clude
ĠD u
ĠD istrict
Ġnot ing
ĠB ul
ĠF ire
ĠF Ã¶r
Ġk ÉĶ
à¸ ¶
Ġr ating
ĠL ib
Ġse k
iz ard
à¤ ¶
Ġad a
Ġad alah
Ø§ Ø¬
Ġsh ut
Ġsp ring
Ġsp ending
ĠN av
ĠN eed
Ġ× ĺ
Ġtr ong
Ġdo or
Ġj ump
Ġj uga
Ġper t
ĠK eep
Ã© es
ob y
Ġpre m
Ġrec on
×ķ× ĳ×
ÙĨ Ø§
ĠUn fortunately
Ġind igenous
ÅĤ Ã³w
Ġ19 99
Ġass et
Ġpe er
Ġperson enbe
Ñĸ Ñı
Ġele ction
Ġevery day
Ġ4 7
Ġinv oke
Ġì Ħ
Ġco ins
Ã¡ l
Ġret ention
Ġcustom ized
ien ie
ĠAd apt
Ar g
Ġchar ged
Ġ×Ķ× ŀ
ĠCon n
ĠCon structor
Ġaddress ing
à½ ĵ
ĠZ ero
ĠSh ark
à¸²à¸ «
áĢº ê©»
Ã¶ sch
Ġformat ted
ĠPl ace
ÑģÑĤ Ð°Ð½
Ġhand les
ĠÐ² Ñĭ
Ġorganiz ers
Ġport folio
Ġsecond ary
Ãª nd
Ġtax p
AR T
ĠRes ults
ĠMay be
Ġnews letter
att ribut
ĠØ£ ÙĬ
comm on
Ġut ilitarian
à¸« à¸Ļ
Ġ199 6
Pl ayer
åŃ Ĺ
Ð½Ñĭ Ñħ
ãģķãĤĮ ãģŁ
Ġregul ation
ĠSm ith
Ġtab index
Ġmo Å¼e
Bu ilding
Ġinternational ization
Ġconstruct ed
ĠIndones ian
Ġsty ling
Ġliter ate
Ġliter ary
with out
Ġdeb ate
Ġpain tings
Ġcampaign s
Ġcategor ized
Ġproced ure
Ġelect ronic
åł ±
Ġpus hing
Ġdest ro
ĠMon th
ĠIh nen
agen ame
Ġcoord inate
Ġstyles heet
Ġimpl ied
AD ME
ĠChar les
Ġconsult ing
Ġtreat ment
Ġtick ets
ĠDon ald
Ġcritic ism
Ġmicro data
ĠBit coin
Ġmot iv
ĠLog o
æİ ¥
è® ¸
ç« ł
Ġsustain able
ĠDate Time
hÃ¢ sa
åĨ ħ
ĠìĤ¬ ìļ©
Ġwyk orzyst
æĽ ´
Ġbelie ves
åĢ ¤
ĠJe ff
Ġemot ion
ĠCult ural
Ġphr ase
Ġsurround ing
Ġspread s
Ġprzep ÅĤyw
Ġcand id
Ġcontr ary
Iss ue
ĠÐ°Ð² ÑĤÐ¾ÑĢ
Ġsubstitut ed
Î»Î» Î·Î½
Ġsuk ces
wec ke
Ġdepart ments
ĠAfr ika
ĠPhilipp ines
Ġprep ared
ĠEnviron ment
ĠPrim er
ĠOak ley
Propert y
agiar ism
pieczeÅĦ st
Ġsophist icated
Ġpersonenbe zog
4 99
? âĢĿ
G FDL
K ar
N eed
P olic
S ection
T oday
b s
e ff
e Å¡t
h ard
j o
k om
l it
l ast
u as
u pp
y ku
z ione
¡ ãĥĩãĤ£ãĤ¢
â Ī
æ ¡
ì Ļ
Ġt ers
Ġt ut
Ġt ym
Ġt ries
Ġt rivial
in er
he ber
or se
it z
Ġw ird
Ġf ict
Ġo l
Ġd ivid
Ġb is
Ġb unch
ar se
Ġn ive
Ġre users
om ent
et ime
Ġfor k
ch ts
ĠC ur
ĠC lick
ĠC apt
un ter
ĠS witch
ĠI l
id dle
ag ab
ĠW as
ĠW ales
el es
Ġv or
Ġv aries
ĠM ini
ĠM aven
ĠM achines
ãģ ¿
ãģ ĺ
ĠP asc
ter ator
est i
ec a
ĠD J
ĠB ill
ang o
ĠF ix
ak o
ĠL est
ĠL ight
ĠR ank
iv ities
ãĤ º
ĠO wn
Ð¸ Ð³
res olution
ĠN Y
Ġtr ick
ib e
Ġcomp act
Ġint r
ĠIn nov
ĠJ ah
Ġne ural
Ġany way
.[ [
Ġqu arter
Ġz ad
ound ing
ĠK al
ell ed
Ġcl ause
In s
right s
ĠØ ·
ru g
Ã© m
×ķ× £
Ð² ÐµÑĢ
ĠRe v
iss ue
Ġserv ing
à¬ ¼
ãģ® ãģ§
Ġent h
Ġent ered
ĠSp ons
ĠSp iegel
Ġ5 2
Ġtechn ically
êł Ģ
Ġinc ent
20 18
ĠY es
arb age
ĠÑ ī
Ġdec re
app ro
Ġdocument ed
ĠÐ¿ ÐµÑĢ
Ġident ification
St andard
ĠÙħ Ø§
Ġdon ations
Ġvari ants
Ġmult ip
zy Äĩ
Ġnumber Format
Ġtra ce
ĠÐº Ð¾ÑĢ
à½ ¢
ÐµÐ½ Ð¸
Ġorganization al
Ġë §
vers ed
Ġconst antly
ĠÐ¼ ÐµÐ½
Ġhand y
Ġrece ives
ãģĹ ãģ¦ãģĦãģ¾ãģĻ
enc ia
con fig
ä½ į
Ġintegr ity
Ġcap ability
On line
Ã§ Ãµes
Not ice
ron o
Ġload s
Ġengine er
äº «
Ġfam ous
Ġhuman ity
Ø® Øª
ĠOr ig
ĠQu ick
Ġinform al
Ġ×ŀ× ¡
ĠGu ard
Ġpol o
ÓĻ Ð¼
Ġsupp lement
Im age
ĠIm plementation
Ġlow est
ĠSc reen
Ġbi as
Ġadapt ed
Ġparent hes
å¤ ī
ĠSm all
Ġarchitect ural
List Format
Ġfall back
ìŀ ¥
à¸Ħ à¸£
Ġ×ĳ ×¨
Ġaffili ated
Ġcapt ions
Ġlight weight
Ġìŀ Ĳ
Ġsimpl er
Ġfriend ly
ĠÅĭ un
Ġren amed
Ġkar imb
Ġminor ity
Ġharm ful
Ġevalu ated
Ġrac ial
Ġcolumn s
×ĳ× ¦
å¾ Į
ĠSu pp
ĠSu ite
Ġhar assment
Ġfig ures
ĠInv ited
Ġdemonstr ate
Ġbes ch
ĠUnivers ities
×Ļ×¨ ×Ķ
Ġscient ists
Ġconfirm ed
Ġdeclar ations
æ§ ĺ
Ġhab en
Ġestablish ing
Ġstreng th
Ġbehavi ors
Ġobvious ly
Ġinteroper able
Ø³ØªØ®Ø¯ Ùħ
åº ¦
Ġsubsequ ently
ÉĻ r
é¡ Į
Ġincred ible
Ġzm ian
ĠRich ard
Ġbeaut y
áºŃ t
Ġsummar ize
ĠTra ining
Ġworksh ops
ĠCred entials
Ġple as
Ġintention ally
Ġhous ing
ç½ ®
Ġwszystk ich
Ġmitig ate
Ġdut ies
ĠMart in
ãĤµ ãĤ¤
Ġconstitut es
upy ter
Ġdiscrim ination
Ġattor ney
Ġsmartw atch
æķĻ èĤ²
oÅ¼ li
Ġphilosoph y
ÑĢÐ¿ ÑģÐºÐ¸
ĠÙĪÙĬÙĥÙĬ Ø¨ÙĬØ¯ÙĬØ§
äºĮæ¬¡ åĪ©çĶ¨
Ġunw anted
à¸łà¸²à¸ ©
Ġaccompl ish
ĠuÅ¼yt k
ĠSeph ard
è®¸ åı¯
eÅ¡t ina
! "
1 20
C ase
C apt
D er
D ec
H igh
L S
M P
M s
M ay
M obile
N am
N ovember
N avig
P ath
Q U
R ange
T wo
T ER
] )
c p
m ay
m os
r ac
s loven
t emplate
y u
z in
z ec
æ Ł
Ġ Ã§
ģ ķ
ķ Î»Î»Î·Î½
Ġt ack
Ġa ux
or ation
Ġs um
en ess
es la
it os
Ġc u
Ġp ou
Ġp ace
Ġp yt
ed it
ed ge
Ġf aces
al one
Ġd iction
ic le
ic ol
ic ity
Ġto wn
Ġn ag
Ġre nt
Ġh i
im ity
Ġfor ced
ĠS unday
ow y
st andard
ĠT yp
ol f
Ġg al
Ġg ift
ĠW ARR
Ġcon ferences
ur an
ur ally
Ġv ice
Ġst ere
Ġst oring
op edi
ri x
ĠP en
ĠP op
ĠP ixel
Ð° ÑģÑĤ
oc z
ĠD ir
ĠD ell
ĠG L
Ġwe igh
Ġyour s
for ge
ĠB an
ew ish
Ġr id
Ġun st
ies z
ĠL it
ud u
ĠR om
ĠE in
ĠE st
ĠE arth
à¤ Ł
Ġad equ
Ġch ip
ĠN C
Ġ× ¦
ÑĢ ÐµÑĤ
Ð½ Ð¾Ð³Ð¾
Ġle ver
Ġab straction
Ġab brevi
Ġab andon
Ġcomp osed
Ġj a
Ġrep ly
ĠJ S
ĠJ ones
ĠJ ews
Ġres idential
Ñģ Ðµ
Ñģ ÐµÐ¼
Ðº ÑĬ
eb ut
ĠV ict
Ġz ijn
×Ļ× ĸ
×Ļ× Ĺ
ell er
Ġnew est
Ġfe aturing
Ġout come
Ġaut of
Ġaut orsk
Ġpre par
Ġsub page
), [
ÙĪ Ú
ÙĪ Ø¬
Ġsec rets
Ġproject or
ne ys
ĠØ§ÙĦ Ø§
Ġprot otype
ull a
ĠAr gent
Ġ4 2
oy s
Ġdesign er
Ġinv ent
Ġì ĸ
Ø¯ Ø§
Ġstart up
Ġprof ession
mat h
Ã¤ h
St ate
Ġsm arter
áº ¯
ex empt
Ġend ed
Ġvis iting
ĠEx cept
Ġ0 5
Ġhigh lights
ĠAm ong
Ġexist ence
à¦¾ à¦Ĥ
ãģ¾ ãģŁ
Ð°Ð» Ð¸
Ġreal ized
ÑĨ Ðµ
Ã¶ ff
Ġconst itute
Pro f
Pro v
Ġà° ľ
Ð°ÑĤ ÑĮ
Ġadmin s
áı ĵ
ĠInd igenous
Ġ×ľ ×¢
Ġport ed
ĠáĢ Ļ
Ð¾Ð» Ð¾Ð³
erstand ing
ĠMac s
Ġcontact ing
Ġcollabor ating
Ġcommit ments
à¦¿ à¦Ĥ
ĠAg ents
Ġwr ist
äº İ
ĠAb stract
Ġê ¸°
ĠUR AA
ĠRec overy
Ġregard ed
ĠQu ery
Ġmaintain ers
Loc ation
Ġbig ger
Ġsit ting
Sh ow
dz ie
ĠCom pliance
à¹Ģ à¸Ķ
à¹Ģ à¸ŀ
ĠReg istration
Ġpair ing
Ð½Ð¸ Ñħ
Ġ199 7
ÐµÐ» ÑĮ
Ġprevent ing
Pl ay
èªŀ è¨Ģ
Ġperiod s
ĠØ§ Ø³Øª
åŃ Ĳ
ĠDo es
Ġß Ł
ãģķãĤĮ ãģ¦ãģĦãģ¾ãģĻ
Ġcontract s
En able
Ġword en
Ġve ctor
ĠÃ© t
Ġdraft s
IC ES
Ġcompet itive
Ġmiss ed
Ġlabel ed
Ġ×Ļ ×ķ×¦
ĠDirect ive
ë¥ ¸
pi ibu
Ġcompil ed
Ġabs ence
Ġpick ed
ĠMet ro
Ġsequ ences
ĠAc ross
áĢ² áĢ·
Ġsubt itles
ĠCustom ers
ãĤ³ ãĥ
×ĳ×¨ ×Ļ×Ŀ
Ġconduct ed
Ġpublis hers
Set ting
ĠTam ali
áĢ® áĢ¸
off s
ÐµÑĢÐ° ÑĨÐ¸
Le vel
Ġwarrant ies
Ġredirect s
ĠMah ama
Transl ation
áº¥ t
Ġê² ½
åĩ ¦
ĠSur vey
á¹ ³
Ġunc ertain
Ġbelie ved
Ġmist ake
ĠÅ ĵuvre
ĠnarzÄĻdz i
System s
ĠWi Fi
Ġlingu istic
ĠMarket place
æĬ Ģ
Bel ow
Gr ade
Ġscr atch
Ġachie ved
Ġretrie ve
Ġbus y
Ġpursu ant
ðĲĮ° ðĲĮ
focus ed
ĠSales force
ĠSen ate
Ġonboard ing
Ġroy alty
åħ± äº«
Ġdee per
brow ser
ĠMaham aru
ĠPasc al
ķÎ»Î»Î·Î½ Î¹ÎºÎ¬
ĠWARR ANT
= =
A ust
B IL
L i
M CA
T ake
U M
b ur
b ell
c u
c ap
f o
l as
m obile
n orsk
r ad
r ate
t op
u ment
v ar
Ù Ĳ
ç ¢
ê ±
í ĺ
Ġ `
Ġ Ó©
ĳ ×¨
ĺ ħ
ļ ãĥ¼ãĤ¸
Ġt out
Ġt one
Ġs olved
Ġc ascade
an akan
Ġp ilot
Ġp roud
is ition
is ensi
al ienable
Ġan i
Ġan tic
Ġd ocs
le ments
Ġto m
Ġm es
Ġin fer
ar ound
Ġn est
Ġe ll
il o
ation ale
Ġh á»
ĠC row
ĠC OBOL
ers e
ut y
un akan
ĠS W
ĠS ections
ĠS ometimes
ag ues
ol ly
Ġg el
ĠW ix
Ġv á»Ľi
ul um
Ġwith draw
Ġst ew
Ġst ock
ĠP erm
ĠP olit
ect ors
ect ives
ec ode
ec ycle
ĠG ame
igh an
ra k
ĠB os
ĠB ild
ĠB ased
Ġk aj
Ġr adio
and ra
ĠL E
ĠH a
ud a
ĠR un
The n
Ø§ ÙĬ
res olved
Ð¾ ÑĪ
ĠN inja
Ġar ms
Ġall oc
Ġdo ku
ile t
Ġint ers
Ġte go
ult ane
ĠIn side
ĠIn iti
Ġres istance
Ð» ÐµÐº
ĠV ol
ĠSt ill
×Ļ× ¤
ĠK orb
Ġdes k
Ñĥ Ð¿
Ġaut eurs
ob acz
Ġev olved
Ġart yku
ah ili
ĠRe place
ild ren
à¬ ¹
Ġgener ating
ĠCh ris
Ġinter medi
Ġfun kc
Ñĸ Ð´
Ñĸ ÑĹ
Ñĸ Ð»ÑĮ
Ġrem inder
Ġ5 8
Ġdisc ont
êł Ķ
à¨ Ĩ
ÑĢÐ° Ð»
20 21
resent ation
Ġprob lematic
ĠÐ¿ Ð¾Ð»
Ġident ifies
ĠTh ings
ex isting
ef in
×ľ ×ķ
ä¸ »
ä¸ ĸ
ath an
ath ML
Ùģ ØŃ
Ð± Ð¸
ãģ« ãĤĪ
Ġdel ivers
Ġ×Ķ× ł
ÅĽ my
ĠÐº Ð¾Ð´
ĠQ ue
Ð°Ð» Ñĸ
ĠAn abi
orm ative
ann on
ÑģÑĤ Ð°
Ġdem os
Ġà° ®
ĠÙĪ ÛĮÚ©ÛĮ
àŃ ģ
be it
Ġcollect ing
ĠáĢ ŀ
Ġhard er
Ch ampaign
ĠØª ÛĨØ±Ú©Ø¬Ùĩ
Ġrespons ibilities
ãĤ¹ ãĥĪ
Ġprin ter
Ġlaws uit
åĪ ¥
40 2
Ġremain ed
Ġsecure ly
wit zer
Ġsmart phones
å® ¶
Ġdeterm ining
roll ing
Ġgrow n
ĠWikip Ã©dia
Ġimm utable
Ġpack s
Ġinput s
Ġenable ment
ĠSpec ific
Ġsort s
Ġbi ÉĽ
Ó© ÑĢ
ĠEm ploy
Ġreprodu ce
Ġtab s
Ġrecord ings
ĠWiki Indaba
OU LD
ãģĤ ãĤĬ
Ġbad ge
Ġful fill
çī ĩ
Man ager
bre aking
inst ance
ĠAv ro
licens es
×ŀ ×ķ×ł
Ġreflect s
Ġreflect ed
Ġflag s
Ġsimpl ified
PL I
Ġcontinu ously
ĠCheck ing
ĠFran k
ĠCamp aign
åı¯ ä»¥
fix ed
Ġdeep ly
æĺ İ
Ġprec ision
Over view
ĠAud it
å° ı
Ġbes cher
Ġartik ulo
ĠAddition al
ãĥĸ ãĥ©ãĤ¦ãĤ¶
Mod ern
Ġfran c
gl ied
wik ipedia
Ġprompt s
Ġjournal ist
áº¥ y
Ġdead line
ãĤ¸ ãĤ§
ä¼ ļ
å¿ ħ
ĠKore an
engg una
à°® à°¨
Ġarg ue
æŀ ľ
def ault
Ġheav y
çŃ ī
çŃ ĸ
Ġattend ees
ãĤĪãģĨ ãģ«
Ġinvok ed
ãģ§ãģį ãģ¾ãģĻ
Ġcha Åĭ
Ġìķ Ĭ
á¸ į
Ġbah aso
ë¶ Ħ
ĠNort hern
ĠEss entials
rv atski
Pat tern
Pol ÃŃtica
Ġtrigg ered
PE G
usk ara
Relative TimeFormat
ĠSERV ICES
Ġteac hers
ĠPri ze
áº· c
mac OS
Ġtempor arily
åĩ¦ çĲĨ
BIL ITY
Ġdoku ment
witzer land
. --
A E
C ount
D el
D espite
E d
E xt
F A
H D
H DFS
J ohn
J ÄĻzy
L ED
M on
M ashable
P a
R I
S M
S a
S z
S ave
S ÃŃ
S umm
S VG
] ).
b ed
b ound
f ik
h y
k as
m n
n ight
p kg
t u
u gh
u ition
w as
y z
Î ¸
Û ĭ
è ĭ
ë §
Ġ Ð°Ð½
Ġ ãģ§ãģ¯
Ġ ÆĻ
Ġt ar
Ġt yl
Ġs ed
Ġs ist
Ġs quare
Ġs aha
it am
Ġc iting
Ġc ounsel
Ġc aught
Ġp ang
Ġp Ã¡
Ġw arm
Ġf ro
Ġf ut
al og
Ġd l
Ġd il
Ġd ual
Ġd ram
Ġd ella
Ġb all
ic ago
le ep
Ġin n
Ġin accur
ro g
ent ation
as p
Ġre ct
Ġl oved
Ġth or
im port
ĠA wards
ig ung
ĠC N
ut il
ĠS i
ĠS oci
ĠS cribunto
st ration
ĠT ake
ĠI CAD
Ġg ig
ĠW ant
ur ning
op ting
Ġit u
Ġde hydr
od d
Ġex ch
Ġex cluded
Ġ2 50
ĠG allery
se arch
ĠB ooks
ang ed
ore t
Ġr ig
ort ing
and em
ĠL es
ĠL ong
ĠL oad
ĠL eg
ĠH R
ud i
áĢ ĳ
à¤ £
à¤ ¬
Ġsu it
ãĥ ł
Ð¸ ÑĺÐ°
ĠN O
ĠN ach
Ð½ Ñĥ
Ġle verage
so ftware
ĠJ es
Ġpl ays
act or
Ġcomm ercially
Ðº Ðµ
Ġdis miss
Ġper ceived
ĠV oices
Ġpart ially
av ailable
Ġsc ene
Ġcl oning
aw e
aw are
Ùħ Ø¹
Ġout lined
Ġspec ifies
te ch
ÙĬ Ø³
Ð´ ÑĥÐº
ng uas
ond s
Ġph Ã¡
Ġart s
ĠRe veal
Ġtrans clude
Ñĭ Ð¹
Ġoff ices
ÅĤ at
Ġmod ification
ues e
ĠØ§ÙĦ Ø³
Ġprot ocols
ari ous
Ġà¤ Ķ
Ġmet res
cript ive
Ġì ĺ
ci Ã³n
×¨ ×¤
×¨ ×ļ
×¨ ×ŀ×ł
à¨ ¸
20 23
Ġdifferent ly
Ġaccount ability
Ġfind ings
à± Ī
Ġconsid ers
Ġ6 4
und i
ograph ical
To ols
Ġdep artment
ĠAm b
Ġattribut ed
Ġlog ging
ÃŃ n
Ġposs ibility
à½ ł
ÐµÐ½ ÑĮ
Ġclass ic
13 0
ï¿½ï¿½ï¿½ï¿½ ï¿½ï¿½ï¿½
Ġshe ll
Ġrepresent atives
ĠÑĤ Ð°Ðº
Ġsk al
Ġanal og
Ġorganiz ing
ĠHe ather
Cont ribut
ĠIntern al
ãģ¨ ãģĦãģĨ
Ñį Ð¼
ony ch
Ġsubs criptions
à¸Ń à¸¢
Ġfac ed
×ł ×Ļ
Ġfix ing
Ġ×ĳ× ¢
Ġ×ĳ× ©
à® ¤
à® ®
à® ķ
Ġvol unt
Ġsignific ance
Ġcult ures
Ġoption ally
Int egr
Int roduction
è¨ ĺ
Î¿ Î½
ii i
Ġbar u
ĠØ§ Ø³ØªØ®Ø¯Ø§Ùħ
ĠÚ© ÛĮ
Ġaltern ate
ĠMe eting
Ġdecl ared
ãĥ¼ãĥ Ĺ
à¸Ĺ à¸¢
Ġquot ations
Ġà¤ķ à¤°
ĠCons ider
à¸Ħ à¸§
Ġsafe ly
book s
à· Ĭ
ĠAccount s
Ġdr one
Do es
Ġdeb t
des ign
Ġìł ľ
Ġsav es
Ġcontinu ing
Ġwid get
à¹Ħ à¸Ĺà¸¢
Ġclar ify
Ã¹ ng
ĠUp date
aur ants
Any one
Ø§Ø¯ Ø©
æ¬ Ĭ
Ġimpl ications
Ġimpress ed
ĠCL OS
æı ı
ĠHTTP S
ĠMat erial
Ġpublis hes
ĠÊ» o
ç® Ģ
ĠWill iam
Ġrecip ients
ĠOver view
Ġair port
ìĭ ł
ĠÙĦØº Ø©
ç´ł æĿĲ
ä»¥ ä¸ĭ
ĠRE ADME
Ġvert ical
áĥĲáĥ łáĥ
áį £
Ġ×ĸ ×Ľ×ķ×Ļ×ķ×ª
ç« ĭ
Ġsustain ability
col lect
Ġmanip ulation
ãģ¤ ãģĦãģ¦
ĠAS F
ĠAS CII
ĠMag ic
raz il
Request s
inv oke
Ġmist akes
Ġreserv es
ĠmoÅ¼ li
ãĤ¦ãĤ£ãĤŃãĥ ¡ãĥĩãĤ£ãĤ¢
ĠzuÉ£ ul
Ġpersp ectives
Ġemot ional
Ġcodec s
Ġheav ily
Ġhor ror
Ġrapid ly
Ġos iÄħ
dev ice
Ġfilen ame
found er
Ò¯ÑĢ Ó©ÑĤ
ĠLiter ature
Ġhierarch y
æĻ Ĥ
Ġinqu iries
rele vant
elij k
Ġdoll ars
Polit ik
Ġpromin ent
Ġworkload s
Ġilleg al
áĥ£áĥ ļ
Enter prise
ĠDeclar ation
æĥħ åł±
ĠTurk ish
Ġstatut ory
Ġwers ji
Ø¹Ùħ Ø§ÙĦ
íļ Į
agab aga
à¬¼ à¬¿
Ġantic ip
ĠØªÛĨØ±Ú©Ø¬Ùĩ Ø³ÛĮ
Ġtyl ko
? "
B ot
B et
F F
F rench
G raph
H adoop
I E
J ud
L eg
M ap
N othing
N inja
N AME
O h
R ooms
S up
T ypes
T iáº¿ng
T Ã¼rkÃ§e
U L
W AI
W MF
Z en
g ithub
m itted
n ij
p at
s ign
u er
u pload
w ar
w ala
Ð ¨
Ð Ń
æ ®
æ Ħ
ë ŀ
Ġ ers
ħ į
ŀ ßĬ
Ġt il
Ġa ve
Ġa zi
in as
he lp
re quest
Ġs es
Ġthe o
en ed
it en
it ations
Ġc ash
an an
Ġp eng
Ġp apers
Ġp engguna
Ġw ild
Ġw yn
Ġw rap
is ible
Ġf ly
Ġf ish
Ġf its
Ġf iction
ing ly
Ġd od
Ġb ureauc
ic i
Ġm Ã¡s
Ġm igration
ro ad
Ġre form
Ġre usable
Ġl ie
Ġe ks
Ġh ub
ot yping
Ġfor b
ĠA uf
ĠS E
ĠS ay
ow any
ĠT en
ĠT ag
ĠT ogether
ĠI II
ag ine
Ġon der
ce ive
Ġg adget
ĠW CAG
Ġus able
el ve
ik es
ul it
Ġst ating
Ġst amp
ĠM r
ub a
ĠÐ ¯
ĠB E
ĠB and
ĠB oolean
Ġk aw
out hern
Ġr oughly
Ġby Äĩ
ĠL td
ĠH yd
ĠH unter
ĠR oss
ĠE lement
iz z
ĠU TF
ĠO tto
ãĥ ľ
Ġim material
Ġsp irit
cl oud
Ġcomp ensation
ĠWik tionary
Ġrep r
ĠJ BL
Ġpl agiarism
act iv
Ġup hold
ĠV S
ĠV ers
Ġme ets
ĠSt aff
Ġpart e
×Ļ× Ľ
ru ck
Ð´ Ð¸Ð½
Ġrec urs
Ð¼ Ð°ÑĤ
Ġneed ing
×ķ× ŀ×
ĠUn ity
ĠUn less
ident ified
ÅĤ os
ced ural
Ġprodu cing
Ġpe ut
olog ie
emb le
Ñĸ Ð¹
Ñı ÑĢ
Ġsim ilarly
Ġsim ultane
Ġro ck
Ġown s
Ġdisc our
Ġì ļ
ci ous
ug s
eg in
ÛĮ Ù¹
ĠDe lete
mat ically
Ġresult ed
ien ia
Ġche m
li ament
omet ric
Ġmult imedia
Ġwrit ers
ãģ« ãģ¤ãģĦãģ¦
Comm erce
edi ation
Ġdel ay
Ġel im
Ġauthor ing
}} }
ĠÑģ Ð°
Ġá ¸
à½ £
à½ ´
Ġ{{ {
Ġminim ize
ãĥ³ ãĥĪ
Ġdefault s
Ġà° ħ
ric ulum
ĠÐ´ Ð°Ð½
Ġplay ers
Ġplay lists
Ġgreat ly
Ġ×ľ ×¤
àŃ Ģ
Ġnam ing
port ing
É£ a
Ġcontact s
Ġop ens
ĠØª ØŃ
ĠÎ ¼
åı °
ãģª ãģ©
ĠOr d
Ġ×ĳ× Ķ×
Ġtarget ing
Ġ×ŀ× Ĳ
Ġintrodu ces
ĠØ§ÙĦÙħ Ø´
Ġdownload ing
Ġaccept s
ĠStud ents
ĠCap ital
Ġà¬ ª
×Ľ ×ľ
Ġ198 5
oub le
ĠIm m
æĸĩ ä»¶
æĸĩ ç«ł
ĠPart ner
tr ack
ĠGener ally
ĠTH IS
Ġsort ing
Ġum oÅ¼li
cont ext
ĠOb serv
Ð½Ñĭ Ð¹
à¸± à¹ī
ĠArt ificial
ĠPar amount
hent ication
Ġcompet itors
Ġaccur ately
Gener ally
Ġmag ic
Ġ×Ķ ×Ļ×Ĳ
ãģĻãĤĭ ãģĵãģ¨
Ġpers ons
Ġreli ability
áĭ «
ĠDirect ors
Ġprint ing
Ġba Åĭsim
ĠSim ple
ĠSaf ety
Ġìł ķ
Ġlib re
Ġstre et
ĠSch iffer
ĠMet hod
Ġchalleng ing
à¹Ħ à¸Ķ
æĿ ĥ
Ġassign ment
Art ikel
ĠUp dated
ÛĮÚ Ī
Ġcoord ination
pe a
Ġord inary
á»Ļ i
ĠAng ular
Cap acity
Ġhighlight ing
mb ang
Ġlang ages
Ġexclusive ly
Õ¸ Õ
ê² Į
ĠExtens ions
Ġground ed
×Ļ×§×Ļ× ©
æĶ ¯
Ġcut ting
åĨ į
Ġshap es
Ġinterview s
Ġdisp on
ĠColl abor
¯¸ ì§Ģ
ĠSem antic
Addition ally
icher d
Ġ×Ĵ ×Ŀ
ĠCult ure
Ġkomun itas
éĻ Ĳ
Ġimag ine
Cons ider
Ġfilen ames
Rest aurants
Spro och
Ġgradu ates
ĠMit glied
Ġmanufact ure
neg ative
Ø®Øµ Ø©
Ñļ Ðµ
Phot ographs
Micro soft
Ġë¬¸ ìĦľ
æħ ĭ
Ġps ych
ĠNob el
Ġunnecess ary
toString Tag
uvi Å³
Ġsek ang
Ġenth usi
Ġ×Ļ×ķ×¦ ×¨×Ļ×Ŀ
èĭ ±
. ).
1 16
D OM
D urationFormat
E urope
G N
G reat
G hana
J ira
K om
L ead
O s
O fficial
P s
P rior
P arking
U r
U pload
V PN
X Query
d on
d ocs
e h
f iles
i pl
i ert
j acent
k h
k r
k w
k on
l ength
m as
o ir
o ÅĽÄĩ
s z
s ection
s ze
w en
z ie
® à´
² à´
Ê Ĵ
Ð Ĺ
Ö Ħ
ß į
Ġ }
Ġ Ð°ÑĢ
Ġ ãģĵãģ®
Ġ __
ħ ëĭĪëĭ¤
Ķ °
Ġt on
Ġt ied
in ews
re view
re ply
er al
at y
or o
Ġs oc
Ġs ni
Ġs ister
es etz
Ġc ities
an ese
Ġw art
ou l
ou ter
ing en
Ġb ab
Ġb ij
Ġto ilet
Ġm emb
Ġm other
ro oms
as hes
Ġn in
Ġre ward
Ġl ok
Ġl ÉĽ
Ġh al
Ġis i
ĠC i
ĠC up
ut al
st u
id ia
el n
Ġv oices
Ġst ress
Ġst ability
Ġst adium
op es
ect ing
est e
Ð° Ð³
ist ribution
ĠG eo
ĠG PL
ra ham
se par
ĠB a
ĠB ase
ĠB ell
ĠF ar
ĠF eder
ĠF ilter
ĠF iduciary
Ġcan vas
ak h
ak arta
Ġun clear
and e
ĠH ave
ĠR ovo
um ing
form ing
ĠE ar
ant Commons
à¤ ł
ĠO ld
ãĥ Ħ
Ġhe ight
Ġhe nce
à¦ ¡
à¦ ľ
Ð¸ ÑĦ
ens ional
ens ington
ĠN et
Ġwork force
Ðµ Ð¶
ÑĢ Ð¾
Ġtr ang
Ġcomp ression
Ġen cl
Ġte ach
Ġte aching
ĠJ upyter
ĠJ ewish
Ġacc omp
Ġso ft
act ic
Ġz ak
ĠK ategor
ell t
In v
Ġaut oc
ob ox
Ġsub domain
Ð´ ÐµÐ½
Ø§ÙĦ ÙĬ
Ġimp ose
ĠPro pos
ĠPro log
Ø± ÛĮ
Ġinst ruct
Ñĭ Ð²Ð°
Ġform ally
à¥ ī
Ġob j
à¬ ¸
Äħ czy
Ġover ride
ari ant
Ġu zys
Ġà¤ ¯
Ġà¤ ĩ
Ġtool ing
Ġspecific ity
Ġ5 12
ek ty
pr acy
Ø¯ ÙĪ
to Locale
ys on
Ġnum eric
Ġprof it
read ers
Ġterm ination
Ġstandard ization
Ġà¦ ®
Ġperm its
St arter
Ġche ap
ex cept
ex ample
li est
Ġend ing
Ã¼ k
10 1
Ã¨ ng
Ġchar ges
ĠCont ext
AT E
Ġdist ance
ĠÐº Ð¾
Ġfr iction
Ġupd ating
ĠAl g
Ġeng aged
ÃŃ s
Ġselect ors
Ġenc ount
Ġenc aps
Ġpoint ing
Ġë Ķ°
ai wan
ãĤĴ æĮģ
12 3
yn orsk
Ġstud ies
Ġmess aging
ĠÐ± Ñĥ
Ġà° ¨
Ġclass ified
Ġdat as
con n
Ġlif est
ĠBl ues
Ġsk e
Ġcollect ively
port uguÃªs
Ñį Ð½
ĠWh o
ĠPr ism
je j
sh aring
vert ising
ni Äĩ
Ġcent ers
Ġold est
Ø® ÙĬ
åħ ¶
à© ģ
ĠComp utation
Ġgraph ic
Ò¯ Ò¯
Ġsmart phone
å® ¹
bu ild
bu ilding
Ġrecommend ation
Ġrev ised
Ġfail ures
ĠÃ ¸
Ġhold ing
Ġprior ities
Ġ199 2
Pl an
ĠTH AT
ãĤ¯ ãĥĪ
ãĤ¯ ãĥª
Ġmarket place
ĠØ§ÙĦØ °
Ġofficial s
Õ¡ ÖĢ
ĠFr ame
Ġquot ed
ĠID s
Man age
Ġoptim ized
ÑĤÐ¸ Ð²
Ġcred ential
×Ĵ ×ķ×¨
à´ ³
à´ ¾
à´ Ĥ
à´ ®à´
Ġroz p
Ġinflu ential
Ġecosystem s
Qu ick
cut s
mark s
Ġnas zych
à¸Ľ à¸£
Ġpromot ion
Eng ine
requ ency
ĠAre a
ĠAdd ing
ĠOut put
Ġvot ed
ĠSci ences
Ġswitch ing
orig in
éĸ ¢
ĠÒ »
Ġdemonstr ates
Ġwin ners
Ġsitu ated
Æ°á» Ŀ
Ġcit ations
Î¯ Î±
Ġki ye
ĠInf rastructure
Ð³ÑĬ Ñį
Ġwarrant y
Ġpen alties
ĠIss ues
ĠMus lim
Transl ate
ĠAnal ytics
Ġtele vision
Extens ions
Ġglob e
Spec ial
Ġupgr ades
Ġscen arios
Ġital ic
Fac ilities
å¿ ľ
Ġquant ity
Ġconvert ed
Ġacqu isition
Ġaw esome
Ġrendere rs
Att ractions
áĮ į
Recommended Recommended
Def ault
ãģĪ ãģ°
ãĥŀ ãĥĥãĥģ
Ġsafegu ards
Ġendors ement
Ġexplo it
Ġdupl icate
ãĥķãĤ ¡ãĤ¤ãĥ«
Ġcolle ges
Es peranto
irit to
Ġshortcut s
worth y
è¡¨ ç¤º
Ġfotograf ia
ĠkaÅ¼ d
Config uring
International ization
ĠìłĢìŀĳ ê¶Į
Ġsung lasses
Ġvict ims
Display Names
Ġsud den
Ġchamp ions
Ġstake holders
Ġoccasion ally
ĠìľĦíĤ¤ë °±ê³¼
Ġpode j
Ġqualif ier
ĠJournal ism
Ġic ons
Ġtid ak
æĶ¿ çŃĸ
ãĥ§ ãĥ³
ç®¡ çĲĨ
ĠÐ¿Ð¾ÐºÐ¾Ð»ÑĸÐ½ Ð½Ñı
Ãªnd Ã¢
ĠLest at
ĠSephard ic
ĠArgent ina
JÄĻzy ki
Ġà¤Ķ à¤°
ÛĮÚĪ ÛĮØ§
icherd auer
²à´ ¯
Ġsni pp
à´®à´ ²à´¯
' )
2 000
? .
C od
D E
D owiedz
F lickr
G it
G PT
J ava
M C
M embers
M DN
P ack
T ogether
W ant
W sp
Z oÃ«
b g
c ers
d d
e ah
g ung
h n
h rop
j r
j ur
k k
k et
l ab
l iv
p m
p ath
r ays
s ki
s cribe
t ab
t ra
w ad
w hel
y on
z w
z ens
z iej
Å Ī
Ð Ľ
Ù İ
Û Ĳ
ß ¡
å ¥
å ģ
æ ¥
æ µ
æ Ĵ
é ķ
Ġ ãģ§
Ġ ãģĮ
Ġ à²
ĵ ×Ļ×Ķ
ķ ãĤ
Ġt uma
Ġa est
Ġa ug
in an
in ent
he iser
re q
at io
Ġs ki
it ate
Ġc raft
an im
an while
Ġw o
Ġw u
Ġf i
Ġf urn
ion es
Ġd it
Ġd ry
Ġd anych
Ġb ots
Ġm Ãł
Ġm Ã©s
Ġin herent
as tern
Ġn ur
Ġn os
Ġn ap
Ġn ast
Ġn oms
Ġe p
Ġe ars
il ed
il iki
ot ed
ot ion
et en
ĠA us
ĠA venue
ch arge
am ily
ĠC are
ĠC ase
ĠS ar
ĠS un
ĠS ep
ĠT ry
ĠT ypes
Ġon t
Ġg old
Ġg irl
Ġg arbage
Ġpro c
ĠW he
ĠW rit
Ġcon junction
ab en
ab out
ab au
ur l
em n
Ġv ue
ĠM aking
ĠM oment
ĠP i
ĠP ack
ĠP ap
ver ning
ist e
ĠD E
ĠG er
ĠB A
ĠB ern
ĠF ed
ĠF ot
ĠF inal
ure n
Ġby lines
Ġun acceptable
ĠL ar
ĠL ook
ĠL adino
ĠH ope
ain s
iv os
ant a
end r
Ġthis Arg
à¤ Ń
ĠU nt
ĠO tt
Ġad here
Ø§ Øµ
Ø§ Ø²
ere zh
Ġch ose
Ġch ips
ĠN A
Ðµ ÑĪ
Ð½ Ð°Ð»
Ġcomp an
Ġcomp aring
Ġrep et
ĠJ am
ĠJ obs
rou b
Ġpl ural
Ġpl astic
Ġso bre
Ġdis ruption
ĠV ocabulary
Ġz um
Ġz ost
Ġz oom
ĠK a
ell ite
Ġadd itions
Ġsc oped
Ġlic encji
ob ject
te es
Ġev olution
yst al
Ġ3 4
Ġimp osed
âĢĿ ),
ah l
ah men
Ð² Ð¾ÑĢ
ÙĨ Ø¬
ident al
Ġmat ched
ee per
ĠØ§ÙĦ Ø¨
Ġback log
Ġexp ansion
Ġloc ate
Ġpe ace
ĠCh allenge
Ġke gi
Ġhead ers
Ġent reprene
Ġ5 5
az i
urre n
ÛĮ Ø©
à¨ ¦
à¨ ¨
Ġconf used
Ġprof essor
Ã¤ l
St yles
Ġche aper
li j
zy w
oun ced
itt ers
Ġaud its
crib ed
ĠÐº Ð°
ĠAl ternatively
Ġ10 1
ÙĤ Ø¯
Ġins ight
Ġlocal ized
Ġlat ency
ÐµÐ½ Ð½Ñı
ÐµÐ½ ÐµÑĢÐ°ÑĨÐ¸
ĠZ eit
ĠAs k
Ùĥ ÙĪÙĨ
Ġstud ied
Ġconc ent
Ġà° ¤
ÐµÑĢ Ð¼
con structor
ĠØ¨ ÙĨ
Ġgreat est
Ġ×ľ ×Ķ
Ġaff ects
Ġaff irm
Ġcap x
ĠáĢ Ķ
Ġann iversary
Ġfre ed
Ġparticip ant
sh ould
Ġequ ality
Ġfeed s
Ġfac ility
ĠBe h
Ġpat ents
äº Ĩ
ĠÐ¾ ÑĢ
ĠRes olution
Ġ×ĳ× ĵ
Ġben ch
Ġfair ness
ãģŁ ãĤģ
Ġvalid ator
ps ki
Ġintrodu cing
áĪ Ŀ
×© ×¨
Ġsupp lier
amb i
Ġà¨ ¸
×Ļ×ª ×ķ×£
×¤ ×ĺ
Ġimm ersive
Ġ198 4
ĠPart icip
Pl atform
Ġenvironment al
Ġdiff ers
Ġocc urred
Ġregist ers
Ġcar ried
Ġreprodu ced
ĠVer arbeit
Ġtot ally
ĠPer l
Ġfrequ ent
Ġfall s
ä½ľ èĢħ
OT RS
Ġhim self
licens ing
ãĤī ãĤĮ
Õ¡Õ ¶
Ġiter ations
Ġsol ving
Ġdriv en
AC K
ĠArch ives
Ġcategor ization
Edit or
ĠGet ting
Ġevalu ating
Part icip
à¦¼ à§ĩ
Ġdiv ision
ĠInter face
reens h
ĠPrin c
Ġimpl icit
ĠGovern ance
ĠÑĪ ÑĤÐ¾
Ġemerg ency
Ġbez pieczeÅĦst
Ġprojekt ami
uz z
Ø° Ùĩ
Ġcritic ized
ãĥĳ ãĥĨãĤ£
Ġpred icate
ĠProduct s
ĠìĿ´ ìļ©
ĠSte ve
Ġconflic ts
ĠwspÃ³ÅĤ pracy
Ġserious ly
Ġjournal ism
åł´åĲĪ ãģ¯
Ġthread s
Ġillustr ate
Ġmanip ulate
Every thing
ĠSecond ary
Ġupgr aded
ĠÐ¼Ð¾Ð² Ð¸
åĢ ĭ
Ġye zh
Ġital ics
Ġaggreg ate
ĠnarzÄĻdz ia
Tam ale
Ġprox imity
ĠPan orama
Ġendors ed
Ġannounce ments
Filter ing
Ġcolle agues
Ġinvok ing
Ġconvent ional
ĠStream ing
ĠRequest s
istribut e
Ġcontrovers y
çĶ» åĥı
Ġprev ents
Spro che
Ġconsequ ences
ĠWoo Pay
support ed
ë© ´
è¯Ńè¨Ģ æĶ¿çŃĸ
Ġsys op
Ġmor ning
Depend ing
Feature d
çĤ º
Ġprivile ges
Stat us
Bas ic
åĭ ķ
Ġting bani
Ġà¤Ĩ à¤ª
Ġwhit espace
angk abau
ìĽ Ĳ
ĠlÃŃ nguas
Plural Rules
ĠìĿ´ë ¯¸ì§Ģ
ĠtiÅĭg bani
Afrika ans
å» º
ĠGL AM
Ã¶ff ent
Ġdiscont in
ĠJes us
Politik erezh
áĥ£áĥļ áĥĺ
×Ļ×§×Ļ×© ×Ļ×ª×ķ×£
ĠBlues ky
Ø®ÙĬ Øµ
Ġkegi atan
. '
B R
B ased
C opilot
D I
F R
F ull
G EN
H ey
J apan
L es
M ind
O per
O OP
P rop
P ixel
R ight
R esp
R oz
S el
S elf
S ocial
T D
T erms
V M
V O
V ol
W atch
] :
c rit
d et
d el
d ie
d eg
f en
f ran
h as
i Äĩ
k oh
k altura
l ad
m w
m ag
m ann
p ict
r us
s ure
v ard
v enska
w ick
z u
Ã ¦
Ä ©
Ñ £
Ò ¥
Õ ¨
Ú Ī
ß Ł
á ±
å §
æ ¸
æ ģ
ç İ
è «
è ģ
è ¿½
ë ĮĢ
Ġ ~
Ġ ÉĶ
Ġ idi
Ġt ent
re lease
re po
Ġs ad
Ġp ic
Ġp ued
Ġp icks
Ġw indows
is w
ed en
Ġf ake
Ġb orn
Ġto gg
Ġm ine
ar an
as ily
Ġn ine
Ġn ick
Ġh all
Ġh oping
ĠA riba
ig i
ĠC at
ĠC ook
ĠC rypt
ĠC ounsel
un gan
ĠS A
ĠS T
ĠS ustain
st and
ĠT ong
ĠT uring
ol es
ad as
Ġg at
Ġg od
Ġg ew
ĠW all
ĠW aiver
Ġcon cluded
ur ities
Ġv ital
Ġst ages
ĠM o
ĠM ont
ĠM IS
Ġal ike
ãģ Ķ
ãģ ļ
oc urrency
our ced
ĠÐ ¨
ĠB ug
ĠB BC
ĠB razil
ang le
ĠF R
ĠF ilm
ĠF estival
Ġk amp
ure ment
pt ions
ort e
and ed
ĠL G
ĠL inks
ĠL oom
ĠH awai
ud ent
ĠR ap
ĠE Q
ĠE ll
up a
og a
áĢ Ĩ
Ġsh op
Ġsh ower
Ġsh orter
Ġsp ok
Ġsp raw
ĠN etz
ĠN iger
Ðµ Ñĩ
ard en
ard ziej
ib et
Ġar ise
Ġint ake
ĠJ ack
ap se
Ġany more
Ð» Ð°Ð½
gr is
ind ividual
eb u
ĠV irtual
Ġz ach
ast ers
ĠK en
ĠK it
Ġcl oser
ont s
Ã© g
Ð´ Ñĥ
Ð´ Ð°Ð½
Ġrec urring
Ġag enda
Ø± Ø§
ÙĨ ÙĪ
Ġtrans fers
ĠFor ce
Ġlist ing
rit t
Ġ19 36
ĠØ§ÙĦ Øµ
aj u
Ġexp osure
ĠCh oice
ĠCh icago
ser ve
ser ies
Ġwhere as
Ð³ Ñĭ
Ġhead set
Ġà¤ ¤
Ġ4 8
Ð· Ñį
Ġmet ap
Ġmet ric
êł ¥
sp e
Ġmark ing
ÑĢÐ° Ð·
ash board
ĠY et
Ġret ro
ious ly
plement ations
Ġoper ated
ĠApp ro
Ġà¦ ¯
ĠTh ough
ãĥ¼ ãĤ¿
St r
áº «
Ġgr ams
Ġvari eties
Ġvis ually
ĠEx ecutive
Ð± Ð¾
Ġtra iler
To Parts
Ġdist rict
Ġshow case
aa i
ĠAl bert
Ġeng aging
ank an
vent y
ĠSh ould
Ġreal ize
ÑĨ Ñĭ
ars ing
vers ight
Ġbas ics
de pth
ĠÐ¼ Ð°Ð·
ann a
erc ury
Ð°ÑĤ Ð°ÑĢ
ãģĹ ãģĦ
Ġdisplay ing
Ġlif ecycle
ĠØ¨ Ø¹
Ġsk ip
Ġintegr ates
Ġcompl iant
Ch anges
Ch oose
ĠMan ifest
Ð¾ÑĢ ÑĤ
æľ Ł
çļĦ ãģª
åı ĸ
ĠPre view
Ġconnect ivity
×ł ×Ļ×Ŀ
Ġê µ
Ġrestrict ive
ĠOr acle
Ġ×ĳ× ł
Un iversity
à© ±
Ġgraph ical
opt ional
Ġear liest
×ŀ× ©
Ġrev isions
ĠzespoÅĤ om
Ġà¬ ī
ĠÃ ½
áĢ¯ áĢ¶
×ĺ ×Ĵ×ķ×¨
ÏĦ Î¿
ĠPart ners
Ġli able
Ġnat urally
ãĥĥ ãĤ·
Ġpast e
Ð½Ñĭ Ðµ
Ġgot ten
200 4
enn heiser
è¦ ĭ
ebru ik
Ġom itted
Ġreach ing
Ġblog s
åĬ ©
Ïģ Î±
ĠWikipedi ans
áº¿ n
Ġcapt ion
ĠDis play
Ġsz czeg
Ġmar athon
Ġbal anced
Ġthought ful
Ġbott le
Äĥ n
Ġwer k
ĠStr ings
Ð´Ñĭ Ð³
ĠSub ject
mark et
æĿ ¡
ĠSw iss
å¾ ·
çĽ ´
cre ate
Res ources
Ð¾Ð³ÑĢÐ° ÑĦ
ĠContribut ions
rupt ed
Ġsatisf y
ÐĴ Ð¸ÐºÐ¸Ð¿ÐµÐ´Ð¸Ñı
à¹ĥ à¸Ĭ
Ġlang age
Ġnaj leps
ĠCar l
Ġ×ĸ ×Ķ
ĠMus arc
ĠBro ad
ĠBro ok
ĠÐ¿ÑĢÐ° Ð²
Ġrozw iÄħ
ĠFin ally
ĠRuss ia
Coll abor
ĠÅĽ wi
Lat est
Ġpoz iom
ĠDan iel
Ġbound aries
Ġrenew al
ĠType Script
Ġzg ÅĤos
ĠGard ens
á»ģ u
Dev ices
æŃ £
Ġphr ases
æĸ¹ æ³ķ
osp ital
Techn ical
Ġfire wall
Ġscreensh ots
Ġê³µ ìľłê²½ìłľ
Ġunde letion
Ġpodcast s
Ġpure ly
Ġsurpr ising
Ġpomoc Äħ
Ġnomin ated
ĠHy per
Ġdebug ging
Ġmilit ary
Ġsubscrib ers
çŁ ¥
Ġpurs ue
Ġestim ated
ĠLock e
ĠInsp ire
tool forge
Õ¡Õµ Õ¥ÖĢ
ĠnÃł y
ĠSpot light
ĠPear son
Ġcandid ates
appro ved
ÙĪÚ º
Prof essional
ç¢ º
Ġauteurs recht
å¿ħ è¦ģ
ĠLoad ing
æĦ ı
Ġelim inate
Ġlifest yle
' '
1 17
C all
C VE
F low
H ome
K a
L E
L ooking
M ich
M essage
P ull
R ip
R ob
S outh
S ync
T urn
V illage
W ar
W est
X HTML
a ft
a que
f acing
h igh
l ot
l ocal
m ade
m itt
n an
n el
n ames
t ag
w s
º «
È «
æ ²
ç Ĭ
è ī
è º«
ê °
Ġ ik
Ġ ub
Ġ ãĤĴ
Ġ ãĤĤ
Ġ Ú¾
Ġ Ã¤r
Ġ ãģĿãģ®
Ġ è¦ģç´ł
Ġt s
in x
in ct
in te
he ld
re nd
re ng
er b
er ry
Ġc in
Ġc lic
Ġc ite
Ġw il
Ġw iel
Ġo program
Ġd ab
Ġd ip
Ġb le
Ġb illions
Ġb ought
Ġm ill
Ġm ouse
Ġn Ã£o
Ġe ines
Ġh ak
Ġh ttp
ot es
ot ing
et es
ĠC ost
un ci
un itas
ĠS al
ĠT al
ĠT utorial
Ġg ÉĶ
ĠW in
ĠW omen
ay o
Ġv ar
Ġv un
if ts
Ġst os
Ġst ret
op her
ĠM ess
ĠM ailing
ãģ ¸
ĠP ath
ĠP rivate
ub ern
ĠD iv
ĠG PS
ra eg
se y
ĠÐ ¦
ĠÐ §
ĠB AS
ĠF ast
Ġk ern
out s
ew ise
à¸ ľ
Ġr ad
ĠH o
ĠR SV
ĠE xt
ĠE arly
ĠE ric
Ġcont ra
áĢ Ł
à¤ §
à¤ ı
Ġad opting
à¦ §
à¦ ī
Ġch apters
Ġim agen
ĠN ever
ĠN ederlands
ĠN atural
ile y
ĠJ av
ĠJ oseph
Ð» Ñĥ
ass isted
ĠV ideos
ĠK an
Ġif r
Ġsc ores
Ġfe et
ĠØ ²
Ġpre mi
Ġpre ceding
yst er
Ġsome how
Ø§ÙĦ Ø©
ond e
ond itions
riv ing
×ķ× Ĺ
Ø± ÙĪ
Ġfil ms
Ġind ivid
Ġ19 31
Ġprodu cers
Ġover whel
Ġexp osing
ĠCh rom
ĠCh oose
Ġwhere ver
Ñĸ ÑĨÐ°
Ġorgan isation
Ġu k
Ġele v
Ġhead s
Ġà¤ «
Ġent ering
Ġpar ody
esp e
Ġ4 00
Ġbl ind
Ġinv ented
Ġì °
Ġì ¡°
ci u
ci ence
sp ect
pro du
Ø¯ ÛĮ
ys k
Ġinc idents
20 22
Ġproduct ive
Ã¡ i
Ġdec iding
Ġident ities
Ġgroup ing
less ly
áº ½
lem ann
li ents
ĠEx ample
Ġfound er
Ùģ Ø§Ø±Ø³ÛĮ
Ġexpl ores
Ġcomput ation
Ġaud iences
ism o
Ġdep rec
Ġexist ed
ĠÑģ Ñĥ
ãģ¾ ãģĹãģŁ
Ġá Į
Ġcomple ment
Ùĩ Ø¬
ĠSh ikuru
Ġë ª
Ġë ³´
ren ce
Ex per
13 5
ĠInd ex
Ġens ikl
Ġlif etime
Ġsur prise
àŃ ĭ
Ġport s
Ġann oy
ĠOpen AI
Ġ9 5
Ġemploy ers
epend ence
Ġguid ed
Ġexcept ional
×ķ×ª ×¨
Ġfin ance
Tr ademark
Tr ump
ĠÙĦ Ùħ
ĠRes ource
Ġweek end
áİ ¢
ĠProt otype
Ġinform ative
Ġoffic er
ĠÐ¿ÑĢ ÐµÐ´
Ġoffer ings
Ġpol l
×© ×Ķ
Ġsupp lied
ĠNo ise
Im ages
Ġredu ction
Int rodu
Ġcorre ction
Ġess ay
Ð»Ð° Ð´
Ġgrant ing
Ġaction able
IT H
Ġocc as
ìĹ ¬
Ġcontract ors
Ġnormal ization
Ġwa ive
ĠEm ail
×¢ ×ĳ×¨×Ļ×ª
ãĥ³ãĥ Ħ
Ġded ication
åľ ĸ
ÐµÐº ÑĤ
ĠPer formance
Ġfast est
ĠCons umer
Ġsem i
Ġein en
Rec ent
Ġinnov ations
Ġconstruct ors
ìļ °
áģ ŀ
atic a
ĠFit ness
ĠÙĬ ÙħÙĥÙĨ
Ð½Ð¾ ÑģÑĤ
Te am
Ġattempt ing
Ġstay ing
Ġmis leading
Comp are
Ġhealth y
ĠOther s
ĠÑĢ Ð¾Ð·
Ġdeb ut
Ãº ng
ĠMore over
Ġìł ģ
Ġbott len
do es
ĠÑı Ðº
Ġtransform ative
Ġsw ap
Ġphotographer s
Ġelect ed
Ġdas hes
Ġrespond ed
Ġmaxim ize
ĠÙĥ Ø§ÙĨ
ĠMar ia
Ġ197 8
Ġdost os
Ġdraw ings
ĠDepend ing
Ġretain ed
Ġemerg ed
CL UD
Ġassess ment
Per f
Ġprohib it
Ġpip e
Ġmot ion
Ġlit igation
Ð¸Ð¹ Ð½
ÑĤÑĮ ÑģÑı
Ġaggreg ated
ĠSnap shot
ĠProfessional s
éł ħ
Ġbyt ecode
Admin istrators
Ġannounce ment
ĠIns ights
Ġdiss em
ç½ ĳ
éĿ ¢
ĠBet ter
Ġà¦¸ à¦®
EM ENT
Ġhyp hen
Ġaplik acji
Ġswe et
Ġdut y
ĠCount y
ĠFac ulty
Ġarrang ement
Ġbright ness
Ġconver ts
Ġafford able
Ġrepeated ly
Ġparadig ms
Ġlawy er
Ġlawy ers
Ġwyd aj
Ġenfor ced
ĠPortug uese
ĠUt ara
à¬ĩ à¬ķ
Ġkod u
Ġchair man
ĠMalays ia
æĮĩ å®ļ
Ġzapew nia
Ġverarbeit en
Ġflo ating
ĠrozwiÄħz ania
åķ ı
stron om
ĠDefin ition
Ġvirus es
Ġfant astic
ĠØ° ÙĦÙĥ
Ġdelight ed
Hand ler
ĠNutz ung
ĠFÃ¶r der
Ġdestro y
Ġemotion ally
ãĤµãĤ¤ ãĥĪ
Ġà°ľ à°°
Ġtom orrow
ĠIniti ative
ãĤ¸ãĤ§ ãĤ¯ãĥĪ
itam ix
Ġinaccur ate
ĠzuÉ£ul ana
Ġsimultane ously
Ġcompan ion
ĠNetz wer
) )
. ),
4 49
C opy
C urrent
D z
F un
F und
F OR
G ES
G iven
H ER
M erge
P i
P owered
R en
R TC
R atio
S em
S unday
S everal
T ION
Z obacz
b in
b al
b el
b oth
c b
c at
d s
d im
d am
e in
f an
f alls
g un
h ave
k ol
o P
o ct
p ers
s ince
t et
u o
v in
v io
w or
y i
y re
z z
´ Ģ
Ð ¤
Ñ Ľ
Ò ½
á Ĳ
á ł
ç ²
ç ³
è ¼
ë ¬
ë ³
ë ³´
Ġ ib
Ġ ãģĵãĤĮ
Ġ à¹ģà¸¥à¸°
ľ ì
Ġt rib
Ġt á»
he av
er ly
er pt
er ror
at ile
en h
es k
it ious
Ġw i
Ġw ife
Ġw dro
Ġf ear
Ġd ust
Ġd ann
Ġb id
Ġb oy
Ġm und
ro it
ent yp
us ually
Ġl oud
Ġth r
Ġh ob
ot ic
ot ation
ot ter
im ming
Ġfor ces
ĠA w
ig o
ig it
un an
un ia
ĠS qu
ĠS iri
ĠS witzerland
ĠS leep
ow an
st a
ĠT our
ĠT ower
ĠI ce
Ġg ear
Ġcon clusion
ur ianu
ul ating
ul ai
Ġst anding
ĠM ail
ri er
ĠP o
ĠP ic
ĠP erson
ir k
ĠD A
ĠD H
ĠD iversity
ĠD SG
Ġwe y
Ġwe ak
Ġwe alth
ĠB ay
ĠF ood
ĠF ollowing
ĠF eedback
Ġk as
Ġk il
à¸ Ł
Ġr am
Ġr um
Ġby te
Ġun com
Ġun fortunately
ĠL os
ĠL and
ĠL IA
ĠH aving
ĠR og
ĠE arbuds
up un
end ering
Ġse es
à¤ ļ
ĠO p
ãĥ Ļ
Ġsh ots
Ġim ple
ens ors
Ġwork space
ib ilit
ail ed
th rough
th ird
Ġany time
Ñģ Ñħ
Ġhas h
à° ¬
Ġcomm erce
ĠV en
ĠV angu
ĠV ery
Ġz o
Ġz ast
erv ing
ific ant
ĠSt ay
×Ļ× ŀ×
ĠK e
ĠK ong
ell ung
aw ning
ru kt
ob a
Ġsub class
Ġsub pages
ng Ã®
Ġ3 7
own ed
Ð¼ Ñĸ
Ġno ch
ĠRe ference
ne xt
Ġcol d
Ġind ication
Ġmod ifying
ues day
Ġrel ies
à¬ ²
à¬ Ł
Ġover head
wn ie
ĠCh amp
ĠCh anges
Ñĸ Ð»
Ñĸ ÑĪ
Ġver w
Ġpar sers
Ġjust ice
Ð· ÑĭÐº
oy age
Ġbl end
Re quirements
Ġì §
az e
êł ¡
Ġmin ing
pro cedural
Ġapplic ants
Ø¯ Ø©
eg l
eg en
à¨ ¹
Ġstart ups
Ġpriv ately
ym al
ym raeg
ĠÑ Ķ
Ġdec entralized
Ġgu ys
Ġà¦ ¤
Ġeven ing
Ġgr at
Ġgr ab
ex ico
work s
Ġimplement ers
Ġ6 39
10 4
Ã¨ t
ili ate
Ġview point
atch ing
Ð± ÐµÐ»Ð°ÑĢÑĥÑģÐºÐ°Ñı
Ð± Ð·Ñį
Ġcomput e
ĠInt uition
Ġel abor
ĠÐº Ð¾Ð½
Ġfr Ã¥
ĠAl ger
Ġins u
Wik im
Ġposs ibilities
ĠCon stitution
ÐµÐ½ ÑĤ
ĠSh ield
ĠAn not
Ġra pport
ÑĪ Ð°
ÑĪ Ðº
uk e
Ġstud io
Ġpass ive
16 6
ĠÐ± Ñĭ
ĠÐ± Ð¸ÑĢ
Ġà° ļ
Ð°ÑĤ Ð¸
áı ħ
Ġfl oor
Sp eed
Ġsever ity
Ġpower ing
Ġfact o
×Ĳ ×Ļ×Ŀ
Ġlast ing
Ġport ions
ãģ¨ ãģĹãģ¦
Ġunt r
ani em
Ġnorm s
ĠØª ÙĪ
ms i
Ġline ar
çļĦ ãģ«
Ġtable ts
åı Ĥ
åı Ĭ
ĠCl ip
Ð¶ Ðµ
Ġmodel ing
ĠAg ain
oÅĤ ecz
ĠPh ys
Ġ×Ĳ ×Ŀ
ĠÙĦ Ø§
ĠIs land
ĠIs lam
à¸¡ à¸Ńà¸Ļ
Ġpri ory
Ġcy cles
Ġinform acje
Ġvalid ated
Ġbre aches
Ġ×ŀ× ¢
åĲ «
Ġear n
ãĥĪ ãĥ¼ãĤ¯
App s
Ġpol ice
ĠDat entyp
Ġdeterm ines
nie j
Ġrecommend s
ĠCan onical
Ġtri p
Ġremov es
ĠÄĳ i
Ġmeet ups
ko ove
ÐµÑĤ Ð°
ĠAut hentication
urs or
Ġaccording ly
Ġ199 3
ĠSc ott
Ġ×ķ ×Ķ×
ĠCent re
ĠEdit ing
Ġsubst itute
ÑĦ Ð¾ÑĢ
ĠØ§ÙĦØ «
Ġprz yp
Ġencour ages
ĠPar liament
Ġinfring e
Ġtem at
Ġtem per
Ã¥ l
à°° à°
ĠÐ³ ÐµÐ½ÐµÑĢÐ°ÑĨÐ¸
Ð¾ÑĤ Ð¾
ä½ľ æĪĲ
à¸Ħ à¸Ńà¸¡
Ġsat ellite
Ġ×ĳ ×ª
ãģ®ãĥ ¬
à· ı
Ġ×Ļ ×©
Ġlack s
Ð°Ð¼ Ð¸
Ġìŀ ¬
ĠPa id
Ġexc erpt
Ġjud gement
à² ¾
Ø« ÙĦ
iny l
Ġpolit ics
ĠPort able
Ġenjoy ed
Dis able
Ġgain s
Or ig
Ġadvoc acy
Ġemp owers
Ġ×§ ×Ļ×ĺ
cie j
Ġenhance ment
ÓĢ Ð°Ð»
Ġ×Ķ×ŀ× ©
Ġwater proof
ÏĢ Î¿
Ġwin ning
Ġwin ner
ĠSing le
stra Zen
Ġassum ptions
Ġprojekt u
pack ages
Ġmathemat ics
zn Äħ
ĠDisc ussion
UR L
Ġdynam ically
Ġho áº·c
ĠÐ¿ÑĢÐ¾Ð³ÑĢÐ°Ð¼ Ð¼
cha ft
ĠAdmin istration
Ġtal ent
ĠÄĳá» ĥ
å½ ¢
åī µ
Ġaward ed
Ġbed rij
dem and
Ġsubc ategory
Ġscen es
Ġscen ario
ĠMad ison
ĠHis ense
à¹Ĥ à¸Ķ
Custom er
print ing
Ġdepict ing
Ġduration Format
ĠTransl ation
áºŃ p
Ġtutorial s
Ġobs ÅĤug
ãĥķãĤ ©
rep resent
Ġdies e
Ġprote g
Ġalign ment
ĠYOU R
Av oid
ìķ ¼
Ġmand atory
Ġtermin ology
Ġwym ag
Ġling ua
å· ¥
Ġsr c
Ġwikil ink
ĠResp ons
Ġparadig m
???????? ????????
Ġliv est
ĠIndust ry
ãģ¹ ãģ¦
Ġáİ¤ áı
ãĤ³ãĥ³ãĥĨ ãĥ³ãĥĦ
Ġathlet es
Ġaudi ob
ĠIng gris
Ġnewsp aper
Ġneigh b
ĠÐĴÑĸÐºÑĸ Ð¿ÐµÐ´
ç¹ ģ
ĠGar min
æ§ĭéĢł ä½ĵ
Ġllenguat ges
abric ator
Ġodp owied
Ġsnap shot
Ġauth ored
ĠØ£ÙĬ Ø¶
Ġdivid ed
Capt cha
æıı çĶ»
ç®Ģ ä½ĵ
áĥĲáĥłáĥ Ĺ
Ġá¸ į
ĠumoÅ¼li w
roub leshooting
ĠTong ues
Ġà¬ī à¬ĩà¬ķ
Ġclic ks
ĠRSV P
ĠDSG VO
à¸¡à¸Ńà¸Ļ à¸ª
ãĥĪãĥ¼ãĤ¯ ãĥ³
à¸Ħà¸Ńà¸¡ à¸¡à¸Ńà¸Ļà¸ª
Ġ×§×Ļ×ĺ ×¡
straZen eca
+ ,
B ox
C lass
D id
D ER
G E
H ar
K und
L ive
L aw
N A
N or
N as
O d
P ets
P urposes
S I
S on
T B
T w
T ry
U t
W ill
Z ap
Z arzÄħdz
a al
b ably
b ps
c al
c ategories
f eature
g ÅĤ
i pt
i ams
j am
k el
l j
m or
m ake
n b
p eople
r ules
r Ã¤
s is
s ome
t or
v n
x y
y k
£ ¼
Ò Ļ
Õ ¹
æ ¢
æ ¯
ç ©
ç ·
ç Ħ
è ½
ë °
Ġ Ã©s
Ġt ro
Ġt et
Ġt um
Ġt ip
Ġt ua
Ġa i
in tern
re i
re du
re ason
at om
at im
at ically
Ġs ic
Ġs ar
Ġs ie
Ġs outh
Ġs andbox
en force
Ġc ups
Ġc Ã´ng
Ġc Å©
Ġp ili
Ġp ih
Ġp ione
Ġp iano
Ġw ÅĤ
Ġf is
Ġf ather
Ġf arm
Ġf ellow
Ġan ime
Ġd ell
Ġd ung
Ġb il
Ġb ra
Ġb ird
Ġb oot
ic u
le e
Ġto ys
Ġm ount
Ġm ob
Ġin ev
ro gram
Ġn á»Ļi
Ġre lying
Ġl ud
Ġth u
ĠA G
ĠA ware
am o
ĠC A
ĠC over
ut o
un ct
ĠS her
ĠS umat
ow l
ow ars
st at
ĠT or
ĠT own
ĠT otal
ĠT aiwan
ĠI r
ĠI de
ag hi
Ġg ar
Ġg em
Ġpro port
ĠW ater
ay non
Ġcon version
ab it
Ġv oc
Ġst ops
Ġst uck
op les
ĠM B
ĠM P
ĠM iss
Ġal igned
ãģ ³
ĠP rior
Ġde rech
Ð° Ð¿
Ġex cess
ia u
qu es
oc at
ĠD O
ĠD ocker
ĠD yson
ĠG ecko
ra ud
ra ine
Ġnot ified
Ġwe ather
for get
ang el
ĠF low
ĠF ourth
Ġk id
Ġr ationale
ort hern
and er
ĠL iz
ĠH as
ĠR o
um in
form a
ĠE asy
Ġcont en
Ġhe x
à¦ ¥
Ð¸ Ð¸
res so
Ġsp elling
ĠN ight
ĠN avig
ib ooks
Ġle an
Ġcomp let
ĠWik inews
Ġen umer
so lete
Ġj an
ĠJ ur
ĠJ IR
ap ing
ign ore
Ġres olving
Ð» ÐµÑĢ
Ð» Ð¾Ð²
Ð» ÐµÐ´
ĠV M
Ġme hr
ĠSt ar
ĠK ontakt
Ġour selves
ell i
Ġdes ire
Ġdes criptive
Ñĥ ÑĢÐ°
Ġaut ora
ÙĬ ÙĤ
Ð´ Ð°ÑĢ
Ġpr iced
Ø§ÙĦ Ø¬
Ġcons erv
ĠRe qu
ĠRe ferences
Ġi Mac
Ġthere by
Ġmod ular
Ġunder ground
Ġfollow ers
Ġprodu cer
Ġback ward
Ð³ Ð¸
Ñĸ Ð·
ale Å¼
ix els
Ġà¤ ī
Ġevery body
Ġlaw ful
Ġbl ame
Re al
Re ason
Ġdesign ing
az ioni
ug gest
pro duct
Ġco in
ick ing
à¨ µ
Ġresp ects
20 15
Ġstat ist
Ġstat ute
Ġnum er
Ã¡ m
Ġdec ent
ĠApp s
ĠApp lied
Ġà¦ ²
Ġà¦ Ĩ
amp ire
Ã¤ ll
ãģĻ ãģ¹ãģ¦
Ġer fol
ĠÙħ Ø±
ex clusive
pos ition
Ø³ Ùħ
Ø³ Ø¨
Ġvis its
Ġ6 5
ĠAd vantage
Ã¨ l
Ġpost ÄĻp
Ġcomput ational
Ġhere by
Ġâ Ĩ
ĠÐº Ð°ÑĤ
Ñĩ Ñĭ
ĠÑģ Ò¯ÑĢÓ©ÑĤ
ÃŃ ch
ĠSh adow
ĠQ C
Ð°Ð» Ñĭ
com plete
itut ional
Ġimpro ves
Ġaddition ally
Ġra z
Ġë ²ķ
ÉĶ bu
Ã¶ t
ral ia
12 4
ann el
Ġclass ical
13 4
Ġtag ging
Ġpract ically
ĠØ¨ ÙĬ
Ġdepend ent
14 0
Ġintegr ating
àŃ ¦
ogn itive
umm ond
ÑĬ Ñĳ
Ġann ually
É£ isi
Ġvi áº¿t
An n
Ġny a
Ð¾ÑĢ Ð¸
Ġnecess ity
ke it
ĠRep ository
sh op
Ġplan e
Ġsepar ation
ĠÐ° Ð´
×ł ×ª
isc hen
áİ ¯
wa Äĩ
Ġrecogn ised
Ġincre mental
Ġviol ence
Ġviol ating
åħ Ī
Ġvol umes
åĪ °
Cre ator
Ġinvest or
Ġtarget s
Ø´ ÙĥÙĦ
]] .
Ġkind ly
Ġsuccess or
ÓĻ Ð½
roll er
à¹Ģ à¸ģ
Ġà¨ ¦
Ġfail over
ĠzespoÅĤ owej
comm it
Ġvirt ually
Ġdiscl osures
Ð»Ð° Ñģ
Ġ198 2
ĠAut o
Ġactiv ated
IN everCry
ĠIm pact
ÏĦ Î±
Ġ199 4
22 9
Ġma is
Ġ×ķ ×Ļ×§×Ļ×¤×ĵ×Ļ×Ķ
bol a
Ġí ĺ
Ġexplain ing
ĠAss ign
Ġß ŀß
reg ular
Ġdial ek
Ġlayout s
ĠShe ets
Ġcur at
Ġcur ious
ĠPer anakan
ÑģÐº ÑĬ
Ġcompet e
Ġphys ics
×Ļ×§ ×Ķ
ĠÐĴ Ð¸ÐºÐ¸Ð¿ÐµÐ´
Ġauthors hip
ÑĥÑĢ ÑĤ
ä½ľ åĵģ
áģ ļ
Ġcred ited
Ġ×Ķ ×ķ×Ĳ
Aut omat
åĬ ¨
Ġdifficult y
áī ³
áº£ i
áĬ Ľ
Ġcapt ured
ÑĥÐ» ÑĮ
Ġdig its
ĠSup abase
Open Text
AC L
Can onical
Ġill ustration
Ġinsp iring
Ġderiv atives
Ġfore ver
ĠAnt ivirus
Ġcyber att
Ġincorpor ates
Ú¾ ÛĮ
ĠÑį Ð¼
ÑĤÐ° ÑĢÐ°
Ġou ter
ynam ic
AD OOP
Read er
ĠIdent ifiers
Ġstand alone
Pr ime
Ø¸ Ø©
Ġrout e
rec ognition
ĠInf o
è§ Ĩ
Ġopp osite
Ġappreci ated
Ġground s
Ġround ing
ĠStart ed
Ġamb ient
ĠDem ocratic
Ġadm ission
Ġinsert ed
ÐŁ ÑĢ
Ġkh Ã¡c
ĠUr heber
Ġshi pped
Lic ensing
ĠMc C
ĠPract ical
Ġcrypt o
Ġupgr ading
Ġrelig ion
ĠCam era
èĩª çĶ±
è¿ °
Ġcarry ing
á»ģ n
ÏĮ Î½
atu ur
ĠTransl ate
ĠVPN s
Ġsuff ix
Ġwur den
Ġwal let
++ ,
Ġíķ ©ëĭĪëĭ¤
Ġkarim ba
Ġcelebr ate
ĠDr ummond
istribut ed
Ġpreced ence
Ġcontrovers ial
Serv ice
Serv ices
Ġtang ible
Ġcand idate
Ġunde lete
×ķ×ķ ×Ļ×¡
ICE NS
çķ ª
Brow se
Ġswit ched
æ± º
ĠÙ¾ Ø±
ĠDeep Mind
Share Alike
ĠEmp ire
Ġconfident ly
ĠÎº Î±Î¹
ĠBright Cloud
Adv anced
Ser ver
ĠrÃ³ Å¼
Spe icherdauer
×ķ×ĺ ×Ļ
áº§ n
Program ming
transl ated
gricult ure
ĠMem orial
ĠÑĥÐº ÑĥÐº
Ev ents
categor ization
Interest ed
Esp aÃ±ol
Ke ys
Ġdang erous
mention ed
ĠkÉĶ b
Ġtaxp ayer
ìĻ Ģ
Ġters ebut
Standard s
×ĳ×¦ ×Ļ×Ŀ
ĠWARRANT IES
ĠCrow n
Ġinters ection
ĠSoci ety
Ġave c
separ ated
ĠOtt oman
Ġfreed oms
Pixel Ratio
deg ree
è¿½ åĬł
çĬ ¶
dim ensional
ç³ »
Ġinsu fficient
Ġprzyp ad
ĠcÅ© ng
% )
4 00
6 00
7 28
D em
E U
E th
E mail
I B
J e
K h
L P
N ever
N umeric
P ub
P erm
R om
R uss
S ch
a ire
b le
b et
b ies
c apt
c oding
f d
f Ã¤ng
f requency
g b
g at
h uman
h aus
i pped
i pping
i Ã¨re
o ire
o ji
p x
r ical
s ic
t ar
t ri
u its
y y
£ p
Å ĳ
Î ķÎ»Î»Î·Î½Î¹ÎºÎ¬
Ò ·
Õ ´
ß ĭ
ß ĺß
á Ł
æ ·
é Ł
ë ª
Ġt ul
Ġt all
Ġa z
Ġa ria
on na
er ah
at z
at re
Ġs ac
Ġs lice
Ġs ectors
en y
it ar
it ness
Ġc um
Ġc ake
Ġc iÄħ
Ġc Ã¡ch
Ġp es
Ġp el
Ġp ak
is o
Ġf est
Ġf ug
Ġf illed
Ġf uel
Ġf ruit
al tern
Ġd og
Ġb on
Ġb ÄĻ
Ġb uds
Ġb Ã¢n
Ġb ubb
Ġb hÃ¢sa
Ġto ki
Ġm w
Ġm Ã³
ar os
Ġand ere
as cript
Ġn ob
us ive
Ġl ake
Ġl isensi
Ġe ius
ve als
Ġh ur
Ġh ook
ot eric
et ti
ly n
ĠA st
ig her
ĠC ould
ĠC opy
ĠC ath
un kt
ĠS U
ĠS and
ĠS elf
ĠS aaS
Ġbe ar
Ġbe ll
ol ling
Ġg ebruik
ĠW W
ĠW a
ĠW il
ĠW ood
Ġor ang
ay ers
Ġcon vey
Ġv ibr
Ġv iral
if orm
ĠM ur
ĠM ill
ĠM IT
ĠM usi
ĠM athML
ri o
ĠP el
ĠP ip
ĠP ep
ĠP OS
Ġde cy
ir able
ub ihi
ec ome
ist ered
oc able
ĠD a
ĠD er
ĠD am
ĠD ub
ĠD utch
ĠD MCA
ĠG adgets
ĠB ry
ĠB eng
ĠB und
ang s
Ġk w
Ġk el
Ġk ur
Ġk ana
Ġk ole
Ġr zec
Ġun ion
Ġun related
ĠL AT
ĠH arm
ĠR os
ĠR ange
ĠR adio
iv ih
iv oyage
ĠE D
Ġat a
Ġcont emporary
Ġse in
ĠO versight
Ġad jacent
Ø§ ÙĪ
à¦ Ľ
Ġsh oes
Ð¾ Ð¿ÐµÐ´
Ġsp ell
ĠN orm
Ġ" [
ib i
omm en
ie k
Ġen roll
ans ki
ine a
ÑĤ Ð°Ð½
ÙĦ ÙĦ
ĠJ an
th let
à° §
Ġcomm e
Ðº Ð°ÑĤ
der ing
ĠV oice
ĠV itamix
Ġqu y
Ġz d
ound ed
ĠSt one
ĠK atie
ĠK ensington
av id
av ors
Ġsc rap
Ġsc anned
Ġcl ip
Ñĥ ÑĮ
You Tube
Ã© mbang
Ġgo verning
ÙĬ Ùħ
Ġ3 8
Ø§ÙĦ Ø§Øª
Ø± Ùģ
Ð² Ð¾Ð´
Ġfil t
ne ver
Ġind emn
Ġ19 20
Ġmat h
ĠØ§ÙĦ Ùģ
Ġback s
Øª Ùī
ĠAr c
ĠAr ticles
á» ©
wo ÅĽci
Ġac quire
Ñĸ Ð¼Ðµ
Ñı ÑĤ
à§ ĥ
Ġà¤ ļ
ĠSp ort
esp erson
esp ecially
oth o
Ġbl ood
Ġallow able
sp eed
Ġapplic ant
eg a
à¨ ®
ÑĢÐ° Ð²
Ġtop ological
ital iano
omp son
Ġgr ay
eng ine
Ġdirect ors
Ġadv ances
Ġadv isory
Ø³ Ùī
Ġobject ives
10 8
×ľ ×Ķ
Ġrest oring
und e
ä¸ ª
ä¸ º
Ð± Ð°
ĠAnd rew
ãģ« å¯¾
Ġ×Ķ× Ĺ
Ġ×Ķ× Ľ
ÅĽ cie
Ġâ ģķ
ĠÐº Ó©
ism s
la very
à½ Ħ
Ġenc omp
Ġra ising
ĠÐ¼ Ð°ÑĪ
Ġconc ise
ÑģÑĤ ÑĢ
ling ton
Ġà° İ
ĠInd ependence
enc ja
ĠAct ivity
Ġarch iving
Ġsk in
Ġsk ut
fort able
×Ĳ ×ķ
be fore
ĠáĢ ľ
Ð¾Ð» Ð´
Ch rist
orth y
port ed
Ġtoo i
Ã§ on
ĠØª Ø¹
ES CO
ä» ķ
erg ing
Ġequ itable
Ġfac ial
Not ification
Ġpat ches
ĠPh il
Ġmen y
áİ ´
wa Å¼
Ġpri zes
alth ough
Un fortunately
ĠProt ect
val uation
Ġinform atica
ched ul
ĠInformation en
Ġ×ŀ× ª
ðŁ İ
App lic
Ġnews room
ĠAccess ories
×ŀ× ª
ĠOne Plus
att ered
Â® )
Ġà¨ ķ
Ġà¨ ľ
AN A
×Ľ ×Ŀ
Ġred und
box es
oll ar
Ġwar nings
ĠØ¹ ÙĦÙĬ
Ġbenef icial
Ġmeas ured
Ġmem iliki
Ġexpect ation
opp ed
ĠAss ess
Ġnavig ating
En abling
ĠPublic ations
Ġdecl ine
Ġdecl ined
×§ ×¨
Ġenh ancing
Ġcr ime
Ġtell ing
Bu ffer
Ġfall ing
Ġom it
ÑĨÐ¸ ÐºÐ»
à¶ ±
à¶ Ń
ìŀ ħëĭĪëĭ¤
Ġpi Ã¹
Ġ×Ķ ×¨
ãĤ¿ ãĤ°
inst ein
è¡ ĵ
Ġmis use
Ġaffili ation
áĭ į
pi ecz
Ġsol uz
ĠCOM M
ĠIE TF
ĠReview s
ĠAnt i
Ġtransform ing
èĢ Į
Ġmechan ical
Ġber b
ĠPR OVID
à¹Ħ à¸¡
à¹Ħ à¸Ľ
ĠHead phones
asy on
Ġadvant ages
Ġeth ics
Ġstruct ural
æı Ľ
ĠÐĳ Ð°ÑĪ
Ġdire itos
ãĥ¬ ãĤ¤ãĤ¢ãĤ¦ãĥĪ
Prot ocol
Ġdemonstr ating
Ġwear able
ÐµÑģ Ð¿
Ġassum ing
Ġprojekt em
Ġcalcul ation
ĠWill iams
Ø¸ Ø§Ùħ
ĠSte am
ãģĹãģ¦ ãģıãģłãģķãģĦ
ĠLibr aries
IL L
ĠOper ations
Ġinvestig ate
åį ĺ
Ġencycl oped
Ġgi ant
ĠìŀĪ ëĬĶ
ĠÐ¿ÑĢÐ° Ð²Ð°
Ġequal izer
orre nt
Ġson o
Ġtal ks
Ġrepe at
Rem oving
Ġkh Ã´ng
ĠÄĳá» ĭ
ĠShare Point
Gu idelines
Ġ×¤ ×ľ
Ġsear ched
áŀ ¶
Ġinher ited
ĠUN ESCO
ãĤ¦ãĤ §
ìĬ¤ íĬ¸
ãĥĥãĤ¯ ãĤ¹
ĠÏĦ Î¿Ïħ
Dev ice
ĠFre edom
ĠSil icon
Ø§Ùģ Ø¸Ø©
Ital ian
ĠLL C
Ġdiagram s
Ġbur den
ĠCON TENT
Ġju Å¼
Ġconfidential ity
åĳ ¼
éĽ Ĩ
ë¶ Ģ
ĠCount ries
Ġcontr ad
ĠChrist ian
ìłģ ìľ¼ë¡ľ
Ġthumb n
Pop ular
ĠSumm er
Ġgradu ated
ĠÙħØŃ Ø§ÙģØ¸Ø©
Ġsurpr ised
Ġswit ches
ilig aynon
Ġsys ops
Ġdesc end
techn ical
Ġwikil inks
ĠDrop box
Ġsym bolic
×¨×Ľ ×Ļ×Ŀ
exp ected
Ġsy nd
ãģ«ãģª ãĤĬãģ¾ãģĻ
ç¨ĭ å¼ı
ĠMap Reduce
ĠFe el
Ġathlet ic
èµ Ħ
ĠCass andra
Fran Ã§ais
ĠÐºÐ¾Ð¼ Ð¿
valu ate
ĠTay lor
ĠConfig uring
ĠWikiped ian
Ġsow ie
ĠgÃ©nÃ© ration
Ġindirect ly
ĠSud an
ĠartÃŃcul o
Aff iliates
Ġmarg inal
function al
ĠNav ajo
chts grund
ĠInnov ation
Ġparenthes es
ÉĻr bay
ĠuÅ¼ytk ownikÃ³w
Ġpyt ania
ĠÃ©t Ã©
Ġhá» £p
ãģ«ãĤĪ ãģ£ãģ¦
Summ ary
à¸Ħà¸§ à¸²à¸¡
ĠëĶ° ëĿ¼
hrop ic
Ġfurn iture
ĠMoment um
ĠPap ua
urren cies
å§ ĭ
Ġspok esperson
ãĥĥãĤ· ãĥ¥
ubern etes
yster ious
CLUD ING
ë¬ ¼
Ġuncom fortable
Ġimple ments
ç¹ģ é«Ķ
Kund ivih
ÑĨÐ¸ÐºÐ» Ð¾Ð¿ÐµÐ´
Kundivih ira
" :
" [
# ,
% ,
A gent
A udio
B E
B ad
B ose
B oth
C ar
C over
E ducation
E lements
F ul
F inding
I l
J PG
M ga
N T
N et
N ode
P ush
S ep
S afe
U E
U P
U nt
V P
Z wecke
b ars
c ri
c ji
c anc
d irect
d isc
d aten
d ependent
f i
f lic
f are
g raf
h ost
i Åĭ
k ar
k ÅĤad
l at
l ah
l iter
o fficial
p ed
p ost
p atch
r ator
s ent
s ort
s andbox
t im
u row
v ia
w w
w ort
z el
¥ áĥĲáĥłáĥĹ
Ð §
Ó ¥
Ó ±
Ö ´
ç ¯
ç ı
è £
ë ħ
í ĥ
Ġ ;
ĸ ãĥ©ãĤ¦ãĤ¶
Ĺ Ī
Ġt ends
in ity
re ation
at if
at ibility
or ry
Ġs ul
Ġs ight
Ġs olic
Ġthe oret
Ġc un
Ġc os
Ġc up
Ġc rop
an al
an nt
Ġp add
Ġw ys
Ġw oman
ed es
Ġf o
Ġf u
al an
al pha
Ġd ir
Ġd ins
Ġd Ã¹ng
Ġb ir
Ġb ind
Ġb reat
ic as
Ġm p
Ġm un
ar igu
ro at
Ġn d
Ġn j
Ġn ost
Ġn aw
Ġn az
Ġn ynorsk
Ġre act
Ġre used
Ġth in
Ġth Ã´ng
Ġe gg
il ianu
et he
im plement
Ġfor ums
ig os
ch at
ch art
am u
ut u
ut es
un less
ĠS ÃªndÃ¢
ĠS ennheiser
ĠS koove
ĠT erm
ĠT reat
ĠT uesday
ĠI C
id ency
Ġ( '
Ġg ro
Ġg aps
Ġg ba
Ġg eo
Ġpro s
ĠW AI
el er
el ch
Ġv á»ģ
Ġv enture
Ġv Äĥn
ĠM essage
ĠM iddle
ri eb
Ġas ks
ĠP od
ĠP ric
ĠP oly
ĠP resentation
ir gin
ess en
od ge
est ion
est ic
Ġex cludes
qu ote
ĠD ies
ĠD eb
ĠG i
our cing
ĠB un
ĠB uk
ĠB rian
Ġk at
Ġk et
Ġk os
out put
Ġr anks
ĠL in
ĠL as
ĠL ow
ĠL ED
ĠH unt
ĠH istor
art icle
ĠR ome
ĠR ock
ĠR AM
ĠR oman
able ment
iz i
à¤ ¥
à¤ ħ
ĠO W
ĠO d
ĠO h
Ġsu jet
Ġad ip
Ġad ults
ãĥ Ģ
Ø§ ØŃ
Ġch ron
Ġsp ect
ĠN ation
ĠN ord
Ġtr unk
ard e
ard less
Ġle b
Ġar rays
all eng
Ġte Å¼
Ġj ew
ĠJ uli
ap ed
Ġres h
Ñģ ÐºÐ°
Ð» Ð°ÑĢ
act ively
ind icates
Ġdis par
ĠV an
ach iak
Ġcre ations
ĠK rono
av ed
Ġcl ub
Ġcl ips
aw an
aw ah
Ùħ Ø±
In cre
Ġpub lik
ont o
ru ch
Ġout line
ob e
Ġpre gn
Ġpre jud
ÙĬ Ùģ
int erest
osit ories
Ġtrans port
Ġtrans mit
ĠUn it
Ñĭ Ñħ
ov a
ĠFor ms
Ġtime ly
iss a
ÅĤ u
à¬ ¥
à¬ §
Ġexp oses
Ġloc ked
ĠAr bor
ĠCh urch
Ġla id
ãģ® ãĥ«ãĥ¼ãĥ«
Ð³ ÐµÐ½
Ġrem ark
Ġà¤ ¶
Ġro ku
ient ific
Ġdisc ipl
Ġam et
pert i
êł Ľ
ock ets
×¨ ×ķ×ª
Ø¯ Ùī
Ġopen ly
20 11
rop olit
Ġaccount able
Ġgu est
ĠÐ¿ Ð»Ð°
Ġà¦ ¦
Ã¤ m
Å¼ enia
eng ah
Ã¼ nd
Ġautom ating
Ġintern ally
ĠAd vertising
10 3
10 7
×ľ ×ķ×ª
und a
ĠAt mos
ĠAnd y
Ġcontain ers
Ġinf obox
Ġconn ects
ĠInt roduction
Wik idata
Ñħ ÑįÑĢ
ĠZ eal
Ġbeh ave
Ġë ıĦ
ãĤĴ ä½¿
ãģĦ ãģ¾ãģĻ
uc lear
Ġest ate
16 9
Ġcheck out
ĠÐ± Ð°
Ex ception
Ġsound bar
áı ¯
13 2
amet hod
Ġfl ash
Ġfl ood
ĠÐ´ Ð°ÑĢ
14 7
Ġ18 0
ĠWork ers
Ġcopy left
à¸Ń à¸ģ
Ġappear ing
Ġcommit ting
Ġ×© ×Ĳ
Ġ×© ×Ķ×
Ð¾Ð½ Ð¾Ð¼
Ġcontext ual
ĠMod els
Ġwik ip
Tr usted
Ġê ·¸
Ø® Ø±Ùī
áİ ³
áİ ł
ĠQu arsh
Ġrecogn izes
à® Ł
Ġviol ated
val id
èª į
Ø§ÙĨ Ø§Øª
uj esz
Ġoffic ers
Ġinvest ing
åĲ į
wh o
yt es
ulner ability
Sec Ops
Ġmodern ization
Ġmodern ize
Ġrev oke
Ġimpact ful
è¨ ±
ĠÃ ¥
ĠÃ º
Ġpack aging
Ġ198 3
ĠÐ· Ð½Ð°
Ð½Ð¸ Ðº
èªŀ çīĪ
ilit ator
Ġavoid ance
Ġadapt ing
cont ract
Ã² l
ĠÚ© ÙĪ
200 8
200 9
Ġbehavior al
Ð»Ð¸ ÐºÐ°
Ġprz ed
ìĦ ±
ìĦ ¸
ĠFr ont
-- -
leg iate
ĠCons ult
Ġ×Ľ ×Ĳ
Ġdeploy ments
áĢĻ áĢĶ
iment o
ÑĨÐ¸ Ð¸
áģ ł
Ã³ÅĤ prac
bre lla
Ġ×Ļ ×ķ×ª×¨
Ġindepend ence
à¸ª à¸£
à¸ª à¸²à¸¡
Ġdrop s
Ġnar r
ĠSet ting
ĠAR R
ĠAR IA
Ġtu uli
Ġformer ly
ĠÑı Ð·Ñĭ
à¸¹ à¹ī
Ġincorpor ating
Ġaudit ors
åĽ £
ĠPort al
Ġir relevant
ì§ Ħ
Ú¾ Ø§
à¯ ģ
æĿ ¥
Ġrac ist
Ġ×ł ×ķ×¡
Ġslow ly
Ġtim estamp
Ġsubmit ting
Ġdiv ide
Up dates
Ġfoot age
Ġfoot print
Ġstyles heets
Ġhar ness
éģ ©çĶ¨
ĠChar ge
Read y
Õ¥ Õ¶
ĠPat tern
Ġadjust able
ĠAng eles
ĠBlack board
Ġsuper ior
áĢ½ áĢ±
Ġdemonstr ated
ĠDep uty
Ġseem ed
Î¼ Îµ
igr ate
ĠItal ian
×Ļ×¨ ×ķ×ª
Disc ussion
ĠRecommend ations
Ġgl ad
Ġicon ic
Ġamb igu
ĠDav is
Ġlisten ers
ĠCommission er
ĠHar vard
agn arigu
Ġdiscount ed
Ġment al
Ġment ions
Ġshap ed
Ident ity
Ident ifier
à¥Ī à¥¤
ĠMult i
eth any
Ġguarant eed
Act ive
ĠRem ember
é¡ ŀ
enz ie
ste in
Ġlik es
éł Ĩ
Ġnom ination
Ġhack ers
ðĲį ĥ
Ġspons ored
Ġspons orship
Ðł ÑĥÑģÑģÐºÐ¸Ð¹
Ġdepict ed
å¤§ ãģį
Log o
ĠÐ£ Ðº
Ġdistingu ished
Ġexplo itation
Ġven ues
ester day
Ġple ased
Ġhous es
Ġvacu ums
Ġzw iÄĻks
Ġkarim zÉĶÅĭ
~~ ~~
ĠwspÃ³ÅĤprac ÄĻ
Local ization
Ġszyb ciej
Ġà¦ı à¦¬
Ġakt ual
inf o
Ġklient Ã³w
è© ³
Ġcel u
Ġmoder ation
åħ¥ åĬĽ
Cy ber
Ġfrag ment
éĢļ å¸¸
ĠRele ases
ĠDef ault
Ġ×Ľ×ľ ×ľ
pub lished
ĠChair man
ĠBud gie
Ġà¦¹ à¦¯
Ġfost ering
Ġapparent ly
Ġsurv ive
ĠDar lington
ĠStep hen
Ġinherit ance
Ġschedul ed
ĠRon an
ĠjÄĻzy k
Ġdeutsch sprachige
ĠAcadem y
icular ly
ĠQuad rant
Ø·ÙĪ ÙĬØ±
ä¿¡ æģ
ĠWiss ens
ĠÐ°Ð²ÑĤÐ¾ÑĢ Ð´ÑĥÐº
Ġpersonenbezog enen
Ġintermedi ate
ĠSpecific ally
Ġfro zen
Ġrepr Ã©s
æĶ¯ æĮģ
Ġà¤ĩ à¤¸
Ġencount ered
ĠØ§ÙĦØ° ÙĬ
Cod ec
æ¥ Ń
ĠVerarbeit ung
fran Ã§ais
Ġnick name
ĠØ¨Ø¹ Ø¶
Õ¡ÕµÕ¥ÖĢ Õ¥Õ¶
Ġindivid ually
lemann isch
heav y
ĠDA MA
ĠVangu ard
Ġtemper ature
Ġlivest ream
çĬ¶ æħĭ
Ġeius mod
¥áĥĲáĥłáĥĹ áĥ£áĥļáĥĺ
achiak uta
ĠZeal and
ĠQuarsh ie
ä¿¡æģ ¯
1 14
6 31
7 20
B ey
D r
F L
F re
F eminism
G NU
H uman
K ang
K ind
L inked
L inks
M D
M ak
M arch
M aking
N G
O SS
R T
S ur
S loven
T ables
W ire
b ud
b ank
d ia
f air
g ar
g ers
g io
g ina
g bo
h ans
i ya
k ami
l antic
m ind
m ond
m aster
p c
p ad
q l
s cript
s ocial
t an
v y
v als
w ier
z ent
z ero
¤ ĩ
¹ ìĭł
Å Ń
Ò ±
Þ ¨
ß ı
ß Ĳ
â ī¡
æ į
ç ±
è ¶
è Ħ
è ¤ĩ
Ġ <
Ġ \
Ġ ip
Ġ erst
Ġ Ò¯
Ġ æĹ¥æľ¬èªŀ
ı ¬
Ĳ ì
Ĺ ãĥŃ
ł áĪ
Ġt ies
Ġt Ã¡c
Ġt aught
Ġa ka
Ġa wards
he id
re ference
or ang
Ġs ought
Ġc arbon
Ġc aches
Ġc zÄĻ
Ġp ed
Ġp ose
Ġp andem
is icing
ed ed
Ġf s
al u
al ing
Ġo so
Ġd ive
Ġd iritto
Ġb ol
le p
Ġto y
Ġm ud
Ġm iej
Ġm appings
Ġm ocked
Ġin ner
Ġin now
ar ison
ar isch
ent i
Ġn orth
Ġre veals
Ġl id
Ġl uck
Ġl Ã½
Ġl oves
Ġl áº¡i
Ġe y
Ġh an
Ġh ay
Ġh ire
Ġh int
Ġh ali
Ġh alls
ĠA straZeneca
am ber
ĠC O
ĠC isco
ĠC ascading
ut r
un ge
ĠS M
ĠS PA
ow Äħ
st o
st op
st ant
ĠT y
ĠT urn
ĠT ask
ĠT esla
Ġbe ach
ĠI oT
ĠI ANA
id ade
ag an
ol u
ad ec
Ġg egen
âĢ ²
ĠW ould
ĠW indow
ĠW ITH
ĠW ILL
el i
ab y
ur g
Ġv ague
Ġv ibe
Ġv inyl
ul ous
if er
ate ur
ĠM ent
ĠM ot
ĠM att
ri ev
Ġas ide
ĠP ART
ir ts
Ġcom un
ĠD ifferent
ĠD TD
ĠG achiakuta
pl it
pl ed
pl iant
se lect
ĠÐ ĸ
ang ular
ĠF lex
ĠF ried
ĠF unctions
Ġk ol
Ġk altura
Ġk orpor
Ġun law
Ġun expected
ort ion
ĠL ou
ĠL ux
ĠH indi
ĠH iligaynon
ĠR ates
ĠE qu
ãĤ Ģ
áĢ į
iz ont
ĠU y
ĠU As
ĠU zbek
ãĥ İãĥ¼ãĥī
ãĥ ļãĥ¼ãĤ¸
Ð¸ Ð´
Ġch i
Ġsp oÅĤecz
ens ch
ĠN ik
Ðµ ÑĨ
ÑĢ ÑĥÑģÑģÐºÐ¸Ð¹
are st
ie ke
Ġint end
per formance
ÙĦ Ûķ
ÙĦ ÙĪÙħ
ap es
Ġres et
ok o
ok ed
Ġhas s
ple ase
Ð» Ð¼
Ð» Ñĭ
ep s
Ġdis ad
Ġdis ability
ĠV ampire
Ġqu is
ĠSt adium
ĠK el
ĠK now
av i
ction ed
Ġspec ies
ond o
ish ing
row th
Ã³ r
Ġsee ks
Ġtrans itive
Ġtrans mission
ĠUn limited
ĠFor um
Ġi h
Ġi Perf
Ġind efin
Ġdevelop s
Ġob sc
Ġcode base
ĠWeb S
Ġback wards
Ġover rid
Ġover write
Ġgener ators
olog ist
Ñĸ ÑĢ
Ñĸ ÑģÑĤ
Ġrem ediation
Ġwere n
cy m
ĠSp adem
esp aÃ±ol
Ġjust ify
Re le
Ġinv isible
Ġì ¤
Ġì ¶
az ette
Ġsa fer
ier a
×¨ ×ª
pr im
99 9
eg ments
ick et
Ġinc oming
Ġresp ected
20 19
20 17
mat ched
ĠTh ompson
Ã¤ s
Ġ7 2
Ġdi agn
à± Ĥ
ĠÙħ Ø´
Ġdirect ive
Ġdirect ions
ex per
ex ecut
Ġadv ise
Ġvari ations
Ġ6 8
Ġobject ive
10 2
Ð± Ð¾ÑĤ
Comm ercial
Ġ×Ķ× Ķ×
Ġâ Ł
ĠÐº Ð¸
ĠAl t
Ñĩ Ñĥ
ze ich
ĠÑģ Ð¸ÑģÑĤ
ĠSh op
ilt on
Ġsection ing
ĠAn im
Ġenc icl
ĠAs ian
back s
Ġcle arer
12 5
Ġpull ed
ãĤĭ ãģĵãģ¨
Ad resse
Ġhand ler
ĠÐ± Ð¸Ñĩ
ÐµÑĢ Ð¸
ĠInd ividual
Ġref res
ĠÑĤ Ð¾
ĠÑĤ Ð¸Ð¿
Ġfl aw
ĠØ¨ Ø§
14 8
Th rough
be ing
Ch ar
Ch allenge
De leting
ĠWh ich
É£ u
ON ESOURCE
à¸Ļ à¸Ĺ
Ãª me
ER S
Ġrend ers
ä» ¬
Ġcommit tees
Ġprom ises
ĠÎ ½
Ġconsider able
Ġpay roll
Ð¾Ð½ Ð¸
åı ĳ
ĠCl ient
ĠPre viously
Ġsepar ator
Ġtalk ed
Ġlab our
Ġwik imedia
Ġcent re
ĠÐ° Ñģ
Ġfin ished
Ġless ons
Al ternatively
Ġspeed y
áİ ¦
Ġtrust worthy
èª Ń
Ġinform acji
Ġ×ŀ× §
ĠGu pta
ps koh
Ò¯ Ð¼
Ġden y
ĠAll ard
Sh ould
å® Į
force ment
Ġjur is
Ġcare ers
Ġfund ed
amb a
Ġgrow s
Ø§Ø± ÙĬ
pre m
Ġrev olution
TT ER
Ġ199 5
ih a
ih ood
ĠGener ic
Ġprevent ed
Ġ×ķ ×ĳ×
à¸§ à¸¢
Ph aros
cont rol
cont rolled
Add ed
ĠAss embly
cent ric
Ã« n
Ġvirtual Sensor
ĠLaw rence
è¦ ı
Ġarchitect ures
Ġcur ly
Ġcur riculum
ĠTeam work
Ġful f
ikel ihood
Ġein em
ĠÐĴ Ð¸ÐºÐ¸
Ġáİ ¾
Ġmag n
à¶ º
Ġpod staw
Ġ×Ķ ×Ļ×ķ
ĠÑĩ ÐµÑĤ
Aut h
Ø§Ø ¶
Ð°Ð¼ Ð°
Ïģ Î¹
Ġpers istent
Comp any
áĭ Ń
Ġhealth care
×ŀ ×ķ
×ŀ ×ķ×ª
Ġbo oni
Ġmulti pl
Ġalt ogether
à¸´ à¹Ī
Ð¸ÑĢ Ð¾Ð²Ð°Ð½
yd ney
à¤® à¤¨
ìľ Ħ
ĠÑı Ð·ÑĭÐº
Ġembed ding
Ð¸Ð¼ Ð¸
ĠØ³ ÛĴ
á»ĩ u
åĽ Ľ
æ³ ¨
Ġir ure
ĠPR O
à¹Ħ à¸Ł
Ġassign ments
Ġdest inations
ĠTrans parency
ycz ne
Sub categories
Ġcaus ing
å¾ ĭ
cre ative
Res earch
Acc ount
Ġconsult ation
Ġsubt itle
Ġlo an
à¨¾ à¨Ĥ
aÅĤ a
Ġcompar able
éĸ ĵ
ĠPlay er
Ġcontroll ing
Ġcalcul ated
Ġcalcul ations
Ġindic ating
Ġassess ing
Ġrank ing
Ġrank ings
Ġpred ecess
æī ĭ
Ġdeclar ative
ĠInf owars
Ġhab its
Ġfran ca
Ġfran Ã§ais
Ġprodukt y
Ass embly
icip al
Ġadm issions
Ġmak er
Ġvary ing
Ġgi áº¥y
ÐµÐ² ÑĸÑĨÐ°
ĠAff iliate
Ġmeasure ment
Ġprogramm es
Ġillustr ations
ĠÅĽ led
ĠÅĽ rod
Rem ove
×ķ×¡ ×ĺ×¨
ĠáĬ ¥
ĠIhre r
ĠAL L
Ġcrypt ocurrency
Ġital iano
Ġpredict able
ç¨ ®
Ġbound s
ĠPay ment
ĠÐĺ Ð½
Ã» n
Ġbrack et
ĠPol and
áıį áİ©
áıį áıĹ
éĻ ¤
gal ia
Ital iano
ĠÅĤ Äħcz
ĠRDF a
ĠCred ential
ĠDol ore
ĠwspÃ³ÅĤprac a
Ġszyb ko
Ġnull a
Ġlabor is
Ġcoordin ated
Ret urn
Ġempower ing
Iss ues
ĠFac ilitator
Ġattor neys
æ± Ĥ
inar ay
çĤ ¹
ĠRele ased
pub l
ĠbÉĶ him
Ġconv in
ÙĨÙī ÚŃ
Ġrefund s
dat abase
Ġaccommod ate
ĠKern ighan
Ġarriv ed
Ġanalyz ed
Ġanalyz ing
Ġsculpt ure
Ġstrugg le
Ġcriminal s
Ġmnemon ics
ĠCoup ons
Ġisol ation
Ġszabl on
Ġlibert y
åªĴ ä½ĵ
Ġprakty ki
Ġceleb ration
Ġcro pped
Ġconsolid ated
ĠBez os
à¸²à¸« à¸£
Polic y
Ġfict ional
Ġincent ive
Ġkarimb anima
Der iv
Ġabandon ed
Ġê²½ ìļ°
ĠLE TTER
ĠFrank f
Ġpengguna an
conn ected
ĠÒ» ÓĻÐ¼
éķ ·
ĠNA SA
ĠHawai Ê»i
Ġoprogram owania
Ġstret ch
Ġifr ame
ÑĪÐº ÐµÐ²ÑĸÑĨÐ°
Ġuntr usted
Ġfug iat
ĠPep si
ĠLAT IN
ÑĸÐ¼Ðµ ÑĨÑĮ
ä»ķ æ§ĺ
ĠÄĳá»ĭ nh
chtsgrund lage
ÉĻrbay canc
çı ¾
Ġadip isicing
ropolit an
Ġmiej sc
adec imal
Ġkorpor acyj
ĠÑģÐ¸ÑģÑĤ ÐµÐ¼
à¹Ħà¸Ł à¸¥
ÉĻrbaycanc a
( "
( ).
) ]
. :
/ .
1 18
: "
B i
B lu
C al
C hat
C red
C alifornia
C ymraeg
D P
D in
D ie
D rop
E ither
F it
G R
G l
G ood
G erman
H ead
H aving
L ibr
L iter
L anguages
M it
N g
P rom
P ublishing
P olski
S W
S ite
S ets
T une
T sh
U LL
W ired
b ew
b ootstrap
c ount
d fs
e ch
f ilter
i eren
j av
j ego
k aj
l ocale
m us
n io
p ower
q ip
s em
v or
y r
z t
¨ ë
¸ ìĸ´
Ä Ł
Ê ¼
Í ³
Õ ¿
ß ŀß
â ĭ
â Ł
æ ĵ
ç ¼
Ġ ie
Ġ vel
Ġ ..
Ġ à¸«
Ġ ãģ®ãĥ
Ġ íķľêµŃìĸ´
ģ ¬
ĳ ãĥ¼ãĤµ
Ġt ort
Ġt á»±
Ġa h
Ġa x
he it
Ġs os
Ġs ans
Ġs its
en able
Ġc ust
Ġc aution
Ġp ad
Ġw ul
Ġw ave
Ġw ake
Ġw ÉĶ
Ġw ording
Ġw aiver
is in
is se
Ġf et
Ġf ur
Ġf usion
Ġf awning
Ġd ane
Ġd urch
Ġb iz
Ġb orrow
le ad
Ġto d
Ġto ler
Ġm ood
Ġin active
ent le
Ġl ived
Ġl ikelihood
Ġe igen
Ġh its
Ġh iring
ot els
im um
ĠA T
ĠA W
ĠA ge
ĠA OP
ig eria
am ond
am iliar
ĠC ross
ĠC ertain
ĠC FA
ers te
ut ion
ĠS C
ĠS n
ĠS in
ĠT omat
Ġbe bas
ĠI terator
ag h
Ġg am
Ġg lass
Ġg ross
ĠW er
el hans
ik at
ac les
ĠM ack
ĠM ills
ĠM ysterious
os hi
Ġas c
Ġde y
est or
Ġex empl
oc c
ĠD j
ĠD one
ĠD IS
ĠD aily
ĠG B
ĠG re
ĠG ate
pl o
ĠB asa
ĠB CP
ĠB ridge
ĠB agabaga
ĠF eb
ĠF ord
Ġk ep
Ġk Ã©
à¸ ĭ
Ġr ik
Ġr ings
Ġr ough
Ġr anging
Ġun forget
ill ary
ĠL oop
ĠL iving
ĠL ICENS
ĠH or
ĠH am
ĠH appy
ĠR O
ĠR ow
ĠR ule
ĠR ips
ĠE c
ĠE k
ĠE ff
ĠE astern
end ars
Ġse vere
Ġsu ed
Ġsu ited
à¦ ĸ
Ġch un
Ġch unk
res istant
Ð¾ ÑģÑĤ
Ġsp oke
ĠN i
ĠN CA
ĠN ev
ÑĢ Ð²
Ð½ Ð¾Ð¼
Ð½ ÑĨÐ¸ÐºÐ»Ð¾Ð¿ÐµÐ´
ard ing
Ġle aked
Ġle aves
Ġapp end
Ġar row
Ġab ilities
ine et
ĠJ ac
Ġne u
Ġres ide
ok m
ass ic
ass ar
Ðº ÑĤ
Ġdis allow
Ġz ag
Ġme er
ĠComm and
ĠK on
ĠK er
ĠK ah
Ġsc attered
ÙĪ Ø§
Ġrec ruit
ry w
ry er
Ð¼ ÐµÐ½
Ð¼ ÐµÐ´
ĠPro blem
Ã³ wn
Ġval ued
ĠRe f
Ġfil ings
use Filter
Ġi Player
Ġthere of
Ġoff set
Ġ19 30
Ġob ra
Ġunder t
Ġrel ief
Ġprogram ist
Ġexp ense
Ġpe oples
Ġac res
olog ia
emb ea
any ol
Ġla É£
Ð³ Ð¾Ð»
Ġu it
Ġu Å¼y
ĠSp ark
ĠSp orts
we is
ck haus
Ġ4 3
Ð· Ð±
Ġmet amethod
Ġbl ender
Ġext ending
Ġam bit
êł į
ock ing
ci as
ek en
Ġmark ers
Ġread able
red ict
Ġret urning
Ġdec imal
Ġ[ ,
ĠTh ink
St op
ien e
Ð°Ð½ Ð¸Ñı
Ġend orse
omet ry
Ġdown stream
Ġmult iling
ĠEx clusive
Ġ6 00
Ġobject ion
Ġobject ions
10 5
×ľ ×ª
Ġfound ations
Ġperform ances
ili ary
Ġreport ers
zy j
Ùģ ÙĬ
Ð± ÑĬÐ»Ð³Ð°ÑĢÑģÐºÐ¸
Ġdel ays
Ġ×Ķ× ¡
Ġ×Ķ× ¦
Ġ×Ķ× ĵ
Ġ×Ķ× ĳ×¨
Ġrele v
Ġrele asing
Ġâ °
Ġâ ľ
ĠAm er
ze it
Ġposs ess
ins ic
Ùĩ Ùħ
Ġsubject ive
×ª ×¨
ĠZ en
ĠSh ort
ĠSh aring
ĠQ LED
Ġsing er
Ġimpro per
ĠAn ne
Ġenc oded
Ġ{{ #
ars ity
Ġet a
Ġmethod ology
Ġpass es
There fore
ĠÐ± Ð°ÑĢ
áı Ľ
Ġ8 8
ĠÙĪ Ùĩ
15 3
15 5
con struct
18 9
ĠØ¨ Ùĩ
Ġthink s
14 4
ä½ ķ
Ġcommun icating
Th ough
Th reshold
Ġanal ys
Ġfact ory
ĠáĢ Ľ
man ca
ĠHe ath
port s
Ñį Ð¿
æĸ ¼
Ġguid eline
Ġinstall ing
Ġop aque
Ġ×© ×Ķ
ĠÎ Ń
Ġequ ipped
ĠCl ub
Ġpres um
Ġvers atile
Ġpa ired
Ġconnect or
Ġmen us
ĠÐ° Ð¹
ĠÐ¸ ÑģÐ¿
Tr ack
à® ª
à® ´
Ġincre ment
Un less
Un like
à© Ĥ
åĪ ©
ĠComp are
ĠComp anies
Ġinteract ing
Ġdate TimeFormat
Ġinvest ments
åĲ İ
ĠGu ests
×ĳ ×Ļ×Ŀ
Ġsend s
ĠØ§ÙĦÙħ Ø¹
Ġes oteric
Ġaccept ance
Sh aring
ĠMal uku
amb ar
ĠReg ister
Ġà¨ ¬
Ø§Ø± Ø¯ÙĪ
urop a
Ġlimit ing
Ġà¬ ®
ĠÃ Ħ
Ġdiscl osing
Ġmeet up
Ø· ÙĤ
Ġêł Ľ
Ġindust rial
ĠPart ition
Ġtre ating
Ġwy so
Ġ×ķ ×ł
za ÅĦ
ĠØ¹ Ø§Ùħ
Ġmeas uring
ãĥĥ ãĥī
Ġsent ences
Ð²Ð° Ð¹
aus a
aus es
gress ive
Ġß ŀßĬ
ĠØ§ÙĦØ ¢
200 5
ĠMe as
ìł Ħ
Ġdecl are
ãĤ¢ ãĥĥãĥĹ
Ġve h
Ġded u
ĠFr ames
ĠAdv oc
Ġdraft ing
Ġquot a
Ġenh ances
Ġng Æ°á»Ŀ
ĠPal Ã©mbang
Ġbroad ly
Ġpress ing
Ġcr ash
Ġcompet ent
Ġcompet itor
Ġfavor ites
ha ust
Ind ones
iment al
Cl ient
Ġ×ĳ ×ķ
Ġadvert ised
Ġje z
Ð½Ð¾ Ð¹
Ġremote ly
áº¿ u
éĢ £
Ġalt ered
ĠDis claim
Ġmar gin
Ġmed icine
Ġjud icial
Ġfilm makers
Ġabs ent
ĠktÃ³ ra
Ġstre ets
Ġinsp iration
onym ous
ĠÕ ¯
Ġpolit icians
Ġposition ing
Ġir rev
Sc ape
Ġelect ions
ĠØ§ÙĦØª ÙĪ
Ġpom ys
Ġãĥ Ħãĥªãĥ¼
Ð°Ð· Ð°
Ġtim ing
ĠDev ice
çĽ ¸
ĠÙĤ Ø¯
Ġhar us
Ġclean ing
Ġarbitr ators
Ġfra ction
Ġreported ly
åŁ Ł
ĠÒ Ľ
ĠDep ot
æ³ķ å¾ĭ
ãĤŃãĥ £
Work s
Õ« Õ¶
Ġindic ator
ÐĴ Ð¸ÐºÐ¸
Ġnh Æ°
ĠDisc over
Ġchat bot
àª ¾
ĠGe org
Ġroll ing
Ġgl ue
Ġsusp icious
ĠText s
ĠRE L
Ñŀ ÑĤÐ°ÑĢ
Inst all
Inst ead
ĠView s
à¦°à¦ £
Ġ×ŀ ×Ļ×ł
ĠCy ber
ĠBro ckhaus
ĠAdmin istr
ĠFin ancial
Ġfacilit ates
Rep ository
Ver ifiable
Ġcz ÅĤ
ĠBel g
Ġdistinct ive
ĠTajik istan
å½ ĵ
Ġbeg un
abe z
ĠPract ice
ĠÛģ ÛĮÚº
Ġcart az
Ġlik eness
ĠLab s
ĠSk ills
Ġresil ient
ĠmoÅ¼ na
Ġspons ors
Ġzn aj
ĠSpace X
Ġconform ing
Ġpartnership s
ĠPol ice
ß² ß¬
Ã¸ r
ĠÅĤ at
Ġshift ed
ëĲ ľ
ĠDol by
Ġkorzyst aÄĩ
ĠRed dit
ãģ§ãģį ãĤĭ
Ġdisapp ear
sl enska
Ġwszystk ie
hal ten
ĠChat GPT
Frequ ency
ĠEs peranto
Ġattract ive
áĪŃ áĬĽ
ĠTre llo
ĠPDF s
Ġcoordin ates
Ġoversight ers
ĠCR M
Document ation
ĠKn icks
×ķ×ķ ×Ļ×§×Ļ×¤×ĵ×Ļ×Ķ
ĠReal ities
Ġsqu ash
ĠSumm it
Ġpoor ly
Ġkpa Åĭ
Ġsmartw atches
ĠCor p
ĠSH OULD
Ġanc ient
Ġexempt ion
Ġcanonical ized
Ġunf air
×Ļ×¢ ×Ķ
Ġannot ations
Ġautonom y
ä¾ĭ ãģĪãģ°
ëĵ ľ
Ġescal ation
Ġopart e
ç¶ŃåŁº çĻ¾ç§ĳ
Ġseb agai
ĵ×Ļ×ł ×Ķ
ĠCrit ics
Ġfav our
Ġappropri ately
ĠÑĺÐµÐ· Ð¸ÑĨÐ¸
Ġmnemon ic
ĠCoup on
Ġbare ly
Ġincomp atible
Ġwspar cie
Ġfinger printing
ĠHen ri
ĠRam adan
Ġimper ative
å®Ł è¡Į
Kategor ien
ĠCert ificate
ĠSel atan
Ã¶sch t
eff ective
Ġadequ ate
ĠVict oria
ĠSW AN
Ġgel Ã¶scht
Sz abl
Ġrig or
×¨×ŀ×ł ×Ļ×ª
Ġvolunt ary
ĠosiÄħ gn
toLocale String
Ġrozp oc
Ġaest hetic
Ġproc urement
Ġrepet itive
Ġgat hered
Ġmetap rogram
Ð°ÑĤÐ°ÑĢ ÑĩÐ°
èī ²
unci ation
ĠMailing list
Ġkern el
Ġìłģ ìļ©
à¹Ĥà¸Ķ à¸¢
Son os
enforce able
ĠAware ness
Ġderech os
Ġhex adecimal
Ġcyberatt acks
728 631
Ġquy á»ģn
ĠÐ¼Ð°ÑĪ Ð¸Ð½
ç¨ĭå¼ı èªŀè¨Ģ
Ġleb ih
alleng es
Bey ond
Ġpandem ic
ĠPepsi Co
Ġunforget table
ĠngÆ°á»Ŀ i
! !
" ?
2 50
3 49
6 99
A lex
B I
B ibli
C OM
D ial
D avid
E mp
E asily
G H
G PL
H R
H z
L ing
L im
M ad
M ass
M achine
N ord
O ura
P ointer
S C
S en
S ol
S ide
S ound
S hip
S lov
T erm
V en
V ari
V ER
W y
W CAG
a ffic
a resp
b ots
c am
c ur
c ert
c amp
c ze
d k
d ue
d eb
f oot
f uck
g lich
h osa
j ury
j son
j edn
k ow
k ap
l b
l Ã¤
m ers
m achine
n umber
n ymi
n ormative
p rivacy
p olski
r ze
s ay
t ouch
t itle
y g
y ll
§ áı
© Ł
° âµ
´ °âµ
µ áĢ¯
Ä Į
Ï İ
Ð ¥
Ñ Ļ
Ó ı
Ù ĳ
ß ¦
ß Ļ
â ´°âµ
å ĸ
æ ©Ł
è ·
ë ²
ë ¸
ì ²
Ġ Ó
Ġ ure
Ġ à¹Ģ
Ġ ãģ§ãģĻ
Ġ Ú¯
Ġ ÊĴ
Ġ ÚĪ
Ġ ~~~~
ı Ļ
Ġt ight
Ġt ens
Ġt ali
Ġt iny
Ġa o
he res
on ica
Ġs and
Ġs ib
Ġs ini
Ġs lavery
Ġthe ater
Ġthe sis
it ud
it ably
Ġc a
Ġc ri
Ġc aching
Ġp ul
Ġp ier
Ġw aj
Ġw ins
Ġo prac
Ġan ahi
ion a
Ġd rug
Ġb ers
Ġb read
Ġb Ãłi
Ġb ardziej
le lo
Ġm DL
Ġin a
Ġin eligible
Ġin alienable
ro st
Ġn l
Ġre wards
Ġre imb
us ual
Ġl ad
Ġl ens
Ġl ah
il ly
Ġy uli
Ġy ellow
Ġy esterday
Ġh ospital
ly de
im o
im ents
im portant
Ġfor got
ĠA ber
ig t
ch rome
ĠC oin
ĠC ategor
ĠS SD
ow isk
st ack
ĠT u
ĠT OS
ĠT emplates
id an
ag ana
ol ocation
ad ores
âĢ ĺ
ĠW ol
ith met
ur on
ur ches
ur idad
em an
em ale
Ġv os
Ġv ocal
ik en
if ting
ac u
Ġst all
Ġst rive
Ġst eal
ĠM and
ĠM aker
ĠM exico
ĠP ict
od o
od er
her ity
Ġex tern
qu art
ec ie
ec ciÃ³n
ist ence
ist ically
ĠD ig
ĠD OC
ĠD ashboard
ĠG azette
ĠÐ Ī
ĠÐ ķ
ĠB ot
ĠB rain
ĠB eck
ĠB egin
ĠF ocus
Ġk or
Ġk en
Ġk ata
Ġk wa
Ġun ch
Ġun used
Ġun enforceable
ĠL abor
ĠL ists
ĠL IM
ĠH A
ĠH at
ĠH al
ĠH ak
ĠH ost
ĠH ong
ĠH igher
ĠR eb
ĠR ather
ĠR isk
ĠR oyal
ĠR wanda
ĠR ahmen
nd a
um i
form erly
ĠE p
Ġat ry
up u
up akan
ãĤ ´
áĢ µáĢ¯
ĠU A
Ġhe l
Ġsh ot
Ġsp here
Ġsp rz
ens ed
ĠN eo
Ġtr ading
ich te
cl ient
Ġar m
Ġar ises
Ġab er
Ġcomp elling
Ġcomp ares
Ġall a
Ġen act
Ġen rolled
Ġte a
Ġj ack
ĠIn form
ĠJ PEG
ap ache
Ġres olutions
ok u
à° ľ
Ġcomm as
Ġdis abilities
gh i
gh an
ĠV ue
ĠV ice
Ġz aw
Ġcre ole
ast ing
ĠK o
ĠK at
ĠK am
av oid
Ġout standing
ob o
ÙĬ Ø§Øª
Ð´ ÓĻ
ress ing
Ġ3 6
ry sk
Ġsec ara
Ã³ c
Ġart igos
ah oo
ÙĨ Øª
ÙĨ Ø§Ùħ
Ġdef er
ĠRe vision
ne ath
Ġ19 64
Ġ19 51
Ġob raz
Ġrel ates
Ġprogram me
Ġatt ending
Øª Ø¹
Øª ØŃØ¯
á» Ł
ĠCh ain
Ġinter fere
Ġinter rupt
cept ible
Ġwhere by
Ñĸ ÑĤ
Ġà¤ ı
Ġà¤ Ĺ
Ġtool bar
Ġ5 3
ck nowled
Ġmet al
Ġinv oice
Ġam pl
Ġì ĭ
êł Ĳ
êł Ŀ
ran e
×¨ ×Ķ
Ġopen ness
à¨ ²
20 14
Ġconf er
Ġdec ides
mat ch
Ġ7 00
Ġstr ange
ien za
Ø¨ Ø¯
Ø¨ Ø©
áº ±
ef its
áĥ Ŀ
áĥ ¥áĥĲáĥłáĥĹáĥ£áĥļáĥĺ
ĠAd obe
×ľ ×Ļ×Ŀ
Ġcount ed
Ġrest art
Ġview er
ath i
ĠAt om
ĠAnd re
Ġinf rast
Ġdel le
Ġni emi
ÅĽ nie
Ġaud itor
Ġel ite
Ġdist ract
Ġfr ustr
ze ch
ĠÑģ Ð²
ÃŃ nh
Ġins ign
kt Ã³
à½ ¡
×ª ×ŀ×©
ĠZ u
Ġsing ing
Ġreal istic
áĢº áģĭ
ÑĪ Ñĭ
Ġë ³
Ùī ÙĦÙī
ĠEng agement
ĠEng land
12 8
de en
ãĥ³ ãĤ°
Pro te
Pro ton
Ġhand lers
ĠÐ± Ð¸
Ġà° ī
ĠUS D
13 1
íķ ©ëĭĪëĭ¤
18 0
ĠÂ ©
Ġpract ition
ĠÐ´ Ðµ
Ð¾Ð² Ð¸
Sp ons
au x
14 1
ij ing
ãĤĮ ãģ°
àŃ §
Ġport uguÃªs
ĠáĢ Ĺ
Ġhard ly
De lete
ON E
ĠPr ince
Ġemploy ed
Ð¾ÑĢ Ð¸ÑģÑĤ
Ġinstall er
ka Äĩ
sh are
ãĥ« ãĥ¼ãĥĹ
ĠMod ules
ĠPre ferences
ron ym
ĠInst antCommons
Ġtak ie
Ġtak Å¼e
Con formance
Ġpa ati
Ġ×Ĳ ×ł
dom in
ĠÐ¾ Ñģ
Al most
ĠIs lands
26 4
ĠComp onents
ðŁ ĵ
App lying
ĠØ§ÙĦÙħ ÙĤ
ĠAll iance
×ŀ× ¦
×ŀ× Ĳ
ĠCom ment
Ġshort ly
Ġà¨ ¤
Ġcomb inations
ĠÄĳ Ã³
comm unity
×¤ ×Ķ
×Ľ ×Ł
Ġred es
Ġêł Ģ
Ġêł ĺ
ĠAut hors
Ġsubm issions
×Ļ×ķ ×Ł
æĸĩ æ³ķ
ott ed
Ġtre es
ĠÑĥ ÑĢ
ĠEdit ors
Ġbi ometric
Ġadapt ive
åŃ ĺ
Ġß Ľ
200 7
ĠVer fÃ¼
Ġword t
Ġmer upakan
ĠMe anwhile
Ġprz ew
ĠTeam s
Ġnie z
Ġexperien cing
lim p
Ġphys ically
AL GOL
AM P
sk az
Ġnative ly
Ġcred its
Ġcorrespond s
Ġcorrespond ence
fr ame
áī °
Ã¬ n
Õ¡Õ ®
Ġlight ing
Ġsoci eties
comp any
Ø¶ Ø¹
AC T
iden ces
Ġcategor izing
ĠSim ply
ĠÑı ÐºÑĸ
Ġren aming
ÙĪØ± Ø©
ä¸Ģ èĪ
ĠJim my
cut ting
æĹ ¶
Ġpom ag
ĠPR s
Ġsell s
Part ner
Ġrespond ing
íķĺ ì§Ģ
Ø¯ÙĬ Ø¯
ĠDev SecOps
Ġpromot es
å¹ ³
Ġstory t
Ġ197 5
Ġwor st
Ġimpress ion
pe er
serv ice
Ġqual ifiers
ster dam
ĠAng ell
Template Data
Ġhope fully
Ġaffect ing
ĠFormat Numeric
aÅĤ o
Ġur l
Ġwalk ing
ĠRel ations
Set tings
Î¼ Î±
Ġcou p
Ð¸Ñģ Ð¾Ðº
Ġassess ed
Æ°á» Ľ
êµ ¬
ĠDisc overy
ãĥĳ ãĥ¼ãĤµ
ĠEngine er
Ġsubstant ially
Ġround up
ujÄħ c
æĶ ¾
ç§ ģ
Ġprompt ed
ĠView er
Ġesc ape
ĠCore mobile
ĠBel ow
Ġtele phone
å½ ±
Ident ify
Lat in
æ¨ Ļ
Ġdisp osit
Ġdisp atch
Ġguarant ees
Ġay i
à¸Ī à¸°
ĠÙĩ ÙĪ
Ġtur nt
ĠSem antics
ĠMad rid
RDF a
engg unakan
ĠPay Pal
ĠDR M
Tam ali
ç¾ İ
Ġswo jÄħ
ĠDet roit
Ġlingu ag
Ġëĭ ¹ìĭł
ĠIntegr ation
ĠÅĤ Äħczy
Techn ology
Opt im
Back up
Ġkon k
Ġlu ar
Ġhor izont
ØªÙĪ Ùī
rest rict
Ġà¤ħ à¤ª
Ġáĭ ¨
Ġprzep rowad
Ġterrit ories
Ġaplik acje
Ġscroll ing
sprach igen
ĠwiÄĻ ks
Ġscr ut
ĠNort on
Ġsmooth ly
found ed
Ġdiscrim in
Ġpreserv ation
het ical
ĠWoo Commerce
Ġunse rer
Ġwra pped
Ġwra pper
Ġexport ed
Ġsr pski
ĠSpeed test
Ġwonder ing
ĠPortug al
Ġliv re
Ġtwor zenia
é¢ ĳ
ĠyÉĽ n
Sw ati
Und erstanding
Ġlia isons
Ġautonom ous
Ġdisclaim er
Ġscholars hip
Ġdomin ant
à¤¼ à¤¾
áº§ u
Ġschedul ing
Af ric
Î´ Îµ
æ° ´
ãĤĴåı Ĺ
Ġsafeguard ing
ĠRepresent ative
å¦Ĥ æŀľ
SO AP
Writ er
ĠPokÃ© mon
Ġshar p
êłģ êłĩ
ãĥªãĥ³ ãĤ¯
ãĤ½ ãĥ¼ãĤ¹
Ġorganis ations
Ġgenuine ly
Ġshikur ubihi
Ġcooper ation
Ġpermiss ive
cr umb
Kar im
âĪ Ĵ
à¸łà¸²à¸© à¸²
Ġtack le
ĠßŁ ßĬ
Aust ralia
ÙģØŃ Ø©
ĠpÃ¡ gina
Ġwidget s
Graph QL
ĠHyd row
ĠÐ´Ð°Ð½ Ð¸Ñħ
ĠCollabor ation
ĠFeder ation
Ġsnipp ets
ß¡ ßĬ
isw ahili
Ġêµ Ń
å¾· èªŀ
ĠrozwiÄħ zaÅĦ
reng then
ĠDiv ision
ĠBAS IC
Exper ience
Ġannoy ing
è¼ ī
ĠSqu aresp
egl Äħd
redu ce
Ġautora is
ÑĤÐ°ÑĢÐ° ÑĪÐºÐµÐ²ÑĸÑĨÐ°
altern ate
Ġdecy z
ĠCOMM ON
ÐµÑģÐ¿ ÑĥÐ±
Ġencycloped ic
èµĦ æºĲ
ĠÐ¿Ð»Ð° ÐºÐ°ÑĤ
ĠDAMA GES
Ġhass le
Ġindefin itely
ĠâŁ ¨
Ġjuris pr
âĭ Ĩ
ĠNCA A
ithmet ic
ĠLIM IT
ä¸ĢèĪ ¬
ĠSquaresp ace
" ;
1 10
2 26
3 10
B it
B ug
C V
C amp
C lients
D ag
D ining
D raft
E X
F lex
F AQ
F oP
G adget
I an
K on
L earning
M T
M and
N ap
P e
P ract
P oznaj
P agename
R FC
R AMP
S af
S enior
S venska
T s
T arget
U A
U C
U G
W estern
Z one
a is
a ÅĦ
b st
b ered
c n
c ob
c ision
c atalÃł
c lyde
d ansk
e als
e ither
h l
h ab
i op
l ings
l ining
l ife
m ult
r ors
r ific
s ized
t w
t wo
u ing
y er
y ard
y ling
Å Ĭ
É ©
Ø ¡
å Ļ
ì Īĺ
í ħ
Ġ ).
Ġ Å¼
ĺ ìĿ´
Ġt act
Ġt ong
Ġt áº¡i
Ġa fore
Ġa kan
in form
in sp
in li
he im
on ial
re ements
re ÅĽl
at ore
at iv
or am
Ġs now
en ode
es a
es cher
es ides
Ġc áº¥
Ġp is
Ġp end
Ġp ok
Ġp ink
Ġp ÅĤ
Ġp ixels
Ġw enn
Ġw skaz
is ili
ed d
Ġf ell
Ġf eder
al ar
al im
al iga
Ġd ur
Ġd ib
Ġd ont
Ġd eng
Ġd ali
Ġd iving
Ġd á»±
Ġb ull
Ġb rain
Ġb ibli
ic les
ic ism
Ġm ad
Ġm ang
Ġm iles
ar on
ro k
Ġn im
Ġre charge
us c
us an
Ġe ating
il ience
Ġy uma
Ġh iking
ot hes
et ry
im ed
im ient
ĠA CC
ĠA thlet
ĠC ut
ĠC SV
ĠC OVID
un n
ĠS O
ĠS r
ĠS aja
ĠS outhern
st y
st ore
st ellung
ĠT id
ĠT ok
ĠT ibet
Ġbe recht
ĠI F
ĠI G
ĠI DL
id el
ag ent
ag asy
ce an
ad el
ad cz
Ġg w
Ġg rew
Ġg dy
Ġg esch
Ġpro jet
Ġor che
ab ile
Ġv u
Ġv ill
ik h
ac ific
Ġst opped
ĠM G
ĠM i
ĠM arb
ĠM AT
ĠM appings
ĠM ercury
os anski
ri z
ĠP ing
ĠP ill
ir ls
ir cles
ia h
qu o
oc ity
ĠD in
ĠD ou
ĠD id
ĠG od
ĠG ib
ĠG reg
ĠG rant
ĠG uten
ra Å¼
pl us
Ġnot ebook
for der
ĠB ed
ĠB ros
ang ka
ĠF all
ĠF iles
ĠF unction
Ġk ill
Ġk rit
Ġk ho
Ġk opi
à¸ ©
nt ime
Ġr ug
Ġr oun
Ġun pre
Ġun resolved
Ġun usual
rom oo
ĠL D
ĠL ex
ĠL ane
ĠL ocale
ĠH om
ĠH ulu
ĠR ad
ĠR ona
ain ed
ain ing
um ie
um ps
form ats
ĠE duc
ant wort
end or
Ġ20 30
ust ers
iz ers
ĠU LT
ĠO gg
Ø§ Ùĩ
ere r
ere in
Ġsh oot
Ġch airs
Ð¾ Ñİ
Ġsp in
ĠN E
ĠN g
ĠN h
ÑĢ Ð¾Ð±
Ġle ak
Ġle aks
Ġapp ended
cl ing
ost on
ost ÄĻp
so ever
Ġint ends
ÑĤ Ð¾Ð¼
Ġj ar
ĠIn put
ĠIn itial
ĠJ r
ap on
ber ry
Ġpl ant
Ġso b
Ð» ÐµÐ½
Ðº Ð¾Ð²
ind ependent
Ġdis e
Ġdis hes
Ġper pet
ach i
Ġz ones
Ġz auf
ĠSt yles
ink le
ĠK h
ĠK w
ĠK im
Ġdes en
ph ic
Ġcl ock
Ġcl utter
In form
ribut e
Ġspec jal
Ġpre fers
Ð´ Ð·
Ð´ Ð°Ð»
Ð¼ ÐµÑĢ
riv es
Ġno v
Ġed isi
Ġph áº£i
×ķ× ĸ
ah ren
Ø± Ø¶
Ð² ÑĢ
Ð² Ð°Ð½
ĠRe cht
Ġtrans cluding
Ġinst anti
rit ies
ied y
Ġform a
à¥ ¨
Ġ19 63
Ġdevelop ments
Ġob solete
à¬ ľ
ĠØ§ÙĦ ÙĪ
Ġback end
aj i
Ġexp enses
Øª ØŃ
arch ive
Ġpe ak
ari hi
Ġwhat soever
wo o
any ak
Ġsystem ic
Ġla ugh
Ð³ ÐµÑĢ
Ġu z
Ġu pp
Ġthrough put
Ġele g
à§ Ĥ
Ġhead phone
Ġtool kit
we g
we at
Re qu
Re place
Ġam en
Ġì Ľ
Ġì ĥģ
Ġdet ects
inal s
×¨ ×Ļ×ķ×ª
pr ints
Ġco ach
ÑĮ Ñı
à¨ ļ
Ġread ability
Ġstat s
ĠY eah
ern er
Ġnum bered
uss ions
Ġident ific
Ġgroup ed
ext ension
ext ensions
ĠTh ree
Ã¤ tz
Ġorig ins
Ġstr ony
ŀ× ©
Ġmain stream
ĠÙħ ÙĤ
ĠÙħ Øµ
Ġplatform Sensor
Ġeas iest
ĠX finity
lis hes
the w
the ir
Ġcount s
Ġcount ing
Ġcount less
ä¸ ¦
ath clyde
Ġmon et
Ãł nh
ĠCont roller
Ġtra p
Ġ×Ķ× ĺ
Ġaud iting
ĠÐº ÑĢÐ°
ĠÐº ÐµÐ»
ĠAl ign
ĠAl pha
ĠÑģ ÐµÑĢ
19 0
19 50
ÙĤ ÙĦ
ãģ¾ ãģ§
Ġá Īĺ
ĠCon vers
kt ops
ĠSh acht
ĠTr acking
com pliance
Ġemail ed
à¦° à¦ķ
uc z
", [
Ġest as
ĠPl akat
ÑģÑĤ Ð°Ð²
ĠÐ½ Ð¾
par ser
Pro yek
Ġhand ful
ĠÐ± ÑĥÐ·
Ġà° °
ĠUS E
áı Ļ
13 6
íķ ¨
Ġref s
ĠØ¨ Ø¹Ø¯
ĠBl ue
Th ree
àŃ ¨
ĠÐ² Ð¸Ðº
Ġfact ual
Ġcompl ies
aut or
Ch art
Ġpop raw
isk e
Wh ich
23 9
ĠSe attle
Ġconfig uring
Ġparticip ates
Ġsubs idi
ĠØª Ùħ
ĠØª Ø·ÙĪÙĬØ±
ĠÄ Ĳ
Ġequ ally
à°¿ ,
Ġplan et
Ġsl ide
ĠBe ijing
Ġpres ents
Ġpres cription
Ġvers us
ĠPh ilip
ĠPh abricator
AR C
Ġclaim ing
à§ĩ à¥¤
äº Ĵ
ĠÐ° Ð·
×ł ×ķ×ª
×ł ×ĵ
Ġrecogn izing
åħ ·
Î± Î¯
eder land
åĪ Ŀ
èª ¬
Ġ×ŀ× Ķ×
ðŁ ı
sch aft
Ġeduc ators
ĠØ§ÙĦÙħ ÙĨ
ĠØ§ÙĦÙħ ØŃ
å® ŀ
aps ed
ĠAir port
ÓĻ Ñģ
ĠCan vas
Ġexecut ing
Ġexecut ives
ĠAcc enture
Ġnotice able
ĠØ£ Ùĥ
ĠÐ½Ð° Ð¹
Ġfail ing
Ġvirt ue
Ġà¬ ı
ĠÃ ľ
Ġti á»ĩn
Ġess ere
Ġ198 1
áĢ¯ áĢ²
Ø· ÙĦ
Ġêł Ł
ĠAut of
Ê» zbek
Ġma Åĭ
IT O
ĠFile System
Ġí İ
ml ung
ba ar
Ó© Ð½
Ó© Ð»
Ġsubst itution
IS T
En c
ĠVer b
ĠAmeric ans
enn ium
ãĤ¢ ãĥ«
Ġ×¢ ×Ŀ
åľ ĭ
ĠVis it
ĠPer form
ĠPal ace
Ð¾ÑĤ Ð¾ÑĢ
Ġ×Ľ ×ĵ×Ļ
spec ified
×Ĺ ×ķ×§
Ġdeploy ing
Ġloss es
Ġliter al
sk y
Ġge ographical
ĠÑĩ Ð¸
ĠÑĩ ÓĢÐ°Ð»
Aut hors
pa per
à· ĥ
à· Ħ
åĬ ¡
Ġlack ing
Ġreli ably
Ġstay ed
ĠProf essor
ĠDirect ory
Ġwsp Ã³l
Ġcapt uring
Ġvisual ize
ĠTemplate Styles
ajÄħ ce
Ġiniti ated
Ġobtain ing
ðĲĮ ¹
Ġjud ge
Ġsimpl est
Am eric
amm ers
ĠOT HER
Qu estions
ÙĪØ± Ø¯ÛĮ
Ã± o
ãĤŃ ãĤ¹ãĥĪ
Ġtransform s
ĠStr athclyde
Ð´Ñĭ Ò£
Ġsw imming
Ġcontinu ity
æĪ ĳ
ĠSub mit
Ġchalleng ed
jÄĻ zy
×ķ×ł ×Ļ×ª
Ġber kas
ãĥ¼ãĤ ·
Ġclar ified
ĠTrans form
ĠMon itor
áĢŃáĢ¯ áĢ¸
Ġemp res
ĠAc er
ĠGr aduate
Ġ×§ ×¨
Ġ197 7
Ġign oring
Ġfa it
ÑĥÐº ÑĢÐ°ÑĹÐ½ÑģÑĮÐºÐ°
ĠSon ic
ĠFl or
ĠEd its
cre ated
ĠSu ccess
Ġclean up
éģ ©
ĠÑĦ Ð¾ÑĤ
ĠÐ¶ Ð°Ð½Ð°
Ġqual ified
ĠContribut ors
Ġadjust ments
Ġscal ed
Ġacadem ics
ĠInv ariant
Ġhistor ically
Ġcompar ator
ĠIN TER
ĠBrow n
Ġcapital ized
Ġà¤¸ à¤ķ
Ġachieve ments
mod ule
Ġindic ators
Pr zy
Ġconfirm ation
àª ¤
Trans fer
Ø§Ø¦ Ø·
Ġsusp ect
Ġsusp end
Sim ilarly
sim ple
åĮ ħ
áį ¢
fl are
fl ix
ĠRead er
ĠMin ister
ĠHer itage
Ġnu est
Î¹Îº Î®
oma aliga
ĠBen utzer
åĨ Ļ
ĠEvery one
RE AT
åº ı
ĠÐĿ Ð°
à¥Ī à¤Ĥ
ĠMc K
á»į n
Ġwyk on
ĠAccording ly
ĠMed icine
Support ed
Ġcert ification
Ġartwork s
Ġãģ¨ åĳ¼
ĠSche me
Ġzn ale
ĠCommun ication
éĥ¨ åĪĨ
Ġanch ors
gy pt
Ġbrief ly
Wikip edi
à¾ ±
Ġ×ĵ ×ĳ×¨×Ļ×Ŀ
à¤ľ à¤¨
Ã©t Ã©
ÑĨÑĸ ÑĹ
vis ual
å± ķ
å± ŀ
Ġhyp hens
Òĵ Ñĭ
Ġswe at
Ġpreced ent
Ġinvolve ment
Ġë° ı
ĠSecret ary
ĠRob ot
Ġachie ving
ÑĤÑĥ ÑĢÐ°
Ġpreserv ing
Ġconver ting
Brow ser
ĠKey board
Ġpursu ing
ĠTrademark s
âµ ľ
ilip inas
Ġmanufact uring
icz ne
Äĳ Ã¢
ĠdostÄĻp ne
Ġprivile ge
there um
niejs ze
Ġwp ÅĤyw
Ġwp rowad
Ġadvis ories
Ġlia ison
Ġdefend ant
Ġadvertis ements
Ġmir ror
ĠIM PLI
Extension Keys
êĻ Ĺ
á»ĳ c
ĠLess ig
Ġëĭ¤ ë¥¸
Ġexhib it
Ġinstru mental
ĠÑĺÐµÐ· Ð¸ÐºÐ°
Ġhonest ly
ĠUk raine
ĠKom unitas
ãĥ¬ãĥ³ãĥĢ ãĥ©ãĥ¼
çł ģ
ìĤ¬ ìļ©
ĠJon athan
ĠØ§ÙĦÙĦØº Ø©
Ġincons istent
ĠíĻ ķ
ĠMov ie
Ġpermiss ible
pres erving
éļ Ľ
Ġgran ular
Ġzad ania
ĠÑī Ð¾
ĠÐ¼ÐµÐ½ ÐµÐ½
sloven Å¡Äįina
Ġdiction ary
Ġunst able
Ġautof ocus
Ġstew ard
Count ry
ë§ Į
æ® µ
Europe an
ĠPropos al
Ġwu hi
Ġentreprene urs
Ġdiscontin ued
Ġtogg le
áº« n
áĢ¯áĢ¶ áĤı
×ĺ×Ĵ×ķ×¨ ×Ļ×ķ×ª
ĠÙĥØ§ÙĨ Øª
Ġdissem ination
ç² µ
ĠDH CP
ĠAlger ia
Wikim ania
Ġpriory tet
Ġìŀ¬ ìĤ¬ìļ©
æ¢ Ŀ
ĠSumat ra
Ġerfol gt
Ġrzec zyw
Ġencomp ass
Ġ×¤×ľ ×Ļ×ľ
ãĤ¦ãĤ§ ãĥĸ
Ġcontrad ict
Ġthumbn ail
ëħ Ħ
ethe less
Codec s
ĠÅĽrod owisk
ĠbÉĶhim bu
ĠFrankf urt
âŁ ©
ĠTomat ometer
ĠMack enzie
ĠKah n
Ð·Ð± ÐµÐº
ĠAmer ika
ĠHeath row
ĠAber deen
Ġatry but
áº± ng
ĠCOMMON S
åĻ ¨
Ġafore mentioned
ĠGuten berg
ĠShacht man
ĠIMPLI ED
! ).
/ âĪĴ
3 60
: ),
A B
B O
B ur
B ul
B ots
B log
C orpor
D ifferent
E k
F ast
F ield
F ollow
F onts
G al
G PU
H S
H istor
I O
J une
K o
K nown
L F
L ow
L ook
M o
M ed
M art
M ode
M apping
N ational
O cc
P or
P od
P res
P erson
P CAOB
S ales
T H
T U
T ra
T roubleshooting
V alidator
X R
X hosa
a id
a Å¼
b ia
b ra
b one
b ug
b ior
c opy
c je
d f
d t
d ot
d rop
d zy
f ull
f eed
g ements
h m
h ive
j em
j est
k ina
l ag
l oss
m ic
m ove
m ember
m box
m aker
r in
r isk
s r
s up
s chool
s yntax
s ometimes
u u
v ie
w at
w ig
w ol
w art
w ere
y fik
z za
¦ ãĥ¼ãĤ
° ¡
¸ ł
Ã ī
Å ĵuvre
Ê ģ
Í ĺ
Ð ¯
Ø Ł
ß £
á ¡
å ¢
ç °¡
è ±
Ġ ãģª
ĵ ng
ĺ Ĳ
Ġt ou
Ġt udu
in ition
re ster
er on
Ġs ake
en ne
Ġc ra
Ġc ached
Ġc ursor
Ġp Ã²
Ġp itch
Ġp ixel
Ġp oÅĤÄħcz
Ġw et
Ġw ore
Ġw ÅĤa
Ġw itness
is endr
ed o
Ġf ires
Ġd els
Ġd ining
Ġd umb
Ġd rew
Ġd imin
Ġd irty
Ġb at
Ġb or
Ġb ay
Ġb ike
Ġb ien
Ġb isa
Ġb order
ic y
Ġm est
ro tt
as m
Ġn av
Ġn oun
Ġn ti
Ġn orthern
Ġre aches
us a
us hi
us amm
Ġl avor
Ġe ing
Ġe arth
il ers
ation ally
Ġh ist
Ġh over
Ġh Captcha
et i
et ic
ĠA k
ch or
ch ter
am ation
ĠC G
ĠC ad
ĠC atal
ĠC MS
ĠC urrently
ut an
un c
un j
un al
ĠS F
ĠS om
ĠS SH
ĠS olo
ĠS chedul
ĠS ydney
ow al
ow ment
ow ali
ow ymi
ow aniu
st al
st akes
st rict
ĠT ouch
ĠT AG
ĠT iáº¿ng
Ġbe e
Ġg ior
Ġg raf
ĠW M
Ġor g
Ġcon vention
Ġus eless
el o
el og
ur b
ur ut
ul ates
ac on
ac ies
ate ful
ate urs
Ġst an
Ġst ale
Ġst ood
op o
ĠM ade
ĠM iller
Ġal i
Ġal ien
ri pe
ĠP ull
ĠP ick
ir an
ir ms
Ġcom edy
Ð° Ñĩ
ec ies
ec ast
ec nolog
ĠD ed
ĠD ue
ĠD isk
ĠD uration
pl om
Ġnot ion
se a
ĠB B
ĠB oy
ĠB TS
ĠB aza
ang ers
Ġk ang
Ġk ara
ak y
ak uten
Ġr y
Ġr anges
ork k
Ġun int
Ġun block
and y
ĠL o
ĠL ee
ĠL inked
ĠL ater
ĠL isa
ĠL inking
ĠH i
ĠH on
ĠH ive
ĠH ung
ud o
ĠR aw
nd s
um asan
ip u
ĠE t
ĠE instein
ĠThe atre
og o
og r
og y
ant an
Ġse perti
à¤ ģ
ĠU int
ĠO g
ĠO k
ĠO m
ĠO s
ĠO ption
ĠO ften
ãĥ ¯
Ġhe s
à¦ ĵ
Ð¾ Ñĩ
Ġsp an
ens on
ĠN in
ĠN DC
Ðµ ÑģÑĤ
ÑĢ ÐµÐ¼
Ð½ Ð¾Ð²
ib es
ib les
ire ction
Ġapp li
Ġar rive
Ġcomp eting
ĠWik iversity
ĠWik ibooks
Ġen ct
Ġint im
ÑĤ Ð°Ð¹
Ġj ok
Ġj ego
Ġj query
ĠJ DK
th ur
Ġpl aza
act ors
gr y
Ðº Ò¯Ð½
Ġup stream
ĠV ector
ĠV irgin
Ġz al
×Ļ× Ĵ
ĠK L
ĠK ubernetes
ell ar
Ġadd ons
Ġsc iences
Ġcl os
Ùħ ÛĮ
In line
tern oon
Ġfe as
ĠØ º
ont alo
ord an
ord ered
ord yn
Ġout ages
Ġout dated
Ġprov ing
ribut or
ove re
Ð´ Ð¶
ond ition
riv ile
Ġsec uring
Ġph i
Ġph on
Ġph Æ°Æ¡ng
Ġcons ume
Ø± ÙĪÙĨ
Ġfol k
Ġdef ens
ĠRe ality
Ġtrans mitted
Ñĭ Ð·
Ġcol our
Ġob server
Ġrel ied
Ġrel iance
à¬ £
Ġprogram u
Ġprogram matically
ĠØ§ÙĦ Ùĥ
Øª ÙĬ
Øª Ø§Ø¨
ĠAr thur
Ġgener ator
Ġgener aciÃ³
ĠCh anging
Ġinter val
Ġinter wiki
Ġfun ny
any umasan
ãģ® ãĤĪãģĨãģ«
Ð³ Ð¾
Ð³ Ñĥ
Ñı Ð½
Ñı Ð´
cy j
Ġver ifying
Ġà¤ °
ruct ures
Ġ4 6
Re ading
Re chtsgrundlage
êł ĸ
ock t
ci pl
Ġmin ors
pro blem
Ġlicense e
pr ist
Ġmark er
à¨ Ī
à¨ ľ
ÑĢÐ° Ð½Ð¸
Ã¡ t
Ġtext e
Ġnow e
Ġprof ound
read ing
Ġà¦ ľ
ĠTh under
Ã¤ ÃŁ
Å¼ s
St rengthen
Ø¨ Ø§
Ġer re
Ġdirect ories
Ġdon ate
Ġimplement ors
Ġend e
Ġadv enture
Ã¼ ber
Ã¼ ts
Ã¼ tz
Ø³ Ø®
ĠAd am
und ry
Ùģ Ø±
Ġexpl ored
ĠAnd erson
ãģ« ãĤĤ
Comm un
ĠÐº Ð°Ðº
Ġfr ustration
ism e
}} )
19 7
ins on
à½ º
ĠZ e
ĠZ oo
Ð°Ð» Ð°ÑĢ
Ġtyp ography
Ġsing ular
Ġtransl ator
Ġra in
ÑĪ Ðµ
Ġë Ĥĺ
Ùĥ Ùī
Ã¶ s
12 6
12 7
ĠSec urities
ĠÐ¼ Ò¯Ð¼
ÑģÑĤ Ð¾ÑĢ
ÑģÑĤ Ð²Ð°
Ġextens ively
Ġdem ocratic
ĠÐ± ÑĥÐ»
Ġclass path
áı ı
Ġrece ipt
13 7
13 8
ãģĹ ãģ¦ãģĦãĤĭ
ĠFound ers
15 1
con duct
Ð¾Ð² ÑĸÑĪ
ĠØ¨ Ø´ÙĥÙĦ
Sp ace
go od
Ġimportant ly
Th reat
cz as
Ġbr anding
Ġbr idge
Ġbr utal
×Ĳ ×ª
17 4
man agement
ache lor
ĠVersion ing
Ġ9 7
ĠMan ual
ÐºÐ° Ð·
Ãª u
Ãª ng
ER E
ĠLe op
ëĭ ¨
ĠØª Ø±
æľ ĥ
æľ į
Ġprom ising
Ġrespons ibly
sh a
Ġline up
ãĤ¹ ãĥĨ
Ġexpress ing
ĠLic ensing
Ð¸Ð½ Ð³
Ð¶ Ð¸
Ġpres idency
ĠInst ances
Ġdistribut ing
Ġpat ient
ãģª ãģı
sc ar
Tr ust
ĠRes ilience
25 4
Ġ×ĳ× ¡
à® °
åħ §
åħ ¸
Un ivers
AI N
Ġvalid ity
uj u
Ġinvest ed
Ġ×ŀ× Ľ
ĠGu inea
ðŁ Ĵ
App lication
ĠØ§ÙĦÙħ Øµ
yt u
Ab ove
ifi ability
ĠMal ayu
Ġda erah
Ð½Ð° Ñı
PA A
Ġquestion able
ĠReg ents
Ġà¨ ¹
Ø§Ø± Ø©
ĠAf ghan
Ġcomb at
ĠzespoÅĤ ach
×¤ ×Ļ
Ġà¬ ħ
è¨ Ń
Ġti ers
Ġti áº¿ng
Ġ198 6
Ġef ekty
Ø· Ø¨ÙĬ
upport ed
ih an
Ġma upun
ĠSpec s
Ġmem ories
Ġperiod ically
ĠØ§ Ø³
à¸µ à¹ī
Ġexpect ing
Ġocc up
Ã´ n
Ġbi ased
zen iu
ele ment
Ñĺ Ñĥ
ĠAss istant
iet nam
Ġ: )
Ġß ¡
ãģķãĤĮ ãģ¦ãģĦ
Ġregul ated
Äį eÅ¡tina
So omaaliga
Ġuns ubs
Ġuns upported
Ġprz ek
Äģ n
Ġinfring es
Ġod n
Ġpopular ity
ĠCo ast
hib it
Ġng x
Ġworth y
No ah
kl op
kl Ã¤r
Ġcr isp
Ġsem icol
Ġ×Ľ ×Ļ
Ġinnov ate
ìļ Ķ
Ġge ographic
ĠÑĩ ÑĤÐ¾
with standing
asc o
Ġprogress ive
Ġcirc le
Is rael
Ġmid night
×Ļ×ł ×Ķ
ĠÐļ ÑĬ
áī ½
ĠProf iles
ĠDirect media
×ŀ ×¨
Ġreflect ing
Ġpurch asing
ajÄħ cych
Ð¸Ð» Ðµ
Go vern
comp ass
Ġeffect iveness
yd d
ĠSim on
Ð¸Ðº Ó£
Can ada
Can vas
Ġinsp ire
Ġfore going
Ġtransform ed
Ġposition ed
Ġsyn ced
×ķ×ł ×Ļ×Ŀ
×ķ×ł ×ķ×ª
Ġprop ag
ĠAny one
Ġgain ing
ĠMon ero
Com b
Ġsequ entially
Ġmoment um
but ton
Ġkl ucz
Ġsil os
Ġ×§ ×ĳ×¦×Ļ×Ŀ
Ġ197 9
requ is
Ġang ular
Ø§Ø¯ ÙĦ
Ġcentral ized
Ð¾Ñģ Ñģ
Ð¸ÑĤ ÑĮ
á»Ļ c
Ġhon ored
ĠÒ ³
ä½¿ ãĤı
æł ¼
ĠMat hemat
Ġassum es
Ġutil ize
Ġsatisf ied
Ø¸ Ø±
à¹ĥ à¸«
Ġsix th
Trans form
Ġfundament als
Ġsusp ension
inn ed
Ġpip elines
Date Time
áį į
Ġcorpor ations
Ûĩ Ø±
Ġdiscount s
Transl ations
Rep ort
ĠBer lin
Ġmeant ime
åŁº äºİ
ĠVi ol
Ġillustr ates
ãģł ãģĳ
Test ing
Test wiki
ãĤ» ãĤ¹
ĠDeutsch sprachige
ĠLat est
Select ed
ĠMult iple
ĠColl ins
Act ivities
à¸Ī à¸²à¸ģ
ĠOpt ions
Ġunc opyright
sv enska
Ġlik ed
Ġcert ifications
Ġresil ienza
ĠVal ues
ÅĤo Å¼
Ġrenew ed
Ġbund led
à¦¸ à¦®
Ġchain s
ĠJe an
API s
è¿ Ļ
acz ego
ĠGree ce
ç» Ħ
ç» Ł
Ġri prist
rem ove
Ġmigr ate
ĠRepublic an
Ġdialog ue
osp ace
Ġobs ess
ĠìľĦ ìĽĲ
Ġwat ched
Ġrat io
ĠAnn ual
æ§ĭ æĸĩ
Ġcha os
Ġìķ Ħ
Ġmitig ation
lear ning
ĠSol os
æĸ° ãģĹãģĦ
ĠdziaÅĤ ania
Off ice
Ġappe als
Ret urns
Ġconstitut ional
ĠKn uth
Mult i
Mult iple
Ġunn amed
ĠØ¢ Ù¾
ÙĪØ¹ Ø©
Ġsett led
Ġhouse hold
Ġpron ounced
ĠusÅĤug i
Organ ization
Fr ance
Ġinqu iry
Ġhom es
ĠÑģÑĤÐ°ÑĤ ÑĮÑı
Ġru lem
project s
Ġ×Ķ×Ĵ ×¨×ŀ×ł×Ļ×ª
æĭ ¬
èŃ ī
Ġchamp ion
Min angkabau
Ġva abu
ĠClass ification
Ġcomprom ise
Ġaccommod ation
ĠStan ford
ÑģÑĤÐ² ÐµÐ½
ĠrÃ³ wnie
æīĢ æľī
urd Ã®
uls ion
Ġverarbeit et
Ġamend ment
ç¬¬ åĽĽ
Ġquiet ly
Ġnewsp apers
ĠHack athon
ĠRest ore
ĠëĮĢ íķľ
lie ÃŁ
Ġbin aries
ĠFort ran
Ġneigh bor
Ġdow ntime
char acter
Ġguard ian
åªĴ é«Ķ
Ġchm ury
Õ¥Õ ¿
ĠØ§ÙĦÙĦØº Ø§Øª
à« Ģ
ĠHD MI
Ġgate way
Ġspreads heet
Ġspreads heets
ĠprzepÅĤyw y
æ¡ Ī
ĠCapt ure
Ins ights
Ġmultip art
Ġzmian y
æŁ Ĳ
ÑģÐµÐ¼ Ð±
Ġprepar ation
Ġìĸ ´
Ð¾Ð»Ð¾Ð³ Ð¸Ñı
ãĤ³ãĥ ¢
ê± ´
ĠEmploy ees
ë¶Ħ ê³¼
Ġthor oughly
ĠWant ing
à®¤ à®®
ħį ìĬ¤íĬ¸
Ġbureauc rat
Ġìļ °
ĠImm ersive
Ġmanufacture rs
Ġautoc omplete
ãĤĴæĮģ ãģ£ãģ¦ãģĦãģ¾ãģĻ
Ġsudden ly
liv ia
ĠFot ograf
ĠHope fully
ĠbezpieczeÅĦst wa
mag yar
ĠLG BT
ĠJack son
Ġszczeg Ã³ÅĤ
Ð´ÑĭÐ³ Ñį
Ġsurprising ly
Mich ael
Introdu cing
FOR M
Ġtá» «
ÑģÑħ Ð¾Ð²ÑĸÑĪ
ĠwÅĤ as
ĠJIR A
Automat ically
è§Ĩ é¢ĳ
ĠCath olic
Ġenroll ment
á»© c
Ġskut ecz
ĠTreat y
æį ®
Ĳì ¸ł
ĠFried man
Ġunlaw ful
prim ary
pskoh rvatski
ç¼ ĸ
okm Ã¥l
Ġrelev ance
affic he
Ġforgot ten
Ġpractition ers
crumb s
íħ Ĳì¸ł
ĠAutof ix
ç²µ èªŀ
¦ãĥ¼ãĤ ¶
isendr ath
ĠÐ¼Ò¯Ð¼ ÐºÒ¯Ð½
ĠìľĦìĽĲ ìŀ¥
ÑģÑħÐ¾Ð²ÑĸÑĪ ÑĩÐ°
! âĢĿ
) ãĢģ
. âĢĻ
1 12
1 13
8 00
= ,
A w
A ri
A WS
B r
C as
C PA
C ategor
C atalÃł
D u
D an
D am
D iff
D ouble
E mb
F e
F ound
F unctions
G lass
H ed
I X
I galia
J an
L inking
N orsk
O k
O ld
O wn
P OS
R P
R ule
S al
S il
T E
T L
T ar
T ur
T yp
U k
V ia
V TT
W ord
Z ulu
[ [
b f
b lic
b ah
b ecause
c Ã³w
c irc
c raft
d an
d igital
d epend
d Åº
e z
e il
f alse
f etch
f actor
g ate
h on
h ole
h igu
j query
k n
k ien
l Ã¢m
m u
m issions
m ozilla
n ode
n amed
n ienie
p y
p ay
p her
r ar
r ated
r ats
s j
s ize
s ets
s ka
s á»¥
t ly
t yp
t ier
u ur
u ya
v ille
w ij
w alls
w iÄĻks
y ÉĽ
¢ «
² àº
Ã Į
Ì Ħ
Ô º
ß ĵ
á ĳ
è ¢«
ê ·¸
ë ¬¸
ï ĥģ
Ġ _
Ġ ia
Ġ ÃŃ
Ġ Ã¶
Ġ Å¡
Ġ à¹ģ
Ġ Ã¡n
Ġ ounce
Ġ ÚĨ
Ġ ãģĿãĤĮ
Ĥ çħ§
ĳ ľ
Ġt ÉĶ
Ġt empt
in ator
in ars
he m
re ll
at isf
Ġs f
Ġs lic
Ġs ap
en o
it et
it ous
an st
Ġp iv
Ġw z
Ġw ol
Ġw ishes
ed ian
Ġf on
Ġf ing
al di
Ġan a
Ġan s
Ġd h
Ġd up
Ġd adi
Ġd urable
Ġb ases
Ġb atter
Ġb awah
ic ios
le ich
Ġm ol
Ġm ie
Ġm Ã¼
Ġm ai
Ġm usi
Ġin ne
Ġin nych
ar wanda
Ġand eren
ent a
as se
Ġn ou
Ġn od
Ġn ich
Ġn Ã©
Ġn its
Ġn imi
Ġn erd
Ġn uclear
Ġre ass
Ġre cht
Ġre write
us ia
Ġl on
Ġl ighter
Ġth rive
Ġy ield
Ġy ini
Ġh in
Ġh oped
Ġh iding
ot he
et uviÅ³
ly mp
ĠA p
ĠC ome
ĠC hen
ĠC ream
ĠC ool
un es
ĠS I
ĠS y
ĠS ir
ĠS ear
ĠS ov
ĠS erial
ĠS MA
ĠS ky
ĠS egment
ow ym
ow ego
ĠT ree
ĠT umb
ĠT engg
ĠT itle
ĠT Ã¼rkÃ§e
Ġbe re
ĠI V
id os
id gin
Ġpro active
Ġpro wad
ĠW ear
ĠW AN
Ġor th
ab o
em at
Ġv ow
Ġv erm
Ġv oid
ik s
ik ol
Ġst ain
Ġit o
ĠM u
ĠM os
ĠM ang
ĠM ak
ĠM uch
ĠM ars
ĠM aps
ĠM ajor
ĠM igrate
Ġal leg
os is
ĠP L
ĠP it
ĠP ur
ĠP ang
ĠP oint
ess ential
est ing
Ġex clusions
qu al
ist ries
ĠD as
ĠD rag
ĠG UI
ĠB or
ĠB ah
ĠF aso
ĠF ellow
ĠF amily
Ġk ult
Ġk uli
ak espe
à¸ ¨
à¸ ĺ
Ġr icher
Ġby ÅĤ
and roid
ĠL ine
ĠL apt
ĠL ooking
ĠL AW
ĠH E
ĠH P
ĠH et
ĠH OT
ĠH UN
ĠR en
um bers
ip al
ĠE V
ĠE ra
Ġcont ing
og ue
ant u
ãĤ ±
ust ri
à¤ «
à¤ Ī
ĠO cc
ĠO fficial
ãĥ į
ere m
ere ss
Ð¸ ÑĤÐ¸
Ġsh orth
Ġch ances
Ð¾ Ð¸
Ð¾ Ñŀ
Ġim g
Ġsp ark
ĠN G
ĠN P
ĠN AS
Ġtr adu
Ġtr Ãªn
Ġar ithmetic
Ġab ide
Ġab road
Ġcomp osite
Ġen orm
Ġte ks
ÑĤ Ð¾Ð³Ð¾
ĠIn n
ĠJ oe
Ġne arest
Ġres ign
Ġres idences
Ñģ ÑĢÐ¿ÑģÐºÐ¸
ass oci
Ġup held
eb en
ĠV ert
ĠV ault
Ġz ani
Ġz abez
erv es
Ġcre w
ĠSt age
ĠK rist
Ġdes erial
Ġdes irable
ph p
ph inx
Ġcl in
Ġcl usters
Ġnew lines
aw ay
Ùħ ÙĪ
Ñĥ Ñħ
In f
Ġout lines
ob i
ob u
Ġpre st
Ġev olves
ÙĬ ÙĪ
Ð´ Ñĸ
ature s
Ġweb page
Ġ3 50
ry ing
Ø§ÙĦ Ø«
ond itional
Ð¼ Ð°ÐºÐµÐ´Ð¾Ð½ÑģÐºÐ¸
Ġbu ffer
ĠPro p
ĠPro ton
row ing
Ã³ rz
ah r
osit ions
Ġdef e
ĠRe id
Ñĭ Ð¿
ĠFor rester
Ġpublic znej
Ġaccess ories
ÅĤ Äħcz
Ġchang elog
Ġ19 23
ert y
ĠWeb RTC
Ġprogram aciÃ³
ĠØ§ÙĦ Ø´
Ġreg ents
Ġexp ire
Ġexp ects
Øª Ø§
ĠCh ase
ĠCh ildren
Ġinter change
Ġac ronym
olog ii
Ġfun z
Ġla ure
Ð³ Ð°ÑĪ
Ñĸ Ñģ
Ġu ga
For ms
we alth
ring ement
oth y
Ġ4 4
Ġ4 04
Ġmet atable
Re ference
Ġinv itations
az as
az aki
pro ving
Ġleg end
ier ra
×¨ ×¡
urre nce
Ġco ined
eg i
ÉĽ m
ÉĽ ÉĽ
Ġinc hes
Ġread ily
Ġund ue
20 13
ĠY ear
Ã¡ ng
ym bolic
ĠÐ¿ Ð¾Ð¼
ner gy
ĠTh iel
amp u
Ġhad n
Ġcustom s
St udent
ien g
Ġspe ÅĤ
ĠÙħ ÙĪ
Ġnon commercial
ex press
work ing
Ð°Ð½ Ð´Ð°
Ġadv ised
Ġadv ancing
Ø³ ÙĨ
Ġafter wards
omet hing
Ġ6 3
ĠX code
Ar ab
Ar ticles
Ã¨ r
Ã¨ me
Ã¨ dia
Ġfound ational
Ġrest oration
ä¸ ļ
oun ge
itt i
ãģ« ãĥŀãĥĥãĥģ
Ġnumber ing
Ġtra ff
Ġtra versed
Ġni riba
Ġel le
ĠÐº ÑĮ
ĠÐº Ð°ÑĢÐ°
ĠÐº Ð¾ÑĤÐ¾ÑĢ
ĠAm sterdam
Ġ10 7
19 2
19 5
Ġá ģ
vent h
à½ ĺ
ÐµÐ½ Ð°
ÐµÐ½ Ðµ
ÐµÐ½ Ñı
ĠSh annon
ĠQ ual
Ġtyp ed
Ġreal ization
Ã¢ i
ĠAn sw
Ġë ¶
iÄĻ dzy
Ġbas ket
12 1
ãĥ³ ãĤº
ÐºÐ¸ Ð¹
Ġest imate
ĠÐ¼ Ð°ÑĤ
ĠÐ¼ Ð¾Ð³
ĠÐ¼ Ð°ÐºÐµÐ´Ð¾Ð½ÑģÐºÐ¸
Ġpass age
16 0
16 4
As k
Pro cess
Ġdem ocr
Ġà° Ĩ
Ex p
13 3
ĠÙĪ ÙħØ¹
15 7
Ġcontin ent
Ġcontin uation
Ġref ine
Ġref use
ĠÑĤ Ð¸Ð»
ĠÐ´ ÑĢÑĥ
ĠØ¨ Ø£
14 2
14 5
me ans
Ġplace ment
Ġ×ľ ×©
Ġ×ľ ×§
àŃ ±
Ġanal iz
ogn ized
ĠOn Tr
Ġcollect s
17 0
17 8
ache l
Cont rol
Ġpop up
isk a
De ep
ãģĮ ãģ§ãģįãģ¾ãģĻ
Ġ9 4
vir t
Ġny an
Ġconfig urable
æľ ª
Ġmaj Äħ
ĠâĪ Ĵ
sh irts
ĠWith in
anc er
ada ÅĦ
Ġmodel ed
Not able
ni h
ĠBe ast
Ġsepar ating
Ġassoci ations
ĠPh oto
AR K
Ġ×Ĳ ×Ļ×ł×ķ
11 1
ĠÐ° ÑŀÑĤÐ°ÑĢ
CA L
ĠRec ognition
ãĤ¤ ãĥĦ
ees e
Ġpresent ing
Ø§ÙĨ ÙĬ
ĠComp uting
Ġvalid ators
Ġinteract ivity
Ġcost ly
Ġesp ec
Ġesp aÃ±ol
App elhans
Ġcomment ary
áĪ µ
Sh irt
ĠStud ies
×ŀ× ľ
Ġdeterm ination
att a
ĠCom b
ÓĻ Ð¹
Ð½Ð° Ñĩ
Ġansw ered
Ġansw ering
ĠMicro data
ĠReg ards
ĠReg ulations
ĠÐ½Ð° Ð¿
ID E
Ġimm igration
×Ľ ×ķ×ľ
ament o
Ð»Ð° Ð¼
Ø· Ùģ
Ñİ ÑĤ
ĠIm plementations
gin x
æĸĩ åŃĹ
Å¡ u
ÏĦ Î·
Ġlaun ches
ĠSc rim
Ġ×ķ ×Ĳ
Ġmeas urable
ÑģÐºÐ¸ Ñħ
Ã´ t
Ġí ħįìĬ¤íĬ¸
ba Åĭ
ìĹ Ń
ele br
Ð½Ñĭ Ð¼
IS O
Ġß ĺß
ãģķãĤĮ ãģ¦ãģĦãĤĭ
ero on
Ġnormal ized
200 1
ĠPublic ation
Ġdz iel
ĠEm my
à¦® à¦¨
×¢ ×ª
Ġuns ure
Ġuns afe
Ġencour aging
à¦¯ à¦¬
ãĥ¼ãĥ Ħãĥªãĥ¼
Ġod d
Ûģ Ø±
ĠBr ush
ĠPal est
Ġassist ive
Ġcr ack
With out
Ġsche mes
Ġphys ic
Ġconstruct ing
ĠAfric ans
Ind ia
Gener ative
à¶ ½
Ð¾Ðº Ñĥ
Ġsat u
ensor Flow
ãģ®ãĥ İãĥ¼ãĥī
ãģ®ãĥ ķãĤ
à· Ķ
Ġbuy ers
Ġattempt ed
Ïģ Î³
Ûķ Øª
×ŀ ×Ļ×Ŀ
Ġbo asts
Ġdr ink
ĠðŁ İ
à¸ļ à¸ģà¸²à¸£
Ġpurch ases
éĢ Ļ
Ġphotograp hed
Other wise
Ġdeb ates
Ġenforce able
Ġauthent ic
Ġjud ged
ĠStat us
á»¥ sá»¥
ç´ °
ĠÐĲ Ð²
zi Äĩ
ĠSim pl
Ġlib eral
do ors
Ġprojek ty
Ġextra ction
ĠAnt hropic
log o
Ġtransform ations
áº¡ o
iny arwanda
Ġposit ives
åĽ ł
à¦ķ à¦Ł
mark ed
Ġenjoy ing
ĠØ§ÙĦØª ÙĤ
Ġeconom ics
igu ous
ĠEv an
Art ificial
íķĺ ê³ł
ĠAny where
Ġexerc ising
Ġunivers e
Or g
ĠÑĺ Ð°Ð·
Ġban ner
ĠPC s
ĠMar athon
Ġsil ently
requ ently
ĠCamp bell
ĠFl ip
ĠOrgan izing
ĠÑĦ Ð°Ð¹
Ġfan cy
serv ices
á»Ļ ng
Ġ×Ķ×ŀ× ¢
Ġmerg es
Ġinteg ers
ÙĦÙĬ ÙĦ
aga are
áĢ½ áĢŃáĢ¯
ãģĵãģ¨ ãĤĴ
Ġlo ose
Ġstack ing
Ġagre es
web site
atar Ã§a
ĠÊ» Åį
Ġsle ek
Ġovers ees
Ġstrategic z
zn ij
Ġcalcul ate
Õ« ÖĦ
Ġrecip es
Â» .
ĠConf idential
àª ľ
Ġrequested Locales
Trans clusion
Ġfundament ally
Ġroll ed
ãĥĸ ãĤ¸ãĤ§ãĤ¯ãĥĪ
Ð³ÑĬ Ð°Ð½
Õ¸ ÖĢ
Ġnaj waÅ¼
ç§ »
Ġrow s
ĠDem on
Ġadm it
åį Ĺ
olo ji
ç« ¯
ĠEle venty
Ġpra kt
col umn
ä¿ Ĥ
ĠPost Script
ĠPost mates
ĠEvery thing
Ġacceler ating
RE E
æ¨ ¡
IP O
áĢ±áĢ¬ áĢ·
dem o
Act ivity
ĠÙĩ Ø°Ø§
Ġcatch ing
Support ing
Ġcart el
ĠChe l
Su pp
Ġcert ificate
ĠName Tag
à¹Ĥ à¸Ħà¸£
Port ug
Port uguÃªs
API Clients
Att ribution
Ġãģ¨ ãģĦãģĨ
Ġarg s
æŀ Ħ
ĠSil imi
Ġdiscover ing
Project s
andal one
ĠLL Ms
ĠEnt reprene
ĠDol an
Back ground
Ġproceed ing
Ġrat ification
Ġlex ical
ãĤĪãģĨ ãģª
Ġwal lets
Ġíķ ´
Ġverb atim
Ġprote zione
Ġaplik acj
Mal ay
Ġschol arly
ĠArbit rator
Ð°Ð»ÑĮ Ð¼
åĳ ³
Ġoct ets
ĠRet urn
åĵ ¡
ĠLead er
Ġcolon ial
ĠkaÅ¼ dy
Ġpreserv ed
Ð£ Ðº
Ġsett lement
ë© °
Ġkun nen
Ġgrad ually
Ġhierarch ies
×Ļ×ŀ ×ķ×©
à¤ĩ à¤²
ĠìłĢìŀĳ ë¬¼
Organ izations
Ġtrigg ers
dis play
Generated APIClients
Õ¸ÖĤ Õ¡Õ®
Feature s
Ġenfor cing
ĠcaÅĤ ej
Ġserial ization
ÄĹ s
Ġczas u
ĠCass ation
ECT ION
Autom atic
Ġsucceed ed
Ġaudi oph
Spe aking
ëĵ ¤
Ġsynt actic
Ġamend ments
Det ails
Ġattach ments
ç¶ŃåŁº åªĴé«Ķ
àº ²àº
åķ Ĩ
Ġyu ya
ĠNor way
ãĤĴåı Ĥçħ§
ĠLim ited
eres se
ê³µ ìľłê²½ìłľ
ãĤª ãĥĸãĤ¸ãĤ§ãĤ¯ãĥĪ
Ġflu ency
Ø¤ ÙĦÙģ
Ġpon ad
Ġpon iew
ĠCirc uit
Ġdeutsch sprachigen
Conf luence
ãĥªãĥ³ ãĤ°
éĸĭ çĻº
çł Ķ
Ġtel ah
Ġpit falls
ĠDial og
ĠHen ry
ordin ator
Ġceleb rities
à« ģ
ĠHard ware
âĪ ŀ
Ġnive ll
ĠJah ren
ä½į ç½®
sloven Äįina
Ġdiction aries
ĠTyp ically
Ġstere o
ĠBan jar
Ġrid ic
ĠEin will
ÙĪØ¬ ÙĪØ¯
Ġìĸ ¸ìĸ´
æĬĢ è¡ĵ
Ġartyku ÅĤÃ³w
×ŀ×ķ×ł ×Ķ
mn anti
ÅĤat w
collect ively
activ ated
ĠDelete Me
Ġìłķ ë³´
Ġlok al
ĠFilter ing
Ġaccomp any
Ġdatas ets
Wsp Ã³ÅĤprac
jur isdict
æĴ Ń
ĠFed RAMP
Ġà¤Ĩà¤ª à¤ķ
Prop os
fen v
pict ured
spe aking
çĽ´ æİ¥
ĠBroad way
Ġpoziom ie
West law
inte gr
Ġdeprec ated
Ġzapewnia jÄħ
Ġdestroy ed
Dz iÄĻki
ĠãģĵãĤĮ ãģ¯
Ġmund o
Ġram ach
Ġelabor ate
ĠÄĳi á»ģu
Ġá¸į Ã¢
Ġvoc als
ĠJur assic
Ò· Ð¸ÐºÓ£
ĠciÄħ gÅĤ
Ġvibr ant
ĠMill ennium
ĠDub lin
Ġredund ant
Ġsoluz ione
ĠPROVID ED
Ġpadd ing
ĠPric ing
Ġambigu ity
ÙĦÙĪÙħ Ø§Øª
ĠÎ½ Î±
ĠÑıÐ·ÑĭÐº Ð¾Ð²
ĠRO I
Ġ×ķ×ł ×ķ×ķ×Ļ×¡
haust ive
Ġmetaprogram ming
ĠMailinglist e
Ġunch anged
ĠVerfÃ¼ gung
Ġstoryt elling
Î´Îµ Î¹Î±
Ġjurispr ud
cob bola
ĺìĿ´ ì§Ģ
Ġtong ue
Ġeleg ant
Ê»zbek cha
Ġíİ ĺìĿ´ì§Ģ
REAT IVE
Ġrzeczyw ist
è± ¡
ĠBaza ar
Ġrulem aking
ãĤ³ãĥ¢ ãĥ³ãĤº
akespe are
ĠHOT EL
ĠHUN TR
ĠOnTr ac
à¦¯à¦¬ à¦¹
à¹Ĥà¸Ħà¸£ à¸ĩ
% ),
- ,
/ /
2 19
3 29
7 99
A lemannisch
B re
B ud
C S
C ur
C rit
C la
C ON
D en
D ed
D ID
E nt
E ll
E arly
E asy
F an
F our
F uture
F rysk
G alleries
I do
I BM
I terator
J oseph
J oris
J AE
K i
K ore
K ern
K iswahili
L ib
L ine
L ee
L ength
M ove
M aster
N a
P ers
P ut
P ass
R ender
R ounding
S un
S ort
S uch
S olution
S EC
S LT
V ik
V oice
V ikip
W C
W E
W oT
W izard
Z ero
[ "
a Ã§Ãµes
b d
b is
b ig
b est
b oy
c d
c ar
d og
d ens
d ating
d raÅ¼
e u
e esti
f ri
f ont
g ments
g Ãº
g abe
g eme
g alego
h ÉĽ
i OS
j n
j ut
k at
k ers
k ern
k ward
m aps
n or
n ah
n ung
n als
n umeric
n ormal
o ast
o ften
p ol
p oss
r Ã©
r ick
s he
s che
t ags
u is
u eng
v atski
w ind
w hether
} .
É ĸ
Ì Ģ
Ð Ĩ
Õ ®
Ø ¢
ß ¯
ß °
å ¨
æ ĳ
ç ľ
è ´
é ĺ
ë ĸ
ë ²ķ
ì °
ì ĥģ
í Į
í ģ¬
Ġ ãģĵ
Ġ à¸Ĺ
Ġ íķľ
Ġ idioma
Ġ à´®à´²à´¯
Ĩ µ
Ī ÖĤ
ļ Ģ
Ń ìĭľ
Ġt Ã´
Ġt ÉĶn
Ġa pr
Ġa pache
in du
in ciples
Ġs ig
Ġs ak
Ġthe ories
en za
it us
it Ã¤t
Ġc ens
Ġc ord
Ġc ognitive
Ġc ockt
Ġp il
Ġp ill
Ġp ounds
Ġp uzz
Ġw is
Ġw ard
Ġw ind
Ġw draÅ¼
ou st
Ġf ired
Ġf asc
Ġf illing
al ition
al Ã¡
Ġo Ã¹
Ġo zn
Ġan che
Ġd ini
Ġd arm
Ġd unia
Ġd áº«n
Ġb Ã¡
Ġb other
Ġb ump
Ġb iking
Ġm enggunakan
Ġin clus
ar q
ar in
ro ke
ent ing
ent ric
as ury
Ġn ic
Ġn el
Ġn ose
Ġn hi
Ġre inst
Ġre action
Ġre base
Ġre build
us et
us un
om al
Ġl ou
Ġl ors
Ġl ux
Ġth rott
il iz
Ġh ood
Ġh ints
Ġh Ãłnh
et on
Ġis ang
im plementation
ĠA griculture
ig ten
am or
am mlung
ĠC H
ĠC ast
ĠC DN
ĠS ab
ĠS per
ĠS av
ĠS AP
ĠS overe
st an
st age
ĠT in
ĠT an
ĠT her
ĠT ex
Ġbe ars
ol ina
ad en
ad itional
Ġg ly
Ġg ra
Ġg irls
Ġpro y
ĠW OR
Ġcon ceived
Ġus p
el ing
el ix
ab ay
ur at
ur ge
ur istic
ur gs
em ple
Ġv ou
Ġv ide
ul at
ul is
ul atory
if ference
ac ion
Ġst arter
op ÉĶ
ĠM L
ĠM il
ĠM ike
os ity
ri el
ri ps
ĠP ut
ĠP otter
ĠP NG
ir s
ir undi
pp ers
ess a
Ġex clusion
ec onom
ec onds
ĠG ro
ĠG rid
ĠG agana
our se
pl ate
pl ication
pl ane
Ġnot afish
ĠB N
ĠB ang
ĠB ott
ĠB oys
ĠF a
ĠF raud
Ġk er
Ġk ad
Ġk op
Ġk ase
Ġk ap
Ġk emb
Ġk hi
ak ukan
ies iÄĻ
rom Ã¢nÄĥ
ĠL oc
ĠL ove
ĠL oss
ĠL ittle
ĠL Ã¶sch
ĠH ask
ĠH utch
ĠH Base
ĠH otels
art ikel
ĠR ust
ĠR ES
ĠR yan
ĠR outer
ain er
âĢĻ .
ip a
ip her
ip se
ĠE S
ĠE cosystem
ĠThe ater
end ix
Ġse ats
Ġse bu
ĠU l
ĠU pper
ĠU PS
ĠO scar
Ġsu a
ãĥ ĭ
Ġhe b
Ġsh r
Ġsh ield
Ġsh ifts
res ources
Ð¾ ÑĢÐ°
Ġwork place
Ð½ ÑĤ
ard i
ib t
Ġle e
Ġle ps
ich i
ie le
Ġcomp os
Ġall ocation
Ġdo ors
Ġdo zens
Ġint ens
ans as
ÑĤ ÑĥÑĢ
Ġj i
ÙĦ Ø²
ail and
ĠIn line
ĠJ ir
ĠJ enn
ĠJ akarta
Ġacc um
Ġacc used
ber os
ber apa
Ġso vere
Ġso bie
Ġres ume
ple x
rib u
rib le
Ð» Ñĸ
ep ing
gr at
Ġup front
eb ooks
ĠV ee
ong ol
ĠComm erce
ĠSt ories
ĠSt ev
ĠSt yling
ast urianu
ĠK l
ĠK r
ĠK up
ĠK ids
ell es
ell an
Ġsc ales
Ġdes ktops
ph ia
Ġcl auses
Ġnew sw
Ùħ Øµ
Ñĥ Ð¶
tern ative
ll i
ord inate
Ġman ifest
Ã© ng
Ã© conom
Ġpre t
Ð´ Ð°ÑĢÑĭ
int o
Ġrec ru
erm ark
Ġcons ecutive
osit ive
Ð² ÐµÐ´
ĠRe venue
Ñĭ Ñģ
Ñĭ Ð½Ð°
ov im
Ġ19 41
Ġ19 68
Ġ19 61
Ġunder neath
Ġrel ax
ĠWeb M
hen omen
ĠØ§ÙĦ Ø®
Ġover writing
wn oÅĽÄĩ
Ġpe u
ement e
á» ³
á» ħ
ĠCh allenges
Ġinter ior
ÄĻ tr
emb ler
Ġsystem atic
cept s
ãģ® ä¸Ń
ãģ® è¦ģç´ł
Ð³ Ð¾Ð½
Ġu g
ale y
Ġver Ã¶ffent
à§ Ī
Ġhead ed
ix ed
ĠSp ect
ones e
ring ing
ck ing
oth ic
Ð· Ð°Ð¼
let ters
Re fer
Ġdesign ate
Ġinv itation
Ġì £¼
êł ī
êł Ĵ
ek a
ran a
Ġlicense es
Ġwant ing
ys z
à¨ Ł
Ġund erst
20 10
20 12
ash Plan
ĠY ogy
Ġret ired
Ġavailable Locales
Ġnow ych
Ġname ly
Ġdec or
Ġgu y
ĠÐ¿ Ð¾Ð½
ĠÐ¿ Ð¾ÑĤ
ĠApp river
Ġà¦ ¡
Ġà¦ ¶
Ġà¦ Ĺ
Ã¤ Ã¤
Ġbuild ers
fer red
St an
St orkk
Ġsm oke
ien i
Ġgr id
Ġgr ass
Ġdirect ives
pos ing
li etuviÅ³
Ġend anger
Ġadv erse
Ã¼ m
Ã¼ t
Ã¼ Ã¼ts
ny o
Ġcontribut es
Ø¹ Ø§Ø¯Ø©
Ġintern ationally
ĠEx plain
Ġ6 6
ĠX Path
lis her
10 6
the m
Ã¨ h
Ã¨ k
zy klop
ĠAt ta
Ġbest e
ãģ« è¿½åĬł
Ġinf in
put e
Ġhere in
ĠInt eresse
ĠÐº Ð¸ÑĢ
Ġshow cases
ism a
ĠAl ong
Ġeng ra
ank i
not afish
19 83
Ñħ ÑĬ
Ġcomple ting
ĠZ jedn
ki i
ki em
Ġemail ing
Ġtype face
à¸²à¸ °
à¸²à¸ Ĥ
Ġtransl ators
Ã¢ t
Ġra il
Ġra ises
ÑĪ Ð¸
Ġë į
Ġë ¯¸ëĶĶìĸ´
Ùī ÙĬ
uk um
Ùĥ Ø©
ai res
Ġet wa
12 2
Ġconst ants
Ġconst itu
load ed
erc ase
ÑģÑĤ Ð²Ð¾
16 5
ĠÐ½ Ð¸
Ad apt
ling ua
ĠÐ± ÐµÑĢ
iqu itous
Ġclass ify
Ġclick ed
Ġsound track
ãģĹ ãģı
15 4
15 6
con f
Ġcontin ually
18 1
ĠÑĤ ÑĢÐµÑĤ
ĠØ¨ ÙĪ
go vern
14 3
me an
Web site
Ġplace holder
Ġ×ľ ×ł
Ġbr id
Ġbr aces
ĠOn ion
ĠEn ablement
×Ĳ ×¨
be h
be eld
17 7
Ġcap ac
Ú© ÛĮ
ĠáĢ ĺ
aut om
Ch inese
De ploy
ĠMedia wiki
Ġhapp ily
ffic iency
An al
à¸Ļ à¸ķ
side bar
ER IAL
Ġcopy vio
Ġmean ings
ĠØª ÙĨ
Ġdevice PixelRatio
Ġcommit ter
Ġprom ised
ĠÎ ´
Ġrepl aces
ãĤ¹ ãĤ¯ãĥª
Ġtable t
Ġsl ash
Ġsl ides
Ġvers ch
Ġvers iÃ³n
ĠInst itut
Con vers
ĠPh D
na ire
äº §
ĠÐ¸ Ð»Ð¸
Ġday light
Al low
ĠOr der
Ġ×ĳ× ĸ
Ġ×ĳ× Ĺ
Ġ×ĳ× Ľ
ĠInc re
à® ©
à® ¯
Ġincre ases
arm a
Ġmove ments
AI LA
Ġdefin itive
opt ion
ãģķ ãģĽ
ðŁ ĳ
à¸ģ à¸¥
ĠMal aju
×© ×Ļ
Ġsupp lies
Ġquestion ed
Ġexecut able
Sec ret
Im plementation
Ġà¨ ¨
Ġà¨ ²
Ġconcept ion
Ġcomb ining
ĠÐ½Ð° Ð¿ÑĢ
ĠzespoÅĤ owi
Ġimpact ed
ĠÄĳ áº¿n
ID C
ĠCap e
comm un
×¤ ×Ļ×Ŀ
Ġà¬ ¹
ĠÃ Ĺ
Ġ198 7
Ġdu u
Ġdu Å¼
Ġcharacter ized
Ġestab lishes
ĠPart icularly
Ġlaun dering
ĠWorld Ship
tr acking
tr zym
ĠSc roll
Ġprevent ion
Ġ×ķ ×ľ
za Äĩ
Î½ Î±
à¸£ à¸°
Ġmem e
Ġavoid ed
Ġorigin ated
Ġocc urrence
Ġza É£
Ġí Ķ
Ġí ĹĪ
Ġí ı¬
Ã² i
Ġmarket ers
Ġcar ries
Ġcar pet
Ø² ÙĬØ©
iet uviÅ³
Îµ Î¯
Ġß ĺ
Ã« l
Ã« tz
ĠVer onica
Ġdin ner
Ġthreat en
ãĥ³ãĥ Ĺ
ĠMe ans
Ġdraft ed
Ġcal ibr
ĠCo ffee
ÅĦ sk
à¸¢ à¸Ļ
ÑģÐº Ð¾Ð³Ð¾
Ġcross ed
Ġnie ktÃ³
Ġinterpret ers
With in
×Ļ×§ ×¨
Ġinitial Value
Rec reation
Ø³Øª ÙĪ
net o
ÑĨÐ¸ Ð¾Ð½
ÑĨÐ¸ ÑĺÐ°
à¶ »
áģ Ĭ
áģ Ł
Ġcred ible
Ġ×ĳ ×Ļ×Ł
ĠÑĩ Ð°ÑģÑĤ
ãĤ¿ ãĥ«
à· Ģ
Ġ×Ļ ×Ľ×ķ×ľ
Ïģ Î¬
Ġbegin ners
ĠProgram s
Ġter ror
ĠWikipedi ji
AS CII
áĭ ²
áĭ µ
áĬ Ń
Õ¡Õ £
×Ĵ ×ľ
ĠðŁ Ĵ
Ġiter ate
PR A
PR ESS
Ġprint s
test s
à±ģ à°Ĥ
Ġiniti ate
Book s
Ġmed ian
Ġcompil ers
Ġpain t
Ġpain ted
Ġsimpl icity
Am ong
ç´ Ħ
à² ¨
à² ķ
Ġtw elve
Ġgen res
Ġgen annt
Ġneg lig
Ø« ÙĬÙĤ
ä¸Ģ éĥ¨
ĠSub Rip
Ġelect ric
Ġenjoy s
×¦ ×ķ×ª
Ġsus ceptible
Part ners
à¸²à¸£ à¸ĸ
su omi
Ġ×ł ×Ļ×ª
ĠReport ing
Ġslow ing
imb ab
å¹ ¶
ĠGr and
ĠGr ants
Ġ197 2
Ġ197 6
Des igned
Ġfoot note
ĠÐľ Ð°ÑĢ
ĠFl oor
ÑĥÐ½ Ðº
Ġanim ations
ĠUs ed
idi ya
ĠÐ·Ð° Ð³
ä¾ Ĩ
éģ ¸
law an
Ġdro its
Ġ×Ķ×ŀ× §
Ġanaly zer
Access ible
ĠAtt or
Ġstudy ing
Pre viously
room ing
ãĥĹ ãĥĪ
Ġretain s
Ġtravel ing
ĠNetwork ing
Prot otype
Over all
æł ĩ
ĠMat thew
ĠÐ¢ ÑĭÐ²Ð°
Ġtranslate wiki
Ġbez piecz
Ġconduct ing
Ġency kl
ĠÑħ ÑĮ
mb H
×ķ×ľ ×Ŀ
ĠUnivers e
ãĤŃãĥ ¥
mod ified
Â» ,
ĠTrust ees
Ġmicro formats
Ġnice ly
hr vatski
àª °
àª Ĺ
Ġprohib its
ãĤ° ãĥ«ãĥ¼ãĥĹ
Ġsusp ended
Ġten ure
Ġhab it
Ġho Ê»
Mod ule
åĮ º
×Ļ×§×Ļ× ŀ×
áĥĲáĥ ľ
Ass ume
ÃŁ e
Ġpen alty
ĠDem ocr
Ġmak s
Ġmak ers
Ġ×ĸ ×ķ
ĠMus ical
ĠCommon wealth
Ġprzy sp
Ñĳ Ð½
Ġpra wa
Ġthous and
Ġhit ting
edn es
Ġ×ª ×Ĺ
ns ki
Ġjournal ists
Åį ng
ĠTwo je
ĠTwo jej
Ġmonit ors
Extens ible
Ident ifiers
çīĪ æĿĥ
á¹ £
abe i
à¤Ĺ à¤°
ĠTest ing
ĠØ§ÙĦØ¹ ÙħÙĦ
verse ly
ç¶ ļ
ĠÙĩ Ø°Ùĩ
ĠMed al
Of Locale
ĠChe m
Su omi
ĠCam eras
Ġconsum ption
Ġaw kward
ðĲį Ĥ
èĩª èº«
æŀ Ĳ
ĠDR I
çĶŁ æĪĲ
brid ge
Ġconform ant
ĠPan el
ĠDet ection
Ġtroub leshooting
ä»£ ç¨ĭå¼ıèªŀè¨Ģ
olid ity
ĠPol ish
Ġkam ani
ĠIntegr ator
Ġsummar ized
osp here
ongo DB
éĩ ĳ
ĠLL M
Ġbul k
Ġkorzyst ajÄħc
ÙĦØº Ø©
Ġproceed ings
Ġsurve ys
BS IT
Ġlu áºŃt
Ġìķ Į
Ġcelebr ating
æº ĸ
ĠSDK s
TR AN
Ġdim ensions
Ġbath rooms
à½¼ à¼ĭ
Ang ular
aman ankan
ĠTre asury
Ã¼rk men
éĽ »
Ġakt iv
ĠChrist opher
ìķ ½
ĠCR LF
uro bo
Ġarrang ements
uÉ£ u
Mat hemat
rÃ³ d
åİ »
åŃ¦ æł¡
Ġmuseum s
Ġoverl ap
Ġcitizens hip
Ġtwe ak
Ġbag ian
Ġexceed s
Develop ers
ĠIsrael i
Ò» Ñĭ
fÃ¼ ll
ĠSl ack
ĠResp onse
ĠIran ian
ĠElect ronic
èŃ °
Ġsan ctions
Ġsan ctioned
ĠcaÅĤ ym
ĠWal ras
Ġlain nya
ĠAV AILA
ĠBright on
ãĤ³ãĥ³ãĥĨ ãĤŃãĤ¹ãĥĪ
ĠSERV ICE
çµ Ĳ
Ġcrow d
Ġfost er
Ġseg uridad
Ġteac her
Ġsynchron ization
Ġalleged ly
Ġobserv ed
Ġadvertis ement
Power ful
Ġelimin ated
Ġescal ate
ĠCal endar
Ġê²ĥ ìĿ´
ĠìľĦíĤ¤ë ¯¸ëĶĶìĸ´
ĠDefin itions
Short cuts
æ´ ²
æ´ »
Ð½ÑĮ Ñı
Ġdisrupt ive
ÄĻd Äħ
ĠÐ¼Ð¾Ð¶ Ðµ
Vis ual
ĠTay wan
Ġkick ed
çº §
çº ¿
Ġdow ol
ĠgÃ©nÃ© ral
Ġszabl ony
sec ond
Õ§ Õ¶
Ġdom estic
ĠartÃŃcul os
ĠTrack ers
ynchron ous
Ġnegoti ation
ĠAcadem ic
ĠOptim izer
LAN G
ìĺ ¤
Ð¾Ñħ Ñĩ
Ġspr Ã¥
Ġincons ist
Ġsupers edes
Kategor i
è³ ĩ
Ġcas ual
ĠíĮĮìĿ¼ ìĿĦ
èĢĥ ãģĪ
Ġdisappoint ed
çħ§ çīĩ
ĠWE BSIT
à¸¶ à¹Ī
attribut es
ĠOrig inal
å¤ī æĽ´
ĠìŀĲ ìľł
Nam espaces
Ġaux iliary
Ġlever ages
Ġlever aging
ãģ¾ãģŁ ãģ¯
Ġuncertain ty
åħ±äº« èµĦæºĲ
ĠÓ© Ð·
Ġell er
Ġstew ards
ĠBos worth
Ġsist emi
ĠCN N
Ġdismiss ed
Ġanalog ous
ĠmoÅ¼li woÅĽci
Ġanticip ate
ulit ano
ãĥľ ãĥĥãĤ¯ãĤ¹
Ġsoc cer
Ġwart oÅĽci
ĠGeo JSON
ĠNet flix
Ġzak res
Ġcheap est
Ġske pt
åħ¶ ä»ĸ
ĠkaÅ¼d ym
Ġpodej m
æµ ģ
Ġaug mented
ĠBern ers
ĠUnt il
Ġaffirm ative
Japan ese
ĠFR OM
æĿ¡ ä»¶
ĠãĤĤ ãģĹ
ĠTutorial s
ĠgÉĶ li
Ġoccas ions
Ġhob bies
ĠLIA BILITY
ĠRog ers
ibilit Ã©
ymal iz
ÑĦÐ¾ÑĢ Ð¼Ð°
ĠØ§ÙĦØ« Ø§ÙĦØ«
à°°à° £
Ġwymag ania
ĠØ£ÙĬØ¶ Ø§
ZarzÄħdz anie
xy gen
ç© ¶
Ġà¤ī à¤ª
Ġstatist ical
ÑĬÑĳ Ñģ
ĠUrheber recht
fÃ¤ng er
éŁ ³
ĠbÄĻ dzie
Ġnob ody
ĠAst ro
ĠED T
ĠPhil adel
Applic ations
ĠAssess ment
flic ht
implement ed
ĠOW L
Ġspect rum
Ġaktual iz
Ò± Ð»
ĹãĥŃ ãĥĳãĥĨãĤ£
stant ial
ĠLou is
ĠÐ±Ð¸Ñĩ Ð¸Ð³
ìľĦ íĤ¤ë
Ġasc ending
Ġrecruit ers
ĠlaÉ£ im
Ġanalys es
ì² ´
Ġreimb urs
ĠReb irth
Ġà¤ı à¤ķ
áĥĿ áĥ
Ġpomag ajÄħ
å¹³ åı°
Ġscrut iny
idel ity
quo ia
ĠEduc ational
Ġdesen vol
à¥¨ à¥
woo fer
Ġamen azas
ĠÐ²Ð¸Ðº Ð¾ÑĢÐ¸ÑģÑĤ
æĪĳ ä»¬
jÄĻzy cz
ãĥ¼ãĤ· ãĥ§ãĥ³
Ġà¤¸à¤ķ à¤¤
Ġãģ¨åĳ¼ ãģ°
Ð·Ð±ÐµÐº ÑĩÐ°
Mart in
Íĺ -
Ġfeas ible
æľį åĬ¡
ĠAfghan istan
klÃ¤r ung
Õ¥Õ¿ Õ«
Ġìļ° ë¦¬
FORM ATION
Ġbatter ies
ĠSMA LL
ĠÊ»Åį lelo
Õ«ÖĦ Õ«
àªľ àª°
ĠChel sea
Ð°Ð»ÑĮÐ¼ Ð³
Ġjurisprud ence
Ġkemb ali
ĠHutch ins
Ġsebu ah
ĠYogy akarta
zyklop Ã¤
ãĤ¹ãĤ¯ãĥª ãĥĹãĥĪ
ĠPhiladel phia
' ),
* *
1 15
3 50
9 70
: ,
: :
A k
B ra
C ome
C AT
C ertain
C ascading
C PRA
E ar
E isendrath
F ig
F ocus
F unction
F ourth
G adgets
H is
H ADOOP
M en
N E
O p
P o
P ot
P ran
P rivate
Q uality
R R
R um
R IF
S witch
S cribunto
T A
T ests
T itan
U K
U m
V ers
V alid
W T
W in
W ol
X T
Y Y
Z as
_ {
a o
a q
a am
a ud
b ir
b are
b ek
b usiness
c f
c or
c ern
c oll
c odes
d j
d ul
d ays
g el
h h
h ire
h ren
h men
j ub
j Ã¤
k im
k ont
k nowledge
l g
l ate
l oc
l inked
l ayer
l ayout
m ir
m are
m any
m usic
n ji
o an
p ent
p ract
p ush
r ue
r ings
s ame
s App
s zer
s ecurity
s á¹³
t une
t iff
t hens
u ments
w ing
w ang
w ana
x istent
y et
y Å©
z ident
¡ åĽ£
ª áı
¾ è®
Ã Ģ
Ä Ŀ
Å ¯
Î £
Ó ¯
Õ °
Ö ĥ
â ²
â ģ
â ľ
å Ĥ
å Ħ
ç ¦
é ľ
é ĥ½
é ħį
ê ´Ģ
ë ¯
ë Ł
ì ¹
Ġ Æ
Ġ ),
Ġ }}
Ġ à½
Ġ Ð°ÑĤ
Ġ ]]
Ġ à¸Ħ
Ġ Å¼y
Ġ Ïĩ
Ġ Ûĭ
ĩ ãģĨ
ĵ ãĤ¸
Ġt t
Ġt áºŃp
Ġa st
in eligible
he ast
on ie
re ed
re porting
er ces
at el
at to
Ġs ia
Ġs ang
Ġs ink
Ġs ne
Ġs ides
Ġs alah
Ġs ourcing
es y
es is
it ems
it ivity
Ġc ave
Ġc ook
Ġc á»¥
Ġc aso
Ġc urrencies
Ġc ircles
Ġp ia
Ġp ause
Ġp oÅĤ
Ġp unch
Ġp henomen
is ia
ou w
ed own
Ġf er
Ġf lickr
Ġf oi
ing e
Ġo xygen
Ġd ict
Ġd orm
Ġd rets
Ġd á»ĭ
Ġb low
Ġb az
Ġb illed
Ġb anya
Ġb ÄĻdÄħ
le in
le ash
Ġto w
Ġm ale
Ġm ung
Ġm ute
Ġm ask
Ġm á»Ľi
Ġm ountain
Ġm iÄĻdzy
Ġin bre
ar ang
ent ures
as in
as er
Ġn ut
Ġn ke
Ġre ven
Ġre using
Ġre versed
us z
om es
Ġl s
Ġl ala
Ġl ounge
Ġth irty
Ġe ld
il en
ot ations
et ia
et erm
im ages
im ecast
am en
ĠC ab
ĠC amb
ĠC ancell
ĠC REATIVE
ers ey
ĠS S
ĠS OL
ow anych
st yles
st ellen
st Ã¤nd
ĠT s
ĠT ri
ĠT ER
ĠT engah
ĠT icket
Ġbe la
Ġbe berapa
id as
id get
ag t
ol an
ol ph
Ġon a
Ġon site
ad r
ad om
Ġg un
Ġg esetz
Ġg arden
ĠW F
ĠW ednes
ay ar
Ġcon ce
el and
ur ies
em po
Ġv ed
Ġv ir
Ġv ak
ik ut
ul io
ac ular
op era
ĠM ind
ĠM edi
ĠM oz
ĠM ountain
ĠM bps
Ġal c
ri je
ãģ Ĵ
ĠP eng
ĠP ER
ĠP enn
Ġde ck
Ġde ze
ir its
ub lik
her it
Ð° Ð±
Ġex it
Ġex cluding
ia p
ec ks
ist ingu
ĠD oc
ĠD ark
ĠD ocuments
ĠD istribution
ĠD agaare
ĠG a
ĠG PU
ĠG iven
pl oss
se x
ĠB uch
ĠF er
ĠF avor
Ġk ami
ak ata
ew is
ew orthy
nt y
Ġr ub
Ġun matched
pt on
ill es
and en
ĠL A
ĠL an
ĠL ia
ĠL ind
ĠL ala
ĠH illing
ĠH ello
ĠH DR
ĠH ausa
ĠR d
ĠR ac
ĠR od
ĠR ating
ĠR iver
ĠR olling
um lah
ĠE ames
ĠE ye
ĠE cho
ĠE HD
ĠE valuation
ĠE uropa
ĠE gypt
og ram
ant es
ãĤ ĩãģĨ
Ġse al
iz ar
ĠO w
ĠO x
ĠO PS
ĠO lymp
Ġsu ites
Ġad apter
Ġhe ll
à¦ ŀ
Ð¸ Ð°
Ġch Ãºng
Ġch ÃŃnh
Ġsp Ã©c
Ġsp arse
ĠN as
Ġwork er
ĠâĢ º
omm ission
Ġdo ÅĽ
Ġdo kÅĤad
Ġint ense
per haps
ine e
ÑĤ ÓĻ
ÑĤ ÑĭÐ½
Ġj am
Ġj oke
ÙĦ ÛĮ
ÙĦ Ø§Ùħ
Ġrep ublish
ĠJ u
ĠJ ob
ĠJ ury
ĠJ erman
ĠJ ordan
th an
ite kt
Ġne at
Ġpl ate
ple ks
Ð» Ñİ
à° ĸ
gr an
Ġdis abling
Ġper ception
der ick
ĠV IP
ĠV enture
ĠV illage
ĠV elve
ĠV ulnerability
ors u
ach s
Ġz adaÅĦ
ime Wire
ĠSt arter
ĠK u
ĠK ansas
ree k
Ġsc ams
Ġsc opes
ph r
aw ans
Ñĥ Ñĩ
Ñĥ Ð²Ð°
In clude
In itial
Ġpre domin
Ġsub woofer
ÙĬ Ø«
ress es
Ġpr yw
ÙĪ Ø§ÙĨ
ÙĪ ÙĦÙĬ
int endo
Ġrec ons
Ø§ÙĦ Ùħ
Ø§ÙĦ Øª
ond ere
âĢĿ !
Ð¼ Ð°Ð´
×ķ× ļ
ah ing
Ġthem atic
Ġdef ence
Ġdef ended
Ġdef ending
ian ces
Ġtrans cript
ov al
ied en
Ġi w
Ġoff ensive
Ġ19 65
Ġ19 69
Ġob st
Ġrel ate
ĠWeb Codecs
à¬ ¦
à¬ ·
à¬ ļ
Äħ Äĩ
Ġprot Ã©g
aj e
Ġass urance
Ġexp iration
ĠCh ampaign
ĠCh apters
Ġuser page
Ġbet re
ãģ® ç´łæĿĲ
Ð³ Ð»
Ð³ Ð»Ð¸
Ġke ine
Ñĸ Ð¼
Ġu ÅĤatw
Ñı Ð¼
feren cing
Ġ5 1
Ġ5 6
Ġro ots
Ġyear ly
Ġ4 1
Ġjust ification
Ġbl ur
Ġdisc ard
Ġdet r
az y
az z
êł İ
Ġsa u
sp r
sp ects
pro p
×¨ ×Ļ×Ķ
Ø¯ Ø±
Ø¯ Ø¯
Ġinc ur
Ġinc ub
à¨ ¼
20 1
20 3
ash a
ĠY oshi
ĠY ahoo
Ã¡ u
ym ara
app lic
ĠDe als
ĠTh an
amp ung
amp angan
Ġperm ett
Ġstr angers
Ġcustom izing
Ġlook up
à± Ĭ
Ġgr am
Ġgr und
Ġgr ateful
Ġer forder
pos ed
Ġdon n
Ġdon ated
ĠEx pl
ĠEx ecut
ĠEx cel
Ġ6 7
ĠX I
ĠX real
the ora
Ã¨ neto
Ġview port
ä¸ ī
ĠAt kins
els h
Ð± Ð°Ð¹
Ġdev ised
ãģ« ãģĬ
Ãł ng
Ġdel icious
Ġni Å¼
To ol
Ġâ ī
Ġel s
Ġel ast
AT A
ĠÐº Ð°ÑĢ
ĠAl most
ĠAl manca
ÃŃ as
Ġcor rupted
ãģ¾ ãĤĮ
ãģ¾ ãĤĬ
Ñħ Ð¾Ð´
Ġposs ession
ins ensitive
ÐµÐ½ Ð¸Ðµ
ÐµÐ½ Ð´ÓĻ
ãģ§ ãĤĤ
ĠSh akespeare
Ð°Ð» ÑĭÐº
com pliant
ki w
Ġselect ively
à¤¾ à¤Ĥ
Ġtyp os
Ġtransl ates
Ġë ĵ
Ġë ¯¸
Ġappro vals
tain ing
Ġcle ver
Ã¶ glich
Ġet ap
ĠEng els
yn et
Ġconst itution
Ø¬ ÙĦ
ĠNot ebook
Ġfull est
16 7
16 8
ĠÐ± Ð¸Ð»
Ex press
Ġclass room
Ġgovern s
Ġindividual ity
ĠInd eed
ĠÙĪ ÙĬ
Ġdat at
15 2
18 5
ĠÐ´ ÐµÐ³
Ð¾Ð² Ðµ
ĠØ¨ Ø¯
ĠAct ivities
Sp eech
au pt
14 6
ij d
ij Ã´
Ġ18 91
Ġintegr al
tt ed
ĠBack end
àŃ ĥ
ĠÐ² ÑĸÐ´
Ġlast s
Ġport ray
Ġport rait
ĠáĢ Ĥ
ĠáĢ ħ
ĠáĢ Ŀ
ĠWork space
ĠWork shop
Ð¾Ð» Ð°
Ð¾Ð» Ð¸
Ch anging
Ġpop over
Ġphotograph ie
Ġny ang
ani ami
Ġcontact ed
ER Y
ĠLe ah
Ġcollabor ator
Ġparticip ated
æľ ¨
æľ ¯
ES E
ä» Ĭ
Ġpay load
à°¿ .[
ara an
Ð¾Ð½ ÑĤ
åı Ĺ
ĠCl imate
Ð¸Ð½ Ð¸
Ð¸Ð½ Ð°Ð»
Ġsl ight
Ġsl oven
Ġfac ing
ĠPre ston
ĠAg ency
ĠBe am
Ġtak edown
Ġpa É£
OS D
Ġ×Ĳ ×ļ
ĠÐ° Ð¶
ĠÐ° Ð±Ð¾
ĠÐ¾ Ðº
ĠRes idents
ĠRec over
áİ ¸
wa an
Ġ×ĳ× Ĵ
ĠQu arter
Ġrecogn iz
åħ ³
Ġpresent ations
åĪ ĩ
ãģŁ ãģ¡
Loc ated
åĲ ĳ
Ġsecure d
×ĳ ×Ļ
×ĳ ×Ļ×¨×Ķ
ĠÐ¿ÑĢ Ð¾Ð´
Ò¯ Ð³
Ġaccept ing
]] ,
ĠTechn ics
×ŀ× ¢
dz iesz
Ġbro ther
×© ×ķ
×© ×Ļ×Ŀ
ĠAir Go
ĠCom plete
Ġexecut es
ĠNo ah
Im agine
ĠReg ional
ĠReg istries
Ġà¨ ª
ĠAf ir
ĠØ£ Ø®Ø±Ùī
oo i
ĠCap aldi
comm and
Ġpack ed
Ġcorre ctions
Ġess ence
Î¿ Î»
à¼ į
ÐµÑĤ Ðµ
Ġêł ĥ
Ġêł İ
Ġactiv ation
ĠIm portant
Ġtre ÅĽci
Ġ199 1
Ġwar n
IT S
Ġli á»ĩu
Ġ×ķ ×Ķ
à¸£ à¸¡
à¸§ à¸Ļ
Ġavoid ing
Ph oto
Ġinstitut e
Ã² m
Ð½Ñĭ Ð½
Ġsubst ance
Ġaltern atif
à¤¤ à¤®
iet er
jek te
Îµ Î¹
ĠWhat sApp
Ġregul ators
Ġemb arr
Ġcorrect ness
Ġmention ing
So ft
ãĥ³ãĥ ī
And rew
Ġve ter
Ġve to
×ķ×¨ ×Ļ×Ŀ
ãĥ¼ãĥ ł
Ġinfring ing
ĠFr ag
Ġà¤ķ à¤¯
Ġcur ve
Ġcur ate
hib u
ĠBusiness es
ĠPer fect
ĠIP O
ÑģÐº Ñį
ÐµÐ¼ Ð°ÑĤ
Bu y
Ġáİ ¢
net ic
Be z
Be at
ev olving
ĠshÉĽ m
Ġ×ĳ ×ķ×ķ×Ļ×§×Ļ×¤×ĵ×Ļ×Ķ
with in
fr ames
pa que
Ġtransfer ring
Is i
Ġ×Ļ ×ĵ×Ļ
Ġbreak fast
Ġdifficult ies
Ġbegin ner
áº£ o
Ġmis information
Comp arison
Ġwsp ier
sequ ently
à¸ļ à¸ļ
Ġjak oÅĽci
Ġflag ged
ĠDis closure
Ð¸ÑĢ Ð¸
Ġexception ally
Ġsoci Ã©tÃ©
Ãº n
Ù¾ ÛĮÚĪÛĮØ§
ĠAR E
owe it
à² °
ĠIE EE
Ġtw ist
ĠSim i
Ġìł Ħ
OP Y
Ġwer ken
Ġfore most
ĠJud ge
isp ecies
ĠØ³ Ø¨
Ð´Ñĭ Ð·
åĽ ¾
åĽ ŀ
Ġsw Ã³j
ĠPort uguÃªs
Å¼e j
Ġir re
Sc al
Sc ope
Ġkar o
×ķ×ł ×Ķ
Ġevalu ates
×¦ ×ľ
ĠArray Buffer
à¯ Ī
ë¡ Ŀ
Part y
da q
Ġdest ruction
ĠTrans fer
Ġslow er
imb urgs
Sub ject
Ġsil imin
Any where
Ġfoot er
çĲ ĥ
ĠFl ask
à¹ģ à¸ģ
ĠJohn son
Res ource
Ġkont ro
Ġkont ek
ĠOut reach
Ġimpl ies
Ġclean er
Ġarbitr arily
ĠIll ini
ĠÑĦ ÑĥÐ½Ðº
ĠGovern or
199 8
celer ator
ĠChar acter
Ġqual ities
Ġqual ifications
ĠContribut e
Ġtreat s
Ġadjust ing
Ġta al
Ġmix ing
Ġlength s
Ġlength y
áĢ½ áĢ¶
ĠDesign ated
wer p
ĠCustom izing
Ġcircum vent
sub ject
sub scribe
Ġwear ables
Ġseem ingly
oni ecz
ĠIN CLUDING
Ġassum ption
Ġcapital ize
Ġprojekt Ã³w
ĠIdent ifier
ĠTim ing
CL AR
ĠDi amond
ÐĴ ÑĸÐºÑĸ
ĠWar rant
MS C
ìĭ Ńìĭľ
Ġpred efined
Ġrout ing
ĠSte ering
ãĤ° ãĥ©
Sim on
Ð¾Ð· Ð¾ÑĢ
Ġbelong ing
Ġopp osition
Ġlaunch ing
æİ ¢
ĠStart ups
gl ot
icip ality
Ġdemand ed
áĢľ áĢĿ
Ġstreng thens
Ġcorpor ation
Ġsustain ed
ĠAff airs
ĠMin istry
Ġlisten ed
Ġland ed
Ġloop s
ĠFin ance
ĠFin land
ĠRuss ell
Ġconstra int
ĠSam uel
Ġapl ic
Ġku we
Lat ih
Fin land
ĠMult imedia
Spec ific
Ġcrypt ographic
Ġok reÅĽl
ĠÐł ÐµÑģÐ¿ÑĥÐ±
ĠRem ove
ĠRem ote
ĠMag Safe
ãĥ«ãĥ¼ãĥ« ãĥĦãĥªãĥ¼
ĠDan ny
ĠNe ither
He alth
Ġ×¡ ×¤
Ġ×¡ ×ł×ĺ
Ġcert ified
Ġlas er
ĠCam eron
Ġdoct or
ĠmoÅ¼ esz
ĠmoÅ¼ emy
Us ed
Ġhack s
ĠÐ¿Ð¾ Ñĩ
ðĲį ħ
ĠPay ments
Tam zin
×Ļ×ĳ ×ķ×ª
Ġdepict s
Def ining
Ġmigr ating
áºŃ n
Ġmagaz ines
Ġsuff er
×ķ×¤ ×Ł
éĩ į
Ġkp uÉ£
ãĤ¹ãĤ¿ ãĥĥãĤ¯
Ġbul an
Ġ×ľ×Ķ× ¢
áĥĺáĥ Ļ
ĠCON TR
ĠBet ween
develop ment
IG H
IG N
Sm art
organ ization
hal te
Êĭ Êĭ
ĠEX TENT
Ġscroll s
Av ailable
Ã¤ng Ã¶
á¸ ¥
Ġtang gal
ãĥ³ãĥĢ ãĥ©ãĥ¼
Off set
Rest rict
Æ¡ n
Ġoct et
ÎŃ ÏĤ
Ġapart ment
Ġmand ate
ĠLead ership
à¦ĩ à¦ķ
Ġarrang ed
è© ²
eds iÄĻ
Ġyoung er
access ible
ĠAgent ic
rech te
á»± c
Ġpomoc y
Met hod
Ġwied zÄħ
icz nych
×Ļ×ŀ ×Ļ×Ŀ
Ġpron ouns
Ġpoly mor
arn ate
Ġknowing ly
Ġwonder ful
å¤ļ ãģı
ĠSl ushi
Ġartif act
Ġfrag ments
åĲĮ ãģĺ
Ġvict im
Ïī Î½
Ð´Ð¼ ÑĥÑĢÑĤ
ĠEsp aÃ±ol
ĠIndust rial
Ġsuperv ision
Ġsuperv isory
ĠÐ³Ð¾Ð´ Ð¸Ð½Ð°
bes ondere
èµ ·
Ġcomprom ised
Ġincorrect ly
å¤ĸ éĥ¨
Ġadvertis ers
Ġwel comes
Ġdisclaim ers
êĻ ĳ
Ġwhit el
Ġtek stu
Si Swati
isy on
Ġfight ing
Ġhyper link
gricult ural
Ġsculpt ures
Ġà¦ħ à¦¨
Ġestim ates
ĠÐ¸Ð½ ÑĤÐµÑĢ
Vis it
íĻ Ķ
ĠSpe akers
Ġbelief s
End point
è² ¡åĽ£
Ġtechnolog ii
process ing
Commit tee
ĠEnc ryption
Ġwspar cia
ĠktÃ³ry ch
wend ung
ĠUm brella
Ġáİł áİ´
Mag yar
ÛĪ Ø±
Ġrevert ed
Ġdisag ree
ĠíĻ ľ
éĹ ľ
ĠMov imento
Ġcooper ate
ĠBlock chain
Bo arisch
ĠWiss en
ĠAdapt ation
Ġnive au
ĠRank ings
ĠKal im
Ġdecre ase
Ø®Øª ÙĦÙģ
ĠOrig in
Ġpleas ure
è®¸åı¯ èŃī
Navig ation
Ġabbrevi ations
Ġautorsk ich
ĠØ§ÙĦØ§ Ø³Øª
Ġinvent or
áº¯ n
ĠExcept ions
ê± °
íĺ ĳ
ĠPerm issions
ä¸ĸ ä»£
ãģĤãĤĬ ãģ¾ãģĽãĤĵ
×ŀ×ķ×ł ×ķ×ª
Ġinn oc
Ġthor ough
Ġdehydr ator
Ġexch anging
×¨×¤ ×ª
ĠHeather s
ãģ¨ãģĦãģĨ ãģĵãģ¨
Ġìłľ ê³µ
ĠMaterial s
Jud ge
Ġazi ende
Ġwyn ikÃ³w
Ġlie u
ÛĮÙ¹ Ø§
Ġ×ľ×¤ ×Ļ
ĠObserv atory
ãĥĦ ãĥ¼ãĥ«
ĠKategor ien
Ġuzys kaÄĩ
ĠÐºÐ° Ð¾
Ġ×ľ×Ķ ×Ļ×ķ×ª
reensh ot
reensh ots
ĠPrinc eton
crit ical
è« ¾
Ġpued e
ĠMo ore
ebu erg
Ġvar ied
ãģ¸ ãģ®
ĠJav anese
Ġoverwhel ming
åľĸ åĥı
Ġbottlen ecks
éłħ çĽ®
åķı é¡Į
Sem antic
ãĤ³ãĥ³ãĥĨãĥ³ãĥĦ ãĤĴ
Ġaudiob ooks
çĦ ¶
Ġlud zi
Ġproport ion
Ġexcess ive
ĠLiz enz
umin um
ĠpostÄĻp y
Ġprzypad ku
Never theless
ĠPip elines
Ġfilt ered
Ġà¨ķ à¨°
Ġpregn ant
à¸ªà¸²à¸¡ à¸²à¸£à¸ĸ
è©³ ç´°
ĠQuadrant TM
Fre edom
ĠUy eda
zeich net
ĠGre gor
ĠKer beros
ĠDisclaim ers
Ġirrev ocable
Ġ×ŀ×Ļ×ł ×Ļ×ŀ
Ġrigor ous
Ġure ueng
itud es
ĠCoin hive
ãĤ´ ãĥª
Ġenact ed
Ø¨Ø¯ Ø§Ø¹
Ġfrustr ating
Ġprzew od
Ġturnt able
restrict ed
ãĤĴåıĹ ãģĳ
ĠêµŃ ê°Ģ
Pract ical
Ġcáº¥ p
Ġwskaz Ã³w
ĠMarb ella
ðŁı »
ĠVerb ix
åĮħ æĭ¬
Ġznale Åº
Ġgior nal
ĠDed ication
Ġintim id
Ġclos est
ĠLeop old
Ġunsubs cribe
ĠrÃ³wnie Å¼
Ġìĸ´ ëĸ
Hed wig
ĠSov iet
Ġenorm ous
Ġbasket ball
virt ual
Ø·Ùģ Ø§ÙĦ
Ð£Ðº ÑĢÐ°ÑĹÐ½ÑģÑĮÐºÐ°
Ġponiew aÅ¼
çłĶ ç©¶
ĪÖĤ Õ«ÖĦÕ«
Ġgly ph
Ġusp rawn
Ġíı¬ íķ¨
Ã«tz ebuerg
×Ļ×§×Ļ×ŀ× ĵ×Ļ×Ķ
ĠAVAILA BLE
Ò±Ð» Ð´ÑĭÐ·
âģ Ħ
Ġinbre uk
ĠHilling don
ĠdoÅĽ wi
ĠVelve t
Ġpryw at
ìĭŃìĭľ ìĺ¤
( ?)
. âĢĶ
4 50
5 49
7 00
: )
A z
A ch
A stronom
B B
B a
B al
B attery
B abel
C ia
C are
C ite
C ross
D ear
D ark
D ansk
E duc
F eedback
G erm
H al
H ack
K nowledge
K eeper
L ang
L ev
L ego
M or
M us
M ov
M air
M usic
M aps
M UST
M oving
N s
N ie
N etwork
N ET
N atural
O ct
P ain
P oÅĤÄħcz
P arsing
Q ue
R A
R ich
R ank
R OU
R ole
S in
S ist
T ol
T el
T ek
T umb
T AG
T utorial
T esla
U lt
V oca
W eek
W erner
Z azaki
] ãĢĤ
a ac
b Ã¡
b ahasa
c ross
c ategory
d in
e lect
e very
e uskara
f b
f y
f ang
f uk
f aced
f oo
f iction
f ollow
f usc
g f
g le
g les
g raph
g lobal
g iving
g aben
h ttp
i ÅŁ
k or
k Ã¢
k iej
k Å©
l n
l ia
l io
l agen
m ust
m ount
n ian
n of
o en
o it
p ing
p ir
p ak
p rom
p resent
p redict
r if
r ance
r int
s an
s ight
s ell
s yl
s czi
s weat
t il
t os
u ct
v r
v at
v ier
v idia
w ater
w iÄħz
w eni
y x
y ah
z ip
z iel
z illa
½ ĺ
¾ æİ¥
Â §
Â «
É »
Î ¶
Î Ķ
Ñ Ĵ
Ô ±
Õ ½
× ¼
Ú Į
á ¨
å ĺħ
ç ĭ
è ħ
é ĵ
ê ¯
ë ıĻ
Ġ ig
Ġ oun
Ġ ãģĿ
Ġ à¥¤
Ġ iba
Ġ ä¾ĭãģĪãģ°
ģ íģ¬
Ĥ áģ
Ĩ Į
Ġt ense
Ġt ah
Ġt ough
Ġt Æ°Æ¡ng
Ġa uss
Ġa wa
in et
in ue
on ed
at on
at ars
or ad
or able
Ġs her
Ġs og
Ġs urre
Ġs ama
Ġs Ã³n
Ġs igu
it oring
Ġc ad
Ġc ats
Ġc raw
Ġc áº£
an ied
Ġp oc
Ġp aa
Ġw en
Ġw ed
is ine
ed ay
ed ya
Ġf ed
Ġf ault
Ġf iber
Ġf andom
Ġo ploss
Ġd ent
Ġd ated
Ġd ah
Ġd ivers
Ġb io
Ġb oli
ic ide
ic ian
Ġm s
Ġm ur
Ġm op
Ġm ant
Ġm Ãªme
Ġin ject
Ġin jury
ar ai
ro vers
as is
Ġn du
Ġn ous
Ġn ÉĽ
Ġn eng
Ġn go
Ġn ouns
Ġre nown
Ġl akes
Ġl ately
Ġl ights
Ġl hib
Ġl odge
Ġe i
Ġe co
Ġe uro
ot r
ot u
et al
et un
et ta
Ġyou th
im p
im ize
Ġfor ked
ĠA y
ĠA AC
ĠA lice
ig ibility
ig nty
ĠC od
ĠC reat
ĠC lean
ĠC BS
ĠC lear
ĠC OD
ĠC onditions
ut her
un ning
un ctuation
ĠS us
ĠS ri
ĠS ame
ĠS ong
ĠS und
ĠS MB
ĠS agnarigu
ow o
st ud
st ructure
ĠT ed
ĠT ar
ĠT ail
ĠT rain
Ġbe ings
ĠI ve
ĠI ch
ag am
ag ian
ad in
Ġg ed
Ġg ia
Ġg ier
Ġg oli
Ġpro se
âĢ ł
ĠW an
ĠW ars
ĠW enn
ĠW elch
ay i
ay ah
Ġcon du
Ġus ur
el u
ab ytes
em ory
Ġv arsity
ul ent
ul aw
ul ative
Ġwith d
ac rit
Ġst akes
Ġst roll
Ġst abil
ĠM en
ĠM all
ĠM ix
ĠM air
ĠM old
ĠM apping
ĠP M
ĠP T
ĠP s
ĠP u
ĠP ent
ĠP uch
ĠP iano
ĠP ulit
Ġde cept
od a
od zi
ver ting
ub stantial
est ro
Ð° Ð²Ð°
ec he
ist ik
oc co
ĠD B
ĠD ent
ĠD ays
ĠD istribute
ĠD NA
ĠD urobo
ĠG eese
ĠG othic
ĠG mbH
pl ik
pl ugs
Ġnot eworthy
se re
Ġwe ights
for th
for cing
ĠB in
ĠB at
ĠB ob
ĠB ath
ĠB oot
ĠB ush
ĠB inding
ĠB anyumasan
ĠF L
ĠF P
ĠF ig
ĠF ore
ĠF oto
Ġk r
Ġk art
Ġk ons
Ġk ategor
Ġk illed
Ġk iedy
Ġr us
Ġr ack
Ġr ide
Ġ1 40
Ġun amb
ĠL C
ĠL ing
ĠL ang
ĠL jub
ĠH S
ĠH uron
art e
ĠR B
ĠR T
ĠR ue
ĠR ace
ĠR amb
ĠR ole
ĠR endering
iv an
nd e
um ed
ĠE sc
ĠE thereum
up o
ant ically
Ġse at
ust ry
The ir
ĠO D
ĠO zone
ĠO Auth
ãĥ ¢
Ø§ ÛĮ
ial e
ere my
Ġhe i
Ġch urches
Ġim Ã¡
Ġsp o
ĠN ep
ĠN one
ĠN eg
ĠN ick
ĠN utzer
ĠN igeria
ĠN ederland
ĠN intendo
are t
are lawan
Ġtr icks
Ġle w
cl ose
cl osed
Ġar c
Ġar rest
ost en
Ġab ort
Ġdo it
Ġen rich
Ġte j
Ġte gen
ÑĤ Ðº
ÑĤ Ð°ÑĤ
Ġj eder
ult ies
Ġrep air
ĠJ D
ĠJ oh
ĠJ Unit
Ġwas te
ap Ã¼k
ap ampangan
th ose
ign ing
Ġpl ur
×Ļ ×Ļ×©
Ġres c
Ġres olves
Ñģ Ð¾
Ð» ÑĬ
Ð» ÐµÐ³
Ð» ÓĻÑĢ
act ory
Ġdis h
Ġdis asters
ĠV eg
ĠV LT
ĠV LAN
ĠV endor
ĠV erein
ach ment
Ġqu er
Ġz ro
erv ers
Ġme g
ĠSt ation
ĠSt ructure
Ġpart ie
Ġpart ition
×Ļ× ļ
ĠK il
ĠK ot
ĠK enn
av ior
av gat
Ġadd ict
Ġsc oring
Ġdes erve
Ġdes erves
Ġcl othing
aw n
aw as
ĠØ Į
Ġout bound
Ġout doors
ÙĬ Ø²
Ð´ ÐµÑĢ
Ð´ Ó©
Ġ202 7
ces z
Ġsome body
ÙĪ Ø¨
ÙĪ ÛĮÚ©ÛĮ
int ing
int ensive
Ġag gressive
Ġbu ff
ĠPro of
ĠPro View
ĠPro jekt
Ġem erge
Ġem oji
Ġcons oles
Ð² Ð°ÑĢ
Ð² Ð¾Ð»
ĠRe ve
ĠRe ach
ĠRe ading
ĠUn ter
ĠUn its
Ñĭ ÑĤ
Ġlist ener
ne x
Ġaccess oire
iss en
Ġform ing
Ġind ent
Ġind ices
Ġthere in
ÅĤ ych
Ġmod est
Ġexam ines
Ġ19 67
Ġ19 66
Ġ19 55
Ġ19 57
ert en
Ġob serve
Ġsupport ers
Ġmat eria
empl oy
à¬ ĸ
Ġatt ain
ĠØ§ÙĦ ÙĪØ³
aj n
Ġover t
Ġexp ires
Øª ÙĨ
Øª ÛĴ
Ġpe ÅĤ
á» ī
ĠCh ad
ĠCh ieng
Ġuser group
ade qu
ãģ® ãģ¯
ãģ® èĳĹä½ľæ¨©
ular ies
Ġver n
Ġà¤ §
Ġent re
ĠSp a
ten ant
Ġsim ul
Ġpar l
ient e
oy a
Ġdisc onn
Re using
Ġì »
az er
êł Ī
êł Ļ
ug in
ug ging
ug anda
sp am
sp ective
ek o
ek ut
pro yek
ier ung
oss ary
Ġedit ar
ÑĮ ÑģÐºÑĬ
Ø¯ Ûķ
ash i
ern ate
Ġret ire
ung g
Ġprof ess
Ġprof its
app er
Ġdocument ing
read s
ĠApp les
ĠApp eals
Ġà¦ ¥
amp ing
Ġ7 1
Ġ7 8
Ġdi acrit
ãĥ¼ ãĤĴ
à± ĥ
St ock
áº ©
eng a
Ð°Ð½ Ð¸
ĠTe il
Ã¼ d
Ø³ Ø©
ĠEx it
×ľ ×Ļ
Ġperform ant
zy t
Ð± Ð½Ð¸
Ġbest imm
ãģ« ãģĤãĤĭ
ãģ« éĸ¢
Ġtra vers
crib ing
ĠInt o
ĠInt eress
Ġel igibility
ĠÐº Ð»Ð°Ñģ
Ġshow c
ĠAl s
ĠAl low
ĠAl ban
ĠÑģ ÑĥÑĢ
19 61
Ġcho oses
ÙĤ Ùī
ÙĤ Ø§Øª
Ġins ubstantial
Wik isource
Ġá į
play ing
ãģ§ ãģ®
ĠZ wecke
ĠSh ot
ĠSh api
ĠSh ipping
Ġselect ive
Ġenc od
Ġenc ikl
Ùī Ø±
Ùī Ø³Ùī
Ġappro ving
uk wa
ars on
ÉĶ É£
Ġargu ably
Ġconst ru
ÐºÐ¸ Ð½
ĠÐ¼ ÓĻ
Ġpull ing
ann ah
alt ung
Ġcheck user
Ġdem ographic
Ġadmin ship
ÐµÑĢ ÑĤ
iqu id
ric ks
Ġsound ed
Ġlear ners
áı Ħ
ãģĹ ãģ¦ãģĦ
ãģĹ ãĤĩãģĨ
ĠÙĪ Ø¨
ĠÙĪ ÙĤØ¯
ĠFound ed
15 8
Ġref used
18 3
18 4
Ġfl ight
Ġlif ting
Ð¾Ð² Ð°ÑĤÑĮ
Ð¾Ð² ÐµÐ½Ñı
ĠSo ft
ĠAct ually
Ġsur pass
Th ose
Th omas
tt ps
Ġ×ľ ×¦
ĠÐ² Ð¸ÑģÐ¾Ðº
Ġanal yst
ĠEn h
ĠEn joy
ĠEn abling
ĠEn zyklopÃ¤
Ġlast ed
17 5
Ú© ÙĪØ±Ø¯ÛĮ
ĠáĢ Ĵ
ĠáĢ Ł
Ð¾Ð» Ñĥ
Ch ina
af ka
Ġdelet ions
ãģ¨ ãģ¯
ØŃ ÙĬ
Ġguid ing
Ġblock er
Ġblock chain
ÐºÐ° Ñħ
Ð¾ÑĢ ÑĤÐ¾
Ġide ally
ĠLe on
Ġcollabor atively
Ġsubs id
Ġsubs cri
ĠØª ÙĤ
ä» ĺ
Ġprom o
ĠÎ ³
ĠÎ ł
Ġrepl ication
Ġrepl icate
sh irt
ãĥ« ãĥĪ
Ġcrit ics
vert rag
ĠLic ensor
åı ²
åı ·
Ġsug ar
Ġplan owania
anc ially
ĠCl ark
Ġsl im
Ð¶ Ð°
ĠMod ified
Ġvers a
Ġtak ich
Ġcent uries
Ġsuggest ing
Ġstream lined
ĠÐ° Ðº
ĠÐ° Ð¿
ĠÐ° Ð±
ãģª ãģĳ
Tr ade
Tr acking
ĠÙĦ ÙĦÙħ
ram ani
prot ection
áİ ¬
à® ²
Ġpri ze
Un icode
×ĵ ×Ķ
×ĵ ×ķ×ª
Ġcy k
Ġinform asi
×ĳ ×ķ×ª
Ġsend er
NS I
ĠÐ¿ÑĢ Ð¸Ð¼
sch d
ĠØ§ÙĦÙħ Ø¬
ĠØ§ÙĦÙħ Ø³ØªØ®Ø¯Ùħ
ĠØ§ÙĦÙħ ØªØŃØ¯
áĪ Ī
áĪ ĭ
Sh ona
Sh ikuru
ĠStud y
Ab stract
ĠMal ware
ama ic
Ġda abil
Ð¾Ð´ Ð°
Ġgovernment al
Ð½Ð° Ð³Ð°
PA GEN
Ġ14 4
Ġprim itive
amb o
ĠNo Script
à¹Ģ à¸Ĥ
Ġconcept ual
ĠzespoÅĤ em
Ġ13 1
Ġà¬ ķ
ĠÃ ģ
Ġpack aged
×Ľ ×ł
Ø· Ø©
Ġactiv ate
Ê» o
IN D
oll o
Ð½Ð¸ Ð¼
Ð½Ð¸ Ð¹
tr as
ĠSc en
ĠSc ore
Pl ace
à¸£ à¸²à¸¢
Ġparent al
Ġsam ua
ĠDo ct
Ñĺ Ð¸
Ġß £
Ġß ķ
Ġregul ator
200 2
ĠPublic ly
Ġdz i
ĠEm bed
ĠSm arter
ĠCloud flare
down load
Ġprz edsiÄĻ
Ġvisit or
ãĤ¦ ãĥ³ãĥ
ìĿ´ ëĤĺ
áĢĲ áĢļ
ĠAdv ance
Ġtem p
Ġcal endars
cher s
ãģĤ ãģ£ãģŁ
Ã¥ r
Ġmind ful
ĠPer haps
à¸¢ à¸§
35 9
zÄħ Äĩ
lim inary
Ġcompet itions
ĠID C
ĠID Es
Rec ord
×Ĺ ×¨
Ø³Øª Ø§ÙĨ
Ġáİ ¯
ìļ ´
irm er
Ġpo j
Ġboard s
iff ing
à¶ Ĥ
Cl osing
Cl oning
Ġmeaning fully
Ġpod czas
Ġreach ability
Ġ×Ķ ×Ļ×Ķ
ĠÑĩ Ñĭ
ÑĹ êĻĹ
27 9
Ġblog ged
Ġbreak down
umn us
×¡ ×ĺ
ĠAust rian
Comp uter
ãĤī ãģ®
Ġconvers ational
ë¥ ł
Ġcapt ures
Ġchart ers
Ġdig unakan
ìĸ ĳ
Ġoh ne
Ġpan oram
Ġauthent icate
à¦¬ à¦°
Ġjour nals
à°² à°¨
ĠStat ements
TM P
Am b
Ġtu ples
ĠVisual Editor
des igned
ĠÐĲ Ð»
ĠÐĲ Ð¹
amm ed
Ġpick ing
Ġlib er
ãģį ãģ¾ãģĻ
set ting
Ġill ustri
Ġinsp ect
Ġinsp ir
Äĥ m
ĠÕ °
ĠSch utz
ĠMet o
ĠMet rics
ĠMet adata
á»ĩ c
Ġsw ipe
iction ary
ĠSub s
ĠLa un
ĠìĿ ¸
Ġpom Ã³c
Ġaf ternoon
Ġãĥ ĸãĥ©ãĤ¦ãĤ¶
ĠÙĨ ÛĴ
Ġassign s
ĠSw eden
Dis closure
Ġlower case
Ġdemon stration
Ø¯ÙĬ ÙĨ
ĠDev ices
áĢŃáĢ¯ áĢ·
ĠÂ» .
Ġsequ ential
Ġkl ien
×ĳ× ¢
×ĳ× ł
Ġdiv isions
rist ian
Up coming
å¾ ĵ
æ¬ ¾
Ã® n
ĠUs age
ĠUs ually
ĠÙĤ Ø§ÙĨ
Res olution
rim inals
éģ ĵ
ograf i
199 1
Ġstruct s
Ġdro pping
Ġmerg er
rav a
ÏĢ Î±Î¯
Ġta un
SH ACL
add ons
áĢ½ áĢ²
Ð¾Ð± ÑĢÐ°
wer ken
ĠÒ ĵ
Ġregister ing
ĠPlay Canvas
lar ative
lar gest
å¼ Ģ
ĠÐ¢ Ð°
ĠIN C
ĠIN FORMATION
ĠRel ig
ĠForm Data
Ġcapital ization
Ġutil izing
ĠTim or
ĠTim ur
ĠTim eline
Ġseek ers
Ġbes ides
Ġthrow n
Ġthrow ing
Ġsitu Ã©e
mod el
Ã©d ie
åł´ æīĢ
Ġair plane
Ġmicro phones
ÐµÑĢÐ° ÑĨÐ¸Ñı
Ġpred ator
Ġprze jr
Ġrout ines
Ġroll back
Ġbank ing
Ð³ÑĬ Ñĥ
Õ¶ Õ¥ÖĢ
Ġpip ed
ĠLog in
Ġho e
Ġvac ation
ĠØ¬ Ø³
ĠØŃ ÙĬØ«
Ġamb ass
áĥĲáĥ ¨
Ġpen y
Ġchance ll
ĠDraft ing
Ġcut s
Ġmeasure ments
TypedArray From
Ġrepe ating
ë¦ Ń
ĠBen ÉĽÉĽ
Ġadvance ment
ĠÄĳá» ģ
Ġfraud ulent
ĠTajik s
ãģ¤ ãģ®
ocab ularies
Ġacceler ated
Ġexperiment ing
á¹ Ń
ĠìĤ¬ íļĮ
ĠìĤ¬ ì§Ħ
Spec ify
Ġok ay
ĠØ§ÙĦØ¹ Ø±Ø¨ÙĬØ©
seud o
ĠÐł Ð¾ÑģÑģ
Ġappeal ing
Ġintelig enc
Tag alog
Ġog Ã³l
enz o
Ġexcell ence
à¹Į :
ĠÐ±Ð¾Ð» ÑĥÑĢ
Ġmist aken
ĠCam eroon
ĠSk ill
ãĥ©ãĤ¤ ãĥĲ
ĠyaÉ£ a
Ġspl its
Ð¿ÑĢ Ð¾Ð·Ð¾ÑĢ
Ġnang a
Ġspons or
Ġarg ues
iche ver
Ġswo ich
×Ļ×¡ ×ĺ
à¬ķ à¬°
ĠTransl at
Ġmigr acjÄĻ
ATION S
ĠSecure Anywhere
å¯ ¹
ĠØ¦ Ùī
ĠIntegr ity
ĠIntegr ators
ß² ß«
Ġsurround ings
ĠMarket Scape
Ġdupl ication
call back
ios ity
Äķ ÑĢ
rev ille
idd ity
kc ji
Ġlands cap
ĠCorpor ate
Ġos Ã³b
Ã©c nic
Ġdrag ging
Ġê³µ ìļ©
ĠvÃł o
Mal agasy
ĠEX PRESS
ĠCr ashPlan
ĠSol ar
Ġà¦ı à¦ķà¦Ł
Out reach
ä¹ ĭ
ä¹ Ł
imm el
ĠAP As
ãĥī ãĤ¤ãĥĦ
Ġintent ions
Ġprev ails
Ġfunctional ities
ĠáĢķ áĢĽ
ìķ Ħ
ĠÏĥ ÏĦÎ¿
Ġpal ing
Ġconsequ ential
ĠEss ential
Ġsztuc znÄħ
open ed
Ġretrie val
Ġsqu ee
rÃ³ Å¼
jal an
Ġfetch ing
Ġoverl ook
Ġoverl apping
Met rics
Ġwied er
techn ology
Ġrealiz acji
ĠØ¨Ø± ÙħØ¬
Develop er
fund ed
git ignore
git attributes
ĠDrop out
Ġkal inli
Ġfaith ful
fÃ¼ hr
ĠBo ost
[...]
