<s>
</s>
<unk>
<pad>
<mask>
!
"
#
$
%
&
'
(
)
*
+
,
-
.
/
0
1
2
3
4
5
6
7
8
9
:
;
<
=
>
?
@
A
B
C
D
E
F
G
H
I
J
K
L
M
N
O
P
Q
R
S
T
U
V
W
X
Y
Z
[
\
]
^
_
`
a
b
c
d
e
f
g
h
i
j
k
l
m
n
o
p
q
r
s
t
u
v
w
x
y
z
{
}
~
¡
¢
£
¤
¥
¦
§
¨
©
ª
«
¬
®
¯
°
±
²
³
´
µ
¶
·
¸
¹
º
»
¼
½
¾
¿
Â
Ã
Ä
Å
Æ
Ç
È
É
Ê
Ë
Ì
Í
Î
Ï
Ð
Ñ
Ò
Ó
Ô
Õ
Ö
×
Ø
Ù
Ú
Û
Ü
Ý
Þ
ß
à
á
â
ã
ä
å
æ
ç
è
é
ê
ë
ì
í
î
ï
ð
ñ
ò
Ċ
Ġ
Ģ
ģ
Ĥ
ĥ
Ħ
ħ
Ĩ
ĩ
Ī
ī
Ĭ
ĭ
Į
į
İ
ı
Ĳ
ĳ
Ĵ
ĵ
Ķ
ķ
ĸ
Ĺ
ĺ
Ļ
ļ
Ľ
ľ
Ŀ
ŀ
Ł
ł
Ń
Ġt
Ġa
in
he
on
re
er
at
or
Ġs
Ġthe
en
es
it
Ġc
an
Ġp
Ġw
is
ou
ed
Ġf
ing
al
Ġo
Ġan
ion
Ġd
Ġb
ic
le
Ġto
Ġm
Ġin
ar
ro
Ġand
Ġof
ent
as
Ġn
Ġre
us
om
Ġl
ct
Ġth
Ġe
il
Ġy
ve
ation
Ġh
ot
et
Ġyou
Ġis
ly
im
Ġfor
ĠA
ig
ch
am
ĠC
ers
ut
un
ĠS
ow
st
ĠT
Ġbe
ĠI
id
ag
ol
Ġon
ce
ad
Ġ(
Ġg
Ġpro
âĢ
ĠW
Ġor
Ġthat
ith
ay
Ġcon
Ġus
el
ab
ur
em
Ġv
ik
ul
Ġwith
if
ac
ate
Ġst
op
Ġit
ĠM
Ġal
os
ri
Ġas
ãģ
ĠP
ect
Ġde
ment
ir
pp
ter
ity
ess
od
Ġcom
ver
ub
her
est
Ð°
Ġex
Ġare
ia
qu
ec
Ġ2
ist
oc
ĠD
ĠG
igh
age
ra
Ġwh
our
pl
Ġnot
se
ĠÐ
Ġwe
Ġyour
for
ĠB
ang
ĠF
Ġk
ore
Ġcan
ak
out
ive
ew
à¸
ure
nt
Ġr
Ġby
Ġ1
ight
ork
Ġun
pt
ill
ort
and
ies
rom
ĠL
ĠH
art
ud
ions
ĠR
ain
iv
nd
um
âĢĻ
ip
form
ĠE
Ġat
Ġcont
able
ĠThe
ld
Ġfrom
up
og
ant
ãĤ
end
Ġthis
Ġ20
Ġse
ave
ust
áĢ
The
iz
à¤
ĠU
ĠO
Ġsu
Ġad
ãĥ
Ø§
ial
edia
ere
Ġhe
à¦
's
Ð¸
Ġsh
lic
Ġch
res
Ð¾
ther
ack
Ġim
cc
Ġsp
ens
ĠN
Ġwork
Ġ×
Ðµ
ÑĢ
are
ĠâĢ
Ð½
Ġ"
Ġtr
Ġhave
ard
ib
Ġle
omm
ire
Ġapp
ich
cl
ie
Ġar
ost
Ġab
Ġuse
ated
Ġcomp
Ġall
ide
ally
ations
ase
Ġdo
ĠWik
Ġen
all
so
ile
Ġint
ans
per
ould
Ġte
ata
ject
ine
ÑĤ
Ġwhe
ons
Ġj
ÙĦ
ult
Ġ-
ail
ĠIn
Ġrep
ory
ĠJ
Ġwas
Ġwill
ap
ome
Ġother
th
ue
Ġacc
ite
rou
ber
Ġmore
Ġne
ice
Ġany
ign
Ġpl
×Ļ
Ġso
Ġres
ok
ame
.[
du
Ñģ
Ġhas
Ġalso
ple
rib
Ġwhich
Ð»
act
formation
vel
ep
ass
ode
à°
his
gr
low
Ġcomm
Ðº
ind
Ġdis
Ġbut
Ġper
Ġrequ
ages
gh
Ġup
eb
der
ĠV
ors
ach
Ġqu
Ġz
erv
ff
one
Ġmay
ance
ound
Ġcre
clud
Ġme
angu
ments
ific
ime
ong
ĠComm
ike
ĠSt
Ġpart
ast
ink
×Ļ×
ĠK
opy
xt
av
ge
Ġour
ree
Ġif
ell
ose
00
Ġinformation
Ġadd
ates
ear
Ġsc
Ġdes
ph
Ġcl
Ġnew
aw
Ùħ
Ġdata
ary
Ñĥ
In
You
Ġthey
Ġtheir
tern
Ġpub
right
Ġfe
ĠØ
ll
ative
ont
ount
ark
ake
yp
Ġits
ual
fere
ft
ents
×ķ
ord
Ġabout
ru
Ġinclud
Ġman
iew
¿½
ction
Ġout
ous
Ã©
Ġlangu
ï¿½
ace
).
ition
Ġprov
opyright
ribut
Ġlic
Ġgo
Ġspec
Ġaut
ob
Ġpre
te
Ġone
Ġsub
ical
Hub
Ġev
yst
itHub
Ġpage
ateg
ÙĬ
ices
ence
ener
ove
Ġlike
..
Ð´
ress
ĠâĢĶ
Ġpr
ook
),
Ġ202
ces
lease
pport
Ġsome
ility
ipedia
Ġ$
oad
ection
ature
Ġhow
ng
ĠIt
ÙĪ
Ġwhen
Ġsuch
Ġweb
ML
int
Ġrec
Ġ3
erm
ry
Ø§ÙĦ
Ġ201
Ġright
own
Ġimp
ond
âĢĿ
velop
ĠCommons
Ġag
Ð¼
riv
ish
Ġbu
ĠPro
erson
gram
Ġem
row
ings
ĠGitHub
Ġno
Ġed
Ġsec
Ġneed
Ġph
Ġcons
Ġused
ense
ating
Ã³
lect
Ġart
ystem
×ķ×
ah
Ø±
Ġval
Ġcopyright
osit
Ð²
imedia
Ġsee
gan
ÙĨ
ĠAI
Ġthem
very
Ġfol
Ġdef
ĠRe
ible
Ġfir
ays
ian
Ġproject
Ġtrans
Ġinst
ĠUn
Ñĭ
ov
Ġthese
ware
ĠFor
Ġtime
Ġset
Ġact
Ġfil
Ġlist
ne
ise
Ġpublic
rit
ied
use
pen
Ġaccess
à¹
Ġbeen
iss
Ġi
Ġcol
ĠThis
Ġonly
chn
Ġform
Ġind
ict
Ġthere
ï¿½ï¿½
Ġthan
Ġoff
ident
Ġusing
ÅĤ
ks
à¥
Ġinto
ild
Ġcontent
Ġmod
Ġexam
Ġchang
ĠWikipedia
Ġ19
TML
ert
ss
ues
Ġdevelop
Ġserv
Ġob
Ġsupport
Ġdif
Ġshould
Ġmat
ee
ĠWikimedia
les
ited
Ġunder
empl
cess
Ġfollow
Ġrel
Ġcode
ript
ĠWeb
à¬
ocu
Ġprogram
Ġreposit
ĠâĢľ
ced
Äħ
hen
Ġprodu
Ġatt
Ġkn
roup
Ġrequest
hat
ĠØ§ÙĦ
Ġreg
Ġprot
iki
Ġback
aj
Ġover
Ġass
Ġlanguage
Ġiss
Ġexp
Ġloc
Øª
Ġbec
Ġwho
Ġget
Ġfeature
wn
ization
arch
rough
Ġpe
lp
Ġdoes
't
ivers
urity
ull
ement
ĠYou
ĠAr
ics
ased
ities
acy
Ġgener
ari
Ġwould
á»
alk
Ġwhat
Ġhelp
ĠCh
Ġinter
wo
Ġav
Ġac
Ġperson
Ġuser
ning
view
olog
ersion
ract
unity
Ġfirst
ade
hed
Ġmake
Ġbet
ÄĻ
ser
emb
Ġexample
ople
Ġfun
ĠHTML
any
ax
Ġsystem
cept
Ġmost
Ġla
ãģ®
Ġwhere
Ð³
Ġke
ype
Ñĸ
ource
Ġorgan
Ġu
Ġrem
ular
ĠIf
Ñı
Ġthrough
ale
its
Ġprocess
ough
This
Ġwere
ify
cy
ful
Ġele
ator
If
Ġver
led
à§
Ġhead
ix
Ġà¤
Ġtool
Ġent
ĠSp
Ġspecific
ting
feren
For
io
we
ocument
ten
Ġ5
ones
Ġmy
ring
Ġprovid
Ġsim
Ġtechn
Ġpar
Ġevery
TC
ck
raph
ruct
irect
ines
Ġro
ftware
Ġyear
Ġusers
esp
ient
Ġown
oth
Ġ4
Ġfile
Ġlink
Ġjust
Ġlaw
Ð·
Ġrequire
Ġmet
oy
Ġbl
Ġdisc
andard
ause
ional
let
Ġallow
Re
cript
Ġext
Ġpeople
Ġopt
ox
Ġdesign
oint
Ġinv
Ġam
Ġì
Ġdet
az
ories
Ġrepository
Ġtempl
pert
êł
ock
get
Ġcall
ci
ug
ever
Ġsa
fore
sp
orld
Ġmin
ek
ran
ered
Ġknow
pro
Ġleg
Ġapplic
Ġlicense
Ġwant
Ġmust
ĠWe
ier
oss
inal
Ġ/
Ġedit
air
iel
×¨
urre
pr
Ġco
ÑĮ
UTC
fter
Ġfree
Ø¯
ustom
Ġopen
Ġ200
99
min
ailable
urn
Ġthen
Ġfollowing
eg
Ġtest
ases
olic
ãĢ
Ġmark
ferent
atform
lass
ÛĮ
Ġphot
ically
to
ÉĽ
ys
ick
Ġinc
à¨
line
ational
ized
Ġresp
Ġread
Ġund
ÑĢÐ°
Ġsame
20
reat
ash
Ġway
rop
Ġstart
Ġlicens
Ġpriv
Ġproduct
iversity
Ġstat
ize
olut
iness
ĠY
Ġdifferent
ules
ern
Ġnum
Ã¡
ym
Ķ×
red
Ġwithout
We
Ġret
arb
Ø©
ung
Ġconf
Ġavailable
Ġpartic
Ġrights
uch
ined
Ġcateg
Ġtext
ĠÑ
Ġincluding
Ġnow
Ġname
Ġdec
Ġprof
app
ually
Ġaccount
Ġdocument
Ġvalue
Ġfiles
read
resent
Ġtop
lish
Ġ[
...
Ġterm
Ġgu
ĠDe
SS
uss
ious
usiness
Ġworks
plement
ital
hip
Ġsecurity
Ð¿
Ġstandard
ĠGo
Ġprob
hes
Ġteam
mat
ĠÐ¿
hor
Ġoper
ĠApp
Ġident
ability
ince
Ġgroup
ext
Ġsoftware
Ġwell
Ġfind
Ġ.
Ġà¦
aking
ner
ĠTh
ote
amp
Ġperm
Ġeven
Ġmany
Ã¤
Ġ7
Ġcreate
Ġbuild
fer
Ġorig
ross
Ġtwo
Ġartic
old
Ġstr
ĠCC
ower
ames
less
PI
ts
ŀ×
Ġdi
ãĥ¼
Ġna
Ġhad
Ġcustom
Ġlook
omp
à±
Ġpur
Å¼
St
Ġsm
Ġcommunity
ãģĻ
Ġresult
elf
ien
Ġspe
Ø¨
ield
Ġmain
áº
Ġeach
other
Ġgr
Ġer
ality
eng
ĠÙħ
urrent
Ð¹
Ġcould
Ġwhile
Ġnon
ected
Ġche
Ġdirect
Ġbecause
ex
ience
Ġ&
ef
pos
Ġplatform
Ġdon
ified
ission
Ġsource
Ġfeatures
Ġser
ĠServ
work
Ġbrow
lem
ily
Ð°Ð½
omain
li
uring
talk
Ġimage
ential
Ġthose
Ġrun
Ġlanguages
Ġlong
lick
Ġimplement
ĠTe
Ġend
Ġversion
Ġadv
Ã¼
Ø³
're
Ġafter
ny
áĥ
ibility
Ġautom
omet
phones
Ġsign
Ġdown
als
Ġprovide
Ġvari
Ġcontribut
Ġvis
Ġconsid
Ø¹
Ġmult
Ġintern
ĠEx
ideo
Ġreview
Ġeas
Ġ6
ĠâĢĵ
ward
ĠAd
Ġobject
ĠX
lis
10
the
Ar
Ã¨
Ġpersonal
site
×ľ
Ġfound
pload
dit
ives
Ġperform
Ġcount
Ġrest
Ġcontro
Ġwrit
ili
ming
Ġreport
und
akes
Ġbeing
ĠAPI
Ġview
zy
ä¸
Ġtools
ath
Ġbefore
atch
Ġworld
Ùģ
ĠAt
els
Ġexpl
Ð±
Ġexper
ĠAnd
ccess
Ġ0
âĢĶ
Ġdev
ween
Ġcase
ven
Ġbest
Ġrules
oun
Ġmon
Ġpost
Ġcontain
Åĭ
Ġboth
Ġchar
Ġcomput
itt
eta
oud
Ġinclude
Ġissues
erial
ets
ãģ«
Ġinf
lob
Comm
Ġshare
edi
Ãł
ãģ¯
Ġheadphones
gu
Ġdel
Ġ2016
ology
Ġnumber
put
Ġbetween
ering
ĠCont
Ġconn
Ð°ÑĢ
Ġtra
Ġ×Ķ×
ead
Ġmade
Ġni
ÅĽ
Ġstill
Ġaud
ograph
Ġhere
Ġtemplate
To
Ġcurrent
Ġhigh
ogle
Ġrele
crib
ĠInt
Ġâ
Ġel
AT
à¸²
Ġpolic
Ġdist
ĠÐº
Ġfr
Ġwithin
Ġimages
Ġshow
Ġchanges
Ġlegal
ures
Ġupd
embers
aa
ism
ĠAl
Äĩ
Ġfield
Ġdep
Ġauthor
}}
ĠAm
Ġeng
Ġattribut
ault
Ġlog
ank
ird
ended
Ġfunction
Ġexist
Ñĩ
oci
not
ìĿ
ze
ĠÑģ
Ġbusiness
igital
][
{{
rodu
ange
Ġdomain
ÃŃ
Ġ10
ploy
Ġimport
Ġupload
ites
Ġcor
vern
19
Ġissue
hing
à¦¾
Ġservices
Ġcho
ision
ands
ÙĤ
ober
ream
Ġins
Wik
ember
Ġlocal
ãģ¾
ocus
Ñħ
Ġá
ples
oop
ule
ĠUnited
ural
Ġyears
Ġdiscuss
la
Ġposs
ference
Ġlat
ĠCon
ĠHow
vent
play
Ġelement
ins
kt
Ġcomple
Ġaddress
ved
Ġeff
×Ķ
à½
Ġproblem
Ġstep
Ġquest
istr
ana
ÐµÐ½
Ùĩ
ĠOct
Wiki
Ġsubject
Ġprotection
Ġoriginal
×ª
ãģ§
ivid
ĠZ
erest
ĠSh
ĠQ
Ġprojects
Ġlim
Ġhis
ĠTr
Ġorganization
ilt
Ð°Ð»
Ġlar
com
ki
Ġsection
adem
Ġselect
à¤¾
Ġtyp
itut
Ġemail
Ġpages
Ġcalled
Ġder
000
Ġsince
Ġanother
Ġgood
Ġvery
."
ool
hod
Ġtype
Ġreturn
apt
ason
Ġbeh
à¸²à¸
Ġsing
ries
Ġtransl
ret
Ġreal
Ġimpro
Ġchange
Ã¢
ÑĨ
Ġtrack
oard
ators
lobal
Ġsens
oms
ĠGoogle
ĠAn
ources
Ġsearch
Ġenc
gest
Ġdid
Ġmaterial
ray
ĠAs
Ġaddition
Ġpoint
áĢº
ertain
Ġra
Ġvideo
ÑĪ
Ġë
Ġ{{
essional
Ġsomet
Ġcontrol
Ùī
ĠCre
Ġappro
ĠOctober
Ġ'
iple
Ġdetail
tain
uk
orm
ars
arly
Ùĥ
Ġacross
iÄĻ
à¦°
ai
abor
etwork
back
Ġcle
vers
Ġtake
ãĤĴ
egr
ither
ãģĦ
ÉĶ
Ġbas
uc
Ġminim
ĠData
Ã¶
Ġbased
lished
Ġprivacy
Ġrequests
Ġet
ĠMeta
ĠEng
imes
Ġargu
Ġwiki
oin
Ġwebsite
It
ral
Ġerr
12
×Ļ×Ŀ
de
yn
Ġconst
ividual
ji
here
Ġwhether
Ġdevelopment
How
usic
ãĥ³
",
load
Ġfocus
agement
Ġlead
Ã³w
Ġdefault
Ġlicenses
Ġstud
ÐºÐ¸
Ġformat
Ġservice
ĠSec
Ġcour
yle
Ġplease
Ġparticular
ready
Ġest
ĠÐ¼
ledge
Ġpull
à§į
ann
ĠPl
Ġagain
ina
Ġmight
Ġmeans
erc
ems
olution
Ø¬
ĠNot
ren
ency
ura
Ġrese
ĠServices
bit
ness
Ġmethod
Ġmuch
Ġorder
Ġfull
Ġconc
ÑģÑĤ
Ġmess
Ġbetter
ĳ×
Ġpass
16
As
ĠÐ½
ua
ãĤĭ
There
Ġextens
Ġarticle
of
par
alt
Ġonline
Ġelements
Pro
Ġcompany
thing
Ad
ior
ling
Ġhand
ially
Ġkeep
cription
Ġcheck
ather
Ġdem
Ġaround
ording
ĠÐ±
Ġà°
Ġfew
Ð°ÑĤ
Ġadmin
ÐµÑĢ
Ġ2025
Ġprogramming
Ex
iqu
ately
ric
ãģ¦
Ġclass
ently
ĠNew
inked
Ġclick
ĠUS
Ġgovern
Ġsound
Ġthough
ĠCode
Ġlear
ructure
mber
áı
Ġrelease
Ġrequired
Ġrece
erst
13
Ġinterest
Ġindividual
por
ĠInd
Ġens
ï¿½ï¿½ï¿½ï¿½
ãģĹ
Ġtag
ĠGroup
When
Ġ8
ĠÙĪ
ĠFound
íķ
ords
ery
Ġdat
Ġmedia
Ġbackup
Ġautomat
enc
Ġbran
amet
15
OM
con
ania
Ġcontin
Ġdisplay
Ġevent
Ġshe
Ġref
18
day
Ġalready
Ġrepresent
ferences
ĠÂ
Ġgiv
ashable
Ġterms
vious
ĠÑĤ
Ġcases
Ġfl
Ġcreated
Ġmembers
Ġpropert
Ġpract
Ġsystems
Ġprofessional
ĠÐ´
Ġstatus
Ġlif
Ð¾Ð²
ĠSo
ĠØ¨
ĠAct
ãĢģ
Ġthink
Sp
go
ĠBl
ĠHowever
arbon
Ġpossible
au
Ġ2026
Ġdepend
Ġsever
14
ij
Ġbel
Ġsur
ä½
Ġsite
Ġplay
aster
ably
ights
Ġmonth
What
Ġ18
ivity
Ġabove
Ġgreat
Ġarch
Ġcommun
Ġdescrib
Ġproducts
me
ĠThey
ining
Ġcategory
Ġimportant
ãģ¾ãģĻ
Th
ĠThat
ification
Ġcoll
Web
ways
Ġthird
Ġsk
ĠTo
aim
over
Ġeither
ĠMashable
Ġask
ãĤĮ
Ġplace
Ġintegr
uman
tt
Ġpower
ĠBack
Ġlevel
ecess
Ġuniversity
Ġ×ľ
cz
àŃ
ĠÐ²
fort
flow
Ġanal
ogn
clus
Ġsaid
inkedIn
Ġbr
ĠOn
Ġexperience
Ġka
Ġorganiz
Ġlinks
Ġsingle
Ġreason
lasses
ilities
umm
ĠEn
Ġapplication
Ġresearch
sers
Ġcertain
Ġfact
iref
ĠFoundation
arbonite
land
×Ĳ
Ġnetwork
Ġlast
ects
Ġseveral
Ġaff
Ġdigital
Ġ--
Ġcompl
be
rict
uture
Ġcollect
Ġcomputer
17
ĠThere
Ġport
aces
Ġcap
Ġapply
Ġpolicy
Ú©
ED
ĠáĢ
irefox
ches
man
ÑĬ
eting
ĠCSS
ope
ĠHe
Ġher
aring
root
ilot
ache
aving
Cont
Ġann
ĠWork
aut
dition
ants
.âĢĿ
ĠCreative
ention
istory
Ð¾Ð»
".
Ġhard
achine
Ch
af
Ġkey
ãĢĤ
Ġdelet
ategory
50
Ġpop
isk
ibr
ĠVersion
Ġknowledge
Ġmultiple
Ġoften
Ġnam
Ġoptions
Ġbrowser
De
oz
asa
ĠIntern
Ġphotograph
Wh
icro
ĠMedia
ãģ¨
orth
ĠOpen
ãģĮ
ĠApple
Ġsteps
ademark
port
Ñį
Ġ9
ĠWh
ored
Ġadded
Ġprovided
che
ØŃ
Ġuses
urther
ium
ublic
23
É£
lassian
erstand
ON
ety
Ġvi
ĠMan
ĠPr
ĠBut
Ġtoo
indow
æĸ
Ġhapp
Ġemploy
On
ĠMac
Ġdie
Ġworking
ffic
epend
Ġbuilt
An
Ġfre
vir
Ġny
à¸Ļ
Ġunt
Ġguid
.,
Ġsecond
Ġblock
ani
ĠSe
ective
Ġmaking
ÐºÐ°
à¹Ī
side
reen
áĢ¬
Ġcommon
Ð¾ÑĢ
Ġconfig
Ġide
ĠThese
Ġstandards
Ġsomething
.)
ĠCol
ĠWH
Ġcharact
Ãª
Ġalways
Ġcontact
ondon
ER
Ġnorm
ĠLinkedIn
Ġrecomm
Ġtechnology
Ġtemplates
Ġspeak
ler
ali
Ġexcept
ĠLe
Ġnext
Ġcollabor
Ã§
Ġinit
Ġrend
Ġglobal
ĠUniversity
Ġparamet
Ġparticip
See
ists
ived
Ġnecess
Ġinstall
round
tic
çĶ
Ġop
Ġappl
Ġimprove
ke
pose
ony
Ġcopy
ables
Ġsubs
à¥į
'll
ton
Ġdone
irt
ĠEnglish
way
ëĭ
ĠLondon
je
ka
Ġbook
ĠRep
Ø§Øª
ÐµÐ´
Ġmean
ĠØª
æľ
Ġreally
ilar
uters
Ġdirectly
ES
ä»
ĠÄ
Ġvalues
Ġdevelopers
ms
Ġstate
face
à¸Ń
Ġsmall
Ġdevice
ves
Ġlay
chool
ocial
Ġappear
Ġcommit
Ġrepositories
Ġbelow
Ġ×©
WG
erg
Ġmaj
Ġhost
Ġprom
Ġpropos
Ġworkflow
Ġrespons
ĠÎ
Ġthree
Ġothers
Ġconsider
ĠâĪ
Ġattribute
viron
çļ
Ġerror
Ġrepl
une
Ġpublished
Ġcover
sh
Ġequ
orage
Ġlot
opilot
rivacy
Ġautomatically
ynt
Ġpay
ĠWith
Ġcannot
ĠBackup
âĢľ
ãĥ«
à°¿
ya
Ġtax
Ġcrit
Ġfuture
Ġline
vert
ãĤ¹
à¦¿
Ġlet
Ġable
anguage
based
ara
Ġexpress
çļĦ
vant
Ġtable
Ġdra
ĠLic
à¤¿
Ð¾Ð½
åı
Ġvia
Ġfeed
ecut
Ġprovides
Ġsug
Ġplan
oot
anc
ĠCl
ada
Ð¸Ð½
ava
Ġpermission
à¤°
×ķ×ª
sing
Ġsl
ĠReuters
Ġexisting
Ġsensor
Ġfac
ĠPlease
Ġscript
Ð¶
Ġ12
Ġcontext
Ġmodel
ĠâĪĻ
ĠMod
ĠPre
ĠStates
Ġunderstand
Ġdetails
Not
sw
Ġque
ATWG
Ġlife
Script
ni
ron
ĠAg
ĠWhen
ĠBe
ĠArq
Ġgiven
've
Ġpot
Ġpres
Ġwr
Ġvers
Ġsepar
Ġtry
ĠInst
ĠAtlassian
Ġdistribut
Ġtak
Ġtalk
ication
Ġlab
Con
wise
Ġpat
rive
Ġprin
Ġassoci
Ġsimple
Ġallows
oÅĤ
anced
Ġwik
Ġload
ĠPh
arent
Ġquality
Ġsimilar
Ġdesigned
Ġstrateg
Ġlarge
Ġpa
rap
Ġlaws
Ġminimis
OS
no
itive
Ġcent
ours
Ġresults
Ġchoose
Ġsuggest
AR
Ġ×Ĳ
à±į
Ġconnect
Ġengine
ĠKing
Ġclaim
11
na
ini
Ġmen
illion
Ġprotect
à§ĩ
omson
hi
äº
otype
Ġstream
ĠFirefox
obile
Ġtechnical
Ġbranch
ĠÐ°
Ġold
icated
ĠÐ¸
Ġaudio
dom
tings
ination
Ġfin
arget
Ġless
ãģª
ners
sc
×ł
Ġthings
Ġprivate
24
Tr
ĠÙĦ
ĠCopilot
osed
ĠÐ¾
Ġdefined
Ġmajor
lu
ration
ram
isc
Ġfam
Ġmakes
ieve
Ġday
Ġgive
prot
abase
Ġspecification
prise
Øµ
Ġhuman
ĠAb
olved
ĠRes
Ġê
Ġsay
Ð¾Ð³
Ġrestrict
25
Ġduring
Ġmusic
Ġexpert
Ġweek
ired
Ġneeds
Al
CA
ising
ĠIs
ĠCommunity
Ġproperty
Ø®
ĠUR
Ġserver
Ġwritten
à¸¡
Ġtrademark
Ġ)
ances
Ġfix
Ġmov
aging
adoop
ĠRec
Format
Ġspeed
ger
áİ
ĠOr
ovember
30
wa
ãĤ¤
Ġregard
Ġdoesn
iter
Ġ×ĳ×
Ġgeneral
Ġarticles
ĠQu
gor
Ġ15
duct
Ġrecogn
Ġinstead
part
Ġenviron
Ġcategories
Ġmaintain
ood
ĠInc
Ġcloud
Ġquestions
Ġagainst
à®
Ġput
Ġtrust
Ġneeded
Ġrelated
Ġincre
Wikipedia
Ġitems
ersonal
Ġsaf
Ġpri
Ġentire
olutions
ĠYour
den
dict
arm
uration
Release
Ġviol
oid
åħ
alth
Ġmove
26
Un
Ġincluded
ees
ats
Ġben
,[
AI
by
×ĵ
ĠĊ
Ġcamp
Ġfair
Ġvol
ĠProt
Ġimplementation
Ġconcern
,âĢĿ
à©
ised
Î±
eric
Ġpresent
azon
oh
Ġcy
eder
Ġdefin
Ġknown
Ġtypes
Ġtas
Ġglasses
Ġstyle
Ð¸Ñı
Ġprevious
val
åĪ
èª
Ġ16
Ø§ÙĨ
Ġinform
ĠComp
ãģŁ
Ġvalid
Ġsignific
uj
Ġcult
ĠWebroot
Ġeditor
ched
ga
Ġbre
ĠSee
Ġinteract
ctions
Ġgraph
Ġincludes
Ġeasy
40
SA
iance
isions
ĠInformation
poses
yntax
File
Loc
Ġtit
Ġoffic
Ġremain
ropri
Ġcomplete
Cre
ane
ĠCarbonite
time
Ġdate
Ġinvest
Ġtarget
Ġways
lection
Ġnames
Ġperformance
Ġcountry
indows
uly
ØĮ
Ġ×ŀ×
Ġbehav
ique
Ġorganizations
GL
ja
ving
Ġcod
opt
Ġreturns
Ø´
åĲ
Ġcost
Ġmachine
ãģķ
ĠGu
Ġprice
Ġsecure
Ġactually
itted
Ġdiscussion
ps
×ĳ
Ġsend
ales
Ġbig
Ġtoget
ĠNovember
Ġapplications
NS
Ġnever
Ġzesp
Ġgoing
ĠÐ¿ÑĢ
ĠKingdom
Ġtogether
ma
ĠWHATWG
ðŁ
Ġear
ami
Ġwhy
eed
save
uf
wit
Ġsumm
ush
ãĥĪ
Ġvarious
Ġextension
rast
Ò¯
Ġesp
Ġden
à¸ģ
Ġchild
ĠSecurity
ĠNotes
gorith
App
sch
Ġintrodu
Ġeduc
Ġdocumentation
Ġdeli
oor
Ġ17
Ġoffer
ĠØ§ÙĦÙħ
Ġteams
Ġdownload
Ġinternet
Ġarguments
IR
eek
emplate
Ġsmart
sel
Ġes
ĠMay
Ġevents
Ġadministr
Ġsure
Ġadditional
ĠÙģ
Ġsit
Ġcomment
Ġ11
Ġnews
à¹ī
Ġfields
ires
wh
elines
ellig
Ġmessage
Ġensure
yt
anies
ĠAll
ternal
Ġ30
Ġaccept
ged
áĪ
Ġtakes
ĠMark
izing
Ġmanagement
Sh
like
Ġfit
Ġhistory
aced
ĠStud
Ab
DF
]]
ĠAccess
ifi
Ġrather
ĠTechn
Ġclear
RS
å®
Ġpol
Ġkind
bu
×ŀ×
oring
ãģĵ
ework
Ġsuccess
Ġresources
Ġactive
Ġmatch
altura
point
pache
ĠDat
Ġuseful
ologies
Ġcountries
ĠPrivacy
ĠIntl
Ġdays
Ġcome
aps
Ġbecome
Ġdeterm
Ġlater
GitHub
Ġhours
empt
ĠMal
force
ĠOne
ĠJava
ittle
dz
att
Ġbro
Ġalgorith
ared
ama
QL
nie
uation
×©
Ġfurther
ĠAir
ĠCom
ulner
Ġjob
Ġspecial
rid
ÓĻ
Ġda
Ð¾Ð´
Ġspace
Ġleast
Ġfeel
Ġgovernment
Ġrecommend
prototype
anie
Ġpict
roll
Ġsupp
Ð½Ð°
soft
Ġjur
Ġbuilding
Ġpurpose
Ġconsidered
board
Â®
orn
aries
Ġitself
à¥ĩ
ocuments
Ġuntil
ux
Ġcare
ĠHadoop
Ġpurposes
PA
ĠSer
Ġ14
Ġprim
ĠAmazon
Ġquestion
anning
Ġansw
avig
earch
Ġfund
Ġrelevant
itect
amb
ĠCan
Ġexecut
ĠNo
Ġotherwise
Ġstarted
Commons
Ġnecessary
Sec
Ġtri
Ġsong
ecially
Ġapps
Ġcreating
à¹Ģ
Ġeverything
Im
Î¹
Ġgrow
ĠMicro
Ġshort
ĠReg
Ġmodern
Ġsignificant
Ġà¨
Ġsays
Ġsocial
ĠAN
ĠCategory
Ø§Ø±
Ġoption
CSS
ply
ĠAf
ĠAcc
Ġconcept
ĠWikip
Ġconsist
ĠContent
jp
pre
urop
era
Ġredu
Ġonce
Ġcomb
Ġnotice
ĠØ£
ĠProject
oo
Ġrev
Ġlittle
change
unt
Ġetc
ĠÐ½Ð°
ropriate
Int
atter
Ġfail
ĠPersonal
ĠzespoÅĤ
Get
ody
Ġcompon
Ġimpact
Ġremov
ĠÄĳ
ĠLicense
ID
ĠCap
ĠUse
Ġquick
Ã©s
comm
lex
level
Ġrefer
âĢĵ
Ġvirt
Ġ13
×Ļ×ª
Ġoffers
à¥Ģ
×¤
Ġut
roid
Ġimm
Ġcompanies
Ġeveryone
Ġcurrently
Ġlimit
Ġà¬
ĠDes
issions
è¨
ĠÃ
Ġti
Ġwon
Ġlive
Ġhold
ĠCour
Ġsomeone
Ġwriting
Ġlimited
jpg
now
sites
Ġpack
icate
Ġmail
Ġlibr
à°¾
Ġprotected
Ġcorre
Ġprior
olve
Ġstorage
Ġenough
Ġdiscl
ĠService
Ġelse
AN
×Ľ
Ġess
ament
ĠWeek
Ġvulner
à¸Ķ
Ġrule
ĠInternet
Ġtaken
Ġpair
Ġdaa
Ð¾Ð¼
Ð»Ð°
Ġmeet
Ġ198
Ġprocessing
Ġdecision
ĠnyÉĽ
ko
Î¿
Ġ+
lete
Ġinput
Ġred
Ġef
ots
ika
áĢ¯
Ġ2024
Ġtopic
Ġidentity
Ġcomplex
ĠURL
self
abled
Ġdevices
ercial
bers
iod
Ø·
à¼
Ġdu
Ġbox
ÐµÑĤ
Ġenable
ahasa
Ġrequirements
box
Ġêł
ĠAut
ements
Ġalong
Ġactiv
Ġprograms
Ġtesting
Ġgrant
Ġcharacter
Note
Ġ@
org
urs
ĠÐ·
Ġdescription
Ġfilter
Ġinterface
TT
upport
Ê»
Ñİ
Ġsolutions
oub
Ġdocuments
Ġlikely
IN
Ġaction
ĠsiÄĻ
ĠIm
aged
à¸«
Ġindust
Ġlearn
ken
ala
abilities
Ġsubm
Ġestab
Ġpotential
Ġ...
Ġtoday
ĠUser
ĠOff
×Ļ×ķ
Ġapplicable
Ġgroups
gin
×ĺ
Ġfont
Ġhaving
ĠThomson
æĸĩ
come
ging
ater
ott
Ġrisk
ume
Our
cing
Å¡
ÏĦ
Ġwide
Ġlow
oll
ĠPart
ĠGit
Ð½Ð¸
though
Ġaccording
Ġlaun
Ġenter
ey
hold
Ġ#
Ġtre
ĠWorld
Ġ199
Ġwar
ãĤĬ
ciples
22
ih
arily
Ġusually
irst
ĠLanguage
Ġfirm
EC
ii
ncy
tr
Ġdue
ĠApr
ÐµÐ»
Ġwrite
urope
ĠSc
riend
ira
Ġespecially
HTML
where
orpor
Ġwy
Ġma
ĠCopyright
ĠGener
Ġprevent
Ġdescribed
Ġversions
IT
Pl
Ì±
Ġli
Ġ25
ĠFile
ption
uds
à¤¨
Ġenvironment
èªŀ
ters
reement
iting
uni
Ġ×ķ
Ġzu
Ġdiff
Ġrelations
za
Î½
Øº
Ġtree
ury
ĠØ¹
ĠSpec
Ġcontains
Ġdeleted
ĠMicrosoft
MA
aff
isdict
Ġbar
à¸£
Ġtech
Ġlatest
Ġbenef
At
Ġschool
Ġwords
ilit
Ġdeal
Ġadopt
Ġsettings
ÅĽci
aign
Ġsites
Ġstructure
à¸§
Ġmeas
Ġremove
'm
most
Ġmem
imate
stract
Ġperiod
Ġmatter
Ġavoid
Ġcourt
User
ges
nov
ĠØ§
anu
Ġnat
ĠTH
à¸µ
ãĥª
Ġexpect
Ġproblems
EN
icit
Ġmobile
ĠCent
ocs
erms
Ġbrowsers
Ġ,
Ġhome
irc
ape
avor
Ġ[[
Ġorigin
Ġapproach
attery
Ph
ðĲ
ĠÑĥ
Ġocc
ãĤ¯
ÑģÐºÐ¸
Ġza
earn
Ġupdate
Ã´
Ġtimes
Ġsolution
ĠTV
opp
ĠEdit
ender
à¤ķ
Ġpublish
Ġprofile
Ġstrong
ued
Ġturn
Ġfar
ĠWindows
ãĤ£
ãĥĥ
Ġagree
letion
Ġdatabase
Time
Ġsent
Ġsort
Ġfour
Ġbi
Ġadapt
Ġchall
overed
Ġupdates
Ġlearning
lig
åŃ
Ġsup
Ġunless
Ġjoin
Ġagent
ĠÙħÙĨ
Ġobjects
Ġum
Ġparent
Ġmillion
osition
ills
ending
Ġappropriate
Ġassemb
Ġreading
Ġpolicies
Ġcompliance
Ġparameters
bol
arter
Ġalert
resp
Ġscanning
ysis
ĠMediaWiki
elligence
cont
Ġí
ino
Ġhig
Ġarbit
osted
ãģ¦ãģĦ
Ġannoun
CC
ml
Ġx
Ġyet
Ġstring
Ġtrue
Ġinstitut
Add
ĠCourt
ba
hors
Ó©
ìĹ
onse
Ġpast
tee
Ð²Ð°
Ġregist
Ġeasily
aus
Ã²
Ġnote
iving
ĠOb
ĠJune
Ġlooking
Ġexplain
Ġassociated
Ġsam
icult
iles
Ġcomes
ump
Ø§Ùħ
Ġmarket
ĠEnter
zen
rel
Ġcar
ĠDo
áĢŃ
à¦¨
Ġbelieve
Ġalgorithm
eo
ele
Ñĺ
å¤
anish
ĠAss
Ð½Ñĭ
Ġanyone
Ġsubst
Ġoperation
IRED
??
Ø²
ĠÚ©
Ġnavig
ift
Ġaltern
Ġexact
Ġrequires
Ġparty
Ġcopyrighted
Ġgenerally
Ġphoto
Ġfeedback
Ġjurisdict
cent
gress
ti
ouse
lying
istic
à¤¤
ÙĬØ©
Ġlonger
IS
iet
jek
Îµ
Ġ:
Ġß
Ġsyntax
alif
Ð´Ð°
ãģķãĤĮ
Ã«
ÑĦ
×Ŀ
ëĬ
ero
Ġearly
ĠWhat
à¦¤
Ġregul
Ġvirtual
ĠApril
28
alf
Ġbattery
Ġgot
nder
ĠEurope
Ġcontract
ãĥ©
Ġidentify
Array
conom
Ġnormal
Please
cell
Ġspecified
ĠØ§ÙĦØ
Ġcustomers
Ġinternal
Ġseparate
Ġofficial
200
En
gener
overy
ister
Ġisn
osing
ĠPublic
ĠBu
ĠJuly
Ġmodels
ditions
encies
60
Ġaway
Ġwa
Ġdz
ĠDOM
ĠGerm
ĠLaw
ĠEm
Ġemb
Ġcorrect
à¼ĭ
,"
Äį
ening
Ġreference
áĢ±
à¦®
Ġreprodu
ĠVer
Ġamong
Ġstudents
Ġbehavior
pret
reg
Ġdin
Ġdial
Ġthreat
ĠSm
Ġasp
Ġ21
Ġhowever
Ġsimply
ĠSept
49
itions
asing
ĠTerms
ubator
à¸±
Ġlocation
ĠAmeric
Ġlayout
DL
Õ¡
Ġtab
heck
Ġfaster
adu
outh
Ġintended
Ġsupports
ëĬĶ
×¢
enn
Ġpath
Ġmember
Ġmention
ĠShe
Ð»Ð¸
ructions
Ġshared
Ġeffective
ĠCloud
So
down
name
Ġword
Ġmer
omen
Ġvan
raw
Ġ100
umber
Ġbug
ĠArt
Ġlicensed
Ġconditions
ĠPolic
Ð°Ðº
à¸ĩ
Ġuns
Ġhelps
ãĥ³ãĥ
Ġreceive
70
è¦
Ġstore
ĠMe
Ġphotos
çĶ¨
About
Media
ìł
Ġtot
Ġdecl
Ġprz
Ġrecord
Ġdeveloper
Ã¼r
Ġvisit
Ġworkflows
atory
otify
ĠApache
ĠMarch
anding
ãĤ¢
ãĤ¦
Ġability
Ġdoing
Ġencour
Ġdidn
ĠLevel
ĠPar
Ġagents
Ġtechnologies
And
Äģ
Ġve
Ġded
à¤¸
igned
ebru
ifications
Ġlists
arbuds
ìĿ´
ĠProtection
zyst
ìĦ
acji
áĢĲ
à¦¯
ansl
×Ļ×Ķ
×ķ×¨
ãĥ¼ãĥ
Ġinfring
ĠSoftware
ëĭ¤
ĠSeptember
Ġcop
ley
plore
umb
These
ĠWiki
Ġexamples
Ġminut
):
Ġod
Ġusage
elcome
ĠFr
Ġ×¢
Ġparties
Ġsupported
Ġallowed
Ġplatforms
ĠAdv
Ġarchitect
clusive
Ġspeakers
anuary
OU
dent
åľ
ĠÃ©
Ġmo
Ġever
à¸¥
áĢĢ
Ġmonths
Ġdraft
ku
mium
Ġtem
ĠSome
ĠDNS
à¸Ĺ
illa
Ġquot
ruction
Ġdecisions
Ġexplicit
ĠWorking
Ġapplies
party
×§
hent
Ġthing
ĠUK
ĠVis
Ġscreen
Ġoutside
Ġà¤ķ
Ġtopics
Ġguide
Ġreporting
Ġuploaded
Ġpopular
Ġidea
rastructure
--
US
son
Ûģ
Ġside
Ġcal
Ġbit
ĠCo
ÐµÐº
cluding
Ġwebsites
Ġindustry
cher
ÛĴ
Ġcur
elp
ãģĤ
Ġ24
Ġabstract
Ġmanage
Ġsetup
List
PU
hib
hana
Ã¥
lege
ĠBr
ĠBusiness
à¤Ĥ
Ġenh
ĠAndroid
21
cul
Ġmind
acity
ĠPer
ections
Ġ2022
Ġ2023
Ġactivity
ground
ÅĦ
leg
Ġng
ĠAug
ĠIP
ube
à¸¢
Ġleft
ideos
ÑģÐº
à°°
Ġprobably
ĠTeam
ĠPal
quest
ĠBy
ĠLua
ĠJanuary
Ġcreation
Ġclose
à¥ĭ
Ġbecom
ĠDevelop
Ġbroad
Ġcross
Ġworth
Ġfast
ider
áĢ¸
ief
Ġassist
Ġresponse
Ġtasks
selves
35
lock
Ġpress
Ġbad
ops
ĠÐ³
Ð¾ÑĤ
fully
Ġcommunities
Ġtitle
IC
No
iÄħ
kl
zÄħ
Ġcr
Ġnie
Ġ2021
Ġinterpret
Ġ50
Ġexperien
Commits
Ġupdated
respond
29
lim
light
Ġful
alid
Ġdrive
Ġhol
ĠCons
ikel
Ġcompet
Ġ2012
Ġproviding
Ġmethods
Ġfrequ
ĠStudio
OR
With
].
ê³
Ġil
Ġfavor
Ġmal
Ġya
otel
ÐµÐ¼
Ġcompat
ĠString
Ġsche
Ġphys
Ġeffic
ĠÂ§
Ġ%
Ġtell
Ġsem
Ġself
ises
Ġunique
ĠOur
à°Ĥ
×Ļ×§
Ġeval
Ã³n
Ġdeveloped
espace
Ġoperating
Ġinitial
Bu
Ġein
ĠID
ĠMich
ĠÐĴ
Ġ×Ľ
Ġadding
Ġclient
spec
Ġinternational
Ġindividuals
clusion
opping
Rec
ha
ych
×Ĺ
Ġfall
Ġinnov
ĠSystem
ĠSony
Ġdeploy
áĢĻ
à¤¯
Ġaccur
Ġ2020
Ġinstance
Ġrunning
Ø³Øª
Ġreleases
Ġáİ
Ġconstruct
Ġtags
Ġapplied
ĠAfric
Ġrelationship
ded
net
çī
ìļ
Ġloss
osure
ips
Ġanything
Ġrecent
Ġcontribute
Ġeasier
Ġargument
ĠIndones
Ġessential
All
Ind
Man
aÄĩ
eople
list
Æ°
Ġsources
Ġwatch
Ġmiss
Ġyang
ading
Ġproper
Ġsty
irm
Ġpartners
Ġauthors
Ġregular
Ġfunctions
efined
wards
Ġreleased
Ġconcerns
EO
Gener
Ġpo
Ġom
Ġboard
Ġmag
Ġliter
iment
idence
iff
ograp
ĠKaltura
Ġinstructions
ÑĨÐ¸
Ġreceived
Ġanalysis
ht
à¶
ìŀ
reme
Ġsize
itation
Ġpi
Ġearbuds
igen
Ġexternal
ĠBY
Ġsharing
Ð¾Ðº
ÑĥÑĢ
ÑĥÑģ
Ġaccessibility
Ġoptim
Ġprofessionals
ä½ľ
Ġdeliver
AL
AM
Be
Cl
OT
ima
owered
ĠWIRED
ĠMusic
à¸Ħ
ÑĤÐ¸
Ġtraining
Ġinsights
39
ev
lier
oice
sk
áģ
atives
Ġsat
ison
Ġnative
ĠshÉĽ
Ġcred
Ġnoise
ĠXML
Ġcorrespond
àŃį
Ġmeaning
Ġprinc
Ġsafe
Ġactivities
cast
date
Ġpod
Ġreach
Ġge
Ġstates
Ġ×ĳ
Ġ×Ķ
Ã³ÅĤ
Ġeditors
ymbol
ĠÑĩ
ĠWhile
Ġemployees
Ġlabel
ĠJavaScript
Ġnatural
OB
ÑĹ
ĠDocs
ĠFree
Ġadvert
ensor
Ġje
Ġnamed
Ġlibrary
TTP
27
Aut
Use
free
Ġach
pped
ured
ãĤĤ
Ġarray
ãģ®ãĥ
Ġcontaining
Best
Data
SP
book
rics
Ġsale
Ġlove
orts
à°¨
à¬¿
Ġgetting
Ġoperations
ãģĻãĤĭ
Ġperforms
Ġshows
istration
'd
cos
with
ye
quire
ĠWikim
ney
Ġblog
Ġconfiguration
Ġmailing
100
ients
atic
orial
Ġmit
Ġmom
asc
ership
Ġprogress
ĠFit
xtens
Ġconsent
Ġamount
Ġculture
95
fr
pa
ĠÙĬ
Ġcirc
utsch
ager
ãģĭ
raf
raft
Ġrange
ĠStandard
Ġtransfer
Ġloading
ederal
ĠPolicy
Is
bre
bar
js
uuni
×Ķ×
Ġface
Ġmid
Ġgives
Ð°Ð¹
ĠBest
ãĤ¿
Ø§Ø
Ð½Ð¾
grade
×Ļ×ł
ĠSpotify
Ġrole
Ġconnection
Ġsometimes
Ġdeletion
fficient
which
Te
à·
inate
Ġ22
ĠÐļ
Ġscope
rypt
Ġbuy
Ġattempt
Ġgeneration
Ġowner
ĠAPIs
Ġpractices
Ġresponsible
Se
Top
Text
ole
Ã£
åĬ
ival
Ġ×Ļ
ĠJust
Ġwhole
ticle
Ġbreak
Ġdifficult
Some
br
inst
Ġmode
Ġlack
Ġhim
Ġforward
Ð°Ð¼
Ġ23
ĠCommit
Ġlocale
Ġcontinue
ĠServer
Ġhigher
just
nown
ty
Î»
Ïģ
Ûķ
áī
Ġpers
isi
ione
Ġbegin
ĠGhana
ĠFebru
oke
ĠProgram
Ġreli
Ġremote
áº£
Ġinfrastructure
Ġparameter
Ġproposal
witch
ĠÙģÙĬ
aliforn
word
zer
è¡
Ġter
Ġsense
estern
Ġmax
ĠAv
str
Ġstay
umn
Ġcommercial
Ġparts
Ġthemselves
ìĹĲ
Ġminutes
alifornia
gg
rant
×¡
Ġopport
Ġmis
ĠAust
ocks
ĠDay
place
see
licens
Ġchanged
Ġediting
Ġpermissions
Ġfram
Ã¢n
Ġcourse
Ġaffili
ĠWikipedi
New
Ġindepend
íķľ
Ġpractice
Ġpattern
Ġeducation
ĠAccount
ĠAugust
()
Comp
DN
ingu
Ġvideos
Ġintel
duc
Ġmeeting
yped
ĠProf
Ġphone
ahi
ĠAlso
Ġfunctionality
Ġpicture
AS
OL
mer
nh
such
áĭ
Ġsi
Ġbase
Ġbring
ros
pping
ĠDirect
ively
umer
Ġhealth
Ġbutton
Ġ2017
Ġoblig
ktop
Ġtranslation
Ġfitness
Ġtotal
eature
pare
×ŀ
áĤ
áĬ
enior
Ġcam
Ġbo
ãĤī
Ġshall
Ġoutput
ä¸Ń
Ġcollaboration
31
36
Ã¬
Ġdr
Ġstaff
ĠOther
ÑģÑĮ
Ġlisted
Ġinvolved
Ġvariety
Ġreports
Ġbasis
Ġclaims
Õ¡Õ
Do
cle
×Ĵ
ĠÑĢ
ĠðŁ
Ġsom
Ġpush
Ġwsp
Ġconvers
Ġiter
ĠMembers
ãģĨ
sequ
à¸ļ
ĠEdition
Ġcollection
áº¿
entials
Ġreflect
ozilla
Ġdefinition
cosystem
uck
ßĬ
ë¥
itor
Ġcapt
alse
Ġdeals
Ġdelete
Ġcomments
ĠDocument
Ġchart
ĠNational
ÙĦÙī
ÑĥÐ»
Ġprocesses
Ġpurch
Ġvisual
Ġinside
Why
ĠEditor
ĠFebruary
By
PR
ooth
pi
wide
à´
éĢ
Īëĭ¤
Ġsol
Ġdan
Ġdig
used
Ġlight
ĠSup
cember
ĠWatch
ayu
áĢĶ
Ġtrad
Ġjak
Ġprint
Ġroz
ego
Ġphotograp
Ġmulti
Ġflag
44
Your
test
ĠbÉĽ
chan
ĠTemplate
Ġalt
ĠDis
à¸ª
à¸´
Ð¸ÑĢ
Ġintelligence
Ġquite
Ġìŀ
nych
Ġexception
Other
joy
ìĸ
Ġsz
enge
Ġcard
alam
Ġoh
Ġdriv
Ġdrop
Ġdeb
ecause
Ġseems
Ġenforce
atively
Ġlicensing
ìĿĺ
Ġ×©×ľ
Ġimmedi
ĠWeekly
ypedArray
Learn
One
Open
Ġpan
Ġmar
Ġnar
ceed
oper
ĠEC
Ġauthent
ajÄħ
Ġaccounts
à±ģ
Ġmessages
Ġiniti
Ġsubscription
Ġcomponents
45
Book
Ġsoci
ouch
Ġmed
ĠCOM
ĠSet
ĠPa
Ġwhose
formance
Ð¸Ð»
Ġcompil
Ġupon
Ġaccessible
Ġobtain
Ġcustomer
Ġtracking
Ġphotographs
ĠIncubator
ðĲĮ
Go
PD
comp
tÃ³
Ãº
Ù¾
Ġba
Ġmap
ĠAR
ute
ãģ£
Ġexc
istor
Ġcontents
ãĤĪ
Ġseen
Ġhet
à¦¬
Ð¸ÐºÐ¸
Ġjour
Ġjud
à°²
ĠStat
á»¥
Ġeffect
Ġerrors
Ġstreaming
Locale
TM
kan
page
inary
eries
Ġpain
ications
ĠSection
Ġcommand
Ġsimpl
Ġmarketing
ength
Ġoriginality
Ġguidelines
Ġstrategy
Ġcampaign
Ġintroduced
Am
VE
lt
Ø¶
ç´
Ġtu
anks
Ġbal
owe
Ġvon
ĠMore
ĠList
nej
Ġallowing
Ġstarting
Ġcontributors
Ġthought
ancial
Ġfamily
ohn
ĠnyÉĽla
×Ļ×ķ×ª
ĠVisual
Ġframework
AC
ION
des
fect
yd
à²
iden
Ġalmost
Ġ26
ĠDigital
ĠÐĲ
Ġheld
ibly
Ġprefer
Ġfilm
ĠArch
Ġcategor
ĠTHE
Ġannounced
ĠEnterprise
fig
igan
ĠIE
aci
izes
Ġindex
hens
Ġattack
Ġbecame
ifying
Ġcontributions
Ġattribution
Ġquickly
wiki
zi
Ġtw
Ġtaking
orter
Ġsave
Ġwish
amm
ĠSim
ĠSaf
ãģĿ
à¤®
ĠOT
Ġabs
à¬¾
Ġìł
ĠDecember
Ġregarding
Ġcampus
ĠIndonesia
65
gen
Ġ=
head
Ġpick
Ġbott
ĠCalifornia
unte
agram
Ġgame
ulation
acing
Ġitem
ĠktÃ³
rome
áĢķ
oney
phone
Ġ2011
Ġinflu
Ġcontrols
Ġskills
Ġdetermine
Ġeffort
ĠEuropean
ĠCommittee
áĤı
Edit
OP
ta
Ïĥ
including
Ġfriend
Ġdoub
lement
Ġlib
Ġecosystem
ams
Ġgen
Ġstre
Ġnotes
Ð¸Ðº
Ġneg
ategor
Ġ2019
Ġactions
Ġformer
wood
egal
Ġtests
Ð¿ÐµÐ´
lickr
Ġbasic
Ġhappen
ĠModule
Ġwikis
")
".[
Ø«
Ġaim
icon
ãģį
ession
Ġarea
ibu
apan
Ġcalls
Ã¶r
Ġcharacters
ëĭĪëĭ¤
Ġestablished
Can
Code
PL
Qu
do
nal
set
ìĬ
ìľ
Ġill
ĠÑı
ĠÅĭ
rew
Ġsav
Ġinsp
Ġren
Ġprojek
Ġscale
ĠReview
Ġforms
Ġextra
Ġrespect
Ġadvanced
ĠExchange
ãģ§ãģĻ
Ġderiv
Ġprinciples
Ġsummary
Ġanswer
32
38
Tube
Äĥ
onym
atal
Ġwer
Ġfore
ica
ifier
à¤²
ĠâĢĺ
Ð½Ñı
Ġenabled
ĠJud
ÙĪØ±
Ġsetting
Ġdifference
Ġ2008
Ġfront
ÑĩÐ°
Ġcovering
Ġengineering
ĠObject
Ġembed
eal
Ã±
ĠÕ
Ġfinal
Ġfalse
ĠAnt
ols
ached
Ġdeg
Ġyourself
à¬°
ĠApplic
Ġtypically
Ġpassed
Ġproperties
Ġcyber
ĠDaten
ĠMalay
è¦ģ
log
rz
×Ł
ides
Ġ("
oph
ĠGet
à¸¹
ãĤŃ
Ð¸Ð¼
Ġtransform
Ġlocated
embang
áº¡
Ġleading
Ġcritical
Ġmenu
Ġchildren
Ġalerts
Let
More
èĢ
ĠÃł
iny
isp
Ġmac
ĠSch
ĠSouth
adata
eline
ĠMet
ĠStr
ĠØ³
Ð´Ñĭ
Ġreload
á»ĩ
ä¸Ģ
Ġpoints
Ġpolit
ĠComments
Ġremoved
cks
di
yond
Ġposit
Ġflow
unch
akan
ĠHere
à¦²
Ġchann
Ġdisput
Ġmechan
Ġincorpor
Ġaudit
ĠPlatform
Ġideas
Ġtrusted
Îº
åĽ
hether
Ġsw
Ġcore
Ġposition
Ġnational
Ġeen
abling
ĠPort
Ġcomfort
Ġareas
ĠJim
Ġpublication
iction
Ġlapt
Ġ2009
venue
Ġinterested
Ġcontinu
ĠCollege
Ġreplace
Ġmovement
Ġenterprise
Ġphotographer
cut
æ³
æĪ
æĹ
Ġaware
Ġsn
Ġsyn
Ġtook
ĠSub
Ġproced
à¤ª
ÐµÐ·
icht
action
Ġstatement
Å¼e
Ġconnected
Ġdedicated
Ġfully
Posted
yw
Ġir
Ġsections
Ġband
asi
ĠSince
uru
Ġ28
ĠGlobal
Intern
ategories
Ġ2018
Ġactual
Ġbehind
Ġasked
Ġpowerful
Contact
Ġhardware
ĠManagement
Sc
nen
ì§
Ġwid
Ġfive
using
Ġelect
Ġvend
Ġkar
à¦ķ
Ġcreative
Ġgenerate
Ġminor
Ġseries
Ġmaterials
Ġstudent
Ġchalleng
ĠAustral
jÄĻ
known
mark
Ò£
Ú¾
Ġcovered
rote
Ġharm
aming
ided
ĠWestern
uli
oding
ĠLa
Ġenjoy
×ķ×ł
Ġcolor
ĠØ§ÙĦØª
ĠìĿ
Ġ2007
Ġchoice
ĠÂ«
Ġintegration
Ġguidance
Ġrestrictions
Ġreduce
Ġexactly
ĠGerman
Ġevalu
ìĸ´
MI
åł
Ġpor
Ġpom
Ġdas
Ġdla
Ġber
cht
reshold
apter
overs
Ġexpected
Ġ60
Ġcapabilities
Ġappears
Ġarchitecture
Kit
×¦
è¯
Ġaf
ora
iling
ĠPR
ĠRights
ĠOR
Ġcompletion
à°ķ
ÙĪÙĨ
Ġrecently
useum
à¹Ħ
à¥¤
ĠArray
Ġlevels
Ġvolunte
ĠECMA
67
Press
si
à¯
æĿ
ë¡
Ġãĥ
ĠÙĨ
ĠÃ¨
ĨĴ
eria
Ġsus
Ġsell
itable
Ġeconom
ether
igu
ĠCheck
Ġprop
Ġrac
ups
Ø§Ø¨
Ġgoal
iano
Ġassign
Ġpara
Ġparticularly
While
ĠAgreement
Ġinfringement
33
Carbonite
Part
da
hemat
Ġpus
Ġist
aches
Ġstored
ods
Ġrate
ĠEv
ously
Ġservers
prof
Ġrespond
ĠÑį
ãĥ¼ãĤ
Art
itute
à¸²à¸£
Ġdetailed
rench
Rel
code
data
jÄħ
my
su
uff
inux
orient
edom
Ġflex
una
ĠIT
ores
Ġuna
áĢĦ
Ġclar
awa
Ġspecifications
urrency
ĠNews
ĠAccessibility
è¨Ģ
Ġalternative
ĠMichigan
ĠOTRS
Here
nu
Ã¹
Ĥ¬
Ġdest
Ġbud
Ġnas
omin
Ġthus
ĠSw
ãģı
Ð°Ð·
que
à¸Ľ
ĠHead
enses
Ġ×ł
Ġquery
Ġnumbers
ĠTech
Ġlogo
ĠTrans
íķĺ
ĠInternational
Ġimprovements
ĠReport
Ġpayment
ìļ©
Ġmaxim
Dis
FDL
Uh
Ġ]
Ġslow
ences
rol
asons
Ġlower
imb
ĠAny
Ġgain
ĠMon
Ġexerc
istics
ĠBar
ĠFran
Ġunivers
ĠRoad
à¦¼
Ġperfect
Ġcolumn
Ġtested
."[
Ġdemon
Ġbrand
Ġnamespace
ĠAmerican
Ġphysical
specific
Or
lands
nect
vi
Ġtim
Ġcame
isl
Ġles
ĠSie
Ġbeyond
ĠIh
adget
lich
ÑĤÐ°
Ġjest
Ġresolution
cluded
Ø¯ÙĬ
ĠÑĺ
ĠDev
Ġadvoc
ÅĽÄĩ
Ġlarger
Ġrender
Ġpromot
Ð¾Ð³Ð¾
Ġtrademarks
Ġsubmit
ĠCenter
áĢŃáĢ¯
37
RC
ycz
ati
Ġban
olving
Ġaren
ĠUp
Ġplans
Ġsoon
Ġresource
Ġcreators
Ġfees
ĠÂ»
going
Ġlaunched
34
80
Com
Sub
ca
ky
å¹
Ġcaus
Ġwrote
icks
ifies
ĠPC
Ġsequ
áĢŀ
Ġshown
ensive
allery
oken
Ġemp
Ġà¦ª
Wikimedia
Ġmoment
ducation
but
ror
ÖĢ
ß¬
ĠÙĥ
inch
asy
ample
ĠMar
ĠMost
ĠFrom
Ġkl
ustain
ãĥĩ
ulty
à°¯
ificial
aven
Ġmanual
Ġprett
Ġdefine
Ġmarked
ÛĮÚ
Ġimplemented
Ġviews
Ġdistin
iÄĻki
Ġbasa
à¸«à¸¡
ĠSmart
Me
VG
aur
×ĳ×
Ġauf
Ġsil
ene
ese
Ġdam
Ġdiv
Ġmi
ĠAc
Ġstory
ĠGr
ends
Ġ×§
Ġplus
Ġplug
ĠIts
Ġedition
lectual
idential
Ġ197
Ġentry
Ġcharge
Any
Eng
rist
Ġign
requ
Ġfa
Ġang
idents
Ġones
Ġkom
Ġcompared
ÑĥÐº
Ġpublications
Ġimplementations
Ġadvant
Ġframe
Ġtranslations
Ġrepresentation
Ġgiving
Ġspeaker
Ġearlier
ENT
Ã£o
47
Des
Up
cie
pis
å¾
çĽ
Ġfoot
ĠCamp
ĠSon
ĠSchool
ĠÐľ
Ġris
ĠEven
Ø§Ø¯
Ġworked
ĠInter
Ġpercent
Ġtherefore
Ġmodify
ÑĸÐ½
Ġspecifically
ÃŃa
Ġopin
åı¯
Ġcentral
Ġprimary
ĠANC
Ġaspects
Ġmentioned
Ġholder
quirements
ĠFitbit
oriented
eit
çĲ
reens
isf
Ġbody
Ġbegan
pper
ĠFl
antic
Ġrepo
Ġplaced
ÑĥÐ½
à¹ģ
ï¿½ï¿½ï¿½
ĠYouTube
Ġ2001
Ġbusinesses
However
Spanish
ĠPrin
ifiable
Ġmemory
Ġreliable
Ġpretty
IA
co
fix
rs
æ¬
æĮ
Ġou
Ġanim
Ġdost
Ġbahasa
icode
Ġeth
ige
ude
ustr
áĢ²
Ġsufficient
that
Ġscience
âĢĿ,
ĠProcess
Ġsets
Ġbackground
othing
Arch
Ġreplaced
Ġdraw
Ġtrying
Ġfinancial
åĲĪ
Ġdelivery
ifiers
Ġenhance
ME
Under
mail
zÄĻ
Ã®
Ġwor
Ġled
oto
ĠAre
agen
Ġgames
Ġdeep
Ġ27
Ġcancell
ĠEd
ĠUs
Ġaby
orsk
Ġgenerated
Ġrob
Ø¨Ø±
ĠAdd
iliar
ynam
Ġextensions
Ġbranches
Ġdisplayed
Ġreasonable
Ġincrease
Ġtask
Ġcosts
ãģ¦ãģĦãģ¾ãģĻ
Ġbecomes
bani
cre
ĠÙĤ
Ġcause
Ġnature
ĠSu
ado
iring
illing
ĠJohn
Ġlistening
Ġoverall
References
Ġcoord
Ġ2006
ĠYork
ìĿĦ
Ġáı
Ġdepends
CAOB
Ġstyles
Res
WS
ona
Ġhar
ĠAfter
idi
elt
ĠMy
ĠMove
irus
ĠÐ¡
ĠBoard
Ġkont
ĠOut
Ð¾Ñģ
Ġimpl
ensus
ĠNow
ÐºÑĸ
Ġcredit
Ġimpress
Ġformal
Ġmarkup
Ġdiscussions
Ġclean
Ġhosted
ĠAbout
ĠOrgan
Ġsituation
untu
ĠÐ·Ð°
Ġarbitr
related
66
Acc
fin
rim
ä¾
éģ
Ġsymbol
Ġfig
Ġmoney
Ġreasons
imately
ĠSupport
ĠIll
Ġvot
ograf
Ġpublicly
ilding
Ġfollows
Ġverify
Ġmetadata
Ġblack
ĠÑĦ
ĠGovern
Ġsensitive
Ġclearly
Ġproposed
Ð¾Ð³ÑĢÐ°
Ġfonts
generation
199
AD
BL
Category
XML
law
pe
Ãµ
ÓĢ
ano
Ġfan
Ġfra
Ġmil
Ġmission
ask
ĠIS
celer
Ġstruct
ĠÐ¶
Ð¸ÑĤ
riven
ĠChar
inese
Read
ĠÑĪ
Ġadvice
Ġreported
ÙĩØ§
Ġdistributed
Ġentirely
Ġpreviously
From
serv
Ð¡
Õ¥
Ġdro
Ġmaa
amples
idata
ollow
ades
admin
Ġord
elayu
ĠJira
Ġqual
Ġ2014
Ġconsult
á»Ļ
ological
Ġready
Ġlooks
ĠContribut
Ġ×Ķ×ŀ×
Contents
ĠPremium
Ġsongs
Ġconsistent
Ġcomponent
Ġcorresponding
Ġcamera
AG
Copyright
FS
bo
sa
ÐĲ
åŁ
Ġtreat
orzyst
Ġcovers
Ġmerg
ĠCL
ster
ĠPat
ĠEU
Ġadjust
resents
ĠNote
Ġinteg
Ġfreely
Ġanaly
Ġrecommended
Ã§a
Ġdistribution
Ġexperts
ytics
Ġgranted
Ġassembly
Ġimmediately
Access
But
lo
Î·
æı
æĺ
Ġwater
icious
arant
ila
ĠAng
ĠTime
ela
aba
rav
ĠÐĳ
à¸ķ
anda
ĠHTTP
eren
Ġtrade
inding
achines
Ġscal
itional
Ġsubt
ownload
Ġdefines
Ġmodule
ĠArticle
Ġacadem
ĠAtt
Ġruleset
ounter
Ġstudy
ĠBlack
ĠTechnical
TimeFormat
Ġjurisdiction
Ġthreats
41
Most
Pre
Template
ÏĢ
Ġta
room
ĠSci
ford
à¸°
ards
ÙĦÙĬ
Ġclients
Ġpracy
ÑĭÐ½
Ġmarks
à±Ģ
áĥĲ
áĥĺ
Ġbooks
noÅĽci
Ġexpertise
Ġcodes
ĠCanada
Ġwidely
ĠGeneral
Ġsuper
Topics
Ġderivative
Join
SH
ians
°Ģ
Â¶
Ġtick
Ġswitch
Ġcele
Ġmix
Ġreuse
usi
Ġlines
Ġlength
Ġhope
aga
add
ĠDepend
áĢ½
aily
ĠInv
Ġcreates
Ġproduce
Ġgets
Ġprovider
Ġincident
Ġreviews
Ġcommunication
Ġlabels
ãģĵãģ¨
Ġpictures
ĠDesign
Ġexplicitly
Ġbudget
46
CP
PN
Pods
iver
Î¬
æķ
rehens
oral
uster
Ġlo
vey
Ġhistor
olit
Ġstack
opedia
ãĥĹ
à¦ª
Ð¾Ð±
Ġcomply
berg
Ġagre
à¨¾
Ã¡c
Ġretain
Ġ70
Ġclasses
Ġaffect
Ġinstalled
Intl
Ġbenefit
Ġregistered
Ġfavorite
parency
Cap
lov
wer
web
Ġdire
ilter
Ġhon
ĠCustom
struct
ĠMDN
Ð°ÑĪ
ĠEach
ãĥ¬
ãĥŃ
Ġenables
Ġsole
ĠØ¥
Ġemerg
ĠFormat
ĠChrome
Ġtravel
ĠÑģÑĤ
ĠOpenText
ĠPrime
Creative
à¸ģà¸²à¸£
Ġinstitutions
Ġcircum
ì§Ģ
ë¡ľ
);
48
After
aÅĤ
driven
men
sub
Ġur
erce
atar
orig
isation
Ġmass
Ġthreshold
ĠSign
ĠWest
Ġnothing
à¸·
ãĤ³
ĠNetwork
Ġcompar
ribution
Ġprec
ÙĬØ±
ooks
Ġfirms
Ġinstances
Ġregistration
Ġwanted
Ġbehalf
Prot
æľ¬
Ġolder
Ġarbitration
Ġprinciple
profit
çĲĨ
My
Over
mi
po
ui
éĸ
ĠÒ
Ġage
onom
reet
erve
aso
Ġhotel
ĠAud
uth
ĠWord
ĠMozilla
ĠDon
rain
ĠFlickr
Ġunit
ĠLinux
Ġrepresents
rupt
Ã©n
ints
Ġago
Ġconsensus
Ġregister
Ġblocks
Ġresulting
ĠPlay
Ġhandle
ä½¿
å®ļ
Ġmatching
aduate
ë¥¼
Ġdemonstr
Cry
lar
more
type
å¼
æł
ĠfÃ¼r
unities
ĠMat
ĠMax
ocol
ĠDep
ĠÐ¢
Ġwear
ĠEducation
Ġseem
ĠOF
ÐµÑģ
inks
Ġfollowed
ĠWebsite
Ġproviders
Ġchecks
Ġhighlight
Ġaddresses
Ġtranslate
Ġfocused
Ġintegrated
Ġnetworks
Ġparticipants
×ĳ×¨
ĠdziÄĻki
pisode
Type
ho
mon
oni
Ġwin
Ġwalk
ĠSing
stra
Ġbez
ĠIN
Ġconduct
ests
ĠBrow
ĠRel
ivil
uma
antly
class
Ġency
Ġplaces
Ġcommons
Ġpublis
ĠForm
Ġassum
à§ģ
Ġmetrics
Ġoptional
êł¤
apping
ĠExplore
Ġposter
Ġlargest
Ġcapital
Ġexpression
ĠAirPods
Ġanswers
Ġutil
Ġvulnerability
PUB
Ġmissing
ĠshÉĽli
Ġprojekt
%.
Set
That
Val
buntu
pack
Î¼
Ðļ
ĠÊ»
Ġsle
Ġovers
Ġmere
igr
ĠIdent
idelines
ula
Ġstop
Ġstand
Ġ2013
Ġ2015
Ġheader
Ġparser
leted
Ġextent
everCry
prac
olute
ĠÑħ
Ġcontroll
Ġstrategic
Ġadoption
Ġexperiences
Ġadvertising
æ³ķ
55
],
mb
å°
ç®
Ġfine
ĠTim
ĠPCAOB
Ġleave
Ġcommits
Ġseek
ÑĭÐ»
Ġmathemat
Ġà¤¸
Ġ2005
Ġpermitted
ounsel
Ġauthority
ĠModel
Ġjurisdictions
Ġaccurate
Ġachieve
Ġmechanism
Ġcancellation
ĠMovement
CL
PS
dle
source
uz
zn
Ø°
Ġcou
Ġbes
omat
Ġthrow
utorial
unction
ĠDi
ĠOK
Ġshopping
ommend
alls
Ġnearly
Ġmanner
×ķ×ľ
ĠUnivers
Ġchanging
ÄĻp
êł£
Ġrendering
Apple
Ġsitu
ING
MediaWiki
Ġcalcul
Ġefficient
ãĤŃãĥ
Ġadvantage
Ġrisks
OV
Work
iri
mod
pass
zh
Õ«
isory
imal
ĠSearch
ĠTam
ĠWill
ocal
ĠDec
Ġwhite
Ġnoted
ĠFrench
illions
áĢ®
ãĥķ
Ð¸Ñģ
Ã©d
ĠItal
Ġrecip
Ġinstruction
Ġfilters
Ġindic
Ġassess
Ġlegisl
Ġendpoint
ĠÐ½Ðµ
ä½ĵ
Thomson
Ġannual
Ġhappy
Ġcritic
Ġpaper
Ġsuggestions
inois
ĠØ§ÙĦØ£
ìĦľ
åľ¨
ĠPalembang
alidator
html
Ġsatisf
Ġsociety
Pr
off
ship
uit
Â»
ÐĴ
Ø¸
ĠWar
rian
ublish
pty
ĠOver
Ð¸Ð·
Ġcomprehens
clude
à¹ĥ
Ġmatters
airs
ãĥ¼ãĥ«
Ġworldwide
ĠTrust
Ġleaders
Ġfamiliar
Ġrecognition
ĠOffice
Ġbenefits
Ġmerge
Æ°á»
licensed
åł´
BY
iy
oom
Ïħ
çĻ
êµ
Ġair
reci
Ġant
ĠSEC
ĠTur
idden
oped
ecurity
forts
Ġrank
ĠEl
ĠJapan
plete
×Ļ×¨
ĠPropert
Ġsecret
Ġexpand
Ġrooms
String
Ġrestore
cribe
ĠConf
Ġensuring
Ġscripts
Ġpaid
Ġcultural
Ġremains
Ġeducational
ĠAdvanced
Ġpatterns
ĠStatement
01
04
Disc
MF
MS
Number
cia
oj
Å¾
ìĭ
Ġtouch
Ġsix
Ġsales
itch
Ġpow
Ġmicro
Ġnh
Ġnice
Ġnode
Ġhy
utation
ĠIRS
Ġconven
verage
ĠDisc
iven
ĠUlt
ãĥĳ
Ġchat
ÐµÑĢÐ°
iber
ĠVideo
Ġcreator
Ġscient
Ġdesktop
Ġpred
ĠProduct
Ġartik
Ġthroughout
Ġparsing
Ġconfirm
ĠBlog
Webroot
ĠRecommend
Ġviolation
nowledge
à¸µà¹Ī
Ġreproduction
Ð¸ÐºÐ¸Ð¿ÐµÐ´
ĠìĿ´
59
64
AQ
Using
hr
ham
nic
ted
àª
æī
Ġcit
isch
Ġini
Ġlang
ĠSenior
owania
stream
ĠTop
ĠPe
Ð°Ð²
quare
ĠGe
ĠGFDL
à°¡
Ġprze
ĠUnicode
Ġproduction
Ġrequested
Ġà¤¹
Ġhighly
Ġattributes
Ġdescribe
Ġparticipate
Ġconnections
Trans
Ġincreasing
Ġfundament
ãĥªãĥ¼
????
Ġdeclar
II
Le
Many
Per
nap
powered
words
ÏĤ
ĥ½
Īĺ
Ġtok
Ġreferences
imi
igible
Ġongoing
Ġprohib
Ð°Ð´
Ġ29
Ġkm
Ġrout
Ġhear
Ġlets
ĠSte
Ġgoals
Ġthanks
Ġserved
Ġheading
Ġroll
Ġlinked
Ġstatements
Ġserve
ĠAddition
ä¸Ĭ
}}.
Ġformats
iques
ãģĹãģ¦
Ġmembership
Ġgreater
ĠMacBook
ĠÙĦØº
Ġmeasures
Ġindependent
ç´ł
Ġexercise
ĠIllinois
Help
UR
dy
lines
map
Î¯
rec
Ġanonym
Ġbank
Ġtoken
Ġnor
ĠCEO
unk
ĠSource
owaÄĩ
ĠTool
Ġgl
Ġalthough
uby
ĠBit
ĠFirst
Ġki
Ġkit
ĠHigh
ãĤ°
Ġsex
ãĥĸ
Ġshik
ireless
Ġ2010
Ġroad
Ġdirectory
nya
Ġcomplain
Ġhappens
Ġfreedom
åŃ¸
Ġproperly
Ø§Ø¦
Ġsusp
57
eks
rang
ĠÑĢÐ°
Ŀ¼
Ġten
atan
ald
Ġmga
Ġlate
veal
ĠSVG
ids
ĠPark
Ġexclusive
ums
áĢĽ
à¦·
Ġspoken
iej
ĠInf
Ġupgrade
Ġagreement
Ġindicate
ĠChinese
Ð³ÑĬ
Ġruns
Ġselected
Thank
Ġcoverage
ĠResearch
Ġcompletely
ãĤĬãģ¾ãģĻ
Ġchallenge
Ġnavigate
Ġcompatible
Ġcredentials
69
Par
Sim
md
yar
Õ¶
Õ¸
Ùĭ
â°
æ§
è§
inn
Ġpip
alle
Ġdynam
Ġmot
Ġnaj
Ġhab
ola
ĠMany
ĠFeature
ĠLog
Ð¾Ð·
ĠNOT
iece
×Ļ×ľ
elling
ÙħØ¬
ÅĤug
Ġgeneric
Ġlegit
Ġperman
Ġvariable
Ġexists
Ġtranslated
ĠEngine
Explore
Ġbelong
Ġparticipation
ä»¥
Create
Ġtrend
ĠSpecial
Phone
Ġsubstant
ĠAfrica
Ġpurchase
ÛĮÚº
La
fol
gment
greg
sim
ê²
Ġicon
Ġopp
iced
lean
Ġnight
Ġrely
usion
Ġlit
Ġha
Ġho
ett
ĠText
Ġcondition
Ġvs
Ġvac
ĠLibr
artment
ĠRE
ĠExtens
Ġappreci
thon
itely
ello
ĠØ¬
Ġspecify
ÙĬÙĨ
Ġrecovery
âĢĿ.
Ġoffice
Ġmodified
ĠChina
iency
Ġautomated
ography
vention
key
Ġcriteria
Ġcoding
ĠProjects
Ġlaunch
æĹ¥
Ġchallenges
IL
Mod
NU
PC
Since
ban
uv
uable
ß«
åĮ
æİ
ĠÃ¼
only
ato
Ġsch
iti
Ġfran
Ġmus
Ġoffere
ĠCar
Ġground
Ġvert
rie
ĠÐ»
Ġround
ĠThen
ĠUI
ĠUsers
ĠOper
ÑĤÐ¾
ĠStart
ĠØŃ
ÙĬÙĦ
ÙĪÙĦ
Ġprodukt
Ġentity
Ġamb
Ġconflic
Ġdecide
Ġtraffic
Ġshowing
Ġcourts
Ġdepending
ĠWhoop
ujÄħ
Ġinvestig
Ġjobs
PAC
Ġestablish
Ġwarrant
Ġpublishing
×Ļ×§×Ļ×
Ġbottom
ĠÅĭÉĶ
Ð¾Ð³ÑĢÐ°Ð¼
Ġinteger
áĥĲáĥ
Ġcomprehensive
AP
Ass
Date
Each
SON
gl
ls
wi
ÃŁ
æĶ
ç§
è®
Ġrow
Ġtables
Ġpen
icip
Ġinline
ĠTax
iaÅĤ
ĠDem
ĠGl
illed
ĠHelp
Ġadm
Ġchance
ĠØ¯
Ġgoes
Ġempty
aha
Ġmostly
Ġprocessed
ossible
ãĥ¼ãĤ¹
ĠIntel
Ġtracker
Ġdemand
Ġequival
ĠCapX
ĠCapacity
Ġschools
Ġcopies
zÄħdz
Ġobligations
ĠwspÃ³ÅĤ
Ġwerden
Ġembedded
Ġtokens
Ġoffered
42
TS
Welcome
uge
wik
Ñī
Ñŀ
áį
åį
èĩ
Ġult
ita
Ġpun
ished
Ġmak
olo
Ġvary
Ġvote
Ġvoice
Ġalle
odes
ĠDav
Ġkan
à¸Ĥ
áĢľ
Ġheart
à¦Ĥ
Ġshape
Ġ×ĸ
Ġpartner
Inst
Ġmanually
Ġedits
Ġconsumer
Ġdifferences
Ġ2004
Ġstrings
Ġserious
Ġautomation
Ġvisible
Ġlogic
Ġpractical
Ġprompt
Ġtrial
Ġredirect
ãĥ¼ãĥī
ãģĤãĤĭ
Ġstreng
ĠPrinciples
Ġencycl
86
fl
uet
âĨĴ
ç«
Ġwent
Ġfederal
ington
arzÄħdz
Ġlost
ĠIss
agi
Ġgi
aya
ife
ĠMus
oday
Ġweeks
ĠBas
ĠEle
ende
ÐµÐ²
Ġaccident
ĠView
ĠCommon
Ġprzy
ĠRead
ĠRequirements
ÑĭÐº
ario
Ġcorpor
à¦°à¦
Ġformatting
Ġexceptions
Ġpresident
Ġdistribute
Ġenvironments
à©Ģ
Second
Ġreferred
Ġefforts
Ã´ng
Ġiteration
Ġmaximum
68
Ops
lin
nia
Ñĳ
ÖĤ
onical
Ġsustain
Ġpra
Ġws
Ġdot
Ġthous
Ġhit
ĠAff
ĠTaj
ĠMin
ĠMah
ĠPres
ĠPower
hern
ested
ĠDraft
Ġune
ĠHer
ĠOnt
Ð¸Ð¹
ĠNorth
Ġ×ŀ
ÐµÐ¹
Ġtrig
ĠWikidata
Ã©e
Ġprac
Ġlisten
Ġhelpful
Ġà¤ª
Ġvisibility
Ġrare
Ġunderstanding
Ø®Ø¯
Ġsuccessful
ĠDevelopment
Ġlaptop
Ġcircumst
).[
Now
ares
Ġcut
Ġpas
edn
icing
Ġrevenue
Ġland
amless
ĠCy
ĠCity
ĠCases
abot
ĠMary
ĠMachine
term
ĠBose
ĠBrit
Ġko
ãĤ·
resh
Ġspam
Ġ×ª
ailability
à°ª
ĠCommission
ooking
Ġattention
ugu
Ġrespective
Ġà¦ķ
Ø³ÛĮ
Ġdependencies
à¸Ńà¸ĩ
Ġmoved
Ġbehavi
ĠÐ¿ÑĢÐ¾Ð³ÑĢÐ°Ð¼
Ġmeasure
Ġfrequency
Ġrelationships
Ġsomew
ĠìŀĪ
Ġdegree
Ġacademic
51
View
col
ns
non
press
Ûĩ
Ġwomen
Ġnu
ilos
etary
cha
iding
Ġcoming
Ð°Ñģ
istry
ĠDate
ĠBro
ĠHar
izable
ÙĦÙħ
Ġscreens
à¹į
ĠÐ¿ÑĢÐ°
Ġà¦¬
ĠAdmin
Ġinsert
ãģ§ãģ¯
itution
Once
Ġlayer
DFS
Ġprimarily
bersecurity
ĠFrance
Ġcompatibility
Ġinnovation
Ġrozw
Ġjournal
Ġdispute
ãĥĩãĤ£
Ġmilest
ĠWordPress
Åį
ÐŁ
ä¿
é«
Ġcurrency
user
Ġloop
Ġhum
etz
utz
ida
agn
ĠWG
acje
osen
ĠFin
aka
ĠEr
Ð¸ÑģÑĤ
Ġze
ĠStreet
Ġvaluable
Ġmodules
Ġobvious
Ġexpensive
Ġinteroper
à§ĭ
Ġdiscount
Ġinvite
Ġundefined
Åĭa
coming
Ġbackups
Ġautomatic
ĠOnce
Ãªn
Ġnormally
Ġequal
Ġfacilit
ĠInstead
Transl
Ġesc
Ġadministrators
ĠTechnology
ê³¼
Ø³ØªØ®Ø¯
Ġopportunities
ä¸Ńæĸĩ
åł´åĲĪ
ĠUltra
79
Rep
vision
writ
èĥ½
reach
orre
Ġson
Ġhands
ĠCall
Ġconference
Ġals
ecz
ĠBer
ĠLFS
ĠRuss
Ġsuite
Ð»Ñı
ĠValidator
Ġmeant
Ġagencies
Ġoffering
Ġprogramm
Ã¤r
áº¥
Ġposts
Ġreturned
ĠAnal
arsh
Ġresponsibility
Ġvolume
Ġtried
Î¹Îº
Ġtreated
Ġadopted
Ġbeginning
Ġintellectual
ĠktÃ³re
à¯į
According
åŁº
Ġlegitimate
ãĥĩãĤ£ãĤ¢
56
Coll
DK
DR
Meta
People
TypedArray
Ver
then
Åº
Ġtal
Ġcz
oma
Ġthread
Ġhalf
ĠCore
unately
ĠTwo
osh
hers
eck
à¤µ
Ġenabling
Ġrepe
index
ĠVi
Ġadds
ĠØ´
Ġmanaging
ĠUnion
Ġhelping
tenance
Ġmonit
Ġlogos
Ġimproved
Ġconstra
Ġà°µ
External
Ġarchive
Ġnecessarily
EST
ĠCompany
Ġoriginally
Ġencourage
è¡Į
Google
Ġillustr
Internet
88
Fi
Further
ball
met
Ä±
Ìį
ÑĶ
Ø£
ë¦
ĠÅĽ
Ġoder
Ġbot
arge
Ġeine
chron
ĠSam
owanie
urch
ĠMember
river
ĠPage
ĠBen
ĠBig
ĠBel
akt
ĠEnd
Ġpreferences
ĠiPhone
ceding
arbeit
ungen
Ġidentified
Ġfinding
Ġadvance
Ã¶n
Ġinteresting
ï¿½ï¿½ï¿½ï¿½ï¿½ï¿½ï¿½ï¿½
ãģĹãģ¾ãģĻ
Ġfactors
Ġemployee
æľī
Ġmajority
Ġgrowing
Ġpackage
ĠAssoci
ãĤ¦ãĤ£
Ġencouraged
Ġabsolute
èĢħ
Ġchannel
Ġdistinct
Value
Ġcircumstances
BM
Rem
aeo
cil
eep
first
hÃ¢
rag
year
©çĶ¨
å¸
åĨ
Ġbillion
Ġment
Ġmut
ilarly
Ġforce
amed
idate
ayer
emini
Ġalone
ãģł
ĠPost
ĠGlasses
ĠBiden
Ġkh
Ġrul
Ġcontrib
à¤¦
Ġshap
Ġtele
anguages
×Ļ×ĺ
Ġclosed
Ġmanip
×ķ×¡
Ġunderlying
Ġinterview
ĠSpanish
Ġowners
Ġextreme
Arq
porary
Ġê²
Ġgrowth
ĠÄĳá»
riendly
Ġfraud
ĠTajik
Every
Test
å½
Ġapl
inter
erous
atible
Ġsession
Ġdaily
Ġtold
users
Ġlub
Ġgit
elle
abases
Ġstable
ãģ¤
ocab
ĠGraph
pling
ĠFol
Ġku
à¸¸
ĠEvery
ãĤ»
à¤¹
ĠOS
acking
Ġ×Ĺ
Ġjo
ails
à°¤
à°Ĺ
ĠState
uality
Ġtransparency
ĠWebKit
Ġproduced
Ġacceler
criptions
ĠDeutsch
Ġidentifier
Ġexperiment
ĠáĬ
ĠConduct
ĠShare
Ġencoding
ĠPlus
Ġletter
Ġfixes
Ġfixed
Ġinteractive
Ġlibraries
klore
Ġauthentication
ãģĿãģ®
ĠECMAScript
ĠIhre
uetooth
52
Extens
Ident
James
Lat
Option
RE
Yes
aÃ±
ked
yek
åº
åĩ
åī
æ¨
Ġpatch
Ġfot
Ġdash
imin
ĠSave
cel
ithub
Ġstuff
ĠÐĿ
anges
ĠLat
ĠLike
ĠUr
Ġshi
à°¦
Ġprovision
Ġsubsequ
à¥Ī
Å¼y
Ġfoundation
comes
Ġhandling
ãģĹãģŁ
Ġanalytics
author
Ġconfigure
luence
Ġrestricted
ĠGuidelines
Ġconcepts
limited
Select
adgets
English
êµŃ
Firefox
IP
Lic
ael
jet
kit
pop
wan
Ġaward
Ġpiece
Ġwir
ĠdÃ©
Ġbed
Ġmachines
archer
eter
ĠSur
Ġbeg
olves
Ġ(âĢľ
ĠWide
Ġstated
oping
ĠMc
rief
ightly
arth
ogether
Ġ2000
Ġseamless
áĢĿ
à¦Ĺ
Ð¾Ð¶
Ġspaces
ÐµÐ³
Ø±Ø¨
Ġsupporting
iverse
ixel
Ġroot
Ġreaders
Ġcontributing
ĠHealth
Who
Ġinstallation
Ġwrong
ãĤ¤ãĥ«
Creating
Ġinvestment
Security
Ġcombination
Ġvulnerabilities
Ġliability
Ġnavigation
çīĪ
Ġopportunity
Ġtraditional
Ġvolunteer
ĠSonos
ĠScience
53
Fin
mo
media
oe
vas
á¹
ç¤
Ħãĥªãĥ¼
Ġpoz
Ġyuuni
ĠAL
Ġglob
abe
urance
Ġstra
ĠMult
ĠPract
ector
ĠBecause
ĠFederal
andom
à¤Ĺ
Ġspent
Ġdisp
Ġrecords
Ġartikel
Ġtransformation
ĠiOS
Ġoverview
Ġdesigns
ĠìĤ¬
egu
arby
Ġdecided
Ġvision
Ġsensors
Ġrap
Ġinterests
ĠActions
Spec
ĠBluetooth
Ġdescribes
ĠColl
Ġplanning
Ġfacilities
Ġmoving
Ġregardless
Ġrecommendations
ĠSpecification
áĢ±áĢ¬
Ġenforcement
Ġinitiative
ĠStrateg
Ġcomfortable
ĠEvents
ĠRecommendation
02
43
63
NeverCry
Ob
dem
defined
gn
win
yc
ython
¯¸
×ĸ
×ļ
Ġcrypt
Ġwindow
isa
Ġok
Ġdates
Ġyi
eth
ĠAS
ĠTest
ried
ews
Ġrich
ĠLive
ãĥĨ
Ġspot
Ġaccord
Ġanywhere
Ġcluster
ypes
Ġauto
Ġpremium
Ġsubc
Ġagency
ĠØ§ÙĦØ¹
Ġremember
ÛĮØ§
Ġguarant
undred
edians
Ġengagement
verse
Ġminimum
ĠSecond
anned
Ġpassword
Ġkeeping
encji
Ġcollected
Ġsmaller
Ġsignificantly
Ġholds
ĠGermany
iÄħz
ĠWikimania
Archive
Ġequivalent
58
61
97
Act
Check
Gu
chen
eur
haps
lNeverCry
ned
Ðľ
ê°Ģ
ĠÑĸ
Ġay
hest
arian
oman
Ġlives
Ġexchange
seud
ĠÐł
ĠFrid
à¸Ī
à¸ŀ
ĠLearn
ĠLegal
ĠRem
áĢĴ
ĠOpt
Ø§Ø³
Ġappeal
eph
à°µ
ÐºÑĥ
Ġrelatively
á»į
ĠTele
ometimes
Ġposted
Ġcomputing
Ġimproving
Ġapproved
Ġrepresented
fortunately
Ãªs
Ġmovie
Ġtitles
Ġdisclosure
Ġwyk
Ġaspect
UST
ĠAfrican
Ġintelig
ĠAustralia
Ġsleep
Ġlegislation
ĠFriday
83
OW
Tag
bl
door
faces
friendly
gent
yl
ÉĻ
æĽ
ç¶
Ġ*
ĠÙĩ
ĠÛģ
Ġtur
Ġcity
alo
Ġog
ilder
ĠSem
ĠMag
ãģĳ
Ġdead
Ġunc
ĠHall
ãĤ¸
izer
izations
ãĥ»
Ð¸Ñĩ
Ġtruly
ÑĤÑĮ
Ġupgr
ella
Ġscen
ÑĥÐ²
Ġ31
Äħcz
Ġregion
Ġowned
Ġrequirement
Ġreadings
Ġstarts
Ġsigned
Ġreviewed
Ġeffects
à½²
Ġapprox
ĠÐ¼Ð¾Ð²
Ġresearcher
Ġbelie
Ġhosting
ãĥ«ãĥ¼ãĥ«
Ġexpressed
ĠInstagram
ĠRecord
ĠAccording
Ġvulnerable
ĠSupreme
è¯Ń
Ġthousands
90
BT
LT
core
mp
rite
sv
¤ë
åĢ
é¡
Ġãģ®
recht
enz
itage
Ġcatch
Ġfood
Ġye
ĠSuch
ste
Ġgave
ĠWn
ulate
Ġstation
Ġital
ĠMed
ĠMad
ĠPeople
Ġexcell
ĠDan
raz
anging
Ġunlike
ortium
ĠHis
ĠOf
Ġads
Ġsports
ĠNe
Ġ×¤
Ġpredict
text
ÙĪÙħ
Ġaggreg
Ġartificial
à¹Į
Ġrelig
á»§
Ġcontributor
ĠXM
Ġrulesets
Ġcomputers
ographic
ÉĶÅĭ
Addition
ĠÐ±Ð¾Ð»
Ġbrings
ĠInstitute
Ġfinally
Ġadministrator
ĠAND
ĠzaÅĭ
Ġquotation
ãģĭãĤī
Ġbalance
zÄĻdz
ĠISO
Fac
He
History
Of
Privacy
RDF
Support
lwood
ä¼
å¿
aten
Ġsold
Ġcart
Ġwelcome
Ġmedi
enty
Ġlik
Ġhundred
ĠAz
ĠChe
ĠSnap
owied
ĠIMI
ido
idth
ulu
ĠGemini
rach
ĠFace
ĠLab
Ġsear
Ġselection
áĢ¹
ĠNothing
Ġ×¡
ommended
Ġcompare
Ġcompleted
Ġnear
Ġquant
Ġzero
ĠKore
ruce
ryption
à¹ĩ
rought
Request
êłŀ
Ġopened
ymi
engg
Ġsounds
Ġdependency
Ġaffected
portant
äºº
Ġexecution
ĠCentral
zenia
Ġeffectively
ĠWikimedians
ìľł
ĠJudaeo
æ¬¡
Ø¨Ø±ÙħØ¬
ĠDependabot
original
ĠExplorer
Ġaccordance
lwoodward
Su
oices
Ã½
ç¨
Ġ?
Ġáĥ
inv
Ġcert
Ġbound
Ġmist
Ġreached
Ġlas
ĠCam
ĠSk
ĠTypedArray
Ġgender
Ġconvert
ĠGen
pth
ĠEPUB
áĢģ
áĢĤ
áĢļ
ĠName
Ġworkout
Ġdoct
Ġwasn
Ġresil
Ġreserv
ĠVal
ÙħØ§
Ġconsum
Ġartwork
à¹Ĥ
ÅĤo
Ġdeveloping
Ġserves
ĠØ§ÙĦØ±
ĠØ§ÙĦØ¬
Ġassume
Ġinterpre
Ġacqu
Ġcustomize
Ø¨ÙĬ
Ġcopying
Ġrecognized
Ġfunding
Ġalongside
Ġfiltering
ãĥ©ãĤ¤
Ġcopied
ĠmoÅ¼
Ġbecoming
ĠyaÉ£
ĠProfessional
Ġrenew
Ġpropri
Ġracism
54
76
Apache
Custom
Hello
PF
Port
Us
citation
fs
leng
znej
©»
Ùı
áŀ
éĥ
éł
ê©»
ĠÅ
Ġaw
Ġspl
enia
Ġoch
Ġbund
Ġinher
Ġnom
Ġreject
Ġhack
etch
ĠSQL
style
ĠType
adi
eld
emin
atever
Ġstage
Ð°ÑĢÐ°
ocr
ĠDomain
aker
Ġunknown
endar
áĢ¡
à¤¡
ĠUN
ĠUbuntu
à¦¸
Ð¸Ñħ
Ġchain
ĠJe
Ġresolve
à°®
Ġcommitted
ĠStorage
Ġimpossible
Ġrelation
Ġack
cket
Ð¿ÑĢ
ĠÐ¿Ð¾
urrently
zyb
Ġengines
Ġchecking
Ġgovernance
ĠOnline
Ġcollective
Ġuntuk
Ġrendere
Ġcenter
Ġsaying
ãģĵãģ®
Ġdisclose
ðĲį
ãĤ¦ãĤ
Ġconversations
aciÃ³n
ìĬ¤
Ġpositive
èĩª
ĠPresident
ãĤ¦ãĤ£ãĤŃãĥ
75
84
API
Att
Bahasa
IF
Next
Whether
ben
case
how
hosted
áĮ
è¿
Ġãģ¨
Ġsaw
Ġcell
Ġfans
Ġnang
ĠSche
ĠSyntax
ĠSensor
adow
ikip
acc
Ġstories
oses
ria
ĠPay
ĠÐĺ
akers
à¸Ĭ
ĠLast
ĠUTC
Ġchosen
Ġspons
Ġarg
Ġnearby
ÑģÑı
aching
Ġzg
Ġzn
ancell
Ġartists
×ķ×©
eech
ĠChief
Ġ40
Ġextended
Ġìľ
Ġlegacy
ÛĮÚ©
Ġincred
ouncil
Ġuploader
à¸²à¸¡
Ġsearching
ĠCodeQL
Ġkeyboard
Ġcollaborate
ä»¶
Ġassociate
Ġaccepted
Ġêł¨
ĠzuÉ£
ãĥĥãĤ¯
Ġcarry
Ġregulatory
Ġbroadcast
ĠConsortium
Ġmalicious
Recommended
Ġpersp
Ġcharts
ĠnarzÄĻdz
ĠApplications
Ġcontribs
Jameslwoodward
System
ae
hol
lers
version
Ã»
æŀ
Ġãģ¯
ĠÏĦ
Ġtend
inc
order
Ġbrought
iche
icher
ette
ĠWi
ellow
ĠDR
ĠGard
enska
Ġ×Ĵ
ĠâĢŀ
apore
×Ļ×Ļ×Ŀ
actions
Ġzm
Ġzone
Ġcreat
ĠCommun
ĠKind
Ġfeels
Ġrelative
ĠØ§ÙĦØŃ
á»¯
á»ģ
Ġhelped
ĠChapter
à§Ģ
Ġentertain
ĠSpace
Ġlegally
×¨×Ļ×Ŀ
minute
Ã¡n
Ġbuilds
Ġvariables
Ġselector
Ġbrack
Dev
Ġcommonly
çĶŁ
ramework
Ġrecognize
Ġsupply
content
Ġexplained
Ġassistance
Ġefficiency
igenous
Ġdropdown
Ġdouble
ìĬµ
æĪĲ
Ġflexible
çĽ®
ĠÃ¼ber
uguÃªs
ĠAssociation
éĥ¨
BC
Red
Tam
brid
kins
ris
Ðł
ç¾
Ġswo
Ġsolve
ĠcÃ³
Ġpour
Ġanch
Ġdans
Ġdalam
Ġmaps
enture
Ġhuge
strap
Ġprox
Ġoraz
Ġconform
acz
ĠMuseum
ãģĽ
ĠPD
ĠPan
irth
essions
istent
ĠDet
ĠDie
ĠGree
rael
ĠÐŁ
ĠFre
ĠLet
ĠRich
ĠTheir
Ġtroub
Ġappoint
Ġqueries
Ġzap
ĠStyle
×Ļ×¡
×Ļ×ĳ
ĠØ±
Ġemot
Ġedge
Ġaccessor
à¥ģ
à¬ķ
Ġkept
Ġroles
print
Ġproductivity
Ġstrict
Start
ĠExper
Ġdepict
}},
Ġlocales
ĠTrump
Ġminimal
ĠGroups
ĠÙĪØ§ÙĦ
Ġportion
Ġrendered
ä»£
ootstrap
Ġslot
Ġpatent
ĠPhot
Ġsuggested
Ġpresentation
ĠGuide
Ġbiggest
ĠSeries
oolean
å¤§
Ġbugs
Cloud
Ġattacks
ĠGovernment
Ġhistorical
Ġtrends
ĠLibrary
Ġwszyst
ĠMaryland
ĠFolklore
1000
Don
Def
Free
First
Log
def
gra
parent
tz
uh
uw
ÏĮ
ç»
Ġri
Ġahead
atu
Ġfill
alah
Ġduration
Ġlingu
Ġhier
ĠCult
ĠSil
ĠSound
oli
ãģĪ
ĠGNU
Ġweight
ĠFAQ
Ġbypass
Ġcontrast
anti
ÑĤÐ¾ÑĢ
api
active
phas
Ð²Ð¾
nego
Ġlocations
Ġverified
Ġdiscover
Ġextend
Ġmini
program
Ġgramm
ĠXHTML
Ġmonitor
Ġ×Ķ×Ĳ
ìĿĢ
Ġdomains
Ġuploading
ĠTransl
ÑĨÑĮ
Ġëĭ
Ġcontinues
ancing
Ġscripting
Ġ×Ĳ×ª
Ġsafety
Ġdefinitely
Î¿Ïħ
Ġstructured
Ġexpectations
ìłľ
Ġdeployment
Ġpartnership
Ġobtained
Ġpolitical
Ġkomun
Ã§ais
æĺ¯
Ð¸ÐºÐ¸Ð¿ÐµÐ´Ð¸Ñı
ìĬµëĭĪëĭ¤
CH
DC
FC
Wp
fe
mit
och
uel
world
zes
Äĵ
ÅŁ
Ðĳ
æŃ
rem
Ġmigr
Ġepisode
ĠAWS
Ġbeaut
olid
Ġ(#
abl
ulary
ãģ°
ĠPers
ĠPol
ĠDag
ĠÐ£
ĠÐĵ
ĠBank
áĢ¼
ĠUnder
Ø§Ùģ
ĠNumber
ÑĢÑĥ
ults
inder
ĠzarzÄħdz
Ġmaybe
×Ļ×Ł
Ð¼Ð°
Ġphr
Ġcopyrights
Ġdiffer
Ġlocally
Ġusername
Ġroom
Ġdetect
Ġcallback
Ġunders
matter
áºŃ
Ġbrowsing
ä¸ĭ
ATION
Ġengage
Ġemails
ĠSecure
Project
áıį
ĠOnly
Ġblocked
Ġproposals
Ġexpressions
Ġfaculty
isco
Ġê³
Ġcodec
Ġcareer
Ġpotentially
ĠØ¹ÙĦÙī
Ġturned
Äįina
Ġexperienced
Ġmalware
Build
Ġprincip
ĠPaper
Ġhappened
è¦ģç´ł
à¸¹à¹Ī
Ġvendors
å¹´
Ġmathematical
ublishing
ĠFeatures
ocabulary
aÃ±ol
Kaltura
Where
base
gy
mm
â±
å¯
æĢ
éĻ
heet
orama
ĠsÄħ
Ġdiverse
uter
estions
ĠDel
Ġkam
Ġbyt
ĠHouse
ĠHotel
ĠRing
ivirus
áĢ¶
áĢ·
ãĥŀ
license
sole
Ġdisabled
ĠVPN
ĠØ¦
Ġrecover
Ã³b
ception
Ã¡s
ä¸į
athon
Ġexplore
Community
ĠIntegr
Ġauthorized
Ġimportance
Ġapproval
Ġleads
Ġleadership
Ġcontinued
æĸ¹
ĠRepublic
Ġsummar
ĠØ£ÙĨ
ĠtiÅĭ
ÑģÐºÐ¸Ð¹
ÑĺÐ°
Ġdialog
Ġinterpreted
Ġmagaz
ĠWikipedias
Ġpanel
Ġfriends
ollowing
ĠAdditionally
ĠÙĦØºØ§Øª
ĠBritish
Ġstraight
Ġcreativity
Language
Public
SE
cions
gal
iu
uan
va
¸°
ß²
ĮĢ
ĴĮ
Ġtutorial
Ġak
Ġaverage
Ġmillions
Ġhidden
ĠSocial
ĠSquare
Ġgather
osp
eston
andal
Ġsuff
Ø§Ø¹
Ġheav
Ġimag
Ġspend
ension
Ġreporter
ffee
ongo
inking
ÙĬÙĥ
Ġartist
×ķ×¤
Ġobs
ĠCharter
ÄĻzy
Ġkeys
espaces
Ġownership
Ġmeta
letter
ĠìĪĺ
Ġwants
Ġaccounting
Ã¤n
ĠÙħØ¹
Ġrestored
Ġexplan
Ġdistingu
Ġchoices
à½Ĥ
ĠQuality
Ital
Example
Ġ80
Ġeventually
Ġsurround
Ġcapacity
Content
Ġseconds
Ġstrategies
Ġsuggestion
Ġsafegu
Ġvalidation
Ġacceptable
ĠMarket
Ġmeetings
Ġwait
Ġcorrectly
Ġpaths
Ġunsigned
Ġvendor
ĠHeadphone
Ġmerely
Ġsubstantial
ĠìľĦ
").
Because
HTTP
Legal
Ã¸
Å³
åĴĮ
çŃ
éĩ
ĠÅĤ
ıĦ
Ġcá»§
Ġbrief
Ġreveal
ĠTra
ayout
emon
ulated
ĠMaster
ĠÐ¥
angan
Ġkp
ĠLL
ĠRDF
ĠEnt
ãĤĵ
à¦Ł
Ð¸ÐºÐ°
Ġshift
ibilities
Ġleaving
astic
Inter
Ġattend
ĠArab
Ġà¤®
Ġ57
prove
Ġworksh
Ġendors
Ġexplo
Ġcontained
Ġaudience
Ġeligible
notes
Wikip
ÑĨÐ°
Ġconstruction
Admin
Ġmonthly
Ġasking
Ġguides
ãĤ¹ãĤ¿
Ġtalking
noÅĽÄĩ
à©ĩ
Ġdefinitions
ĠANY
commercial
Ġannounce
Ġidentifying
Ġfrequently
ìŀĳ
Techn
Ġaffiliates
RCE
Ġsolely
Ġcouple
Ġanonymous
allel
æĹ¥æľ¬
Ġmonitoring
Ġentertainment
Ġcá»§a
="
Co
Find
Filter
Lua
Opt
cer
gi
language
width
Ø¦
à¾
ëĲ
Ġsá»
Ġwur
iser
Ġbul
ico
asion
Ġnone
omas
ĠCred
ĠTO
agers
Ġgap
âĢĲ
Ġven
ĠMelayu
ĠDol
ĠFramework
Ġkorzyst
iper
ĠUsing
Ġspread
Ð½Ñĸ
ÙĦØº
ĠIns
Ġresolved
Ġresidents
Ġdiss
orship
Ġscans
Inc
Ġoutcomes
Ã©r
Ġrecording
×ķ×§
Ġtransition
oved
espite
Reg
Ġdetection
Ġ2002
Ġconfidence
Ġmaintenance
Ġdirected
ĠExpert
Ġfounded
iliates
Ġframes
Ġclicking
Ġdatabases
Ġrefers
Ġthinking
augh
Ġ×ľ×Ĳ
áĢ¬áĤı
Ġslightly
ĠResources
Ġalgorithms
itecture
Ġdupl
Ġsentence
ĠAmerica
ĠSystems
áº¡n
Design
structor
ãĥķãĤ
Ã©dia
ĠConfluence
ĠEngineering
Ġdotycz
Ġconstraints
Optionally
07
98
Back
Download
Key
call
czy
ios
public
uat
Äķ
Ð¢
Ðĵ
à³
æĬ
Ġaus
rep
rev
ester
Ġple
Ġwat
Ġfire
Ġreferen
ĠCouncil
utral
idd
ags
Ġproceed
Ġvoor
ĠMain
ĠMUST
rior
ĠPython
Ġnotify
Ġnotifications
ĠÐµ
Ġrat
ĠRed
antics
ĠON
Ġship
Ġ×ĵ
ÑĢÐµ
Ġlex
Ġintention
hishing
Ġscore
Ġfolder
issues
Ġcolle
Ġorganized
à¨°
Ġprofiles
Ġdiagram
Ġviewed
ĠConnect
ĠAnn
Ġfocusable
Ġsurve
Ġ×ľ×Ķ×
àŃĩ
fficial
Ã§Ã£o
Ġpromote
Ġcontexts
Conven
Also
Ġcycle
åĪ©çĶ¨
Ġadministrative
ĠzespoÅĤy
Ġlimitation
ãģ¦ãģĦãĤĭ
Ġinterpretation
Ġconversation
ãĤĪãģĨ
Ġinfluence
Ġsequence
Ġopinion
ĠAttribution
å¼ı
Discover
Ġgrammar
ĠdotyczÄħ
299
AA
Es
Hi
River
Search
TF
WH
dated
equ
oon
uce
zb
èĳ
Ġid
itas
Ġpseud
Ġwal
Ġbur
Ġlose
Ġhous
ĠCla
Ġgaming
Ġkon
aki
ĠRay
umni
ieg
Ġdisable
Ġzur
Ġclone
Ġevidence
Ġprices
×ķ×ĳ
×ķ×Ł
Ġtheme
Ġfold
emplates
Ġrelating
Ð³Ð°
Ð·Ñĭ
Ġinvok
2026
Ġcontributed
Ġinfo
ìĿ¼
ãģ§ãģį
Ġtracks
ÙĥÙĨ
Ġdemo
Ġcommunicate
Another
åĪĨ
Ġeditorial
Ġdengan
OURCE
Ġmiddle
áº£n
Ġframeworks
ĠSafari
ĠProcessing
Ġfigure
áĥĺáĥ
CapX
ĠDepartment
NumberFormat
Ġfundamental
æ§ĭ
Ġdynamic
Ġvacu
Ġappreciate
Ġmusical
Ġscreensh
Ġhumans
Ġresearchers
++
BS
Cr
GOL
IM
LD
Like
Pages
bury
block
iant
kc
ç½
éĿ
Ġíķ
Ġtail
Ġtheory
ito
Ġpuuni
inger
Ġdies
Ġbinding
icework
omi
Ġlu
Ġlands
Ġeight
Ġhor
Ġhot
ĠCON
ĠCorpor
Ġconvent
urpose
ikan
rij
mental
irit
ĠÐŀ
ĠBet
áĢ³
áĢħ
à¤ľ
Ø§ÙĤ
Ġcha
Ġju
à°Ł
Ġdisapp
Ġzw
ĠStream
Information
Ã©t
Ġprefix
Ġcopyrightable
ĠRequest
Ġoffline
à¬¨
ĠØ§ÙĦØ¨Ø±ÙħØ¬
Ġexpose
ØªÙĪ
Ġverb
Ġdiscovery
Ġìķ
aza
ĠIntelligence
ĠAlthough
Ġdiscussed
ĠShow
à¸²à¸ĩ
develop
Ġreceiving
ĠManager
Ġshortcut
Ġrevision
Ġoccur
Ġ×¢×ľ
ĠProgramming
Ġbringing
Ġboost
alaman
Ġpreferred
Ġdoubt
Ġnegative
Ġsaved
ĠApplication
Ġkarim
Related
Ġcelebr
Ġrapid
Ġapproximately
Ġexcellent
ruceID
Convencions
èĳĹ
Bel
Cons
IG
PT
Sm
Sensor
body
cape
oi
person
ras
sl
ses
wall
you
~~
Ïĩ
æº
rest
organ
esz
Ġos
Ġbinary
ille
iga
under
ĠSan
ĠSDK
ĠWay
ĠWhere
ikl
ĠMA
Ġwhatever
ando
andbox
ãĤı
Ġseven
Ġheard
ÑĢÐ¸
ansom
ailing
itext
dule
Ġcommission
pha
Ġoutdoor
Ã©c
Ġpreview
Ġemphas
Ø±Ùī
ĠWebsites
Ġverification
Ġà¤ħ
Ġentries
azing
egment
readable
Ġ[...
Ġà¦¸
ĠThus
Ġbuildings
à±ĩ
Ġ08
ĠControl
Ġtrain
Ġpossibly
kty
à¸²à¸¢
ÑĨÑĸ
Ġraised
ĠUSB
Ġarchives
ĠTherefore
Deletion
Ġcommittee
Ġfailure
Ġpriorit
Ġhighest
Ġsampling
Ġregulations
Ġdrag
áº¿ng
ilingual
Ġeconomic
ĠCampus
ĠwspÃ³ÅĤprac
Ġcorporate
Ġproprietary
Ġwszystk
Ġê³µ
æĹ¥æľ¬èªŀ
iceworks
05
08
85
Digital
EM
Even
Gr
NC
OC
UD
document
han
hal
uci
vis
write
yo
å±
inja
Ġcat
Ġcivil
isource
arr
Ġnan
Ġnicht
Ġhyp
iger
ĠChat
ĠIBM
ago
adig
Ġprote
uri
ema
ĠvÃł
Ġalign
ĠPS
ppose
ĠDr
anto
enden
áĢ»
They
ensitive
Ġlett
ÑĥÑĤ
ÑĥÐ´
×ķ×ĵ
Ġtranscluded
oves
Ġmatches
Ġprogrammer
ĠØ§ÙĦÙĨ
ĠArts
Ð³Ð°ÑĢ
Ġstatistics
ĠÐ¿Ð¾Ðº
ĠThanks
Ġconsidering
Ġáĭ
Ġsubjects
dev
Ð°ÑĤÐ°
ameters
ĠÐ´Ð°
ĠAgile
åħ¨
Local
ufact
Ġpackages
ĠURLs
Ġsubmitted
Ġjoining
Ġprzep
ĠAdvisory
Before
Ġmitig
Ġterrit
íķľêµŃ
áĬķ
amsung
á»ĩt
Ġsync
Ġethnic
Ġworry
ravatar
Ġticket
loven
ä½¿çĶ¨
Ġcitiz
Ġshikuru
ĠElements
Ġaplik
ĠKindle
WHATWG
Ġ[...]
Frequ
GB
Mal
Main
bor
bana
house
tuc
yes
Êĭ
Òĵ
Ġ>
Ġ{
ī¡
Ġap
oning
orb
orge
Ġswe
Ġszyb
Ġtoward
Ġmu
Ġmoral
Ġnga
ĠlÃł
igration
owych
ĠIan
abi
urable
quality
istribut
ocation
ĠHeston
ĠEX
ĠEs
ãĤģ
áĢ¾
ĠNext
Ġworkers
alleries
ĠJames
riba
acts
Ġscroll
Ġspecs
Ġpreced
Ġtransclusion
Ġattract
Ġlock
á»ĥ
Ġuw
Ġextract
Ġinvolve
ĠYOU
Ġconfidential
plementation
Ġoperates
ĠAppRiver
ampaign
Ġcouldn
Ġperformed
Ġcontrovers
Ġwrites
zych
Ġdeliber
ĠInterest
Ġlimits
Ġtranslating
Ġë°
alty
ĠUSA
Ġplayer
Ġheritage
ĠManaging
çĶ»
shot
Ġcentury
ARN
Ġadministration
Ġkinds
Ġlimitations
à¸Ķà¸«à¸¡
Ġschema
Ġoptimization
Ġpainting
Editing
atalog
Ġchannels
Ġprocedures
æł¡
ĠSingapore
Ġscientific
Ġprzez
Ġschol
Ġencyclopedia
eminism
Ġletters
"),
09
89
Av
EL
TR
can
worth
ying
yles
Î³
íĤ
ĠÅ¼e
Ĥĺ
eras
itle
Ġdim
Ġdut
Ġbath
icial
lear
Ġmas
ented
Ġnull
Ġhour
ĠCr
ĠSol
Ġgone
abel
emi
acjÄĻ
Ġalb
isted
ĠDPF
ĠGal
race
platform
Ġwearing
ĠFund
ĠFOR
ĠLocal
ĠHistory
ĠHDFS
format
ĠOura
ĠNon
ĠJoin
à°¸
Ġdispl
Ġqui
×Ļ×Ĳ
ÙħÙĦ
Ġprovisions
Ġphilos
Ã³l
Ġbacked
ĠArbit
ought
Ġmyself
Ġinvalid
êłĺ
sprach
Ġ2003
ÑĢÐ°ÑĹ
Ġstatic
Ġoperate
Ġà¦ı
Ã¤ng
à±ĭ
Ġcontribution
Article
Ã¨re
Ð°ÑĢÑĭ
Ġ×Ķ×¢
roduction
Ġuploads
Ġcorner
obert
à½¼
Ð°Ð»ÑĮ
rett
ointer
Ġplaying
Ġcertainly
Ġfacts
Deutsch
ÐºÐ°Ñı
ESOURCE
ĠPreceding
Ġengineers
scope
screen
ĠÐ¾ÑĤ
ederlands
Ġtargeted
elligent
áĪŃ
bucket
Ġexecutive
Ġcomplexity
Atlassian
Ġfourth
Ġsamples
ê³ł
ÑĥÑģÑģÐºÐ¸Ð¹
è¡¨
Ġcompiler
Ġexcited
ĠSafe
Ġsniff
Ġevaluate
Ġsymbols
ĠProperties
Ġroadmap
)(
Ang
ET
Non
Name
Serv
__
iam
nce
rd
Ó£
ÛĨ
á¸
åĥ
ĠÃª
Ġtang
Ġsessions
esch
itled
Ġcounter
ĠwiÄĻ
Ġbah
leading
Ġmaster
aru
Ġnil
Ġreality
omplete
Ġlabor
aman
ĠTre
ĠToday
Ġbei
Ġonto
Ġgallery
ĠWhether
emed
Ġvast
ĠPDF
irl
Ġcomo
istan
plain
ĠÐĶ
Ġcand
aks
ĠLisp
ĠHay
ĠRSS
ãĤĦ
Ġ×¨
Ð»ÑĮ
ebrew
×Ļ×©
earning
Ġscr
Ġmanaged
Ã©p
Ð´Ðµ
Ð¼Ð¸
oving
Ġfilen
aja
Ġissued
ĠSpiceworks
Ġtechniques
Ġparse
Ġknows
tood
à¨ķ
Ġunde
Ð°Ð½Ð´
nyÉĽ
ounce
Ġlatter
ĠSecret
Ġextensive
afe
Ġpopulation
ÑįÑĢ
æĸ°
Ġblocking
Ġconfigured
Ġinitially
Ġpresence
Ġmovies
ĠTechnologies
Ġactively
Secure
Ġpriority
Ġelsewhere
ĠdziaÅĤ
Software
ãĥ³ãĥĢ
Ã¼rk
Ġschedule
Ġadvocates
æĮģ
Ġstructures
ĠContributor
ĠCLI
ĠIdentity
Ġranked
ĠDavid
Ġbehaviour
Ġabsolutely
Ġextremely
grained
ĠØ§ÙĦØ¨Ø±ÙħØ¬Ø©
ansomware
)[
06
74
Block
Categories
OK
Out
Off
Rest
Version
aper
ej
lik
nÄħ
uje
uitive
Æ¡
ä¹
åĳ
éĽ
ë¶
Ġq
Ġing
Ģìŀĳ
Ġakt
rer
Ġwireless
Ġoct
Ġdark
leting
Ġtowards
aria
ota
imm
ĠAP
ĠCount
Ġorient
acock
ĠMart
eces
à¸ĵ
illance
ĠRet
ĠRob
ĠEconom
Ġcontr
ãĤµ
enda
ãĥī
Ð¸Ðµ
ĠNort
ĠNov
Ġappe
Ġintent
indi
phab
Ġprev
Ġ35
Ġ365
erman
Ð¼Ðµ
×ķ×Ĳ
Ġgenerations
ĠChrist
cych
Ġparallel
Ġcool
Ġà¦Ń
Ġsmooth
Ø¨Ø§ÙĨ
Ġ09
ĠContents
Ġfunctional
ìĿ¸
zeÅĦ
Ø¬Ùĩ
Ġkeeps
Ð¾Ð²Ð°Ð½
Ġcommunications
Ġreasoning
ĠáĢķ
Ġ90
Ã§e
Ġimprovement
ronic
ãģªãģĦ
256
à®¿
Ġconcerned
Ġinformed
Ġbreach
Ġgraphs
Ġgraphics
ĠzespoÅĤu
Ġà¬¸
nowled
Ġexplains
ìłģ
General
Ġachie
Ġdigit
Ġforeign
Ġclarity
Ġuniversities
ĠDevOps
Ġcoordin
Ġimpressive
Ġprecise
Ġoversight
Æ°á»£
Ġconflict
ĠIssue
Ġfotograf
Ġinterpreter
Ban
Ret
Spro
Table
Tok
UI
bul
copyright
css
jud
lied
mes
rum
zone
¬¸
Ä«
ÎŃ
Ú¯
åĵ
ìķ
ĠÏĥ
Ľi
Ġapart
inf
atur
itan
itative
Ġcited
Ġpal
eda
Ġmand
aro
entral
ils
oti
Ġforth
ĠCR
unto
ĠISP
ady
ĠWell
Ġconsequ
ulo
Ġstru
Ġstick
ĠMake
rip
ãģ©
mente
anga
anger
ĠFull
ĠLead
ĠLanguages
ĠRight
iva
ĠEss
ante
Ġseason
áĢ°
à¦¦
à¦¹
à¦ĩ
apat
ellen
ĠØ®
Ġmanager
Ġ32
×ķ×Ĵ
Ġcolon
Ġassets
Ġpersonality
anych
ÑĸÐ²
ÑĸÐºÑĸ
Ġlinking
Ġinvited
azione
ĠThank
Ġrunners
Ġimplementing
unday
ĠâĹ
Ġderived
Ġencryption
Ġconstitut
ãĥ³ãĤ¹
Examples
ĠÑĤÐ°
Ġflat
ĠSelect
Ġlargely
Ġconnecting
äºĮ
Ġ×ĳ×Ĳ
ĠÐ¿ÑĢÐ¾
à¥ĩà¤Ĥ
ĠØ£ÙĪ
Ġfailed
ĠBuilding
ĠParis
Ġaccuracy
ĠStandards
Ġsztuc
ĠSettings
Ġpushed
Ġempower
Ġklient
Ġdamage
ĠOrganization
SHA
à¸·à¹Ī
ãĤ³ãĥ³ãĥ
Ġsituations
Parameters
åĮĸ
ĠGreek
Ġunderstood
Document
Iss
Symbol
Windows
found
new
oose
uro
Ġich
ľà¦¨
Ġcru
Ġfelt
Ġbass
Ġlos
Ġthumb
Ġhair
Ġhaven
ims
step
ĠTik
Ġbeat
adio
ikÃ³w
open
Ġdei
Ġdeath
ĠDAG
ĠFac
ĠHome
ĠREST
upy
áĢ«
cles
Ġarrang
ÑĤÑĥ
ĠJSON
apers
Ġcommands
ĠKn
ĠKar
×ķ×ķ
Ġmanagers
ÙĪØ³
âĢĿ)
Ġseeing
ĠReal
Ġcolors
ÅĤa
Ġexposed
Ġfeatured
Ġdiscrim
ashington
Ġretrie
Ġtermin
ussion
Ġhadoop
Ð°Ð½Ð½Ñı
Ġreviewing
Common
Ġà°¸
Ġensures
ĠÐ´Ð¾
ĠkaÅ¼
Ġcollections
Ġphotography
æľĢ
Ġpreserv
Ġwikitext
Ġprotecting
Ġmaintained
Ġmaintaining
Ġincreased
Ġviolate
ãģĵãĤĮ
à¸§à¸Ķà¸«à¸¡
Ġstrongly
ICE
AME
Ġpodcast
ĠJustice
Ġopinions
month
ê²½
Ġbegins
Ġmedium
ĠFacebook
Ġsearches
ÙĬÙĥÙĬ
íĤ¤ë
ĠâĹı
62
CD
Drive
Ge
LinkedIn
Mult
Pop
SV
aan
bi
fill
from
lor
link
naj
rv
uÉ£
ÒĽ
çķ
è©
Ġtin
Ġau
het
orrow
Ġsqu
Ġcel
Ġpam
Ġpure
ische
eds
Ġanti
Ġbus
Ġbright
Ġmog
Ġmali
Ġyoung
ĠAction
ĠAlex
ĠCI
ĠSumm
ston
ĠTable
idad
ĠWoo
Ġconver
access
ĠMobile
ãģĬ
ĠProm
ĠGravatar
ĠBahasa
ĠFurther
Ġruby
Ġransomware
Ġunn
ivo
Ġsuitable
Ð¸ÑĪ
ĠNations
Ġupcoming
ÑĥÐ·
ĠØ¢
ÙĪØ¹
Ġacts
Ġactors
ÅĤy
Ġmoder
Ġnumerous
Ġgradu
ĠÙħØŃ
Ġsignal
Ġ03
tainment
Ġfewer
ĠIndia
Ġsurpr
Ġintegrate
ĠAgent
ĠBefore
Config
Although
ĠRecords
×ĵ×Ļ×Ķ
Ġinteraction
Ò¯ÑĢ
Ġdealing
ĠBrand
Index
ĠDirector
Ġobligation
Ġdrives
ãģ£ãģ¦
Ġincorporate
ĠFranc
ickson
Ġignore
Ġmerged
Ġcomparison
Ġmechanisms
ĠItaly
ĠPeacock
Ġpermanently
folio
ĠExtension
ĠBasic
ĠViá»ĩt
Ġshipping
ĠAzure
ĠDagbani
Ġmagazine
87
:[
Brow
Counsel
DPR
Er
LL
LX
Mat
Pay
Tim
bas
mar
nam
oÅĽci
png
rÃ³
tons
uy
zys
Ð£
åİ
ĠÐ°Ð»
Ġauch
rech
Ġsab
Ġpoor
ioni
Ġinclusive
ctuation
chi
rial
essage
isting
ĠDrive
Ġnotices
forward
Ġunse
ĠLiter
ãĥ¡
lication
acks
Ð½Ðµ
apa
Ġplenty
ÑģÑĭ
à°ļ
ĠVikip
cludes
aston
ĠKey
Ġdesp
Ġartistic
ÙĨØ¯
Ġsett
Ġ1960
á»±
Ġbeta
Ġupper
ĠSpruceID
Ġ500
space
Ġeditions
×¨×Ĳ
à¨Ĥ
2024
Ã¤t
Ġcustomizable
Ġpursu
ilipp
ĠContract
Ġdiscussing
ĠTrademark
Ġgoods
Ġraw
Ġargued
Ġgovernments
ĠIndian
Ġdati
Ġemployment
ĠLicenses
Ġslots
ĠQuiet
Ġputting
Ġpresented
Ġinteractions
ĠDatabase
ĠDesktop
åŃ¦
à¸¥à¸°
ĠDeveloper
Ġwatching
áīµ
ĠðŁĶ
Ġcapture
rzeb
Ġmacros
Ġlaptops
Ġcontinuous
æıĲ
Ġsomewhat
Ġinteroperability
Ġbrackets
Ġreferenced
èĳĹä½ľ
ĠÐ¿Ð¾ÐºÐ¾Ð»
!)
)=
Brian
Click
Pat
Pol
SD
fa
iem
jal
jar
ker
making
ois
support
ßĮ
âµ
ë©
ëĿ¼
ĵuv
erd
atial
ori
Ġswit
Ġci
Ġwra
Ġwym
Ġfetch
Ġdari
Ġmuseum
Ġling
Ġliving
Ġeye
ilig
ilip
ĠAD
ĠSites
standing
ĠII
ados
ĠMit
essor
oded
ubb
Ġkun
Ġkpa
ĠkÃ¶n
aken
usted
áĢĺ
izon
ãĥ¥
lichen
allenge
ÑĤÑĭ
this
bert
graduate
Ġclosing
Ġmanufact
ĠProv
Ġconsists
neg
Ġaccessing
Ġattor
Ġoverl
Ġassert
Ġexport
Ġinterfaces
anya
axy
ashion
Ġgrad
Ġgrants
Ġlogged
ĠConference
à¸²à¸Ļ
ync
Ġapplying
ĠCollection
Ġcollaborators
tica
Ġconsiderations
ooting
ĠQuestions
åħ¥
Ġsending
while
Ġdetermined
rolled
Ġremoval
holders
Ġbarri
generated
Ġdialect
ìĦł
Ġevaluation
Ġmeaningful
ìĹĲìĦľ
Ã¬nh
ðĲĮ°
Ġexciting
Ġjudgment
Ġbandwidth
Ġpomoc
Ġafford
Ġvolunteers
Ø¯ÙĬØ§
Ġdirection
Ġincreasingly
ĠTools
ĠproduktÃ³w
DateTimeFormat
authorized
Ġsubcategories
è¯Ńè¨Ģ
Ġhundreds
ãĤ¦ãĤ¶
á»¯ng
Ġappointed
Ġhierarch
ĠPersian
Ġsá»Ń
aught
Ġcitizens
Ġdisplays
åĥı
astonbury
EE
Just
Met
Produ
Rules
care
coin
ei
rine
tion
zym
¤×ĵ×Ļ×Ķ
Î®
ÚĨ
å·
æ±
ĠÙ¾
łáĥ
Ġtwe
inar
hel
rets
atie
Ġsr
Ġsel
Ġsys
ena
enkins
itors
Ġwied
Ġdá»¥
Ġbag
Ġbáº¡n
icz
Ġmor
Ġhouse
ĠAM
ĠAce
ĠSale
ĠSamsung
ĠIRC
Ġproof
Ġproyek
Ġconsole
ifest
ĠMa
Ġalter
oser
Ġdeemed
odies
ubs
Ġexceed
ĠDownload
pliance
à¸ł
ĠHickson
arta
ansk
Ġrequiring
Ġzas
×Ļ×ŀ
Ġsched
Ġdesc
Ġautor
techn
Ð´Ð¸
Ġpron
Ġbuilder
Ġnovel
Ð²Ð¸
Ġtransactions
ÅĤyw
Ġprocessor
weight
Ġinvolves
proof
Ġcoffee
ĠDeep
Step
Ġdonation
Ġautomate
Ġposting
Ġauthorization
Ġaddressed
ĠShopping
à¸²à¸ģ
Ġrealiz
Ġapproaches
ãģĦãģ¦
ĠPlan
Ġhandled
Ġrepresenting
viously
ĠØ¨Ø±
auf
Ġportable
Develop
Ġnormative
Ġequip
Ġwikil
Ġloaded
ĠÐ°Ð²
ĠIsrael
Ġmaintains
Ġsmartw
ĠÙģÙĦÙħ
Ġholders
Ġassembler
ĠEntertainment
ĠÚ©ÛĴ
ãģķãĤĮãģ¾ãģĻ
ãĥ©ãĤ¦ãĤ¶
ĠArtikel
Ġlossless
Ġpoly
ìŀĲ
Ġsolid
Ġaims
International
Ġdestination
ĠBarrett
Ġrobot
Õ¥ÖĢ
æķĻ
Ġagreed
Ġemerging
arshall
Ġrepeated
Ġexplanation
ĠTikTok
500
77
91
Bl
Done
Depend
HP
Melayu
ST
VD
fund
gs
git
lib
mission
Äĳ
Ò»
Ù¹
æĥ
æĻ
inu
rees
arn
Ġnad
Ġnomin
Ġnested
uses
chain
ĠCor
ĠSH
ĠTPAC
iduci
olen
cej
ceived
adian
Ġ($
ĠWashington
ĠusÅĤug
emu
osite
ĠPublishing
mented
ĠDrop
ĠDuring
Ġnotable
ĠFuture
Ġkal
Ġrise
ĠHol
ĠHebrew
Ġath
à¤·
à¤ĩ
Ġspos
aren
iba
Ġintelligent
ÑĤÐ°ÑĢ
ÑĤÐµÑĢ
ĠJet
Ġneither
assment
Ġnewer
....
ression
×ķ×¦
ÑĭÑĢ
ÑĭÐ¼
Ġprotects
ØªØ±
Ð³Ð°Ð½
ĠSpain
ĠSpeed
Ġblue
ocker
Ġknowing
Ġreader
Ġtexts
ĠThose
Ġmainly
Ġ01
Ġcontainer
Ãłi
uka
Ġpassion
Ġclassification
Ġrefresh
Ġsurvey
ognition
Ġbrands
Ġreasonably
Ġcomplicated
ĠáĢ¡
Ġsubscribe
Share
ridge
Ġexecuted
Ġcombined
Ġremoving
ĠÄĳÆ°á»£
Ġwonder
amente
Ġ1990
Ġadaptation
Ġinstitution
Ġinstitutional
å¤ļ
ĠEmp
Ġcalendar
ĠMichael
Ġpiibu
Ġattempts
Ġaffiliate
ĠArchitecture
ĠìłĢìŀĳ
ìľ¼
Ġdisputes
Ġflexibility
Organ
Ġfaith
Ġrobust
Ġconvenient
Ġsexual
×Ļ×§×Ļ×¤×ĵ×Ļ×Ķ
Ġtrigg
é«Ķ
orrect
Ġanchor
ĠExperience
ĠkÃ¶nnen
ĠÄĳÆ°á»£c
'.
94
Big
Cy
Event
Fr
Global
Last
Oppose
PE
Users
XM
dis
fers
fÃ¼
focus
long
oly
will
¶Į
Å©
Ġud
Ġsun
Ġsung
itÃ©
ĠcÃ¡c
ĠpÃ¥
ede
ĠfÃ¶r
Ġanc
Ġbáº£n
Ġinqu
Ġinbox
Ġinclusion
Ġlanding
ilm
iler
Ġhom
ĠCand
ĠSl
ĠSER
owi
ĠTa
agraph
Ġusual
abil
ifth
ĠBo
Ġring
Ġunlimited
iller
ĠHy
ĠResp
ĠNam
ĠWikisource
Ġreputation
ĠJul
ĠStory
Ġscan
Ġoutreach
Ġedited
Ġartif
ĠRelease
ianu
Ġfiled
Ġaccessed
Äħd
ĠuÅ¼
Ġà¤µ
Ġparadig
Ġlawy
Ġdiscret
Ġconfusing
Ġidentifiers
Ã¤nd
Ġnonprofit
ĠXR
ĠAnda
Ãłn
Ġfrag
Ġtrackers
áĢºáĢ¸
Ġrepresentative
ttp
Ġfreel
Ġcollaborative
Ġlayers
Ġappearance
ecutive
Notes
Ø®Øµ
áİ©
à©ĭ
Locales
Ġofficially
åĲĮ
Ò¯Ð½
ĠMarketing
Ġbroken
Improve
ĠAutomat
Ġwyd
Ġsidebar
ãģĤãĤĬãģ¾ãģĻ
Ġinnovative
Generated
rypted
ĠAvailability
Ġflagship
Ġdebug
Ġmedical
Ġpositions
ĠCheckpoint
Ø§Ø¨Ø¹
ĠdostÄĻp
Ġanalyze
Î·Î½
Ġagreements
ĠÑģÑĤÐ°ÑĤ
Ġpublisher
ĠTamale
????????
Õ¸ÖĤ
è§£
Ġbelongs
ç§ĳ
Ġstrengthen
ĠOntology
Ġsubsequent
Ø±Ø¨ÙĬØ©
Ġreligious
ĠyaÉ£ili
æĢ§
Ġsurveillance
Crunch
iduciary
Ġdiscretion
Currently
Feature
MB
Point
dn
iat
iest
kits
lined
lists
main
oÅ¼
vol
well
xml
³´
Å«
ÐĿ
Ñļ
Ġãģ«
inations
onent
rele
reland
atural
Ġsym
Ġpending
Ġwie
Ġbirth
icating
asil
Ġnation
Ġlahi
Ġlenses
ersive
uta
ĠSP
ĠSales
ĠIran
Ġgadgets
ĠWMF
Ġvict
iful
ĠMode
Ġalumni
Ġru
Ġrandom
ĠRules
ĠElect
ÐµÑħ
Ġabuse
Ġenfor
Ġenerg
Ġintuitive
peranto
ÙĦØ§
Ġneutral
Ġplain
Ġnewly
ÑĥÐ¼
ÑĥÐ±
ternatively
lla
arking
ÙĪØ¯
Ġ300
rivate
rowad
Ġphase
ĠReact
ØªÙħ
server
oughly
Ġrot
Ġamended
Ġamazing
project
×¨×Ľ
urred
Ġmarkets
Ġconfident
Ġconfusion
material
Ġlooked
Ġera
ĠÙħÛĮÚº
exp
Ġbrowse
Ġsignature
Ġreviewer
Ð°ÑĢÑĥÑģ
Ġ×Ķ×Ĵ
Ġlogical
ĠÐ¼Ð°
Ġconcert
Ġsurface
ĠWhy
Ġhappening
ĠReporter
à¸Ńà¸Ļ
Ġlots
Ġclaimed
Ġremaining
Ġsummer
Ġintroduction
Ġsuccessfully
à¹Ģà¸Ľ
ĠDescription
ANT
Ġ1980
ĠImage
Adding
Ġsubstitut
ìĿ´ìĦł
Ġtemporary
Tech
install
Î»Î»
ÑģÑĮÐºÐ°
éĢļ
ãģ£ãģŁ
olski
ĠPortug
ĠAustralian
Display
à¦¼à¦¾
Ġignored
ĠSignature
à¹ĥà¸Ļ
ìĭľ
Ġhybrid
ĠÑĢÐ°Ð·
ĠEndpoint
Ġdashboard
owiedz
Ġdoctrine
ãĥ©ãĤ¤ãĤ»
íķľêµŃìĸ´
Ġcruc
Ġdespite
ĠðŁĶ¥
ìĿ´ìĦłìĬ¤
72
73
?)
Ac
Col
Lab
Link
PM
Personal
Segment
domain
£áĥ
Ïī
×£
æĭ
çĤ
èŃ
Ġ00
İãĥ¼ãĥī
Ķáĥ
atable
Ġsan
Ġsud
Ġsenior
enen
Ġce
Ġcable
ĠcaÅĤ
Ġfashion
usk
omb
Ġly
Ġliv
ĠCPU
utter
unctions
ĠSa
ĠScript
owane
adium
ĠWal
urations
aca
accept
ĠMass
ĠBur
aked
Ġunified
illage
ĠLarge
ĠHuman
ĠUt
Ġsuk
Ġchamp
Ð¾Ð¹
ÑģÐ°
Ġbuttons
Ġquote
×ķ×Ļ×ķ×ª
tex
Ð´Ð¼
ository
ĠRele
Ġmodes
à¬ĩ
Ġassigned
Ġgenerative
á»Ľi
Ġà¤Ń
Ġprivile
Ġterminal
Ġguess
ĠDef
Ġoperator
Ġidentical
Ø¹Ø¯
ĠExamples
Ġrestaur
Ġ×Ķ×ª
ĠniÅĭ
ĠÐºÑĬ
ÃŃcul
ĠëĿ¼
Ġbasically
íķ´
Ġplayback
Ġdescribing
ĠWorks
ĠMacint
Ġideal
CAG
Ġspeedtest
value
åĪ¶
Ø´Ø±
ĠStudent
Ġfunds
Ġconsistently
Ġfirmy
ÐµÐ»Ð°ÑĢÑĥÑģ
ĠØ§ÙĦØ¥
åľ°
Ġclosely
Ġcompetition
Ġ×Ľ×ľ
Ġtransferred
compatible
Ġjourney
Ġtwor
Query
etherlands
ãĥ¼ãĤ¸
Comfort
Meet
Ġà¦ķà¦°
ĠìŀĪìĬµëĭĪëĭ¤
Ġmilestones
Ø³ØªØ®Ø¯Ø§Ùħ
ĠLatin
ĠTelegram
ancelling
ÛĮÚ©ÛĮ
ĠCommunications
Ġalbum
ĠGalaxy
ÑĢÐ°ÑĹÐ½
phabet
ĵuvre
ĠëĿ¼ìĿ´ìĦłìĬ¤
82
Ant
CII
El
Em
IME
Min
Well
cons
hand
note
pub
run
tre
wec
xx
Ò³
èĤ
é¢
ëıĦ
ĠÃ¡
Ġtips
onn
Ġsy
esome
item
Ġpu
Ġpag
Ġdar
ĠbÉĶ
Ġmel
Ġmapping
rod
Ġlain
Ġease
ilies
ĠyÉĽ
eties
ĠAV
cho
utzer
ĠSen
abb
Ġva
iko
ulpt
acja
Ġdepth
iak
istance
ĠGreen
ĠÐ¤
Ġkod
Ġkids
Ġran
Ġunits
ĠEast
ĠEsp
anted
Ġchair
Ġchapter
Ġspeech
ĠNa
ibli
claim
ÑĤÐµ
Ġwilling
ffer
×Ļ×ĵ
aves
ÙħÙĥÙĨ
ÙĬØ¯
Ġ1970
lesh
Ġgenerates
Ġwouldn
ĠChair
Ġpersonally
Ġdesignated
Ġopening
Ġoperational
Ġidentifiable
Stat
iences
Ġserial
Ð°Ð½Ð°
liers
there
Ġwriter
Ġ04
ãģ«ãģª
aaS
ĠáĪ
ĠConvention
ĠAnother
ĠIndust
ï¿½ï¿½ï¿½ï¿½ï¿½ï¿½
ĠØ¨Ø§ÙĦ
Ġarchived
Ġintegrations
Ġportal
ĠÎº
Ġpaying
ãģķãģĦ
Ġdownloaded
ĠMarkdown
ĠMalays
niejs
Important
ĠzespoÅĤÃ³w
Å¡t
Ġparents
Ġdialects
ĠParser
Ġassistant
Ġholid
front
Amazon
áº¡i
Ġawareness
Ġwidth
Relative
Ġcauses
à¸«à¸¡à¸§à¸Ķà¸«à¸¡
Ġdrawing
Ã©nÃ©
Ġexpanded
Ġprohibited
ĠBitbucket
ĠOpera
Ġrespectively
Collator
Ġglobally
ãĥĨãĤ£
Additional
ç¨ĭ
Ġrenderer
ç¾©
Ġphilosoph
Ġdá»¥ng
Ag
Fine
Names
Sk
Sw
TP
UN
WP
daa
king
len
oa
pet
©ëĭĪëĭ¤
ÄĹ
ÆĻ
ç¬
ĠÏĢ
ĥģ
ļãĥĩãĤ£ãĤ¢
Ġsal
Ġsizes
Ġtheft
enced
itles
Ġczy
Ġcatalog
Ġpos
Ġpowered
Ġwp
Ġot
Ġbold
ĠClass
ĠSite
start
ĠTer
Ġgreen
Ġconv
elij
Ġstars
ĠMap
ĠMCP
ãģ¹
ista
istant
Ġnoticed
ĠBud
ĠBright
ĠBoth
ĠFe
ĠFont
akat
ÑĢÐ¿
Ġhasn
Ġcomma
Ġperhaps
aws
ÙħÙĨ
ÑĥÑİ
llo
ften
ÙĨÙī
Ġdefining
Ġactor
Ġthank
à¬ª
Ġprotocol
ajo
Ġpeers
Ġà¤ľ
Ġblank
à¨¿
2025
Ġretail
ĠÑĨ
Ġfinds
Ġà¦¹
Ġpermit
Ġcharging
Ġdepart
Ġlogin
Ġinsurance
ĠConformance
à½¦
ĠCreator
aiver
ãģĦãģĨ
Adv
Ġtagged
ĠÙĪÙĬÙĥÙĬ
íķł
Ġrefund
Ġrepresentations
Ġfactor
ependent
aniu
áĢ¬áĢ¸
ĠReports
ÐµÐ´Ð¾Ð½
ä»ĸ
ĠÄį
Ġhosts
ĠBeats
Ġpotrzeb
Ġpreserve
Ġstreams
Ġfinish
ĠÐ¾Ð±
Ġputs
Ġviolations
atski
Ġcybersecurity
Ġspecialized
ÓĻÑĢ
ĠRegion
Ġà¨µ
ĠAfr
×¤×¨
è¨Ī
Ġsuperv
ĠMeet
ĠCoCounsel
ĠÐ³Ð¾Ð´
ĠIDE
Ġáİ¤
Managing
áģĭ
Ø§Ø¡
ĠAvailable
Ġindependently
ĠAccounting
piec
éĢł
desc
aciÃ³
ĠSwift
Ġplugin
Update
åı¯èĥ½
æĮĩ
ĠEdge
ä¾Ľ
BLE
Ġcontrolled
Ġefficiently
Working
ĠJapanese
ĠProperty
itchie
ĠTopics
ĠGlastonbury
Ġfacilitate
Ġczas
ë¦¬
ĠALGOL
ãĤ¦ãĤ£ãĤŃãĥļãĥĩãĤ£ãĤ¢
Ġzgod
ĠCorporation
ãĤ³ãĥ³ãĥĨ
ĠQuietComfort
Ġathlet
ĠSERV
ãĥ©ãĤ¤ãĤ»ãĥ³ãĤ¹
ÑĢÐ°ÑĹÐ½ÑģÑĮÐºÐ°
300
Bas
DNS
LA
SG
Ser
UT
Und
bes
click
dat
even
hour
iáº¿ng
lights
nym
rt
zo
Ìģ
å¦
çµ
èµ
ê¶Į
rete
Ġsou
Ġsich
itu
itude
Ġcrow
Ġfost
Ġdating
Ġdied
Ġdoll
leh
Ġmn
arcz
ctor
Ġyes
igation
ĠCass
utch
Ġonboard
Ġprove
urt
ifferent
Ġdeleg
Ġexempt
ĠGDPR
ĠFair
Ġcanonical
Ġcancel
Ġunf
Ġunauthorized
udio
ĠEvent
Ġseg
ãĥĦãĥªãĥ¼
ommod
Ġapparent
Ġarising
Ġcomprom
Ġteac
ĠJour
Ġaccommod
Ġresident
Ġdisk
ĠStan
aste
×Ļ×¢
Ġfee
orders
obs
ÙĪÙĤ
×ķ×¢
Ø±Ú©
Ġcollege
Ġformed
à¬¤
à¬¬
acyj
á»ĭ
Ġacyc
ractions
embly
Ġà¤¬
Ġroy
lets
Review
ocket
uga
Ġlicensor
ĠÑŀ
Ġdecade
Ġstandardized
Ġspeaking
Ġadvis
Ġreviewers
Ġ02
zej
ĠTrade
apters
Ġrace
uku
ÙĥÙĦ
Ġfocusing
ÑģÑĤÐ²
áıĤ
ija
ijn
Ġsurv
ÑĬÐ»
Ġtaxes
ĠPhilipp
ĠÐ¾Ð´
ĠAboriginal
Ġspeeds
Ġ×ĳ×ŀ×
åħ±
GLs
witter
ĠMarkup
ĠOneDrive
ĠRegistry
Ġconsistency
ECT
trans
Phot
ãģķãĤĮãĤĭ
Ġrecorded
Ġliterature
Ġpieces
Autom
Ġmoments
åĬł
Ġoutputs
ĠMembership
Ġaimed
Ġsynchron
ãģıãģł
á»Ļt
æķ°
ĠCustomer
ĠRelated
ĠUniversal
iveness
Ġdeclaration
Ġalleged
Ġjoined
winning
ÑĥÐ²Ð°Ð½Ð½Ñı
ĠØ§ÙĦØ±Ø§Ø¨Ø¹
Ġprincipal
Ġbytes
Incubator
Ġdeliberately
ĠFrancisco
ĠCandidate
Ġenergy
Ġcrucial
Ġacyclic
71
92
Business
Fran
Mac
OD
Pad
World
blem
cceed
ias
lam
medi
oT
pages
purpose
rich
vo
yan
your
Ã¯
âĸ
åĭ
ëĤĺ
Ġà®
Ġting
onents
erge
enabled
Ġpool
Ġphishing
Ġannot
Ġbill
ompl
Ġlia
Ġlies
vere
Ġforget
ĠAB
ĠCou
ĠSEO
owers
ador
Ġgym
Ġgithub
eless
ulations
Ġstake
osa
ĠPages
ĠDar
ĠGames
ĠÐ¹
à¸ĸ
Ġrates
ĠrÃ³
ĠRender
formed
Ġsui
Ġsucceed
Ġtruth
acter
Ġdisaster
ĠVP
ĠVim
acht
ĠStore
Ġclimate
ruption
Ġproven
Ġautonom
Ġprep
Ġphones
×ķ×Ľ
Ġdefend
Ġdefense
ĠUnix
Ġpublicity
Ġindicated
Ġobserv
à¬®
ĠØ§ÙĦÙĤ
Ġverifiable
Ġà¤²
Ġà¤Ĩ
Ġparagraph
Ġincorrect
Ġreads
ĠYARN
ungs
appropriate
matic
entially
Ġexploring
Ġaudi
ĠÑģÐµ
Ġlocalization
ãģ¾ãģĽ
insi
à½ĳ
Ġapprove
ukan
Ġchecked
áıĹ
Ġsheet
Spe
Thanks
Ġkeyword
ĠPrice
Ġparticipating
Ġcommitment
Ġresponsive
ĠÎ±
Ġconsideration
Ġpayments
ĠWithout
Connect
Ġprotections
×ł×Ķ
Ġfamilies
United
Ġbreaking
white
ĠParty
ĠGeneration
Ġstronger
Ġregistry
å¤ĸ
ĠBuilt
Ð°ÐºÐµÐ´Ð¾Ð½
ĠBrasil
Ġscheme
Ġeiner
Ġconstructor
Ġdelivering
Ġadvertis
áº¿t
Ġimmediate
ãģĿãĤĮ
Ġdegrees
Ġmacro
Ġincorporated
åĽ½
à¹ģà¸¥à¸°
ä¾ĭ
Ġordered
Accessibility
Ġendpoints
æīĢ
à¦°à¦ľà¦¨
Ġmilestone
æ¨©
ç¤º
Ġinteligencji
ĠKorea
Ġconsumers
Ġzapew
Ġwurde
called
Ġfolders
Ġvacuum
Ã¼rkÃ§e
äºĮæ¬¡
Ġsztucznej
ĠMacintosh
ãģıãģłãģķãģĦ
81
Are
Group
IV
Keep
Make
PG
Post
Power
Polit
Run
Sony
bot
draw
hyd
ju
looking
table
Â°
ÛĶ
è¾
ëĵ
ï¸
Ġiz
Ġ000
real
repre
atge
atches
Ġsont
Ġsynt
Ġcache
anima
Ġwel
Ġdiversity
Ġbilling
Ġmir
arc
Ġnach
Ġnodes
Ġhide
ĠCong
ĠCVE
uten
ĠTab
ĠIM
ague
aded
Ġga
Ġpromin
urd
iking
uls
opi
ĠPress
Ġunlock
ĠLayout
ĠRobert
ãĥģ
Ð¸Ð¿
lice
ĠNetherlands
Ġworkload
ĠIng
ounds
ĠStep
Ġscoping
ĠØµ
Ġedges
Ġfiling
à¥Ĥ
Ð³Ðµ
Ġverarbeit
Ġtoolkits
Ġentitled
ĠSpring
Ġtechnique
Ġdesigners
Ġamend
Ġdetected
êł¦
êłĩ
Ġcalling
ãĢĮ
2016
ãĥ¼ãĥĪ
Storage
Ġgraduate
Ġrunner
Ġsignals
Ġvariant
cribunto
Ġelimin
ÑĩÐ¸
ĠCreate
ÉĶn
ĠNotice
Ġpasswords
Ġà°ª
Ġflo
clusions
ĠEnviron
Ð¾Ð»ÑĮ
äºĭ
Ġstreamline
ĠÐ¸Ð·
Ġsummaries
Ġintroduce
built
Ġsupposed
Ġcombine
Getting
Ġdisclaim
Ġindustries
Ġstores
Android
Ġliterally
åĬĽ
News
ucker
Ġdrivers
atalÃł
Ġflows
Ġprocedural
ĠTechCrunch
ĠInternationalization
Ġfootball
ç®Ĺ
Ġnhá»¯ng
ĠGeorge
Ġkitchen
Ġpermanent
Ġtrigger
Ġrarely
Ġescal
ĠDeutschland
Extension
Ġguarantee
OWL
ç¶Ń
ĠValley
Ġsplit
Ġinherit
ĠSchema
Ġperspective
ĠzarzÄħdzania
zbek
Ġscholars
ĠArbitration
bullying
ĠPromo
æıĲä¾Ľ
Ġequipment
ç¬¬
ãģ¾ãģĽãĤĵ
hydr
reprene
BA
Di
Det
Element
Following
Micro
Templates
field
iÃ³n
lan
ooms
tml
ÐĪ
Ø¥
êĻ
ĠâĢĻ
Ĥ¨
ŀß
Ġtun
heets
eni
enu
enie
anz
Ġdass
Ġdomin
Ġdriver
left
Ġmeng
Ġmilit
Ġincl
Ġthá»ĥ
ĠCal
ĠCovered
uting
star
ĠIreland
iders
Ġ([
Ġconformance
eme
Ġvandal
Ġstands
ĠMond
ĠMarshall
ĠGold
Ġwhit
ĠBootstrap
angk
Ġunw
ĠLi
ĠLink
artner
umat
Ġatau
ustration
à¤¼
ÐµÐ¿
allow
Ġtek
ĠJun
ebook
Ġquiet
ĠKern
Ġclosure
Ġnewsp
ÙħØ©
ruit
Ġlicence
Ġpreference
Ġpricing
Ġimply
ĠphÃ©p
Ã³j
×ķ×ĺ
×ķ×Ŀ
iana
Ġtransaction
Ġshouldn
Ġattach
Ġregions
Ġregistr
Ġorganize
Ġà¤¨
Form
oyal
prises
Ġterminate
ĠÐ¿Ð¾Ð´
Ġoperators
Stay
áº§
Ġvisited
Åĭsim
Ġcharter
Ġ×Ķ×¤
Ġniet
ĠâĨĴ
ĠÑģÐ¾
ÑħÑĮ
à½ĸ
ĠZone
Ġencounter
ĠAsia
ĠAsked
Ġë¬¸
Ġordering
Program
Ġdemands
150
manage
auteur
Ġnamespaces
check
ĠPrim
çĶ±
Ġopart
Ġsubscrib
Ġreplacing
Ġwikipedia
ARQL
ĠURI
áİµ
ãĤ¤ãĥ³
Ġviolates
åĲĦ
×ŀ×ł
Ġreducing
ĠAuthor
Ġlearned
ITY
ĠØ§ÙĪØ±
Ġoccasion
Ġsorted
Ġregistries
ìłķ
Ġvisitors
Ġcrim
Ġilleg
Ġtells
Ġsemantics
Ġregularly
Ġbuying
Ġpanorama
ĠArchive
Ġsavings
Ġeconomy
Ġcaused
Ġanimation
idioma
Ġincidental
ĠØ¥ÙĦÙī
Ġhighlighted
çĻ¾
Ġbanknotes
Ġcomplaints
åŃ¸æł¡
Ġpunctuation
Ġaccidentally
ĠAffiliates
ĠrozwiÄħz
Ġprogrammers
ĠAnalysis
Î¹ÎºÎ¬
Ġê²ĥ
ĠGraphQL
åĩº
Finally
ocratic
Ġincredibly
ĠGarden
Reduce
Ġtrouble
å¯¾
ĠìľĦíĤ¤ë
Ġappeared
ê²½ìłľ
à¸łà¸²à¸
Ġschedul
ĠÙģÙĦÙħØ¨Ø§ÙĨ
ìľ¼ë¡ľ
Ġfreelance
ÐµÐ»Ð°ÑĢÑĥÑģÐºÐ°Ñı
ĠCongress
ç¶ŃåŁº
03
Af
Basa
CE
Core
Fix
Gallery
Si
Tax
cies
got
gie
iw
lang
nik
ride
±ê³¼
Î´
àº
åķ
æ°
æħ
çŁ
ìĽ
Ĭ¸
ĮĮ
Ġtan
Ġtour
information
ono
ĠsÃ¨
Ġpin
Ġpet
Ġpode
Ġwired
isy
isons
Ġfight
Ġfoto
also
Ġdal
Ġbatch
Ġmá»Ļt
asz
Ġnomen
Ġyu
ĠAC
unting
stron
ĠTimes
added
Ġgh
Ġproces
acle
ĠPri
ighter
rawn
ĠrÃ©
Ġ1000
ĠHack
ĠRon
ĠRest
umeric
Ġseb
áĢĹ
Ġchief
ensing
ensions
ĠNor
Ġarriv
Ġjoint
ÙĦÙģ
ĠJawa
ĠJenkins
okÃ©
ÐºÐ¾
ĠVision
ĠKnowledge
Ġspecifying
Ġevolving
rivial
Ġfolks
Ġtransparent
ĠUnlike
Ġmodifications
Ġattached
arios
á»ĳ
Ġprocessors
êłŁ
ãĢį
ÛĮÙĨ
Ġguests
ĠDefin
ĠGood
ĠThomas
ãĥ¼ãĤ¯
Ġpurs
áº·
Ġgrand
áĥ£áĥ
Ġmultilingual
ĠExp
Ġ06
Ð°ÑĢÑĤ
ÅĽl
Ġâī¡
ĠÐºÐ¾Ð¼
ÑĩÐµ
Ð°Ð»Ð°
áĢºáĤı
ĠëĮĢ
ĠCreating
ãĤĴåı
Ġcourses
alties
Ġgoverned
ï¿½ï¿½ï¿½ï¿½ï¿½
ĠÐ´Ð»Ñı
Ð¾Ð²Ð°
Ġportability
Ġcapable
Change
Ġkeywords
ĠColor
ĠÎµ
Ġequity
Ð¸Ð½Ð°
ĠInstall
ĠPhone
Ġ×Ĳ×ķ
ĠProtocol
Î±Î¹
valu
Short
×ŀ×Ķ
attle
Ġcareful
Ġexecute
Ġreduces
Ġcombines
Ġpairs
×ĺ×¨
transl
Ġoccurs
Ġsample
jekt
Enter
ĠDevelopers
Ġsemantic
Ġessentially
Ġoptimize
Author
ascading
Ġbreaks
ĠDisney
Ġdriving
ĠARM
ĠSimilarly
ĠObjects
Ġreplacement
Ġharmon
æĿĲ
ĠÑĺÐµ
Ġenhancements
Ġanalyz
Ġscalable
Ġmixed
subst
ĠWestlaw
ĠBrowsers
Ġrecipient
Ġindicates
çĻº
Ġantivirus
Ġpowers
Ġhyper
written
ĠRussian
Ġturning
à½²à¼ĭ
ìľłê²½ìłľ
Ġresilience
ĠØ§ÙĦØ¬ÙĬÙĦ
Ġdistinguish
Ġsafeguard
ãĤ¹ãĤ¿ãĤ¤ãĥ«
Ġemphasis
Frequently
sprachige
ï¸ı
',
Gen
HE
ND
She
TPAC
ait
auc
cancelling
dro
ea
lie
mates
max
nings
system
wy
²ķ
Ò¡
Òµ
æ´
Ġ!
ĵ×Ļ×ł
ĺß
Ġale
oria
Ġsen
Ġsind
itÃł
ancy
Ġps
Ġpahi
Ġwider
Ġbin
icates
Ġnet
Ġhat
otal
ĠAward
ĠCrit
owa
ĠTw
abu
Ġvirus
Ġste
Ġstolen
ĠMor
oseph
ĠPHP
Ġdee
ĠGreat
Ġwhom
Ġnotification
ĠÐŃ
ĠBre
ĠFort
Ġkomp
ĠLim
ĠLess
ĠLoves
ĠHill
umes
ĠEpisode
áĢĸ
ĠUnd
eres
ensi
Ð½ÑĮ
Ġcomposition
Ġjedn
Ġneigh
Ġplacing
Ġplanned
gricult
Ġdisrupt
Ġqualif
Ġpartial
Ġsculpt
âĢĿ).
×ķ×ŀ
Ġinstant
ovo
Ġacting
Ġundergraduate
à¬Ĥ
Ġregional
ÄĻd
Ġinvolving
prov
urns
...)
Ġà¦ħ
ĠThrough
ĠCCPA
Ġsigns
they
Ġcomputed
ographs
Ġchoosing
ÑĨÐ¸Ñı
Ġencrypted
Ġpointed
iÄĻks
Ġleader
Ġestim
ĠÐ¼Ð¾Ð¶
Ġpassing
ĠActive
auer
Ġplayed
Ġplaylist
ĠÐ²Ð°
ĠáĢĲ
ĠWhite
ØŃØ¯
irty
Ġresponses
Ġletting
Ġseparately
ĠÐ¸Ð½
Ġmoves
Ġregards
ĠComputer
Ġfeeling
ĠCanadian
Ġfails
Ġimpacts
commerce
×Ľ×ķ×Ļ×ķ×ª
Ġ1988
ĠAutom
Ġsubmission
Ġturns
ãĥĥãĥĹ
Ġagentic
Ġuma
Ġalternatives
ĠBuild
ê³µ
ĠÐĴÐ¸ÐºÐ¸Ð¿ÐµÐ´Ð¸Ñı
Æ°Æ¡
ĠshÉĽÅĭa
OBOL
SPARQL
ĠProfile
Ġinitiatives
Ġsimplify
æĪĸ
Ġpromotional
Ġarbitrator
Ġorders
Ġscaling
Ġhonor
Protect
ĠAudio
straction
ĠBrowser
OVID
ĠDeclar
ãĥĳãĥ¼ãĤ¹
Simple
Ġultimately
à¸Ĥà¸Ńà¸ĩ
ĠCybersecurity
é«ĺ
License
æĽ¸
Ġbundle
Ġëĭ¤
ĠONESOURCE
Ġlandscape
æºĲ
Ġsniffing
ĠHaywood
Ġstrugg
æĥħ
ĠAutomattic
ĠJournal
Ġcriminal
Æ°Æ¡ng
96
Base
Files
Mar
Mail
Ne
Sam
Vis
ding
geb
ius
iries
ihi
kie
miss
oes
pact
rat
range
video
west
¡ãĤ¤ãĥ«
Ðŀ
å£
íĻ
Ġ99
Ġà¶
Ġä¸Ńæĸĩ
eri
erning
Ġsaving
Ġsoph
Ġpump
Ġwall
Ġfant
Ġfav
Ġdia
usable
Ġek
Ġhtml
Ġforum
Ġforks
chairs
ĠCD
utable
ĠSolutions
ĠTay
ĠWp
ayan
urring
ikuru
acent
Ġstar
ĠMun
ĠMem
ĠMight
iry
Ġexhib
ocols
raction
ourth
ĠÐĹ
ĠBad
ĠBox
ĠFeminism
Ġkick
Ġkann
oren
aku
Ġunable
ĠLock
ĠLearning
ĠRuby
ĠRFC
ĠRitchie
aint
ĠTheora
ãĤ¨
ĠUV
ĠUpload
ĠOak
ĠOffic
à¦£
à¦¶
à¦Ń
Ð¸Ð±
Ġshares
Ġspatial
ĠNode
ĠNob
Ġappropri
ĠjÄĻzy
ÙĦÙĥ
Ġaccompl
Ġresidence
Ġinformational
Ġdesired
awi
ÙħÙĬ
ontakt
Ġmanages
Ġprepare
Ġwhenever
Ġinstru
Ġinstantly
Ġexpired
Ġgeneris
ĠChange
Ġremind
Ġvertex
Ġà¤¦
ĠSpe
Ġpars
Ð·Ð°
Ġdiscovered
Ġextends
ÛĮÙĦ
à¨¤
hips
ĠThird
Ġdirector
Ð°Ð½Ñĭ
Ã¼n
ometer
Ã¨n
Ġperforming
ouns
Ġimported
ĠConfig
Ġselecting
Ã¢m
Ġraise
Ġconcerning
Propert
Ġsheets
ije
Ġbelief
Ġnetworking
ĠáĢĢ
autore
ĠRepresent
ARIA
ĠÙĦÙĦ
protected
åħ¬
×ĵ×Ļ
Ġ×ŀ×©
eedback
ĠAccessible
Ġsuppliers
Î¹Î±
ĠWikiped
Ġreferring
Ġ1989
Ġboxes
Ġwarning
Plus
ĠTVs
Ó©ÑĤ
Ð½ÑĭÒ£
ãĥ©ãĥ¼
ennis
ĠCoach
Ġbroader
ĠÐĴÑĸÐºÑĸ
çī©
ãĤĤãģ®
áº£nh
ĠOtherwise
clear
ĠDocumentation
Ġcards
Ġinfluenced
Ġinspired
Ġcyberbullying
íķĺëĬĶ
ĠÑĺÐµÐ·
Ġplugins
Ġdropped
Ġmerging
ĠInvest
Ġhonest
å®ļç¾©
Ġseeking
Ø°Ø§
ĠTurk
Ġroutine
Ġultimate
Ġsomewhere
Ġruling
Ġexperimental
ç¤¾
ĠStrategic
svg
Ġproxy
Ġstrictly
Ġvenue
Ġprioritize
Ð³Ð°ÑĢÑģÐºÐ¸
ĠwiÄĻcej
entralized
ĠFurthermore
Ġbarriers
tionary
å¦Ĥ
Ġmnemon
ÑĬÐ»Ð³Ð°ÑĢÑģÐºÐ¸
ĠCoup
Ġnomenatge
;[
Afr
CO
DB
Direct
Est
End
Fl
JSON
Pal
Source
after
bro
bolic
card
cases
doc
hu
iom
lage
mac
nolog
pan
tto
uine
ç¹
çº
è²
ëĶ
Ġice
Ġtam
hered
onk
onic
Ġsv
Ġsow
iture
Ġcitation
Ġpada
Ġwan
Ġfresh
Ġdow
Ġdos
Ġbare
icine
asan
Ġrein
Ġlan
ĠlÃŃ
Ġeyes
ĠhÃ¬nh
Ġisol
char
ĠCivil
stitution
agon
ĠgÃ©nÃ©
Ġpropose
ĠWir
ĠWireless
emporary
Ġvocabulary
Ġalphabet
ĠPet
estamp
ecko
ĠDen
ĠDVD
ĠGar
Ġnotation
Ġnotably
ĠÐĽ
ĠBal
angg
Ġ150
ipe
Ġcontest
ãĤª
à¤ĸ
Ġhearing
à¦ļ
Ð¾Ð¿
arer
grund
ĠVR
asts
ĠØ°
ountain
Ġevolve
Ø§ÙĦØ¹
Ø±ÙĬ
Ø±Ø©
Ġthemes
Ġindirect
Ġknew
Ġrequesting
ØªØ¨
Ġheadings
Ġentities
Ġtechnolog
espread
Ġ45
process
Ġincomp
Ġstatut
application
Ġguard
Ġà¦ī
Ġ75
à±Ĩ
ienable
Ġlongdesc
áĥĶáĥ
Ġsigning
109
Ã¨s
Ġpersonalized
ãģ«ãģ¯
Commit
Ġdelight
Ġ×Ķ×§
ormal
139
Ġflu
Ġskill
ĠEnc
179
oznaj
Ġphotographic
ĠCollect
irtual
à¸Ńà¸¡
Ġpromise
à°¿à°Ĥ
ARR
scale
Ġrestriction
urationFormat
Unit
Ġinvestors
Ġdownloads
]]:
Ġconsisting
Ġutility
Ê»i
Ġ1998
ãĥĥãĥģ
ĠÚ©Ø±
Ġwaiting
Ġreproductions
Ġtempor
Ġquotes
çī¹
ascade
brevi
Ġwspar
Ġszabl
Ġcompilation
owej
ĠktÃ³ry
Ġlibert
Ġfrontend
Ġselling
Ġuniversal
Ġpercentage
Ġdostarcz
Ġsufficiently
×ĳ×¨×Ļ×ª
ĠTurkey
Ġconvenience
Ġopposed
wikimedia
å¸¸
Ġaccelerate
ĠPractices
Usage
lenguat
Ġacknowledge
Ġacknowled
ĠzuÉ£u
ĠPhotos
Ġbeautiful
ĠArabic
à³į
iegel
æ§ĭéĢł
Ġscreenshot
ÛĨØ±Ú©
Ġorientation
ĠEconomic
ĠmogÄħ
Product
ĠuÅ¼yt
Segmenter
èĤ²
leshooting
uckerberg
ĮĮìĿ¼
ĠOfficer
Ġparsed
)?
78
Ben
CR
Dat
ESS
IVE
Mark
SL
SO
Sign
SQL
Writ
WIRED
brow
file
group
kin
nes
sec
vue
wend
what
wanda
zog
ªĴ
Ðĺ
Õ§
Ø¤
åªĴ
ê¸°
íĬ¸
Ġic
Ġtid
Ġtap
inen
ref
rey
aturing
Ġsin
enbe
Ġpon
Ġping
Ġpark
Ġpraw
Ġwers
isan
Ġdom
Ġdapat
Ġbits
Ġborders
ente
Ġrename
oming
Ġyo
image
amy
ĠCirc
uts
ĠSud
idge
adino
Ġgest
âĢŀ
Ġvo
iffer
ĠMSP
ĠPokÃ©
Ġdeutsch
iral
estival
iajÄħ
query
oca
ĠGPC
ĠBook
ĠFind
ivered
ĠLife
ĠEth
update
endo
ĠUk
ĠUm
Ġshar
Ġchm
ÙĦØ©
Ġreserve
×Ļ×¦
ĠKom
ÑĥÑĥ
ÑĥÑĪ
Ã©l
ressed
ĠartÃŃcul
ahan
oven
ĠiPad
Ġ1950
ØªÙĤ
Ġtechnological
êłģ
ranch
Ġincome
2020
Ġdecades
appings
Ġfilesystem
Ġruntime
Ø¹Ùħ
ĠExpress
ä¸İ
Ġdelivered
ÅĽli
Ġauthorities
Ġlogs
ĠÑģÐ¿
ĠTrack
Ġtracked
129
ynchron
Ġconstant
Ġconcrete
Ġà°ķ
Ġthoughts
ructured
159
Third
czeg
afish
ãģĮãģĤãĤĬãģ¾ãģĻ
Ġconfigurations
ticles
Ġsubset
æľĪ
vantage
Ð¾Ð½ÑĮ
Ġqueue
Conf
oÅĤÄħcz
Ġ×Ĳ×Ĺ
×ł×ĺ
ØµÙĪ
Ġê°
Alike
CAD
Ġfairly
Ġearned
Ġdenied
Ġcarefully
Ġdisclosed
ĠImages
ĠØ¹ÙĨ
ilitarian
ãĥªãĥ³
ĠÑĥÐº
ÑĺÐµ
ĠVerizon
ĠPolicies
à¥ĭà¤Ĥ
Ġáİł
Ġcameras
ĠSuper
ĠPaul
ãģ£ãģ¦ãģĦãģ¾ãģĻ
ãĤĪãĤĬ
Ġtwice
Ġnegoti
ãĥ¼ãĤµ
è¨Ģèªŀ
Ġgained
Ġpromoting
ĠAcadem
Ġethical
Õ¥Õ
ĠPatent
ÑĭÐ½Ð´Ð°
Ġincidentally
ãĥ¬ãĥ³ãĥĢ
Ġmassive
éĸĭ
Ġassumed
Ġcontroller
Ġsatisfaction
Ġpipeline
æĶ¿
agiar
Ġprakty
writing
Ġshaping
ĠStrategy
ĠOptim
ĠÛģÛĴ
Ġreserved
Ø¨ÙĬØ¯ÙĬØ§
lenga
holder
ĠSoundcore
ëĲĺ
ĠExperts
ĠdotyczÄħce
Ġpseudo
Ġtailored
Ġconventions
documentation
Ġterritory
ĠVikipedi
Ġpassionate
Ġartifacts
Ġrestaurant
Ġholidays
è¨Īç®Ĺ
pieczeÅĦ
çĻ¾ç§ĳ
Ġsophist
Aff
Che
During
Ev
Hand
IAL
LAN
Mag
Prz
Sing
TO
TENT
bay
band
bie
categor
dec
dates
eurs
find
fast
gement
him
iate
junction
lies
native
oÃ«
sm
sensitive
when
ycle
zÉĶÅĭ
°±ê³¼
·¸
ÐĶ
ÚŃ
ÛĪ
æĤ¨
çł
ìĺ
ìĤ¬
Ġul
ĠÑĸÐ½
Ġáº£nh
Ķìĸ´
Ġtel
Ġaid
oris
esi
Ġpit
Ġfinger
icl
icular
lematic
rot
Ġnima
Ġrevert
Ġreverse
Ġllenguat
Ġhalaman
amount
staw
string
ĠTom
Ġgalleries
abric
emp
emy
acj
ĠMer
ĠMIME
Ġalive
ĠPeter
Ġdeleting
iration
Ð°Ñħ
ocale
ĠDial
ĠDespite
ĠGap
ĠGlass
rait
plan
Ġweird
ĠBi
ĠBeta
Ġ120
Ġunter
pta
ĠHen
ĠHub
ĠRam
ãĤ«
ãĤ½
ãĥ§
ãĥĲ
liche
resse
Ð¾Ñħ
Ġimper
Ġspr
closure
Ġcompr
Ġjed
ĠInsp
ĠJon
ÑģÐ¿
Ð»Ðµ
à°·
Ġdisag
Ġzaa
ears
ordin
Ġ360
Ġtransitions
Ġindeed
ÅĤad
à¥ĥ
Ġproduces
Ġattended
ĠØ§ÙĦÙĦØº
Ġbacking
iversary
Ġorganis
alego
ĠìĹ
êłĨ
ocked
ÛĮØ±
tool
Ġincons
à¨£
ÑĢÐ°Ð½
Ã¡ch
Ġtextual
appy
Ġà¦¨
ĠThreat
Ġcustomization
Stream
Ġends
theless
×ľ×Ĳ
Ġfounding
Ġ07
ĠContact
Ġ×Ķ×©
Ġshowed
Ġáī
istrict
istrators
herent
Ġ800
Ġstatuses
Spotify
149
WebKit
ãĤĮãģ¾ãģĻ
Ġ×ľ×ŀ×
àŃŁ
ĠÐ²Ð¾
É£i
Ġemployer
Ġexpressly
Ġdrawn
Ġsuggests
249
ĠAbs
ĠQuad
262
Î±Î½
Ġvalidate
áĪį
å®Ł
Ġjury
Ø§Ø±Ø³ÛĮ
Interest
commons
Ø·ÙĪ
Ġcharacteristics
Å¡Äįina
ÏĦÎµ
Plural
ãĥĥãĥĪ
Ġadaptations
Ġsupers
Ġassemblers
ĠíĻ
2006
ĠBuy
Ġminute
Ġodp
Ġcurated
Built
ALL
×Ļ×ł×ķ
ĠWikipedii
Õ¡Õµ
Ġpurchased
Ġtradition
Ġjako
Ġmarg
Ġgenuine
Ġsnap
Ġwidespread
Parts
Ġtimeline
Ġdistinction
Ġdamages
finity
Ġvotes
Ġdroit
Ġsubtle
Ġceleb
ç®¡
ĠìĿ´ë
Ġshikur
Ġvertices
Ġaccidental
ĠOntario
ĠpracÄĻ
Viewing
Ġruled
ĠUrbana
Object
Faculty
Ġrejected
Ġcells
ĠtiÅĭg
Ġrevealed
Options
ÐĵÐĪ
ĠMAY
Ġbathroom
ĠÃªtre
åĵģ
Ġunnecess
ĠsposÃ³b
ĠJetpack
Ġlyrics
acceptable
Ð°ÐºÐµÐ´Ð¾Ð½ÑģÐºÐ¸
ĠMonday
Afrika
ëĶĶìĸ´
Ø§ÙĦØ¹Ø±Ø¨ÙĬØ©
Cat
Esp
JS
Kategor
Lois
MM
Ma
Page
Ste
TV
Tab
Ubuntu
Video
bb
function
gt
jan
kg
mal
rill
td
wu
wal
¡°
Ïį
à«
çħ
è³
èĪ
éĹ
íļ
Ġrom
ĠØ§ÙĨ
Ġaan
hetic
itial
Ġcro
Ġcas
Ġcast
Ġpointer
Ġoleh
Ġds
Ġboolean
Ġmdn
ĠnÃł
ete
ĠCert
utt
uns
ĠSel
ĠSide
ĠTalk
ads
adan
Ġgb
ĠWelcome
Ġusability
eligible
ĠMS
ĠMov
ĠPub
ĠPass
ĠPiper
ĠGartner
ĠField
ureauc
andon
ĠHD
ĠHand
ĠHard
ivi
ãĤ§
Ġsegment
áĢĬ
iza
Ð¸Ð»Ð¸
Ð¸ÑĨÐ¸
Ġshadow
ensation
ĠNative
ĠNutz
Ġcompile
ansion
roud
assing
ÐºÐ»
ificate
onga
Ġdescriptions
awai
yping
Ġauth
Ġrecre
Ġ33
ownikÃ³w
Ġconsolid
à¬¡
à¬Ĩ
ajor
Ġexpanding
Ġavailability
Ġremix
ĠSpot
Ġeverywhere
everal
Ġcooper
minimal
toString
Ġincomplete
Ġlicensors
apped
reader
Ġpermiss
Style
Ġviewing
Ġtrained
Ġauthorize
Ġauthoritative
ÃŃtica
ÐµÐ½Ð¸Ñı
ãģ§ãģĤãĤĭ
ĠZuckerberg
Ġtyping
Ġtypical
Ġfocuses
ercially
Except
ĠBlock
czi
Ġorganizacji
aution
Only
ĠModern
ĠBez
Ġseparated
Ġassociation
äºĽ
ĠÐ¾Ð¿
Ġê°Ģ
Ġweekly
áİ¾
ãĤ¤ãĤ¢
×ĵ×¨
à©°
SAVE
Ġtitled
ĠzespÃ³ÅĤ
Ġreduced
à¸«à¸¥
Ġenterprises
ĠíĮĮìĿ¼
zenie
ĠÚ©Ø§
Ġcontractual
Ġmerch
ãĤ¦ãĥĪ
Ġenhanced
Ġpressure
Ġdeployed
Ġconstructs
Indaba
Manual
Ġamounts
à·Ĵ
Ã¢nÄĥ
Ġprinted
Ġnarrow
Ġauthenticated
ajÄħc
Ġcategorize
ĠJudeo
èĢĥ
ĠmacOS
á»ĩn
ĠØ§ÙĦØªÙĬ
Ġpushes
Ġnasz
Ġperfectly
Ġadvocate
Ġworse
Ġarbitrary
Ġvoting
Ãµes
Ġqualify
ãĥĹãĥŃ
Ġutilis
Ġcomplaint
Ġinvestigation
ĠIntellectual
ĠMaham
Ġà¤ªà¤°
ĠÐ¿ÑĢÐ¾Ð³ÑĢÐ°Ð¼ÑĥÐ²Ð°Ð½Ð½Ñı
ä¿¡
ä¿Ŀ
ĠBerne
Ġmutual
åīį
Ġseamlessly
¯¸ëĶĶìĸ´
Ġunlikely
Ġworkouts
Ġacquired
accur
Ġkomunik
ĠPaperwhite
Ġstraightforward
Ġgathering
Ġworkshop
ĠClaude
éĿŀ
Ġdisappoint
Small
áĢ¾áĢº
Error
åİŁ
èĳĹä½ľæ¨©
ĠÐ¿Ð¾ÐºÐ¾Ð»ÑĸÐ½
Ġvandalism
ÛĨØ±Ú©Ø¬Ùĩ
çħ§
ãĤ¤ãĤ¢ãĤ¦ãĥĪ
119
399
93
AW
Bo
EPUB
Fair
Have
IES
Ke
Mozilla
Nederlands
PER
Sie
Sometimes
Ta
Talk
cr
har
hadoop
hood
jon
look
med
makers
nis
pres
uvi
wg
ÏĨ
å»
éļ
ëł
ĠÛĮ
Ġtill
Ġtier
onder
Ġsector
ishes
edy
Ġfifth
Ġdang
Ġdream
Ġbodies
icians
leps
Ġinappropriate
omo
Ġlag
Ġlosing
uti
ĠSeph
state
ĠTwitter
agai
Ġgate
Ġgran
ĠWE
ĠWP
ĠWiss
urposes
email
iku
Ġstays
ĠMel
osi
osures
ãģ¡
ĠPear
mention
Ġexclude
ĠDu
ĠDistrict
Ġnoting
ĠBul
ĠFire
ĠFÃ¶r
ĠkÉĶ
à¸¶
Ġrating
ĠLib
Ġsek
izard
à¤¶
Ġada
Ġadalah
Ø§Ø¬
Ġshut
Ġspring
Ġspending
ĠNav
ĠNeed
Ġ×ĺ
Ġtrong
Ġdoor
Ġjump
Ġjuga
Ġpert
ĠKeep
Ã©es
oby
Ġprem
Ġrecon
×ķ×ĳ×
ÙĨØ§
ĠUnfortunately
Ġindigenous
ÅĤÃ³w
Ġ1999
Ġasset
Ġpeer
Ġpersonenbe
ÑĸÑı
Ġelection
Ġeveryday
Ġ47
Ġinvoke
ĠìĦ
Ġcoins
Ã¡l
Ġretention
Ġcustomized
ienie
ĠAdapt
Arg
Ġcharged
Ġ×Ķ×ŀ
ĠConn
ĠConstructor
Ġaddressing
à½ĵ
ĠZero
ĠShark
à¸²à¸«
áĢºê©»
Ã¶sch
Ġformatted
ĠPlace
ÑģÑĤÐ°Ð½
Ġhandles
ĠÐ²Ñĭ
Ġorganizers
Ġportfolio
Ġsecondary
Ãªnd
Ġtaxp
ART
ĠResults
ĠMaybe
Ġnewsletter
attribut
ĠØ£ÙĬ
common
Ġutilitarian
à¸«à¸Ļ
Ġ1996
Player
åŃĹ
Ð½ÑĭÑħ
ãģķãĤĮãģŁ
Ġregulation
ĠSmith
Ġtabindex
ĠmoÅ¼e
Building
Ġinternationalization
Ġconstructed
ĠIndonesian
Ġstyling
Ġliterate
Ġliterary
without
Ġdebate
Ġpaintings
Ġcampaigns
Ġcategorized
Ġprocedure
Ġelectronic
åł±
Ġpushing
Ġdestro
ĠMonth
ĠIhnen
agename
Ġcoordinate
Ġstylesheet
Ġimplied
ADME
ĠCharles
Ġconsulting
Ġtreatment
Ġtickets
ĠDonald
Ġcriticism
Ġmicrodata
ĠBitcoin
Ġmotiv
ĠLogo
æİ¥
è®¸
ç«ł
Ġsustainable
ĠDateTime
hÃ¢sa
åĨħ
ĠìĤ¬ìļ©
Ġwykorzyst
æĽ´
Ġbelieves
åĢ¤
ĠJeff
Ġemotion
ĠCultural
Ġphrase
Ġsurrounding
Ġspreads
ĠprzepÅĤyw
Ġcandid
Ġcontrary
Issue
ĠÐ°Ð²ÑĤÐ¾ÑĢ
Ġsubstituted
Î»Î»Î·Î½
Ġsukces
wecke
Ġdepartments
ĠAfrika
ĠPhilippines
Ġprepared
ĠEnvironment
ĠPrimer
ĠOakley
Property
agiarism
pieczeÅĦst
Ġsophisticated
Ġpersonenbezog
499
?âĢĿ
GFDL
Kar
Need
Polic
Section
Today
bs
eff
eÅ¡t
hard
jo
kom
lit
last
uas
upp
yku
zione
¡ãĥĩãĤ£ãĤ¢
âĪ
æ¡
ìĻ
Ġters
Ġtut
Ġtym
Ġtries
Ġtrivial
iner
heber
orse
itz
Ġwird
Ġfict
Ġol
Ġdivid
Ġbis
Ġbunch
arse
Ġnive
Ġreusers
oment
etime
Ġfork
chts
ĠCur
ĠClick
ĠCapt
unter
ĠSwitch
ĠIl
iddle
agab
ĠWas
ĠWales
eles
Ġvor
Ġvaries
ĠMini
ĠMaven
ĠMachines
ãģ¿
ãģĺ
ĠPasc
terator
esti
eca
ĠDJ
ĠBill
ango
ĠFix
ako
ĠLest
ĠLight
ĠRank
ivities
ãĤº
ĠOwn
Ð¸Ð³
resolution
ĠNY
Ġtrick
ibe
Ġcompact
Ġintr
ĠInnov
ĠJah
Ġneural
Ġanyway
.[[
Ġquarter
Ġzad
ounding
ĠKal
elled
Ġclause
Ins
rights
ĠØ·
rug
Ã©m
×ķ×£
Ð²ÐµÑĢ
ĠRev
issue
Ġserving
à¬¼
ãģ®ãģ§
Ġenth
Ġentered
ĠSpons
ĠSpiegel
Ġ52
Ġtechnically
êłĢ
Ġincent
2018
ĠYes
arbage
ĠÑī
Ġdecre
appro
Ġdocumented
ĠÐ¿ÐµÑĢ
Ġidentification
Standard
ĠÙħØ§
Ġdonations
Ġvariants
Ġmultip
zyÄĩ
ĠnumberFormat
Ġtrace
ĠÐºÐ¾ÑĢ
à½¢
ÐµÐ½Ð¸
Ġorganizational
Ġë§
versed
Ġconstantly
ĠÐ¼ÐµÐ½
Ġhandy
Ġreceives
ãģĹãģ¦ãģĦãģ¾ãģĻ
encia
config
ä½į
Ġintegrity
Ġcapability
Online
Ã§Ãµes
Notice
rono
Ġloads
Ġengineer
äº«
Ġfamous
Ġhumanity
Ø®Øª
ĠOrig
ĠQuick
Ġinformal
Ġ×ŀ×¡
ĠGuard
Ġpolo
ÓĻÐ¼
Ġsupplement
Image
ĠImplementation
Ġlowest
ĠScreen
Ġbias
Ġadapted
Ġparenthes
å¤ī
ĠSmall
Ġarchitectural
ListFormat
Ġfallback
ìŀ¥
à¸Ħà¸£
Ġ×ĳ×¨
Ġaffiliated
Ġcaptions
Ġlightweight
ĠìŀĲ
Ġsimpler
Ġfriendly
ĠÅĭun
Ġrenamed
Ġkarimb
Ġminority
Ġharmful
Ġevaluated
Ġracial
Ġcolumns
×ĳ×¦
å¾Į
ĠSupp
ĠSuite
Ġharassment
Ġfigures
ĠInvited
Ġdemonstrate
Ġbesch
ĠUniversities
×Ļ×¨×Ķ
Ġscientists
Ġconfirmed
Ġdeclarations
æ§ĺ
Ġhaben
Ġestablishing
Ġstrength
Ġbehaviors
Ġobviously
Ġinteroperable
Ø³ØªØ®Ø¯Ùħ
åº¦
Ġsubsequently
ÉĻr
é¡Į
Ġincredible
Ġzmian
ĠRichard
Ġbeauty
áºŃt
Ġsummarize
ĠTraining
Ġworkshops
ĠCredentials
Ġpleas
Ġintentionally
Ġhousing
ç½®
Ġwszystkich
Ġmitigate
Ġduties
ĠMartin
ãĤµãĤ¤
Ġconstitutes
upyter
Ġdiscrimination
Ġattorney
Ġsmartwatch
æķĻèĤ²
oÅ¼li
Ġphilosophy
ÑĢÐ¿ÑģÐºÐ¸
ĠÙĪÙĬÙĥÙĬØ¨ÙĬØ¯ÙĬØ§
äºĮæ¬¡åĪ©çĶ¨
Ġunwanted
à¸łà¸²à¸©
Ġaccomplish
ĠuÅ¼ytk
ĠSephard
è®¸åı¯
eÅ¡tina
!"
120
Case
Capt
Der
Dec
High
LS
MP
Ms
May
Mobile
Nam
November
Navig
Path
QU
Range
Two
TER
])
cp
may
mos
rac
sloven
template
yu
zin
zec
æŁ
ĠÃ§
ģķ
ķÎ»Î»Î·Î½
Ġtack
Ġaux
oration
Ġsum
eness
esla
itos
Ġcu
Ġpou
Ġpace
Ġpyt
edit
edge
Ġfaces
alone
Ġdiction
icle
icol
icity
Ġtown
Ġnag
Ġrent
Ġhi
imity
Ġforced
ĠSunday
owy
standard
ĠTyp
olf
Ġgal
Ġgift
ĠWARR
Ġconferences
uran
urally
Ġvice
Ġstere
Ġstoring
opedi
rix
ĠPen
ĠPop
ĠPixel
Ð°ÑģÑĤ
ocz
ĠDir
ĠDell
ĠGL
Ġweigh
Ġyours
forge
ĠBan
ewish
Ġrid
Ġunst
iesz
ĠLit
udu
ĠRom
ĠEin
ĠEst
ĠEarth
à¤Ł
Ġadequ
Ġchip
ĠNC
Ġ×¦
ÑĢÐµÑĤ
Ð½Ð¾Ð³Ð¾
Ġlever
Ġabstraction
Ġabbrevi
Ġabandon
Ġcomposed
Ġja
Ġreply
ĠJS
ĠJones
ĠJews
Ġresidential
ÑģÐµ
ÑģÐµÐ¼
ÐºÑĬ
ebut
ĠVict
Ġzijn
×Ļ×ĸ
×Ļ×Ĺ
eller
Ġnewest
Ġfeaturing
Ġoutcome
Ġautof
Ġautorsk
Ġprepar
Ġsubpage
),[
ÙĪÚ
ÙĪØ¬
Ġsecrets
Ġprojector
neys
ĠØ§ÙĦØ§
Ġprototype
ulla
ĠArgent
Ġ42
oys
Ġdesigner
Ġinvent
Ġìĸ
Ø¯Ø§
Ġstartup
Ġprofession
math
Ã¤h
State
Ġsmarter
áº¯
exempt
Ġended
Ġvisiting
ĠExcept
Ġ05
Ġhighlights
ĠAmong
Ġexistence
à¦¾à¦Ĥ
ãģ¾ãģŁ
Ð°Ð»Ð¸
Ġrealized
ÑĨÐµ
Ã¶ff
Ġconstitute
Prof
Prov
Ġà°ľ
Ð°ÑĤÑĮ
Ġadmins
áıĵ
ĠIndigenous
Ġ×ľ×¢
Ġported
ĠáĢĻ
Ð¾Ð»Ð¾Ð³
erstanding
ĠMacs
Ġcontacting
Ġcollaborating
Ġcommitments
à¦¿à¦Ĥ
ĠAgents
Ġwrist
äºİ
ĠAbstract
Ġê¸°
ĠURAA
ĠRecovery
Ġregarded
ĠQuery
Ġmaintainers
Location
Ġbigger
Ġsitting
Show
dzie
ĠCompliance
à¹Ģà¸Ķ
à¹Ģà¸ŀ
ĠRegistration
Ġpairing
Ð½Ð¸Ñħ
Ġ1997
ÐµÐ»ÑĮ
Ġpreventing
Play
èªŀè¨Ģ
Ġperiods
ĠØ§Ø³Øª
åŃĲ
ĠDoes
ĠßŁ
ãģķãĤĮãģ¦ãģĦãģ¾ãģĻ
Ġcontracts
Enable
Ġworden
Ġvector
ĠÃ©t
Ġdrafts
ICES
Ġcompetitive
Ġmissed
Ġlabeled
Ġ×Ļ×ķ×¦
ĠDirective
ë¥¸
piibu
Ġcompiled
Ġabsence
Ġpicked
ĠMetro
Ġsequences
ĠAcross
áĢ²áĢ·
Ġsubtitles
ĠCustomers
ãĤ³ãĥ
×ĳ×¨×Ļ×Ŀ
Ġconducted
Ġpublishers
Setting
ĠTamali
áĢ®áĢ¸
offs
ÐµÑĢÐ°ÑĨÐ¸
Level
Ġwarranties
Ġredirects
ĠMahama
Translation
áº¥t
Ġê²½
åĩ¦
ĠSurvey
á¹³
Ġuncertain
Ġbelieved
Ġmistake
ĠÅĵuvre
ĠnarzÄĻdzi
Systems
ĠWiFi
Ġlinguistic
ĠMarketplace
æĬĢ
Below
Grade
Ġscratch
Ġachieved
Ġretrieve
Ġbusy
Ġpursuant
ðĲĮ°ðĲĮ
focused
ĠSalesforce
ĠSenate
Ġonboarding
Ġroyalty
åħ±äº«
Ġdeeper
browser
ĠMahamaru
ĠPascal
ķÎ»Î»Î·Î½Î¹ÎºÎ¬
ĠWARRANT
==
Aust
BIL
Li
MCA
Take
UM
bur
bell
cu
cap
fo
las
mobile
norsk
rad
rate
top
ument
var
ÙĲ
ç¢
ê±
íĺ
Ġ`
ĠÓ©
ĳ×¨
ĺħ
ļãĥ¼ãĤ¸
Ġtout
Ġtone
Ġsolved
Ġcascade
anakan
Ġpilot
Ġproud
isition
isensi
alienable
Ġani
Ġantic
Ġdocs
lements
Ġtom
Ġmes
Ġinfer
around
Ġnest
Ġell
ilo
ationale
Ġhá»
ĠCrow
ĠCOBOL
erse
uty
unakan
ĠSW
ĠSections
ĠSometimes
agues
olly
Ġgel
ĠWix
Ġvá»Ľi
ulum
Ġwithdraw
Ġstew
Ġstock
ĠPerm
ĠPolit
ectors
ectives
ecode
ecycle
ĠGame
ighan
rak
ĠBos
ĠBild
ĠBased
Ġkaj
Ġradio
andra
ĠLE
ĠHa
uda
ĠRun
Then
Ø§ÙĬ
resolved
Ð¾ÑĪ
ĠNinja
Ġarms
Ġalloc
Ġdoku
ilet
Ġinters
Ġtego
ultane
ĠInside
ĠIniti
Ġresistance
Ð»ÐµÐº
ĠVol
ĠStill
×Ļ×¤
ĠKorb
Ġdesk
ÑĥÐ¿
Ġauteurs
obacz
Ġevolved
Ġartyku
ahili
ĠReplace
ildren
à¬¹
Ġgenerating
ĠChris
Ġintermedi
Ġfunkc
ÑĸÐ´
ÑĸÑĹ
ÑĸÐ»ÑĮ
Ġreminder
Ġ58
Ġdiscont
êłĶ
à¨Ĩ
ÑĢÐ°Ð»
2021
resentation
Ġproblematic
ĠÐ¿Ð¾Ð»
Ġidentifies
ĠThings
existing
efin
×ľ×ķ
ä¸»
ä¸ĸ
athan
athML
ÙģØŃ
Ð±Ð¸
ãģ«ãĤĪ
Ġdelivers
Ġ×Ķ×ł
ÅĽmy
ĠÐºÐ¾Ð´
ĠQue
Ð°Ð»Ñĸ
ĠAnabi
ormative
annon
ÑģÑĤÐ°
Ġdemos
Ġà°®
ĠÙĪÛĮÚ©ÛĮ
àŃģ
beit
Ġcollecting
ĠáĢŀ
Ġharder
Champaign
ĠØªÛĨØ±Ú©Ø¬Ùĩ
Ġresponsibilities
ãĤ¹ãĥĪ
Ġprinter
Ġlawsuit
åĪ¥
402
Ġremained
Ġsecurely
witzer
Ġsmartphones
å®¶
Ġdetermining
rolling
Ġgrown
ĠWikipÃ©dia
Ġimmutable
Ġpacks
Ġinputs
Ġenablement
ĠSpecific
Ġsorts
ĠbiÉĽ
Ó©ÑĢ
ĠEmploy
Ġreproduce
Ġtabs
Ġrecordings
ĠWikiIndaba
OULD
ãģĤãĤĬ
Ġbadge
Ġfulfill
çīĩ
Manager
breaking
instance
ĠAvro
licenses
×ŀ×ķ×ł
Ġreflects
Ġreflected
Ġflags
Ġsimplified
PLI
Ġcontinuously
ĠChecking
ĠFrank
ĠCampaign
åı¯ä»¥
fixed
Ġdeeply
æĺİ
Ġprecision
Overview
ĠAudit
å°ı
Ġbescher
Ġartikulo
ĠAdditional
ãĥĸãĥ©ãĤ¦ãĤ¶
Modern
Ġfranc
glied
wikipedia
Ġprompts
Ġjournalist
áº¥y
Ġdeadline
ãĤ¸ãĤ§
ä¼ļ
å¿ħ
ĠKorean
engguna
à°®à°¨
Ġargue
æŀľ
default
Ġheavy
çŃī
çŃĸ
Ġattendees
ãĤĪãģĨãģ«
Ġinvoked
ãģ§ãģįãģ¾ãģĻ
ĠchaÅĭ
ĠìķĬ
á¸į
Ġbahaso
ë¶Ħ
ĠNorthern
ĠEssentials
rvatski
Pattern
PolÃŃtica
Ġtriggered
PEG
uskara
RelativeTimeFormat
ĠSERVICES
Ġteachers
ĠPrize
áº·c
macOS
Ġtemporarily
åĩ¦çĲĨ
BILITY
Ġdokument
witzerland
.--
AE
Count
Del
Despite
Ed
Ext
FA
HD
HDFS
John
JÄĻzy
LED
Mon
Mashable
Pa
RI
SM
Sa
Sz
Save
SÃŃ
Summ
SVG
]).
bed
bound
fik
hy
kas
mn
night
pkg
tu
ugh
uition
was
yz
Î¸
Ûĭ
èĭ
ë§
ĠÐ°Ð½
Ġãģ§ãģ¯
ĠÆĻ
Ġtar
Ġtyl
Ġsed
Ġsist
Ġsquare
Ġsaha
itam
Ġciting
Ġcounsel
Ġcaught
Ġpang
ĠpÃ¡
Ġwarm
Ġfro
Ġfut
alog
Ġdl
Ġdil
Ġdual
Ġdram
Ġdella
Ġball
icago
leep
Ġinn
Ġinaccur
rog
entation
asp
Ġrect
Ġloved
Ġthor
import
ĠAwards
igung
ĠCN
util
ĠSi
ĠSoci
ĠScribunto
stration
ĠTake
ĠICAD
Ġgig
ĠWant
urning
opting
Ġitu
Ġdehydr
odd
Ġexch
Ġexcluded
Ġ250
ĠGallery
search
ĠBooks
anged
oret
Ġrig
orting
andem
ĠLes
ĠLong
ĠLoad
ĠLeg
ĠHR
udi
áĢĳ
à¤£
à¤¬
Ġsuit
ãĥł
Ð¸ÑĺÐ°
ĠNO
ĠNach
Ð½Ñĥ
Ġleverage
software
ĠJes
Ġplays
actor
Ġcommercially
ÐºÐµ
Ġdismiss
Ġperceived
ĠVoices
Ġpartially
available
Ġscene
Ġcloning
awe
aware
ÙħØ¹
Ġoutlined
Ġspecifies
tech
ÙĬØ³
Ð´ÑĥÐº
nguas
onds
ĠphÃ¡
Ġarts
ĠReveal
Ġtransclude
ÑĭÐ¹
Ġoffices
ÅĤat
Ġmodification
uese
ĠØ§ÙĦØ³
Ġprotocols
arious
Ġà¤Ķ
Ġmetres
criptive
Ġìĺ
ciÃ³n
×¨×¤
×¨×ļ
×¨×ŀ×ł
à¨¸
2023
Ġdifferently
Ġaccountability
Ġfindings
à±Ī
Ġconsiders
Ġ64
undi
ographical
Tools
Ġdepartment
ĠAmb
Ġattributed
Ġlogging
ÃŃn
Ġpossibility
à½ł
ÐµÐ½ÑĮ
Ġclassic
130
ï¿½ï¿½ï¿½ï¿½ï¿½ï¿½ï¿½
Ġshell
Ġrepresentatives
ĠÑĤÐ°Ðº
Ġskal
Ġanalog
Ġorganizing
ĠHeather
Contribut
ĠInternal
ãģ¨ãģĦãģĨ
ÑįÐ¼
onych
Ġsubscriptions
à¸Ńà¸¢
Ġfaced
×ł×Ļ
Ġfixing
Ġ×ĳ×¢
Ġ×ĳ×©
à®¤
à®®
à®ķ
Ġvolunt
Ġsignificance
Ġcultures
Ġoptionally
Integr
Introduction
è¨ĺ
Î¿Î½
iii
Ġbaru
ĠØ§Ø³ØªØ®Ø¯Ø§Ùħ
ĠÚ©ÛĮ
Ġalternate
ĠMeeting
Ġdeclared
ãĥ¼ãĥĹ
à¸Ĺà¸¢
Ġquotations
Ġà¤ķà¤°
ĠConsider
à¸Ħà¸§
Ġsafely
books
à·Ĭ
ĠAccounts
Ġdrone
Does
Ġdebt
design
Ġìłľ
Ġsaves
Ġcontinuing
Ġwidget
à¹Ħà¸Ĺà¸¢
Ġclarify
Ã¹ng
ĠUpdate
aurants
Anyone
Ø§Ø¯Ø©
æ¬Ĭ
Ġimplications
Ġimpressed
ĠCLOS
æıı
ĠHTTPS
ĠMaterial
Ġpublishes
ĠÊ»o
ç®Ģ
ĠWilliam
Ġrecipients
ĠOverview
Ġairport
ìĭł
ĠÙĦØºØ©
ç´łæĿĲ
ä»¥ä¸ĭ
ĠREADME
Ġvertical
áĥĲáĥłáĥ
áį£
Ġ×ĸ×Ľ×ķ×Ļ×ķ×ª
ç«ĭ
Ġsustainability
collect
Ġmanipulation
ãģ¤ãģĦãģ¦
ĠASF
ĠASCII
ĠMagic
razil
Requests
invoke
Ġmistakes
Ġreserves
ĠmoÅ¼li
ãĤ¦ãĤ£ãĤŃãĥ¡ãĥĩãĤ£ãĤ¢
ĠzuÉ£ul
Ġperspectives
Ġemotional
Ġcodecs
Ġheavily
Ġhorror
Ġrapidly
ĠosiÄħ
device
Ġfilename
founder
Ò¯ÑĢÓ©ÑĤ
ĠLiterature
Ġhierarchy
æĻĤ
Ġinquiries
relevant
elijk
Ġdollars
Politik
Ġprominent
Ġworkloads
Ġillegal
áĥ£áĥļ
Enterprise
ĠDeclaration
æĥħåł±
ĠTurkish
Ġstatutory
Ġwersji
Ø¹ÙħØ§ÙĦ
íļĮ
agabaga
à¬¼à¬¿
Ġanticip
ĠØªÛĨØ±Ú©Ø¬ÙĩØ³ÛĮ
Ġtylko
?"
Bot
Bet
FF
French
Graph
Hadoop
IE
Jud
Leg
Map
Nothing
Ninja
NAME
Oh
Rooms
Sup
Types
Tiáº¿ng
TÃ¼rkÃ§e
UL
WAI
WMF
Zen
github
mitted
nij
pat
sign
uer
upload
war
wala
Ð¨
ÐŃ
æ®
æĦ
ëŀ
Ġers
ħį
ŀßĬ
Ġtil
Ġave
Ġazi
inas
help
request
Ġses
Ġtheo
ened
iten
itations
Ġcash
anan
Ġpeng
Ġpapers
Ġpengguna
Ġwild
Ġwyn
Ġwrap
isible
Ġfly
Ġfish
Ġfits
Ġfiction
ingly
Ġdod
Ġbureauc
ici
ĠmÃ¡s
Ġmigration
road
Ġreform
Ġreusable
Ġlie
Ġeks
Ġhub
otyping
Ġforb
ĠAuf
ĠSE
ĠSay
owany
ĠTen
ĠTag
ĠTogether
ĠIII
agine
Ġonder
ceive
Ġgadget
ĠWCAG
Ġusable
elve
ikes
ulit
Ġstating
Ġstamp
ĠMr
uba
ĠÐ¯
ĠBE
ĠBand
ĠBoolean
Ġkaw
outhern
Ġroughly
ĠbyÄĩ
ĠLtd
ĠHyd
ĠHunter
ĠRoss
ĠElement
izz
ĠUTF
ĠOtto
ãĥľ
Ġimmaterial
Ġspirit
cloud
Ġcompensation
ĠWiktionary
Ġrepr
ĠJBL
Ġplagiarism
activ
Ġuphold
ĠVS
ĠVers
Ġmeets
ĠStaff
Ġparte
×Ļ×Ľ
ruck
Ð´Ð¸Ð½
Ġrecurs
Ð¼Ð°ÑĤ
Ġneeding
×ķ×ŀ×
ĠUnity
ĠUnless
identified
ÅĤos
cedural
Ġproducing
Ġpeut
ologie
emble
ÑĸÐ¹
ÑıÑĢ
Ġsimilarly
Ġsimultane
Ġrock
Ġowns
Ġdiscour
Ġìļ
cious
ugs
egin
ÛĮÙ¹
ĠDelete
matically
Ġresulted
ienia
Ġchem
liament
ometric
Ġmultimedia
Ġwriters
ãģ«ãģ¤ãģĦãģ¦
Commerce
ediation
Ġdelay
Ġelim
Ġauthoring
}}}
ĠÑģÐ°
Ġá¸
à½£
à½´
Ġ{{{
Ġminimize
ãĥ³ãĥĪ
Ġdefaults
Ġà°ħ
riculum
ĠÐ´Ð°Ð½
Ġplayers
Ġplaylists
Ġgreatly
Ġ×ľ×¤
àŃĢ
Ġnaming
porting
É£a
Ġcontacts
Ġopens
ĠØªØŃ
ĠÎ¼
åı°
ãģªãģ©
ĠOrd
Ġ×ĳ×Ķ×
Ġtargeting
Ġ×ŀ×Ĳ
Ġintroduces
ĠØ§ÙĦÙħØ´
Ġdownloading
Ġaccepts
ĠStudents
ĠCapital
Ġà¬ª
×Ľ×ľ
Ġ1985
ouble
ĠImm
æĸĩä»¶
æĸĩç«ł
ĠPartner
track
ĠGenerally
ĠTHIS
Ġsorting
ĠumoÅ¼li
context
ĠObserv
Ð½ÑĭÐ¹
à¸±à¹ī
ĠArtificial
ĠParamount
hentication
Ġcompetitors
Ġaccurately
Generally
Ġmagic
Ġ×Ķ×Ļ×Ĳ
ãģĻãĤĭãģĵãģ¨
Ġpersons
Ġreliability
áĭ«
ĠDirectors
Ġprinting
ĠbaÅĭsim
ĠSimple
ĠSafety
Ġìłķ
Ġlibre
Ġstreet
ĠSchiffer
ĠMethod
Ġchallenging
à¹Ħà¸Ķ
æĿĥ
Ġassignment
Artikel
ĠUpdated
ÛĮÚĪ
Ġcoordination
pea
Ġordinary
á»Ļi
ĠAngular
Capacity
Ġhighlighting
mbang
Ġlangages
Ġexclusively
Õ¸Õ
ê²Į
ĠExtensions
Ġgrounded
×Ļ×§×Ļ×©
æĶ¯
Ġcutting
åĨį
Ġshapes
Ġinterviews
Ġdispon
ĠCollabor
¯¸ì§Ģ
ĠSemantic
Additionally
icherd
Ġ×Ĵ×Ŀ
ĠCulture
Ġkomunitas
éĻĲ
Ġimagine
Consider
Ġfilenames
Restaurants
Sprooch
Ġgraduates
ĠMitglied
Ġmanufacture
negative
Ø®ØµØ©
ÑļÐµ
Photographs
Microsoft
Ġë¬¸ìĦľ
æħĭ
Ġpsych
ĠNobel
Ġunnecessary
toStringTag
uviÅ³
Ġsekang
Ġenthusi
Ġ×Ļ×ķ×¦×¨×Ļ×Ŀ
èĭ±
.).
116
DOM
DurationFormat
Europe
GN
Great
Ghana
Jira
Kom
Lead
Os
Official
Ps
Prior
Parking
Ur
Upload
VPN
XQuery
don
docs
eh
files
ipl
iert
jacent
kh
kr
kw
kon
length
mas
oir
oÅĽÄĩ
sz
section
sze
wen
zie
®à´
²à´
ÊĴ
ÐĹ
ÖĦ
ßį
Ġ}
ĠÐ°ÑĢ
Ġãģĵãģ®
Ġ__
ħëĭĪëĭ¤
Ķ°
Ġton
Ġtied
inews
review
reply
eral
aty
oro
Ġsoc
Ġsni
Ġsister
esetz
Ġcities
anese
Ġwart
oul
outer
ingen
Ġbab
Ġbij
Ġtoilet
Ġmemb
Ġmother
rooms
ashes
Ġnin
Ġreward
Ġlok
ĠlÉĽ
Ġhal
Ġisi
ĠCi
ĠCup
utal
stu
idia
eln
Ġvoices
Ġstress
Ġstability
Ġstadium
opes
ecting
este
Ð°Ð³
istribution
ĠGeo
ĠGPL
raham
separ
ĠBa
ĠBase
ĠBell
ĠFar
ĠFeder
ĠFilter
ĠFiduciary
Ġcanvas
akh
akarta
Ġunclear
ande
ĠHave
ĠRovo
uming
forming
ĠEar
antCommons
à¤ł
ĠOld
ãĥĦ
Ġheight
Ġhence
à¦¡
à¦ľ
Ð¸ÑĦ
ensional
ensington
ĠNet
Ġworkforce
ÐµÐ¶
ÑĢÐ¾
Ġtrang
Ġcompression
Ġencl
Ġteach
Ġteaching
ĠJupyter
ĠJewish
Ġaccomp
Ġsoft
actic
Ġzak
ĠKategor
ellt
Inv
Ġautoc
obox
Ġsubdomain
Ð´ÐµÐ½
Ø§ÙĦÙĬ
Ġimpose
ĠPropos
ĠProlog
Ø±ÛĮ
Ġinstruct
ÑĭÐ²Ð°
Ġformally
à¥ī
Ġobj
à¬¸
Äħczy
Ġoverride
ariant
Ġuzys
Ġà¤¯
Ġà¤ĩ
Ġtooling
Ġspecificity
Ġ512
ekty
pracy
Ø¯ÙĪ
toLocale
yson
Ġnumeric
Ġprofit
readers
Ġtermination
Ġstandardization
Ġà¦®
Ġpermits
Starter
Ġcheap
except
example
liest
Ġending
Ã¼k
101
Ã¨ng
Ġcharges
ĠContext
ATE
Ġdistance
ĠÐºÐ¾
Ġfriction
Ġupdating
ĠAlg
Ġengaged
ÃŃs
Ġselectors
Ġencount
Ġencaps
Ġpointing
ĠëĶ°
aiwan
ãĤĴæĮģ
123
ynorsk
Ġstudies
Ġmessaging
ĠÐ±Ñĥ
Ġà°¨
Ġclassified
Ġdatas
conn
Ġlifest
ĠBlues
Ġske
Ġcollectively
portuguÃªs
ÑįÐ½
ĠWho
ĠPrism
jej
sharing
vertising
niÄĩ
Ġcenters
Ġoldest
Ø®ÙĬ
åħ¶
à©ģ
ĠComputation
Ġgraphic
Ò¯Ò¯
Ġsmartphone
å®¹
build
building
Ġrecommendation
Ġrevised
Ġfailures
ĠÃ¸
Ġholding
Ġpriorities
Ġ1992
Plan
ĠTHAT
ãĤ¯ãĥĪ
ãĤ¯ãĥª
Ġmarketplace
ĠØ§ÙĦØ°
Ġofficials
Õ¡ÖĢ
ĠFrame
Ġquoted
ĠIDs
Manage
Ġoptimized
ÑĤÐ¸Ð²
Ġcredential
×Ĵ×ķ×¨
à´³
à´¾
à´Ĥ
à´®à´
Ġrozp
Ġinfluential
Ġecosystems
Quick
cuts
marks
Ġnaszych
à¸Ľà¸£
Ġpromotion
Engine
requency
ĠArea
ĠAdding
ĠOutput
Ġvoted
ĠSciences
Ġswitching
origin
éĸ¢
ĠÒ»
Ġdemonstrates
Ġwinners
Ġsituated
Æ°á»Ŀ
Ġcitations
Î¯Î±
Ġkiye
ĠInfrastructure
Ð³ÑĬÑį
Ġwarranty
Ġpenalties
ĠIssues
ĠMuslim
Translate
ĠAnalytics
Ġtelevision
Extensions
Ġglobe
Special
Ġupgrades
Ġscenarios
Ġitalic
Facilities
å¿ľ
Ġquantity
Ġconverted
Ġacquisition
Ġawesome
Ġrenderers
Attractions
áĮį
RecommendedRecommended
Default
ãģĪãģ°
ãĥŀãĥĥãĥģ
Ġsafeguards
Ġendorsement
Ġexploit
Ġduplicate
ãĥķãĤ¡ãĤ¤ãĥ«
Ġcolleges
Esperanto
iritto
Ġshortcuts
worthy
è¡¨ç¤º
Ġfotografia
ĠkaÅ¼d
Configuring
Internationalization
ĠìłĢìŀĳê¶Į
Ġsunglasses
Ġvictims
DisplayNames
Ġsudden
Ġchampions
Ġstakeholders
Ġoccasionally
ĠìľĦíĤ¤ë°±ê³¼
Ġpodej
Ġqualifier
ĠJournalism
Ġicons
Ġtidak
æĶ¿çŃĸ
ãĥ§ãĥ³
ç®¡çĲĨ
ĠÐ¿Ð¾ÐºÐ¾Ð»ÑĸÐ½Ð½Ñı
ÃªndÃ¢
ĠLestat
ĠSephardic
ĠArgentina
JÄĻzyki
Ġà¤Ķà¤°
ÛĮÚĪÛĮØ§
icherdauer
²à´¯
Ġsnipp
à´®à´²à´¯
')
2000
?.
Cod
DE
Dowiedz
Flickr
Git
GPT
Java
MC
Members
MDN
Pack
Together
Want
Wsp
ZoÃ«
bg
cers
dd
eah
gung
hn
hrop
jr
jur
kk
ket
lab
liv
pm
path
rays
ski
scribe
tab
tra
wad
whel
yon
zw
zens
ziej
ÅĪ
ÐĽ
Ùİ
ÛĲ
ß¡
å¥
åģ
æ¥
æµ
æĴ
éķ
Ġãģ§
ĠãģĮ
Ġà²
ĵ×Ļ×Ķ
ķãĤ
Ġtuma
Ġaest
Ġaug
inan
inent
heiser
req
atio
Ġski
itate
Ġcraft
anim
anwhile
Ġwo
Ġwu
Ġfi
Ġfurn
iones
Ġdit
Ġdry
Ġdanych
Ġbots
ĠmÃł
ĠmÃ©s
Ġinherent
astern
Ġnur
Ġnos
Ġnap
Ġnast
Ġnoms
Ġep
Ġears
iled
iliki
oted
otion
eten
ĠAus
ĠAvenue
charge
amily
ĠCare
ĠCase
ĠSar
ĠSun
ĠSep
ĠTry
ĠTypes
Ġont
Ġgold
Ġgirl
Ġgarbage
Ġproc
ĠWhe
ĠWrit
Ġconjunction
aben
about
abau
url
emn
Ġvue
ĠMaking
ĠMoment
ĠPi
ĠPack
ĠPap
verning
iste
ĠDE
ĠGer
ĠBA
ĠBern
ĠFed
ĠFot
ĠFinal
uren
Ġbylines
Ġunacceptable
ĠLar
ĠLook
ĠLadino
ĠHope
ains
ivos
anta
endr
ĠthisArg
à¤Ń
ĠUnt
ĠOtt
Ġadhere
Ø§Øµ
Ø§Ø²
erezh
Ġchose
Ġchips
ĠNA
ÐµÑĪ
Ð½Ð°Ð»
Ġcompan
Ġcomparing
Ġrepet
ĠJam
ĠJobs
roub
Ġplural
Ġplastic
Ġsobre
Ġdisruption
ĠVocabulary
Ġzum
Ġzost
Ġzoom
ĠKa
ellite
Ġadditions
Ġscoped
Ġlicencji
object
tees
Ġevolution
ystal
Ġ34
Ġimposed
âĢĿ),
ahl
ahmen
Ð²Ð¾ÑĢ
ÙĨØ¬
idental
Ġmatched
eeper
ĠØ§ÙĦØ¨
Ġbacklog
Ġexpansion
Ġlocate
Ġpeace
ĠChallenge
Ġkegi
Ġheaders
Ġentreprene
Ġ55
azi
urren
ÛĮØ©
à¨¦
à¨¨
Ġconfused
Ġprofessor
Ã¤l
Styles
Ġcheaper
lij
zyw
ounced
itters
Ġaudits
cribed
ĠÐºÐ°
ĠAlternatively
Ġ101
ÙĤØ¯
Ġinsight
Ġlocalized
Ġlatency
ÐµÐ½Ð½Ñı
ÐµÐ½ÐµÑĢÐ°ÑĨÐ¸
ĠZeit
ĠAsk
ÙĥÙĪÙĨ
Ġstudied
Ġconcent
Ġà°¤
ÐµÑĢÐ¼
constructor
ĠØ¨ÙĨ
Ġgreatest
Ġ×ľ×Ķ
Ġaffects
Ġaffirm
Ġcapx
ĠáĢĶ
Ġanniversary
Ġfreed
Ġparticipant
should
Ġequality
Ġfeeds
Ġfacility
ĠBeh
Ġpatents
äºĨ
ĠÐ¾ÑĢ
ĠResolution
Ġ×ĳ×ĵ
Ġbench
Ġfairness
ãģŁãĤģ
Ġvalidator
pski
Ġintroducing
áĪĿ
×©×¨
Ġsupplier
ambi
Ġà¨¸
×Ļ×ª×ķ×£
×¤×ĺ
Ġimmersive
Ġ1984
ĠParticip
Platform
Ġenvironmental
Ġdiffers
Ġoccurred
Ġregisters
Ġcarried
Ġreproduced
ĠVerarbeit
Ġtotally
ĠPerl
Ġfrequent
Ġfalls
ä½ľèĢħ
OTRS
Ġhimself
licensing
ãĤīãĤĮ
Õ¡Õ¶
Ġiterations
Ġsolving
Ġdriven
ACK
ĠArchives
Ġcategorization
Editor
ĠGetting
Ġevaluating
Particip
à¦¼à§ĩ
Ġdivision
ĠInterface
reensh
ĠPrinc
Ġimplicit
ĠGovernance
ĠÑĪÑĤÐ¾
Ġemergency
ĠbezpieczeÅĦst
Ġprojektami
uzz
Ø°Ùĩ
Ġcriticized
ãĥĳãĥĨãĤ£
Ġpredicate
ĠProducts
ĠìĿ´ìļ©
ĠSteve
Ġconflicts
ĠwspÃ³ÅĤpracy
Ġseriously
Ġjournalism
åł´åĲĪãģ¯
Ġthreads
Ġillustrate
Ġmanipulate
Everything
ĠSecondary
Ġupgraded
ĠÐ¼Ð¾Ð²Ð¸
åĢĭ
Ġyezh
Ġitalics
Ġaggregate
ĠnarzÄĻdzia
Tamale
Ġproximity
ĠPanorama
Ġendorsed
Ġannouncements
Filtering
Ġcolleagues
Ġinvoking
Ġconventional
ĠStreaming
ĠRequests
istribute
Ġcontroversy
çĶ»åĥı
Ġprevents
Sproche
Ġconsequences
ĠWooPay
supported
ë©´
è¯Ńè¨ĢæĶ¿çŃĸ
Ġsysop
Ġmorning
Depending
Featured
çĤº
Ġprivileges
Status
Basic
åĭķ
Ġtingbani
Ġà¤Ĩà¤ª
Ġwhitespace
angkabau
ìĽĲ
ĠlÃŃnguas
PluralRules
ĠìĿ´ë¯¸ì§Ģ
ĠtiÅĭgbani
Afrikaans
å»º
ĠGLAM
Ã¶ffent
Ġdiscontin
ĠJesus
Politikerezh
áĥ£áĥļáĥĺ
×Ļ×§×Ļ×©×Ļ×ª×ķ×£
ĠBluesky
Ø®ÙĬØµ
Ġkegiatan
.'
BR
Based
Copilot
DI
FR
Full
GEN
Hey
Japan
Les
Mind
Oper
OOP
Prop
Pixel
Right
Resp
Roz
Sel
Self
Social
TD
Terms
VM
VO
Vol
Watch
]:
crit
det
del
die
deg
fen
fran
has
iÄĩ
koh
kaltura
lad
mw
mag
mann
pict
rus
sure
vard
venska
wick
zu
Ã¦
Ä©
Ñ£
Ò¥
Õ¨
ÚĪ
ßŁ
á±
å§
æ¸
æģ
çİ
è«
èģ
è¿½
ëĮĢ
Ġ~
ĠÉĶ
Ġidi
Ġtent
release
repo
Ġsad
Ġpic
Ġpued
Ġpicks
Ġwindows
isw
eden
Ġfake
Ġborn
Ġtogg
Ġmine
aran
asily
Ġnine
Ġnick
Ġhall
Ġhoping
ĠAriba
igi
ĠCat
ĠCook
ĠCrypt
ĠCounsel
ungan
ĠSA
ĠST
ĠSustain
stand
ĠTong
ĠTuring
oles
adas
Ġgat
Ġgod
Ġgew
ĠWall
ĠWaiver
Ġconcluded
urities
Ġvital
Ġstages
ĠMo
ĠMont
ĠMIS
Ġalike
ãģĶ
ãģļ
ocurrency
ourced
ĠÐ¨
ĠBug
ĠBBC
ĠBrazil
angle
ĠFR
ĠFilm
ĠFestival
Ġkamp
urement
ptions
orte
anded
ĠLG
ĠLinks
ĠLoom
ĠHawai
udent
ĠRap
ĠEQ
ĠEll
upa
oga
áĢĨ
Ġshop
Ġshower
Ġshorter
Ġspok
Ġspraw
ĠNetz
ĠNiger
ÐµÑĩ
arden
ardziej
ibet
Ġarise
Ġintake
ĠJack
apse
Ġanymore
Ð»Ð°Ð½
gris
individual
ebu
ĠVirtual
Ġzach
asters
ĠKen
ĠKit
Ġcloser
onts
Ã©g
Ð´Ñĥ
Ð´Ð°Ð½
Ġrecurring
Ġagenda
Ø±Ø§
ÙĨÙĪ
Ġtransfers
ĠForce
Ġlisting
ritt
Ġ1936
ĠØ§ÙĦØµ
aju
Ġexposure
ĠChoice
ĠChicago
serve
series
Ġwhereas
Ð³Ñĭ
Ġheadset
Ġà¤¤
Ġ48
Ð·Ñį
Ġmetap
Ġmetric
êł¥
spe
Ġmarking
ÑĢÐ°Ð·
ashboard
ĠYet
Ġretro
iously
plementations
Ġoperated
ĠAppro
Ġà¦¯
ĠThough
ãĥ¼ãĤ¿
Str
áº«
Ġgrams
Ġvarieties
Ġvisually
ĠExecutive
Ð±Ð¾
Ġtrailer
ToParts
Ġdistrict
Ġshowcase
aai
ĠAlbert
Ġengaging
ankan
venty
ĠShould
Ġrealize
ÑĨÑĭ
arsing
versight
Ġbasics
depth
ĠÐ¼Ð°Ð·
anna
ercury
Ð°ÑĤÐ°ÑĢ
ãģĹãģĦ
Ġdisplaying
Ġlifecycle
ĠØ¨Ø¹
Ġskip
Ġintegrates
Ġcompliant
Changes
Choose
ĠManifest
Ð¾ÑĢÑĤ
æľŁ
çļĦãģª
åıĸ
ĠPreview
Ġconnectivity
×ł×Ļ×Ŀ
Ġêµ
Ġrestrictive
ĠOracle
Ġ×ĳ×ł
University
à©±
Ġgraphical
optional
Ġearliest
×ŀ×©
Ġrevisions
ĠzespoÅĤom
Ġà¬ī
ĠÃ½
áĢ¯áĢ¶
×ĺ×Ĵ×ķ×¨
ÏĦÎ¿
ĠPartners
Ġliable
Ġnaturally
ãĥĥãĤ·
Ġpaste
Ð½ÑĭÐµ
Ġgotten
2004
ennheiser
è¦ĭ
ebruik
Ġomitted
Ġreaching
Ġblogs
åĬ©
ÏģÎ±
ĠWikipedians
áº¿n
Ġcaption
ĠDisplay
Ġszczeg
Ġmarathon
Ġbalanced
Ġthoughtful
Ġbottle
Äĥn
Ġwerk
ĠStrings
Ð´ÑĭÐ³
ĠSubject
market
æĿ¡
ĠSwiss
å¾·
çĽ´
create
Resources
Ð¾Ð³ÑĢÐ°ÑĦ
ĠContributions
rupted
Ġsatisfy
ÐĴÐ¸ÐºÐ¸Ð¿ÐµÐ´Ð¸Ñı
à¹ĥà¸Ĭ
Ġlangage
Ġnajleps
ĠCarl
Ġ×ĸ×Ķ
ĠMusarc
ĠBroad
ĠBrook
ĠÐ¿ÑĢÐ°Ð²
ĠrozwiÄħ
ĠFinally
ĠRussia
Collabor
ĠÅĽwi
Latest
Ġpoziom
ĠDaniel
Ġboundaries
Ġrenewal
ĠTypeScript
ĠzgÅĤos
ĠGardens
á»ģu
Devices
æŃ£
Ġphrases
æĸ¹æ³ķ
ospital
Technical
Ġfirewall
Ġscreenshots
Ġê³µìľłê²½ìłľ
Ġundeletion
Ġpodcasts
Ġpurely
Ġsurprising
ĠpomocÄħ
Ġnominated
ĠHyper
Ġdebugging
Ġmilitary
Ġsubscribers
çŁ¥
Ġpursue
Ġestimated
ĠLocke
ĠInspire
toolforge
Õ¡ÕµÕ¥ÖĢ
ĠnÃły
ĠSpotlight
ĠPearson
Ġcandidates
approved
ÙĪÚº
Professional
ç¢º
Ġauteursrecht
å¿ħè¦ģ
ĠLoading
æĦı
Ġeliminate
Ġlifestyle
''
117
Call
CVE
Flow
Home
Ka
LE
Looking
Mich
Message
Pull
Rip
Rob
South
Sync
Turn
Village
War
West
XHTML
aft
aque
facing
high
lot
local
made
mitt
nan
nel
names
tag
ws
º«
È«
æ²
çĬ
èī
èº«
ê°
Ġik
Ġub
ĠãĤĴ
ĠãĤĤ
ĠÚ¾
ĠÃ¤r
ĠãģĿãģ®
Ġè¦ģç´ł
Ġts
inx
inct
inte
held
rend
reng
erb
erry
Ġcin
Ġclic
Ġcite
Ġwil
Ġwiel
Ġoprogram
Ġdab
Ġdip
Ġble
Ġbillions
Ġbought
Ġmill
Ġmouse
ĠnÃ£o
Ġeines
Ġhak
Ġhttp
otes
oting
etes
ĠCost
unci
unitas
ĠSal
ĠTal
ĠTutorial
ĠgÉĶ
ĠWin
ĠWomen
ayo
Ġvar
Ġvun
ifts
Ġstos
Ġstret
opher
ĠMess
ĠMailing
ãģ¸
ĠPath
ĠPrivate
ubern
ĠDiv
ĠGPS
raeg
sey
ĠÐ¦
ĠÐ§
ĠBAS
ĠFast
Ġkern
outs
ewise
à¸ľ
Ġrad
ĠHo
ĠRSV
ĠExt
ĠEarly
ĠEric
Ġcontra
áĢŁ
à¤§
à¤ı
Ġadopting
à¦§
à¦ī
Ġchapters
Ġimagen
ĠNever
ĠNederlands
ĠNatural
iley
ĠJav
ĠJoseph
Ð»Ñĥ
assisted
ĠVideos
ĠKan
Ġifr
Ġscores
Ġfeet
ĠØ²
Ġpremi
Ġpreceding
yster
Ġsomehow
Ø§ÙĦØ©
onde
onditions
riving
×ķ×Ĺ
Ø±ÙĪ
Ġfilms
Ġindivid
Ġ1931
Ġproducers
Ġoverwhel
Ġexposing
ĠChrom
ĠChoose
Ġwherever
ÑĸÑĨÐ°
Ġorganisation
Ġuk
Ġelev
Ġheads
Ġà¤«
Ġentering
Ġparody
espe
Ġ400
Ġblind
Ġinvented
Ġì°
Ġì¡°
ciu
cience
spect
produ
Ø¯ÛĮ
ysk
Ġincidents
2022
Ġproductive
Ã¡i
Ġdeciding
Ġidentities
Ġgrouping
lessly
áº½
lemann
lients
ĠExample
Ġfounder
ÙģØ§Ø±Ø³ÛĮ
Ġexplores
Ġcomputation
Ġaudiences
ismo
Ġdeprec
Ġexisted
ĠÑģÑĥ
ãģ¾ãģĹãģŁ
ĠáĮ
Ġcomplement
ÙĩØ¬
ĠShikuru
Ġëª
Ġë³´
rence
Exper
135
ĠIndex
Ġensikl
Ġlifetime
Ġsurprise
àŃĭ
Ġports
Ġannoy
ĠOpenAI
Ġ95
Ġemployers
ependence
Ġguided
Ġexceptional
×ķ×ª×¨
Ġfinance
Trademark
Trump
ĠÙĦÙħ
ĠResource
Ġweekend
áİ¢
ĠPrototype
Ġinformative
Ġofficer
ĠÐ¿ÑĢÐµÐ´
Ġofferings
Ġpoll
×©×Ķ
Ġsupplied
ĠNoise
Images
Ġreduction
Introdu
Ġcorrection
Ġessay
Ð»Ð°Ð´
Ġgranting
Ġactionable
ITH
Ġoccas
ìĹ¬
Ġcontractors
Ġnormalization
Ġwaive
ĠEmail
×¢×ĳ×¨×Ļ×ª
ãĥ³ãĥĦ
Ġdedication
åľĸ
ÐµÐºÑĤ
ĠPerformance
Ġfastest
ĠConsumer
Ġsemi
Ġeinen
Recent
Ġinnovations
Ġconstructors
ìļ°
áģŀ
atica
ĠFitness
ĠÙĬÙħÙĥÙĨ
Ð½Ð¾ÑģÑĤ
Team
Ġattempting
Ġstaying
Ġmisleading
Compare
Ġhealthy
ĠOthers
ĠÑĢÐ¾Ð·
Ġdebut
Ãºng
ĠMoreover
Ġìłģ
Ġbottlen
does
ĠÑıÐº
Ġtransformative
Ġswap
Ġphotographers
Ġelected
Ġdashes
Ġresponded
Ġmaximize
ĠÙĥØ§ÙĨ
ĠMaria
Ġ1978
Ġdostos
Ġdrawings
ĠDepending
Ġretained
Ġemerged
CLUD
Ġassessment
Perf
Ġprohibit
Ġpipe
Ġmotion
Ġlitigation
Ð¸Ð¹Ð½
ÑĤÑĮÑģÑı
Ġaggregated
ĠSnapshot
ĠProfessionals
éłħ
Ġbytecode
Administrators
Ġannouncement
ĠInsights
Ġdissem
ç½ĳ
éĿ¢
ĠBetter
Ġà¦¸à¦®
EMENT
Ġhyphen
Ġaplikacji
Ġsweet
Ġduty
ĠCounty
ĠFaculty
Ġarrangement
Ġbrightness
Ġconverts
Ġaffordable
Ġrepeatedly
Ġparadigms
Ġlawyer
Ġlawyers
Ġwydaj
Ġenforced
ĠPortuguese
ĠUtara
à¬ĩà¬ķ
Ġkodu
Ġchairman
ĠMalaysia
æĮĩå®ļ
Ġzapewnia
Ġverarbeiten
Ġfloating
ĠrozwiÄħzania
åķı
stronom
ĠDefinition
Ġviruses
Ġfantastic
ĠØ°ÙĦÙĥ
Ġdelighted
Handler
ĠNutzung
ĠFÃ¶rder
Ġdestroy
Ġemotionally
ãĤµãĤ¤ãĥĪ
Ġà°ľà°°
Ġtomorrow
ĠInitiative
ãĤ¸ãĤ§ãĤ¯ãĥĪ
itamix
Ġinaccurate
ĠzuÉ£ulana
Ġsimultaneously
Ġcompanion
ĠNetzwer
))
.),
449
Copy
Current
Dz
Fun
Fund
FOR
GES
Given
HER
Merge
Pi
Powered
Ren
RTC
Ratio
Sem
Sunday
Several
TION
Zobacz
bin
bal
bel
both
cb
cat
ds
dim
dam
ein
fan
falls
gun
have
kol
oP
oct
pers
since
tet
uo
vin
vio
wor
yi
yre
zz
´Ģ
Ð¤
ÑĽ
Ò½
áĲ
áł
ç²
ç³
è¼
ë¬
ë³
ë³´
Ġib
ĠãģĵãĤĮ
Ġà¹ģà¸¥à¸°
ľì
Ġtrib
Ġtá»
heav
erly
erpt
error
atile
enh
esk
itious
Ġwi
Ġwife
Ġwdro
Ġfear
Ġdust
Ġdann
Ġbid
Ġboy
Ġmund
roit
entyp
usually
Ġloud
Ġthr
Ġhob
otic
otation
otter
imming
Ġforces
ĠAw
igo
igit
unan
unia
ĠSqu
ĠSiri
ĠSwitzerland
ĠSleep
owan
sta
ĠTour
ĠTower
ĠIce
Ġgear
Ġconclusion
urianu
ulating
ulai
Ġstanding
ĠMail
rier
ĠPo
ĠPic
ĠPerson
irk
ĠDA
ĠDH
ĠDiversity
ĠDSG
Ġwey
Ġweak
Ġwealth
ĠBay
ĠFood
ĠFollowing
ĠFeedback
Ġkas
Ġkil
à¸Ł
Ġram
Ġrum
Ġbyte
Ġuncom
Ġunfortunately
ĠLos
ĠLand
ĠLIA
ĠHaving
ĠRog
ĠEarbuds
upun
endering
Ġsees
à¤ļ
ĠOp
ãĥĻ
Ġshots
Ġimple
ensors
Ġworkspace
ibilit
ailed
through
third
Ġanytime
ÑģÑħ
Ġhash
à°¬
Ġcommerce
ĠVen
ĠVangu
ĠVery
Ġzo
Ġzast
erving
ificant
ĠStay
×Ļ×ŀ×
ĠKe
ĠKong
ellung
awning
rukt
oba
Ġsubclass
Ġsubpages
ngÃ®
Ġ37
owned
Ð¼Ñĸ
Ġnoch
ĠReference
next
Ġcold
Ġindication
Ġmodifying
uesday
Ġrelies
à¬²
à¬Ł
Ġoverhead
wnie
ĠChamp
ĠChanges
ÑĸÐ»
ÑĸÑĪ
Ġverw
Ġparsers
Ġjustice
Ð·ÑĭÐº
oyage
Ġblend
Requirements
Ġì§
aze
êł¡
Ġmining
procedural
Ġapplicants
Ø¯Ø©
egl
egen
à¨¹
Ġstartups
Ġprivately
ymal
ymraeg
ĠÑĶ
Ġdecentralized
Ġguys
Ġà¦¤
Ġevening
Ġgrat
Ġgrab
exico
works
Ġimplementers
Ġ639
104
Ã¨t
iliate
Ġviewpoint
atching
Ð±ÐµÐ»Ð°ÑĢÑĥÑģÐºÐ°Ñı
Ð±Ð·Ñį
Ġcompute
ĠIntuition
Ġelabor
ĠÐºÐ¾Ð½
ĠfrÃ¥
ĠAlger
Ġinsu
Wikim
Ġpossibilities
ĠConstitution
ÐµÐ½ÑĤ
ĠShield
ĠAnnot
Ġrapport
ÑĪÐ°
ÑĪÐº
uke
Ġstudio
Ġpassive
166
ĠÐ±Ñĭ
ĠÐ±Ð¸ÑĢ
Ġà°ļ
Ð°ÑĤÐ¸
áıħ
Ġfloor
Speed
Ġseverity
Ġpowering
Ġfacto
×Ĳ×Ļ×Ŀ
Ġlasting
Ġportions
ãģ¨ãģĹãģ¦
Ġuntr
aniem
Ġnorms
ĠØªÙĪ
msi
Ġlinear
çļĦãģ«
Ġtablets
åıĤ
åıĬ
ĠClip
Ð¶Ðµ
Ġmodeling
ĠAgain
oÅĤecz
ĠPhys
Ġ×Ĳ×Ŀ
ĠÙĦØ§
ĠIsland
ĠIslam
à¸¡à¸Ńà¸Ļ
Ġpriory
Ġcycles
Ġinformacje
Ġvalidated
Ġbreaches
Ġ×ŀ×¢
åĲ«
Ġearn
ãĥĪãĥ¼ãĤ¯
Apps
Ġpolice
ĠDatentyp
Ġdetermines
niej
Ġrecommends
ĠCanonical
Ġtrip
Ġremoves
ĠÄĳi
Ġmeetups
koove
ÐµÑĤÐ°
ĠAuthentication
ursor
Ġaccordingly
Ġ1993
ĠScott
Ġ×ķ×Ķ×
ĠCentre
ĠEditing
Ġsubstitute
ÑĦÐ¾ÑĢ
ĠØ§ÙĦØ«
Ġprzyp
Ġencourages
ĠParliament
Ġinfringe
Ġtemat
Ġtemper
Ã¥l
à°°à°
ĠÐ³ÐµÐ½ÐµÑĢÐ°ÑĨÐ¸
Ð¾ÑĤÐ¾
ä½ľæĪĲ
à¸Ħà¸Ńà¸¡
Ġsatellite
Ġ×ĳ×ª
ãģ®ãĥ¬
à·ı
Ġ×Ļ×©
Ġlacks
Ð°Ð¼Ð¸
Ġìŀ¬
ĠPaid
Ġexcerpt
Ġjudgement
à²¾
Ø«ÙĦ
inyl
Ġpolitics
ĠPortable
Ġenjoyed
Disable
Ġgains
Orig
Ġadvocacy
Ġempowers
Ġ×§×Ļ×ĺ
ciej
Ġenhancement
ÓĢÐ°Ð»
Ġ×Ķ×ŀ×©
Ġwaterproof
ÏĢÎ¿
Ġwinning
Ġwinner
ĠSingle
straZen
Ġassumptions
Ġprojektu
packages
Ġmathematics
znÄħ
ĠDiscussion
URL
Ġdynamically
Ġhoáº·c
ĠÐ¿ÑĢÐ¾Ð³ÑĢÐ°Ð¼Ð¼
chaft
ĠAdministration
Ġtalent
ĠÄĳá»ĥ
å½¢
åīµ
Ġawarded
Ġbedrij
demand
Ġsubcategory
Ġscenes
Ġscenario
ĠMadison
ĠHisense
à¹Ĥà¸Ķ
Customer
printing
Ġdepicting
ĠdurationFormat
ĠTranslation
áºŃp
Ġtutorials
ĠobsÅĤug
ãĥķãĤ©
represent
Ġdiese
Ġproteg
Ġalignment
ĠYOUR
Avoid
ìķ¼
Ġmandatory
Ġterminology
Ġwymag
Ġlingua
å·¥
Ġsrc
Ġwikilink
ĠRespons
Ġparadigm
????????????????
Ġlivest
ĠIndustry
ãģ¹ãģ¦
Ġáİ¤áı
ãĤ³ãĥ³ãĥĨãĥ³ãĥĦ
Ġathletes
Ġaudiob
ĠInggris
Ġnewspaper
Ġneighb
ĠÐĴÑĸÐºÑĸÐ¿ÐµÐ´
ç¹ģ
ĠGarmin
æ§ĭéĢłä½ĵ
Ġllenguatges
abricator
Ġodpowied
Ġsnapshot
Ġauthored
ĠØ£ÙĬØ¶
Ġdivided
Captcha
æııçĶ»
ç®Ģä½ĵ
áĥĲáĥłáĥĹ
Ġá¸į
ĠumoÅ¼liw
roubleshooting
ĠTongues
Ġà¬īà¬ĩà¬ķ
Ġclicks
ĠRSVP
ĠDSGVO
à¸¡à¸Ńà¸Ļà¸ª
ãĥĪãĥ¼ãĤ¯ãĥ³
à¸Ħà¸Ńà¸¡à¸¡à¸Ńà¸Ļà¸ª
Ġ×§×Ļ×ĺ×¡
straZeneca
+,
Box
Class
Did
DER
GE
Har
Kund
Live
Law
NA
Nor
Nas
Od
Pets
Purposes
SI
Son
TB
Tw
Try
Ut
Will
Zap
ZarzÄħdz
aal
bably
bps
cal
categories
feature
gÅĤ
ipt
iams
jam
kel
lj
mor
make
nb
people
rules
rÃ¤
sis
some
tor
vn
xy
yk
£¼
ÒĻ
Õ¹
æ¢
æ¯
ç©
ç·
çĦ
è½
ë°
ĠÃ©s
Ġtro
Ġtet
Ġtum
Ġtip
Ġtua
Ġai
intern
rei
redu
reason
atom
atim
atically
Ġsic
Ġsar
Ġsie
Ġsouth
Ġsandbox
enforce
Ġcups
ĠcÃ´ng
ĠcÅ©
Ġpili
Ġpih
Ġpione
Ġpiano
ĠwÅĤ
Ġfis
Ġfather
Ġfarm
Ġfellow
Ġanime
Ġdell
Ġdung
Ġbil
Ġbra
Ġbird
Ġboot
icu
lee
Ġtoys
Ġmount
Ġmob
Ġinev
rogram
Ġná»Ļi
Ġrelying
Ġlud
Ġthu
ĠAG
ĠAware
amo
ĠCA
ĠCover
uto
unct
ĠSher
ĠSumat
owl
owars
stat
ĠTor
ĠTown
ĠTotal
ĠTaiwan
ĠIr
ĠIde
aghi
Ġgar
Ġgem
Ġproport
ĠWater
aynon
Ġconversion
abit
Ġvoc
Ġstops
Ġstuck
oples
ĠMB
ĠMP
ĠMiss
Ġaligned
ãģ³
ĠPrior
Ġderech
Ð°Ð¿
Ġexcess
iau
ques
ocat
ĠDO
ĠDocker
ĠDyson
ĠGecko
raud
raine
Ġnotified
Ġweather
forget
angel
ĠFlow
ĠFourth
Ġkid
Ġrationale
orthern
ander
ĠLiz
ĠHas
ĠRo
umin
forma
ĠEasy
Ġconten
Ġhex
à¦¥
Ð¸Ð¸
resso
Ġspelling
ĠNight
ĠNavig
ibooks
Ġlean
Ġcomplet
ĠWikinews
Ġenumer
solete
Ġjan
ĠJur
ĠJIR
aping
ignore
Ġresolving
Ð»ÐµÑĢ
Ð»Ð¾Ð²
Ð»ÐµÐ´
ĠVM
Ġmehr
ĠStar
ĠKontakt
Ġourselves
elli
Ġdesire
Ġdescriptive
ÑĥÑĢÐ°
Ġautora
ÙĬÙĤ
Ð´Ð°ÑĢ
Ġpriced
Ø§ÙĦØ¬
Ġconserv
ĠRequ
ĠReferences
ĠiMac
Ġthereby
Ġmodular
Ġunderground
Ġfollowers
Ġproducer
Ġbackward
Ð³Ð¸
ÑĸÐ·
aleÅ¼
ixels
Ġà¤ī
Ġeverybody
Ġlawful
Ġblame
Real
Reason
Ġdesigning
azioni
uggest
product
Ġcoin
icking
à¨µ
Ġrespects
2015
Ġstatist
Ġstatute
Ġnumer
Ã¡m
Ġdecent
ĠApps
ĠApplied
Ġà¦²
Ġà¦Ĩ
ampire
Ã¤ll
ãģĻãģ¹ãģ¦
Ġerfol
ĠÙħØ±
exclusive
position
Ø³Ùħ
Ø³Ø¨
Ġvisits
Ġ65
ĠAdvantage
Ã¨l
ĠpostÄĻp
Ġcomputational
Ġhereby
ĠâĨ
ĠÐºÐ°ÑĤ
ÑĩÑĭ
ĠÑģÒ¯ÑĢÓ©ÑĤ
ÃŃch
ĠShadow
ĠQC
Ð°Ð»Ñĭ
complete
itutional
Ġimproves
Ġadditionally
Ġraz
Ġë²ķ
ÉĶbu
Ã¶t
ralia
124
annel
Ġclassical
134
Ġtagging
Ġpractically
ĠØ¨ÙĬ
Ġdependent
140
Ġintegrating
àŃ¦
ognitive
ummond
ÑĬÑĳ
Ġannually
É£isi
Ġviáº¿t
Ann
Ġnya
Ð¾ÑĢÐ¸
Ġnecessity
keit
ĠRepository
shop
Ġplane
Ġseparation
ĠÐ°Ð´
×ł×ª
ischen
áİ¯
waÄĩ
Ġrecognised
Ġincremental
Ġviolence
Ġviolating
åħĪ
Ġvolumes
åĪ°
Creator
Ġinvestor
Ġtargets
Ø´ÙĥÙĦ
]].
Ġkindly
Ġsuccessor
ÓĻÐ½
roller
à¹Ģà¸ģ
Ġà¨¦
Ġfailover
ĠzespoÅĤowej
commit
Ġvirtually
Ġdisclosures
Ð»Ð°Ñģ
Ġ1982
ĠAuto
Ġactivated
INeverCry
ĠImpact
ÏĦÎ±
Ġ1994
229
Ġmais
Ġ×ķ×Ļ×§×Ļ×¤×ĵ×Ļ×Ķ
bola
Ġíĺ
Ġexplaining
ĠAssign
Ġßŀß
regular
Ġdialek
Ġlayouts
ĠSheets
Ġcurat
Ġcurious
ĠPeranakan
ÑģÐºÑĬ
Ġcompete
Ġphysics
×Ļ×§×Ķ
ĠÐĴÐ¸ÐºÐ¸Ð¿ÐµÐ´
Ġauthorship
ÑĥÑĢÑĤ
ä½ľåĵģ
áģļ
Ġcredited
Ġ×Ķ×ķ×Ĳ
Automat
åĬ¨
Ġdifficulty
áī³
áº£i
áĬĽ
Ġcaptured
ÑĥÐ»ÑĮ
Ġdigits
ĠSupabase
OpenText
ACL
Canonical
Ġillustration
Ġinspiring
Ġderivatives
Ġforever
ĠAntivirus
Ġcyberatt
Ġincorporates
Ú¾ÛĮ
ĠÑįÐ¼
ÑĤÐ°ÑĢÐ°
Ġouter
ynamic
ADOOP
Reader
ĠIdentifiers
Ġstandalone
Prime
Ø¸Ø©
Ġroute
recognition
ĠInfo
è§Ĩ
Ġopposite
Ġappreciated
Ġgrounds
Ġrounding
ĠStarted
Ġambient
ĠDemocratic
Ġadmission
Ġinserted
ÐŁÑĢ
ĠkhÃ¡c
ĠUrheber
Ġshipped
Licensing
ĠMcC
ĠPractical
Ġcrypto
Ġupgrading
Ġreligion
ĠCamera
èĩªçĶ±
è¿°
Ġcarrying
á»ģn
ÏĮÎ½
atuur
ĠTranslate
ĠVPNs
Ġsuffix
Ġwurden
Ġwallet
++,
Ġíķ©ëĭĪëĭ¤
Ġkarimba
Ġcelebrate
ĠDrummond
istributed
Ġprecedence
Ġcontroversial
Service
Services
Ġtangible
Ġcandidate
Ġundelete
×ķ×ķ×Ļ×¡
ICENS
çķª
Browse
Ġswitched
æ±º
ĠÙ¾Ø±
ĠDeepMind
ShareAlike
ĠEmpire
Ġconfidently
ĠÎºÎ±Î¹
ĠBrightCloud
Advanced
Server
ĠrÃ³Å¼
Speicherdauer
×ķ×ĺ×Ļ
áº§n
Programming
translated
griculture
ĠMemorial
ĠÑĥÐºÑĥÐº
Events
categorization
Interested
EspaÃ±ol
Keys
Ġdangerous
mentioned
ĠkÉĶb
Ġtaxpayer
ìĻĢ
Ġtersebut
Standards
×ĳ×¦×Ļ×Ŀ
ĠWARRANTIES
ĠCrown
Ġintersection
ĠSociety
Ġavec
separated
ĠOttoman
Ġfreedoms
PixelRatio
degree
è¿½åĬł
çĬ¶
dimensional
ç³»
Ġinsufficient
Ġprzypad
ĠcÅ©ng
%)
400
600
728
Dem
EU
Eth
Email
IB
Je
Kh
LP
Never
Numeric
Pub
Perm
Rom
Russ
Sch
aire
ble
bet
bies
capt
coding
fd
fÃ¤ng
frequency
gb
gat
human
haus
ipped
ipping
iÃ¨re
oire
oji
px
rical
sic
tar
tri
uits
yy
£p
Åĳ
ÎķÎ»Î»Î·Î½Î¹ÎºÎ¬
Ò·
Õ´
ßĭ
ßĺß
áŁ
æ·
éŁ
ëª
Ġtul
Ġtall
Ġaz
Ġaria
onna
erah
atz
atre
Ġsac
Ġslice
Ġsectors
eny
itar
itness
Ġcum
Ġcake
ĠciÄħ
ĠcÃ¡ch
Ġpes
Ġpel
Ġpak
iso
Ġfest
Ġfug
Ġfilled
Ġfuel
Ġfruit
altern
Ġdog
Ġbon
ĠbÄĻ
Ġbuds
ĠbÃ¢n
Ġbubb
ĠbhÃ¢sa
Ġtoki
Ġmw
ĠmÃ³
aros
Ġandere
ascript
Ġnob
usive
Ġlake
Ġlisensi
Ġeius
veals
Ġhur
Ġhook
oteric
etti
lyn
ĠAst
igher
ĠCould
ĠCopy
ĠCath
unkt
ĠSU
ĠSand
ĠSelf
ĠSaaS
Ġbear
Ġbell
olling
Ġgebruik
ĠWW
ĠWa
ĠWil
ĠWood
Ġorang
ayers
Ġconvey
Ġvibr
Ġviral
iform
ĠMur
ĠMill
ĠMIT
ĠMusi
ĠMathML
rio
ĠPel
ĠPip
ĠPep
ĠPOS
Ġdecy
irable
ubihi
ecome
istered
ocable
ĠDa
ĠDer
ĠDam
ĠDub
ĠDutch
ĠDMCA
ĠGadgets
ĠBry
ĠBeng
ĠBund
angs
Ġkw
Ġkel
Ġkur
Ġkana
Ġkole
Ġrzec
Ġunion
Ġunrelated
ĠLAT
ĠHarm
ĠRos
ĠRange
ĠRadio
ivih
ivoyage
ĠED
Ġata
Ġcontemporary
Ġsein
ĠOversight
Ġadjacent
Ø§ÙĪ
à¦Ľ
Ġshoes
Ð¾Ð¿ÐµÐ´
Ġspell
ĠNorm
Ġ"[
ibi
ommen
iek
Ġenroll
anski
inea
ÑĤÐ°Ð½
ÙĦÙĦ
ĠJan
thlet
à°§
Ġcomme
ÐºÐ°ÑĤ
dering
ĠVoice
ĠVitamix
Ġquy
Ġzd
ounded
ĠStone
ĠKatie
ĠKensington
avid
avors
Ġscrap
Ġscanned
Ġclip
ÑĥÑĮ
YouTube
Ã©mbang
Ġgoverning
ÙĬÙħ
Ġ38
Ø§ÙĦØ§Øª
Ø±Ùģ
Ð²Ð¾Ð´
Ġfilt
never
Ġindemn
Ġ1920
Ġmath
ĠØ§ÙĦÙģ
Ġbacks
ØªÙī
ĠArc
ĠArticles
á»©
woÅĽci
Ġacquire
ÑĸÐ¼Ðµ
ÑıÑĤ
à§ĥ
Ġà¤ļ
ĠSport
esperson
especially
otho
Ġblood
Ġallowable
speed
Ġapplicant
ega
à¨®
ÑĢÐ°Ð²
Ġtopological
italiano
ompson
Ġgray
engine
Ġdirectors
Ġadvances
Ġadvisory
Ø³Ùī
Ġobjectives
108
×ľ×Ķ
Ġrestoring
unde
ä¸ª
ä¸º
Ð±Ð°
ĠAndrew
ãģ«å¯¾
Ġ×Ķ×Ĺ
Ġ×Ķ×Ľ
ÅĽcie
Ġâģķ
ĠÐºÓ©
isms
lavery
à½Ħ
Ġencomp
Ġraising
ĠÐ¼Ð°ÑĪ
Ġconcise
ÑģÑĤÑĢ
lington
Ġà°İ
ĠIndependence
encja
ĠActivity
Ġarchiving
Ġskin
Ġskut
fortable
×Ĳ×ķ
before
ĠáĢľ
Ð¾Ð»Ð´
Christ
orthy
ported
Ġtooi
Ã§on
ĠØªØ¹
ESCO
ä»ķ
erging
Ġequitable
Ġfacial
Notification
Ġpatches
ĠPhil
Ġmeny
áİ´
waÅ¼
Ġprizes
although
Unfortunately
ĠProtect
valuation
Ġinformatica
chedul
ĠInformationen
Ġ×ŀ×ª
ðŁİ
Applic
Ġnewsroom
ĠAccessories
×ŀ×ª
ĠOnePlus
attered
Â®)
Ġà¨ķ
Ġà¨ľ
ANA
×Ľ×Ŀ
Ġredund
boxes
ollar
Ġwarnings
ĠØ¹ÙĦÙĬ
Ġbeneficial
Ġmeasured
Ġmemiliki
Ġexpectation
opped
ĠAssess
Ġnavigating
Enabling
ĠPublications
Ġdecline
Ġdeclined
×§×¨
Ġenhancing
Ġcrime
Ġtelling
Buffer
Ġfalling
Ġomit
ÑĨÐ¸ÐºÐ»
à¶±
à¶Ń
ìŀħëĭĪëĭ¤
ĠpiÃ¹
Ġ×Ķ×¨
ãĤ¿ãĤ°
instein
è¡ĵ
Ġmisuse
Ġaffiliation
áĭį
piecz
Ġsoluz
ĠCOMM
ĠIETF
ĠReviews
ĠAnti
Ġtransforming
èĢĮ
Ġmechanical
Ġberb
ĠPROVID
à¹Ħà¸¡
à¹Ħà¸Ľ
ĠHeadphones
asyon
Ġadvantages
Ġethics
Ġstructural
æıĽ
ĠÐĳÐ°ÑĪ
Ġdireitos
ãĥ¬ãĤ¤ãĤ¢ãĤ¦ãĥĪ
Protocol
Ġdemonstrating
Ġwearable
ÐµÑģÐ¿
Ġassuming
Ġprojektem
Ġcalculation
ĠWilliams
Ø¸Ø§Ùħ
ĠSteam
ãģĹãģ¦ãģıãģłãģķãģĦ
ĠLibraries
ILL
ĠOperations
Ġinvestigate
åįĺ
Ġencycloped
Ġgiant
ĠìŀĪëĬĶ
ĠÐ¿ÑĢÐ°Ð²Ð°
Ġequalizer
orrent
Ġsono
Ġtalks
Ġrepeat
Removing
ĠkhÃ´ng
ĠÄĳá»ĭ
ĠSharePoint
Guidelines
Ġ×¤×ľ
Ġsearched
áŀ¶
Ġinherited
ĠUNESCO
ãĤ¦ãĤ§
ìĬ¤íĬ¸
ãĥĥãĤ¯ãĤ¹
ĠÏĦÎ¿Ïħ
Device
ĠFreedom
ĠSilicon
Ø§ÙģØ¸Ø©
Italian
ĠLLC
Ġdiagrams
Ġburden
ĠCONTENT
ĠjuÅ¼
Ġconfidentiality
åĳ¼
éĽĨ
ë¶Ģ
ĠCountries
Ġcontrad
ĠChristian
ìłģìľ¼ë¡ľ
Ġthumbn
Popular
ĠSummer
Ġgraduated
ĠÙħØŃØ§ÙģØ¸Ø©
Ġsurprised
Ġswitches
iligaynon
Ġsysops
Ġdescend
technical
Ġwikilinks
ĠDropbox
Ġsymbolic
×¨×Ľ×Ļ×Ŀ
expected
Ġsynd
ãģ«ãģªãĤĬãģ¾ãģĻ
ç¨ĭå¼ı
ĠMapReduce
ĠFeel
Ġathletic
èµĦ
ĠCassandra
FranÃ§ais
ĠÐºÐ¾Ð¼Ð¿
valuate
ĠTaylor
ĠConfiguring
ĠWikipedian
Ġsowie
ĠgÃ©nÃ©ration
Ġindirectly
ĠSudan
ĠartÃŃculo
Affiliates
Ġmarginal
functional
ĠNavajo
chtsgrund
ĠInnovation
Ġparentheses
ÉĻrbay
ĠuÅ¼ytkownikÃ³w
Ġpytania
ĠÃ©tÃ©
Ġhá»£p
ãģ«ãĤĪãģ£ãģ¦
Summary
à¸Ħà¸§à¸²à¸¡
ĠëĶ°ëĿ¼
hropic
Ġfurniture
ĠMomentum
ĠPapua
urrencies
å§ĭ
Ġspokesperson
ãĥĥãĤ·ãĥ¥
ubernetes
ysterious
CLUDING
ë¬¼
Ġuncomfortable
Ġimplements
ç¹ģé«Ķ
Kundivih
ÑĨÐ¸ÐºÐ»Ð¾Ð¿ÐµÐ´
Kundivihira
":
"[
#,
%,
Agent
Audio
BE
Bad
Bose
Both
Car
Cover
Education
Elements
Ful
Finding
Il
JPG
Mga
NT
Net
Node
Push
Sep
Safe
UE
UP
Unt
VP
Zwecke
bars
cri
cji
canc
direct
disc
daten
dependent
fi
flic
fare
graf
host
iÅĭ
kar
kÅĤad
lat
lah
liter
official
ped
post
patch
rator
sent
sort
sandbox
tim
urow
via
ww
wort
zel
¥áĥĲáĥłáĥĹ
Ð§
Ó¥
Ó±
Ö´
ç¯
çı
è£
ëħ
íĥ
Ġ;
ĸãĥ©ãĤ¦ãĤ¶
ĹĪ
Ġtends
inity
reation
atif
atibility
orry
Ġsul
Ġsight
Ġsolic
Ġtheoret
Ġcun
Ġcos
Ġcup
Ġcrop
anal
annt
Ġpadd
Ġwys
Ġwoman
edes
Ġfo
Ġfu
alan
alpha
Ġdir
Ġdins
ĠdÃ¹ng
Ġbir
Ġbind
Ġbreat
icas
Ġmp
Ġmun
arigu
roat
Ġnd
Ġnj
Ġnost
Ġnaw
Ġnaz
Ġnynorsk
Ġreact
Ġreused
Ġthin
ĠthÃ´ng
Ġegg
ilianu
ethe
implement
Ġforums
igos
chat
chart
amu
utu
utes
unless
ĠSÃªndÃ¢
ĠSennheiser
ĠSkoove
ĠTerm
ĠTreat
ĠTuesday
ĠIC
idency
Ġ('
Ġgro
Ġgaps
Ġgba
Ġgeo
Ġpros
ĠWAI
eler
elch
Ġvá»ģ
Ġventure
ĠvÄĥn
ĠMessage
ĠMiddle
rieb
Ġasks
ĠPod
ĠPric
ĠPoly
ĠPresentation
irgin
essen
odge
estion
estic
Ġexcludes
quote
ĠDies
ĠDeb
ĠGi
ourcing
ĠBun
ĠBuk
ĠBrian
Ġkat
Ġket
Ġkos
output
Ġranks
ĠLin
ĠLas
ĠLow
ĠLED
ĠHunt
ĠHistor
article
ĠRome
ĠRock
ĠRAM
ĠRoman
ablement
izi
à¤¥
à¤ħ
ĠOW
ĠOd
ĠOh
Ġsujet
Ġadip
Ġadults
ãĥĢ
Ø§ØŃ
Ġchron
Ġspect
ĠNation
ĠNord
Ġtrunk
arde
ardless
Ġleb
Ġarrays
alleng
ĠteÅ¼
Ġjew
ĠJuli
aped
Ġresh
ÑģÐºÐ°
Ð»Ð°ÑĢ
actively
indicates
Ġdispar
ĠVan
achiak
Ġcreations
ĠKrono
aved
Ġclub
Ġclips
awan
awah
ÙħØ±
Incre
Ġpublik
onto
ruch
Ġoutline
obe
Ġpregn
Ġprejud
ÙĬÙģ
interest
ositories
Ġtransport
Ġtransmit
ĠUnit
ÑĭÑħ
ova
ĠForms
Ġtimely
issa
ÅĤu
à¬¥
à¬§
Ġexposes
Ġlocked
ĠArbor
ĠChurch
Ġlaid
ãģ®ãĥ«ãĥ¼ãĥ«
Ð³ÐµÐ½
Ġremark
Ġà¤¶
Ġroku
ientific
Ġdiscipl
Ġamet
perti
êłĽ
ockets
×¨×ķ×ª
Ø¯Ùī
Ġopenly
2011
ropolit
Ġaccountable
Ġguest
ĠÐ¿Ð»Ð°
Ġà¦¦
Ã¤m
Å¼enia
engah
Ã¼nd
Ġautomating
Ġinternally
ĠAdvertising
103
107
×ľ×ķ×ª
unda
ĠAtmos
ĠAndy
Ġcontainers
Ġinfobox
Ġconnects
ĠIntroduction
Wikidata
ÑħÑįÑĢ
ĠZeal
Ġbehave
ĠëıĦ
ãĤĴä½¿
ãģĦãģ¾ãģĻ
uclear
Ġestate
169
Ġcheckout
ĠÐ±Ð°
Exception
Ġsoundbar
áı¯
132
amethod
Ġflash
Ġflood
ĠÐ´Ð°ÑĢ
147
Ġ180
ĠWorkers
Ġcopyleft
à¸Ńà¸ģ
Ġappearing
Ġcommitting
Ġ×©×Ĳ
Ġ×©×Ķ×
Ð¾Ð½Ð¾Ð¼
Ġcontextual
ĠModels
Ġwikip
Trusted
Ġê·¸
Ø®Ø±Ùī
áİ³
áİł
ĠQuarsh
Ġrecognizes
à®Ł
Ġviolated
valid
èªį
Ø§ÙĨØ§Øª
ujesz
Ġofficers
Ġinvesting
åĲį
who
ytes
ulnerability
SecOps
Ġmodernization
Ġmodernize
Ġrevoke
Ġimpactful
è¨±
ĠÃ¥
ĠÃº
Ġpackaging
Ġ1983
ĠÐ·Ð½Ð°
Ð½Ð¸Ðº
èªŀçīĪ
ilitator
Ġavoidance
Ġadapting
contract
Ã²l
ĠÚ©ÙĪ
2008
2009
Ġbehavioral
Ð»Ð¸ÐºÐ°
Ġprzed
ìĦ±
ìĦ¸
ĠFront
---
legiate
ĠConsult
Ġ×Ľ×Ĳ
Ġdeployments
áĢĻáĢĶ
imento
ÑĨÐ¸Ð¸
áģł
Ã³ÅĤprac
brella
Ġ×Ļ×ķ×ª×¨
Ġindependence
à¸ªà¸£
à¸ªà¸²à¸¡
Ġdrops
Ġnarr
ĠSetting
ĠARR
ĠARIA
Ġtuuli
Ġformerly
ĠÑıÐ·Ñĭ
à¸¹à¹ī
Ġincorporating
Ġauditors
åĽ£
ĠPortal
Ġirrelevant
ì§Ħ
Ú¾Ø§
à¯ģ
æĿ¥
Ġracist
Ġ×ł×ķ×¡
Ġslowly
Ġtimestamp
Ġsubmitting
Ġdivide
Updates
Ġfootage
Ġfootprint
Ġstylesheets
Ġharness
éģ©çĶ¨
ĠCharge
Ready
Õ¥Õ¶
ĠPattern
Ġadjustable
ĠAngeles
ĠBlackboard
Ġsuperior
áĢ½áĢ±
Ġdemonstrated
ĠDeputy
Ġseemed
Î¼Îµ
igrate
ĠItalian
×Ļ×¨×ķ×ª
Discussion
ĠRecommendations
Ġglad
Ġiconic
Ġambigu
ĠDavis
Ġlisteners
ĠCommissioner
ĠHarvard
agnarigu
Ġdiscounted
Ġmental
Ġmentions
Ġshaped
Identity
Identifier
à¥Īà¥¤
ĠMulti
ethany
Ġguaranteed
Active
ĠRemember
é¡ŀ
enzie
stein
Ġlikes
éłĨ
Ġnomination
Ġhackers
ðĲįĥ
Ġsponsored
Ġsponsorship
ÐłÑĥÑģÑģÐºÐ¸Ð¹
Ġdepicted
å¤§ãģį
Logo
ĠÐ£Ðº
Ġdistinguished
Ġexploitation
Ġvenues
esterday
Ġpleased
Ġhouses
Ġvacuums
ĠzwiÄĻks
ĠkarimzÉĶÅĭ
~~~~
ĠwspÃ³ÅĤpracÄĻ
Localization
Ġszybciej
Ġà¦ıà¦¬
Ġaktual
info
ĠklientÃ³w
è©³
Ġcelu
Ġmoderation
åħ¥åĬĽ
Cyber
Ġfragment
éĢļå¸¸
ĠReleases
ĠDefault
Ġ×Ľ×ľ×ľ
published
ĠChairman
ĠBudgie
Ġà¦¹à¦¯
Ġfostering
Ġapparently
Ġsurvive
ĠDarlington
ĠStephen
Ġinheritance
Ġscheduled
ĠRonan
ĠjÄĻzyk
Ġdeutschsprachige
ĠAcademy
icularly
ĠQuadrant
Ø·ÙĪÙĬØ±
ä¿¡æģ
ĠWissens
ĠÐ°Ð²ÑĤÐ¾ÑĢÐ´ÑĥÐº
Ġpersonenbezogenen
Ġintermediate
ĠSpecifically
Ġfrozen
ĠreprÃ©s
æĶ¯æĮģ
Ġà¤ĩà¤¸
Ġencountered
ĠØ§ÙĦØ°ÙĬ
Codec
æ¥Ń
ĠVerarbeitung
franÃ§ais
Ġnickname
ĠØ¨Ø¹Ø¶
Õ¡ÕµÕ¥ÖĢÕ¥Õ¶
Ġindividually
lemannisch
heavy
ĠDAMA
ĠVanguard
Ġtemperature
Ġlivestream
çĬ¶æħĭ
Ġeiusmod
¥áĥĲáĥłáĥĹáĥ£áĥļáĥĺ
achiakuta
ĠZealand
ĠQuarshie
ä¿¡æģ¯
114
631
720
Bey
Dr
FL
Fre
Feminism
GNU
Human
Kang
Kind
Linked
Links
MD
Mak
March
Making
NG
OSS
RT
Sur
Sloven
Tables
Wire
bud
bank
dia
fair
gar
gers
gio
gina
gbo
hans
iya
kami
lantic
mind
mond
master
pc
pad
ql
script
social
tan
vy
vals
wier
zent
zero
¤ĩ
¹ìĭł
ÅŃ
Ò±
Þ¨
ßı
ßĲ
âī¡
æį
ç±
è¶
èĦ
è¤ĩ
Ġ<
Ġ\
Ġip
Ġerst
ĠÒ¯
ĠæĹ¥æľ¬èªŀ
ı¬
Ĳì
ĹãĥŃ
łáĪ
Ġties
ĠtÃ¡c
Ġtaught
Ġaka
Ġawards
heid
reference
orang
Ġsought
Ġcarbon
Ġcaches
ĠczÄĻ
Ġped
Ġpose
Ġpandem
isicing
eded
Ġfs
alu
aling
Ġoso
Ġdive
Ġdiritto
Ġbol
lep
Ġtoy
Ġmud
Ġmiej
Ġmappings
Ġmocked
Ġinner
Ġinnow
arison
arisch
enti
Ġnorth
Ġreveals
Ġlid
Ġluck
ĠlÃ½
Ġloves
Ġláº¡i
Ġey
Ġhan
Ġhay
Ġhire
Ġhint
Ġhali
Ġhalls
ĠAstraZeneca
amber
ĠCO
ĠCisco
ĠCascading
utr
unge
ĠSM
ĠSPA
owÄħ
sto
stop
stant
ĠTy
ĠTurn
ĠTask
ĠTesla
Ġbeach
ĠIoT
ĠIANA
idade
agan
olu
adec
Ġgegen
âĢ²
ĠWould
ĠWindow
ĠWITH
ĠWILL
eli
aby
urg
Ġvague
Ġvibe
Ġvinyl
ulous
ifer
ateur
ĠMent
ĠMot
ĠMatt
riev
Ġaside
ĠPART
irts
Ġcomun
ĠDifferent
ĠDTD
ĠGachiakuta
plit
pled
pliant
select
ĠÐĸ
angular
ĠFlex
ĠFried
ĠFunctions
Ġkol
Ġkaltura
Ġkorpor
Ġunlaw
Ġunexpected
ortion
ĠLou
ĠLux
ĠHindi
ĠHiligaynon
ĠRates
ĠEqu
ãĤĢ
áĢį
izont
ĠUy
ĠUAs
ĠUzbek
ãĥİãĥ¼ãĥī
ãĥļãĥ¼ãĤ¸
Ð¸Ð´
Ġchi
ĠspoÅĤecz
ensch
ĠNik
ÐµÑĨ
ÑĢÑĥÑģÑģÐºÐ¸Ð¹
arest
ieke
Ġintend
performance
ÙĦÛķ
ÙĦÙĪÙħ
apes
Ġreset
oko
oked
Ġhass
please
Ð»Ð¼
Ð»Ñĭ
eps
Ġdisad
Ġdisability
ĠVampire
Ġquis
ĠStadium
ĠKel
ĠKnow
avi
ctioned
Ġspecies
ondo
ishing
rowth
Ã³r
Ġseeks
Ġtransitive
Ġtransmission
ĠUnlimited
ĠForum
Ġih
ĠiPerf
Ġindefin
Ġdevelops
Ġobsc
Ġcodebase
ĠWebS
Ġbackwards
Ġoverrid
Ġoverwrite
Ġgenerators
ologist
ÑĸÑĢ
ÑĸÑģÑĤ
Ġremediation
Ġweren
cym
ĠSpadem
espaÃ±ol
Ġjustify
Rele
Ġinvisible
Ġì¤
Ġì¶
azette
Ġsafer
iera
×¨×ª
prim
999
egments
icket
Ġincoming
Ġrespected
2019
2017
matched
ĠThompson
Ã¤s
Ġ72
Ġdiagn
à±Ĥ
ĠÙħØ´
Ġdirective
Ġdirections
exper
execut
Ġadvise
Ġvariations
Ġ68
Ġobjective
102
Ð±Ð¾ÑĤ
Commercial
Ġ×Ķ×Ķ×
ĠâŁ
ĠÐºÐ¸
ĠAlt
ÑĩÑĥ
zeich
ĠÑģÐ¸ÑģÑĤ
ĠShop
ilton
Ġsectioning
ĠAnim
Ġencicl
ĠAsian
backs
Ġclearer
125
Ġpulled
ãĤĭãģĵãģ¨
Adresse
Ġhandler
ĠÐ±Ð¸Ñĩ
ÐµÑĢÐ¸
ĠIndividual
Ġrefres
ĠÑĤÐ¾
ĠÑĤÐ¸Ð¿
Ġflaw
ĠØ¨Ø§
148
Through
being
Char
Challenge
Deleting
ĠWhich
É£u
ONESOURCE
à¸Ļà¸Ĺ
Ãªme
ERS
Ġrenders
ä»¬
Ġcommittees
Ġpromises
ĠÎ½
Ġconsiderable
Ġpayroll
Ð¾Ð½Ð¸
åıĳ
ĠClient
ĠPreviously
Ġseparator
Ġtalked
Ġlabour
Ġwikimedia
Ġcentre
ĠÐ°Ñģ
Ġfinished
Ġlessons
Alternatively
Ġspeedy
áİ¦
Ġtrustworthy
èªŃ
Ġinformacji
Ġ×ŀ×§
ĠGupta
pskoh
Ò¯Ð¼
Ġdeny
ĠAllard
Should
å®Į
forcement
Ġjuris
Ġcareers
Ġfunded
amba
Ġgrows
Ø§Ø±ÙĬ
prem
Ġrevolution
TTER
Ġ1995
iha
ihood
ĠGeneric
Ġprevented
Ġ×ķ×ĳ×
à¸§à¸¢
Pharos
control
controlled
Added
ĠAssembly
centric
Ã«n
ĠvirtualSensor
ĠLawrence
è¦ı
Ġarchitectures
Ġcurly
Ġcurriculum
ĠTeamwork
Ġfulf
ikelihood
Ġeinem
ĠÐĴÐ¸ÐºÐ¸
Ġáİ¾
Ġmagn
à¶º
Ġpodstaw
Ġ×Ķ×Ļ×ķ
ĠÑĩÐµÑĤ
Auth
Ø§Ø¶
Ð°Ð¼Ð°
ÏģÎ¹
Ġpersistent
Company
áĭŃ
Ġhealthcare
×ŀ×ķ
×ŀ×ķ×ª
Ġbooni
Ġmultipl
Ġaltogether
à¸´à¹Ī
Ð¸ÑĢÐ¾Ð²Ð°Ð½
ydney
à¤®à¤¨
ìľĦ
ĠÑıÐ·ÑĭÐº
Ġembedding
Ð¸Ð¼Ð¸
ĠØ³ÛĴ
á»ĩu
åĽĽ
æ³¨
Ġirure
ĠPRO
à¹Ħà¸Ł
Ġassignments
Ġdestinations
ĠTransparency
yczne
Subcategories
Ġcausing
å¾ĭ
creative
Research
Account
Ġconsultation
Ġsubtitle
Ġloan
à¨¾à¨Ĥ
aÅĤa
Ġcomparable
éĸĵ
ĠPlayer
Ġcontrolling
Ġcalculated
Ġcalculations
Ġindicating
Ġassessing
Ġranking
Ġrankings
Ġpredecess
æīĭ
Ġdeclarative
ĠInfowars
Ġhabits
Ġfranca
ĠfranÃ§ais
Ġprodukty
Assembly
icipal
Ġadmissions
Ġmaker
Ġvarying
Ġgiáº¥y
ÐµÐ²ÑĸÑĨÐ°
ĠAffiliate
Ġmeasurement
Ġprogrammes
Ġillustrations
ĠÅĽled
ĠÅĽrod
Remove
×ķ×¡×ĺ×¨
ĠáĬ¥
ĠIhrer
ĠALL
Ġcryptocurrency
Ġitaliano
Ġpredictable
ç¨®
Ġbounds
ĠPayment
ĠÐĺÐ½
Ã»n
Ġbracket
ĠPoland
áıįáİ©
áıįáıĹ
éĻ¤
galia
Italiano
ĠÅĤÄħcz
ĠRDFa
ĠCredential
ĠDolore
ĠwspÃ³ÅĤpraca
Ġszybko
Ġnulla
Ġlaboris
Ġcoordinated
Return
Ġempowering
Issues
ĠFacilitator
Ġattorneys
æ±Ĥ
inaray
çĤ¹
ĠReleased
publ
ĠbÉĶhim
Ġconvin
ÙĨÙīÚŃ
Ġrefunds
database
Ġaccommodate
ĠKernighan
Ġarrived
Ġanalyzed
Ġanalyzing
Ġsculpture
Ġstruggle
Ġcriminals
Ġmnemonics
ĠCoupons
Ġisolation
Ġszablon
Ġliberty
åªĴä½ĵ
Ġpraktyki
Ġcelebration
Ġcropped
Ġconsolidated
ĠBezos
à¸²à¸«à¸£
Policy
Ġfictional
Ġincentive
Ġkarimbanima
Deriv
Ġabandoned
Ġê²½ìļ°
ĠLETTER
ĠFrankf
Ġpenggunaan
connected
ĠÒ»ÓĻÐ¼
éķ·
ĠNASA
ĠHawaiÊ»i
Ġoprogramowania
Ġstretch
Ġiframe
ÑĪÐºÐµÐ²ÑĸÑĨÐ°
Ġuntrusted
Ġfugiat
ĠPepsi
ĠLATIN
ÑĸÐ¼ÐµÑĨÑĮ
ä»ķæ§ĺ
ĠÄĳá»ĭnh
chtsgrundlage
ÉĻrbaycanc
çı¾
Ġadipisicing
ropolitan
Ġmiejsc
adecimal
Ġkorporacyj
ĠÑģÐ¸ÑģÑĤÐµÐ¼
à¹Ħà¸Łà¸¥
ÉĻrbaycanca
("
().
)]
.:
/.
118
:"
Bi
Blu
Cal
Chat
Cred
California
Cymraeg
DP
Din
Die
Drop
Either
Fit
GR
Gl
Good
German
Head
Having
Libr
Liter
Languages
Mit
Ng
Prom
Publishing
Polski
SW
Site
Sets
Tune
Tsh
ULL
Wired
bew
bootstrap
count
dfs
ech
filter
ieren
jav
jego
kaj
locale
mus
nio
power
qip
sem
vor
yr
zt
¨ë
¸ìĸ´
ÄŁ
Ê¼
Í³
Õ¿
ßŀß
âĭ
âŁ
æĵ
ç¼
Ġie
Ġvel
Ġ..
Ġà¸«
Ġãģ®ãĥ
ĠíķľêµŃìĸ´
ģ¬
ĳãĥ¼ãĤµ
Ġtort
Ġtá»±
Ġah
Ġax
heit
Ġsos
Ġsans
Ġsits
enable
Ġcust
Ġcaution
Ġpad
Ġwul
Ġwave
Ġwake
ĠwÉĶ
Ġwording
Ġwaiver
isin
isse
Ġfet
Ġfur
Ġfusion
Ġfawning
Ġdane
Ġdurch
Ġbiz
Ġborrow
lead
Ġtod
Ġtoler
Ġmood
Ġinactive
entle
Ġlived
Ġlikelihood
Ġeigen
Ġhits
Ġhiring
otels
imum
ĠAT
ĠAW
ĠAge
ĠAOP
igeria
amond
amiliar
ĠCross
ĠCertain
ĠCFA
erste
ution
ĠSC
ĠSn
ĠSin
ĠTomat
Ġbebas
ĠIterator
agh
Ġgam
Ġglass
Ġgross
ĠWer
elhans
ikat
acles
ĠMack
ĠMills
ĠMysterious
oshi
Ġasc
Ġdey
estor
Ġexempl
occ
ĠDj
ĠDone
ĠDIS
ĠDaily
ĠGB
ĠGre
ĠGate
plo
ĠBasa
ĠBCP
ĠBridge
ĠBagabaga
ĠFeb
ĠFord
Ġkep
ĠkÃ©
à¸ĭ
Ġrik
Ġrings
Ġrough
Ġranging
Ġunforget
illary
ĠLoop
ĠLiving
ĠLICENS
ĠHor
ĠHam
ĠHappy
ĠRO
ĠRow
ĠRule
ĠRips
ĠEc
ĠEk
ĠEff
ĠEastern
endars
Ġsevere
Ġsued
Ġsuited
à¦ĸ
Ġchun
Ġchunk
resistant
Ð¾ÑģÑĤ
Ġspoke
ĠNi
ĠNCA
ĠNev
ÑĢÐ²
Ð½Ð¾Ð¼
Ð½ÑĨÐ¸ÐºÐ»Ð¾Ð¿ÐµÐ´
arding
Ġleaked
Ġleaves
Ġappend
Ġarrow
Ġabilities
ineet
ĠJac
Ġneu
Ġreside
okm
assic
assar
ÐºÑĤ
Ġdisallow
Ġzag
Ġmeer
ĠCommand
ĠKon
ĠKer
ĠKah
Ġscattered
ÙĪØ§
Ġrecruit
ryw
ryer
Ð¼ÐµÐ½
Ð¼ÐµÐ´
ĠProblem
Ã³wn
Ġvalued
ĠRef
Ġfilings
useFilter
ĠiPlayer
Ġthereof
Ġoffset
Ġ1930
Ġobra
Ġundert
Ġrelief
Ġprogramist
Ġexpense
Ġpeoples
Ġacres
ologia
embea
anyol
ĠlaÉ£
Ð³Ð¾Ð»
Ġuit
ĠuÅ¼y
ĠSpark
ĠSports
weis
ckhaus
Ġ43
Ð·Ð±
Ġmetamethod
Ġblender
Ġextending
Ġambit
êłį
ocking
cias
eken
Ġmarkers
Ġreadable
redict
Ġreturning
Ġdecimal
Ġ[,
ĠThink
Stop
iene
Ð°Ð½Ð¸Ñı
Ġendorse
ometry
Ġdownstream
Ġmultiling
ĠExclusive
Ġ600
Ġobjection
Ġobjections
105
×ľ×ª
Ġfoundations
Ġperformances
iliary
Ġreporters
zyj
ÙģÙĬ
Ð±ÑĬÐ»Ð³Ð°ÑĢÑģÐºÐ¸
Ġdelays
Ġ×Ķ×¡
Ġ×Ķ×¦
Ġ×Ķ×ĵ
Ġ×Ķ×ĳ×¨
Ġrelev
Ġreleasing
Ġâ°
Ġâľ
ĠAmer
zeit
Ġpossess
insic
ÙĩÙħ
Ġsubjective
×ª×¨
ĠZen
ĠShort
ĠSharing
ĠQLED
Ġsinger
Ġimproper
ĠAnne
Ġencoded
Ġ{{#
arsity
Ġeta
Ġmethodology
Ġpasses
Therefore
ĠÐ±Ð°ÑĢ
áıĽ
Ġ88
ĠÙĪÙĩ
153
155
construct
189
ĠØ¨Ùĩ
Ġthinks
144
ä½ķ
Ġcommunicating
Though
Threshold
Ġanalys
Ġfactory
ĠáĢĽ
manca
ĠHeath
ports
ÑįÐ¿
æĸ¼
Ġguideline
Ġinstalling
Ġopaque
Ġ×©×Ķ
ĠÎŃ
Ġequipped
ĠClub
Ġpresum
Ġversatile
Ġpaired
Ġconnector
Ġmenus
ĠÐ°Ð¹
ĠÐ¸ÑģÐ¿
Track
à®ª
à®´
Ġincrement
Unless
Unlike
à©Ĥ
åĪ©
ĠCompare
ĠCompanies
Ġinteracting
ĠdateTimeFormat
Ġinvestments
åĲİ
ĠGuests
×ĳ×Ļ×Ŀ
Ġsends
ĠØ§ÙĦÙħØ¹
Ġesoteric
Ġacceptance
Sharing
ĠMaluku
ambar
ĠRegister
Ġà¨¬
Ø§Ø±Ø¯ÙĪ
uropa
Ġlimiting
Ġà¬®
ĠÃĦ
Ġdisclosing
Ġmeetup
Ø·ÙĤ
ĠêłĽ
Ġindustrial
ĠPartition
Ġtreating
Ġwyso
Ġ×ķ×ł
zaÅĦ
ĠØ¹Ø§Ùħ
Ġmeasuring
ãĥĥãĥī
Ġsentences
Ð²Ð°Ð¹
ausa
auses
gressive
ĠßŀßĬ
ĠØ§ÙĦØ¢
2005
ĠMeas
ìłĦ
Ġdeclare
ãĤ¢ãĥĥãĥĹ
Ġveh
Ġdedu
ĠFrames
ĠAdvoc
Ġdrafting
Ġquota
Ġenhances
ĠngÆ°á»Ŀ
ĠPalÃ©mbang
Ġbroadly
Ġpressing
Ġcrash
Ġcompetent
Ġcompetitor
Ġfavorites
haust
Indones
imental
Client
Ġ×ĳ×ķ
Ġadvertised
Ġjez
Ð½Ð¾Ð¹
Ġremotely
áº¿u
éĢ£
Ġaltered
ĠDisclaim
Ġmargin
Ġmedicine
Ġjudicial
Ġfilmmakers
Ġabsent
ĠktÃ³ra
Ġstreets
Ġinspiration
onymous
ĠÕ¯
Ġpoliticians
Ġpositioning
Ġirrev
Scape
Ġelections
ĠØ§ÙĦØªÙĪ
Ġpomys
ĠãĥĦãĥªãĥ¼
Ð°Ð·Ð°
Ġtiming
ĠDevice
çĽ¸
ĠÙĤØ¯
Ġharus
Ġcleaning
Ġarbitrators
Ġfraction
Ġreportedly
åŁŁ
ĠÒĽ
ĠDepot
æ³ķå¾ĭ
ãĤŃãĥ£
Works
Õ«Õ¶
Ġindicator
ÐĴÐ¸ÐºÐ¸
ĠnhÆ°
ĠDiscover
Ġchatbot
àª¾
ĠGeorg
Ġrolling
Ġglue
Ġsuspicious
ĠTexts
ĠREL
ÑŀÑĤÐ°ÑĢ
Install
Instead
ĠViews
à¦°à¦£
Ġ×ŀ×Ļ×ł
ĠCyber
ĠBrockhaus
ĠAdministr
ĠFinancial
Ġfacilitates
Repository
Verifiable
ĠczÅĤ
ĠBelg
Ġdistinctive
ĠTajikistan
å½ĵ
Ġbegun
abez
ĠPractice
ĠÛģÛĮÚº
Ġcartaz
Ġlikeness
ĠLabs
ĠSkills
Ġresilient
ĠmoÅ¼na
Ġsponsors
Ġznaj
ĠSpaceX
Ġconforming
Ġpartnerships
ĠPolice
ß²ß¬
Ã¸r
ĠÅĤat
Ġshifted
ëĲľ
ĠDolby
ĠkorzystaÄĩ
ĠReddit
ãģ§ãģįãĤĭ
Ġdisappear
slenska
Ġwszystkie
halten
ĠChatGPT
Frequency
ĠEsperanto
Ġattractive
áĪŃáĬĽ
ĠTrello
ĠPDFs
Ġcoordinates
Ġoversighters
ĠCRM
Documentation
ĠKnicks
×ķ×ķ×Ļ×§×Ļ×¤×ĵ×Ļ×Ķ
ĠRealities
Ġsquash
ĠSummit
Ġpoorly
ĠkpaÅĭ
Ġsmartwatches
ĠCorp
ĠSHOULD
Ġancient
Ġexemption
Ġcanonicalized
Ġunfair
×Ļ×¢×Ķ
Ġannotations
Ġautonomy
ä¾ĭãģĪãģ°
ëĵľ
Ġescalation
Ġoparte
ç¶ŃåŁºçĻ¾ç§ĳ
Ġsebagai
ĵ×Ļ×ł×Ķ
ĠCritics
Ġfavour
Ġappropriately
ĠÑĺÐµÐ·Ð¸ÑĨÐ¸
Ġmnemonic
ĠCoupon
Ġbarely
Ġincompatible
Ġwsparcie
Ġfingerprinting
ĠHenri
ĠRamadan
Ġimperative
å®Łè¡Į
Kategorien
ĠCertificate
ĠSelatan
Ã¶scht
effective
Ġadequate
ĠVictoria
ĠSWAN
ĠgelÃ¶scht
Szabl
Ġrigor
×¨×ŀ×ł×Ļ×ª
Ġvoluntary
ĠosiÄħgn
toLocaleString
Ġrozpoc
Ġaesthetic
Ġprocurement
Ġrepetitive
Ġgathered
Ġmetaprogram
Ð°ÑĤÐ°ÑĢÑĩÐ°
èī²
unciation
ĠMailinglist
Ġkernel
Ġìłģìļ©
à¹Ĥà¸Ķà¸¢
Sonos
enforceable
ĠAwareness
Ġderechos
Ġhexadecimal
Ġcyberattacks
728631
Ġquyá»ģn
ĠÐ¼Ð°ÑĪÐ¸Ð½
ç¨ĭå¼ıèªŀè¨Ģ
Ġlebih
allenges
Beyond
Ġpandemic
ĠPepsiCo
Ġunforgettable
ĠngÆ°á»Ŀi
!!
"?
250
349
699
Alex
BI
Bibli
COM
Dial
David
Emp
Easily
GH
GPL
HR
Hz
Ling
Lim
Mad
Mass
Machine
Nord
Oura
Pointer
SC
Sen
Sol
Side
Sound
Ship
Slov
Term
Ven
Vari
VER
Wy
WCAG
affic
aresp
bots
cam
cur
cert
camp
cze
dk
due
deb
foot
fuck
glich
hosa
jury
json
jedn
kow
kap
lb
lÃ¤
mers
machine
number
nymi
normative
privacy
polski
rze
say
touch
title
yg
yll
§áı
©Ł
°âµ
´°âµ
µáĢ¯
ÄĮ
Ïİ
Ð¥
ÑĻ
Óı
Ùĳ
ß¦
ßĻ
â´°âµ
åĸ
æ©Ł
è·
ë²
ë¸
ì²
ĠÓ
Ġure
Ġà¹Ģ
Ġãģ§ãģĻ
ĠÚ¯
ĠÊĴ
ĠÚĪ
Ġ~~~~
ıĻ
Ġtight
Ġtens
Ġtali
Ġtiny
Ġao
heres
onica
Ġsand
Ġsib
Ġsini
Ġslavery
Ġtheater
Ġthesis
itud
itably
Ġca
Ġcri
Ġcaching
Ġpul
Ġpier
Ġwaj
Ġwins
Ġoprac
Ġanahi
iona
Ġdrug
Ġbers
Ġbread
ĠbÃłi
Ġbardziej
lelo
ĠmDL
Ġina
Ġineligible
Ġinalienable
rost
Ġnl
Ġrewards
Ġreimb
usual
Ġlad
Ġlens
Ġlah
illy
Ġyuli
Ġyellow
Ġyesterday
Ġhospital
lyde
imo
iments
important
Ġforgot
ĠAber
igt
chrome
ĠCoin
ĠCategor
ĠSSD
owisk
stack
ĠTu
ĠTOS
ĠTemplates
idan
agana
olocation
adores
âĢĺ
ĠWol
ithmet
uron
urches
uridad
eman
emale
Ġvos
Ġvocal
iken
ifting
acu
Ġstall
Ġstrive
Ġsteal
ĠMand
ĠMaker
ĠMexico
ĠPict
odo
oder
herity
Ġextern
quart
ecie
ecciÃ³n
istence
istically
ĠDig
ĠDOC
ĠDashboard
ĠGazette
ĠÐĪ
ĠÐķ
ĠBot
ĠBrain
ĠBeck
ĠBegin
ĠFocus
Ġkor
Ġken
Ġkata
Ġkwa
Ġunch
Ġunused
Ġunenforceable
ĠLabor
ĠLists
ĠLIM
ĠHA
ĠHat
ĠHal
ĠHak
ĠHost
ĠHong
ĠHigher
ĠReb
ĠRather
ĠRisk
ĠRoyal
ĠRwanda
ĠRahmen
nda
umi
formerly
ĠEp
Ġatry
upu
upakan
ãĤ´
áĢµáĢ¯
ĠUA
Ġhel
Ġshot
Ġsphere
Ġsprz
ensed
ĠNeo
Ġtrading
ichte
client
Ġarm
Ġarises
Ġaber
Ġcompelling
Ġcompares
Ġalla
Ġenact
Ġenrolled
Ġtea
Ġjack
ĠInform
ĠJPEG
apache
Ġresolutions
oku
à°ľ
Ġcommas
Ġdisabilities
ghi
ghan
ĠVue
ĠVice
Ġzaw
Ġcreole
asting
ĠKo
ĠKat
ĠKam
avoid
Ġoutstanding
obo
ÙĬØ§Øª
Ð´ÓĻ
ressing
Ġ36
rysk
Ġsecara
Ã³c
Ġartigos
ahoo
ÙĨØª
ÙĨØ§Ùħ
Ġdefer
ĠRevision
neath
Ġ1964
Ġ1951
Ġobraz
Ġrelates
Ġprogramme
Ġattending
ØªØ¹
ØªØŃØ¯
á»Ł
ĠChain
Ġinterfere
Ġinterrupt
ceptible
Ġwhereby
ÑĸÑĤ
Ġà¤ı
Ġà¤Ĺ
Ġtoolbar
Ġ53
cknowled
Ġmetal
Ġinvoice
Ġampl
Ġìĭ
êłĲ
êłĿ
rane
×¨×Ķ
Ġopenness
à¨²
2014
Ġconfer
Ġdecides
match
Ġ700
Ġstrange
ienza
Ø¨Ø¯
Ø¨Ø©
áº±
efits
áĥĿ
áĥ¥áĥĲáĥłáĥĹáĥ£áĥļáĥĺ
ĠAdobe
×ľ×Ļ×Ŀ
Ġcounted
Ġrestart
Ġviewer
athi
ĠAtom
ĠAndre
Ġinfrast
Ġdelle
Ġniemi
ÅĽnie
Ġauditor
Ġelite
Ġdistract
Ġfrustr
zech
ĠÑģÐ²
ÃŃnh
Ġinsign
ktÃ³
à½¡
×ª×ŀ×©
ĠZu
Ġsinging
Ġrealistic
áĢºáģĭ
ÑĪÑĭ
Ġë³
ÙīÙĦÙī
ĠEngagement
ĠEngland
128
deen
ãĥ³ãĤ°
Prote
Proton
Ġhandlers
ĠÐ±Ð¸
Ġà°ī
ĠUSD
131
íķ©ëĭĪëĭ¤
180
ĠÂ©
Ġpractition
ĠÐ´Ðµ
Ð¾Ð²Ð¸
Spons
aux
141
ijing
ãĤĮãģ°
àŃ§
ĠportuguÃªs
ĠáĢĹ
Ġhardly
Delete
ONE
ĠPrince
Ġemployed
Ð¾ÑĢÐ¸ÑģÑĤ
Ġinstaller
kaÄĩ
share
ãĥ«ãĥ¼ãĥĹ
ĠModules
ĠPreferences
ronym
ĠInstantCommons
Ġtakie
ĠtakÅ¼e
Conformance
Ġpaati
Ġ×Ĳ×ł
domin
ĠÐ¾Ñģ
Almost
ĠIslands
264
ĠComponents
ðŁĵ
Applying
ĠØ§ÙĦÙħÙĤ
ĠAlliance
×ŀ×¦
×ŀ×Ĳ
ĠComment
Ġshortly
Ġà¨¤
Ġcombinations
ĠÄĳÃ³
community
×¤×Ķ
×Ľ×Ł
Ġredes
ĠêłĢ
Ġêłĺ
ĠAuthors
Ġsubmissions
×Ļ×ķ×Ł
æĸĩæ³ķ
otted
Ġtrees
ĠÑĥÑĢ
ĠEditors
Ġbiometric
Ġadaptive
åŃĺ
ĠßĽ
2007
ĠVerfÃ¼
Ġwordt
Ġmerupakan
ĠMeanwhile
Ġprzew
ĠTeams
Ġniez
Ġexperiencing
limp
Ġphysically
ALGOL
AMP
skaz
Ġnatively
Ġcredits
Ġcorresponds
Ġcorrespondence
frame
áī°
Ã¬n
Õ¡Õ®
Ġlighting
Ġsocieties
company
Ø¶Ø¹
ACT
idences
Ġcategorizing
ĠSimply
ĠÑıÐºÑĸ
Ġrenaming
ÙĪØ±Ø©
ä¸ĢèĪ
ĠJimmy
cutting
æĹ¶
Ġpomag
ĠPRs
Ġsells
Partner
Ġresponding
íķĺì§Ģ
Ø¯ÙĬØ¯
ĠDevSecOps
Ġpromotes
å¹³
Ġstoryt
Ġ1975
Ġworst
Ġimpression
peer
service
Ġqualifiers
sterdam
ĠAngell
TemplateData
Ġhopefully
Ġaffecting
ĠFormatNumeric
aÅĤo
Ġurl
Ġwalking
ĠRelations
Settings
Î¼Î±
Ġcoup
Ð¸ÑģÐ¾Ðº
Ġassessed
Æ°á»Ľ
êµ¬
ĠDiscovery
ãĥĳãĥ¼ãĤµ
ĠEngineer
Ġsubstantially
Ġroundup
ujÄħc
æĶ¾
ç§ģ
Ġprompted
ĠViewer
Ġescape
ĠCoremobile
ĠBelow
Ġtelephone
å½±
Identify
Latin
æ¨Ļ
Ġdisposit
Ġdispatch
Ġguarantees
Ġayi
à¸Īà¸°
ĠÙĩÙĪ
Ġturnt
ĠSemantics
ĠMadrid
RDFa
enggunakan
ĠPayPal
ĠDRM
Tamali
ç¾İ
ĠswojÄħ
ĠDetroit
Ġlinguag
Ġëĭ¹ìĭł
ĠIntegration
ĠÅĤÄħczy
Technology
Optim
Backup
Ġkonk
Ġluar
Ġhorizont
ØªÙĪÙī
restrict
Ġà¤ħà¤ª
Ġáĭ¨
Ġprzeprowad
Ġterritories
Ġaplikacje
Ġscrolling
sprachigen
ĠwiÄĻks
Ġscrut
ĠNorton
Ġsmoothly
founded
Ġdiscrimin
Ġpreservation
hetical
ĠWooCommerce
Ġunserer
Ġwrapped
Ġwrapper
Ġexported
Ġsrpski
ĠSpeedtest
Ġwondering
ĠPortugal
Ġlivre
Ġtworzenia
é¢ĳ
ĠyÉĽn
Swati
Understanding
Ġliaisons
Ġautonomous
Ġdisclaimer
Ġscholarship
Ġdominant
à¤¼à¤¾
áº§u
Ġscheduling
Afric
Î´Îµ
æ°´
ãĤĴåıĹ
Ġsafeguarding
ĠRepresentative
å¦Ĥæŀľ
SOAP
Writer
ĠPokÃ©mon
Ġsharp
êłģêłĩ
ãĥªãĥ³ãĤ¯
ãĤ½ãĥ¼ãĤ¹
Ġorganisations
Ġgenuinely
Ġshikurubihi
Ġcooperation
Ġpermissive
crumb
Karim
âĪĴ
à¸łà¸²à¸©à¸²
Ġtackle
ĠßŁßĬ
Australia
ÙģØŃØ©
ĠpÃ¡gina
Ġwidgets
GraphQL
ĠHydrow
ĠÐ´Ð°Ð½Ð¸Ñħ
ĠCollaboration
ĠFederation
Ġsnippets
ß¡ßĬ
iswahili
ĠêµŃ
å¾·èªŀ
ĠrozwiÄħzaÅĦ
rengthen
ĠDivision
ĠBASIC
Experience
Ġannoying
è¼ī
ĠSquaresp
eglÄħd
reduce
Ġautorais
ÑĤÐ°ÑĢÐ°ÑĪÐºÐµÐ²ÑĸÑĨÐ°
alternate
Ġdecyz
ĠCOMMON
ÐµÑģÐ¿ÑĥÐ±
Ġencyclopedic
èµĦæºĲ
ĠÐ¿Ð»Ð°ÐºÐ°ÑĤ
ĠDAMAGES
Ġhassle
Ġindefinitely
ĠâŁ¨
Ġjurispr
âĭĨ
ĠNCAA
ithmetic
ĠLIMIT
ä¸ĢèĪ¬
ĠSquarespace
";
110
226
310
Bit
Bug
CV
Camp
Clients
Dag
Dining
Draft
EX
Flex
FAQ
FoP
Gadget
Ian
Kon
Learning
MT
Mand
Nap
Pe
Pract
Poznaj
Pagename
RFC
RAMP
Saf
Senior
Svenska
Ts
Target
UA
UC
UG
Western
Zone
ais
aÅĦ
bst
bered
cn
cob
cision
catalÃł
clyde
dansk
eals
either
hl
hab
iop
lings
lining
life
mult
rors
rific
sized
tw
two
uing
yer
yard
yling
ÅĬ
É©
Ø¡
åĻ
ìĪĺ
íħ
Ġ).
ĠÅ¼
ĺìĿ´
Ġtact
Ġtong
Ġtáº¡i
Ġafore
Ġakan
inform
insp
inli
heim
onial
reements
reÅĽl
atore
ativ
oram
Ġsnow
enode
esa
escher
esides
Ġcáº¥
Ġpis
Ġpend
Ġpok
Ġpink
ĠpÅĤ
Ġpixels
Ġwenn
Ġwskaz
isili
edd
Ġfell
Ġfeder
alar
alim
aliga
Ġdur
Ġdib
Ġdont
Ġdeng
Ġdali
Ġdiving
Ġdá»±
Ġbull
Ġbrain
Ġbibli
icles
icism
Ġmad
Ġmang
Ġmiles
aron
rok
Ġnim
Ġrecharge
usc
usan
Ġeating
ilience
Ġyuma
Ġhiking
othes
etry
imed
imient
ĠACC
ĠAthlet
ĠCut
ĠCSV
ĠCOVID
unn
ĠSO
ĠSr
ĠSaja
ĠSouthern
sty
store
stellung
ĠTid
ĠTok
ĠTibet
Ġberecht
ĠIF
ĠIG
ĠIDL
idel
agent
agasy
cean
adel
adcz
Ġgw
Ġgrew
Ġgdy
Ġgesch
Ġprojet
Ġorche
abile
Ġvu
Ġvill
ikh
acific
Ġstopped
ĠMG
ĠMi
ĠMarb
ĠMAT
ĠMappings
ĠMercury
osanski
riz
ĠPing
ĠPill
irls
ircles
iah
quo
ocity
ĠDin
ĠDou
ĠDid
ĠGod
ĠGib
ĠGreg
ĠGrant
ĠGuten
raÅ¼
plus
Ġnotebook
forder
ĠBed
ĠBros
angka
ĠFall
ĠFiles
ĠFunction
Ġkill
Ġkrit
Ġkho
Ġkopi
à¸©
ntime
Ġrug
Ġroun
Ġunpre
Ġunresolved
Ġunusual
romoo
ĠLD
ĠLex
ĠLane
ĠLocale
ĠHom
ĠHulu
ĠRad
ĠRona
ained
aining
umie
umps
formats
ĠEduc
antwort
endor
Ġ2030
usters
izers
ĠULT
ĠOgg
Ø§Ùĩ
erer
erein
Ġshoot
Ġchairs
Ð¾Ñİ
Ġspin
ĠNE
ĠNg
ĠNh
ÑĢÐ¾Ð±
Ġleak
Ġleaks
Ġappended
cling
oston
ostÄĻp
soever
Ġintends
ÑĤÐ¾Ð¼
Ġjar
ĠInput
ĠInitial
ĠJr
apon
berry
Ġplant
Ġsob
Ð»ÐµÐ½
ÐºÐ¾Ð²
independent
Ġdise
Ġdishes
Ġperpet
achi
Ġzones
Ġzauf
ĠStyles
inkle
ĠKh
ĠKw
ĠKim
Ġdesen
phic
Ġclock
Ġclutter
Inform
ribute
Ġspecjal
Ġprefers
Ð´Ð·
Ð´Ð°Ð»
Ð¼ÐµÑĢ
rives
Ġnov
Ġedisi
Ġpháº£i
×ķ×ĸ
ahren
Ø±Ø¶
Ð²ÑĢ
Ð²Ð°Ð½
ĠRecht
Ġtranscluding
Ġinstanti
rities
iedy
Ġforma
à¥¨
Ġ1963
Ġdevelopments
Ġobsolete
à¬ľ
ĠØ§ÙĦÙĪ
Ġbackend
aji
Ġexpenses
ØªØŃ
archive
Ġpeak
arihi
Ġwhatsoever
woo
anyak
Ġsystemic
Ġlaugh
Ð³ÐµÑĢ
Ġuz
Ġupp
Ġthroughput
Ġeleg
à§Ĥ
Ġheadphone
Ġtoolkit
weg
weat
Requ
Replace
Ġamen
ĠìĽ
Ġìĥģ
Ġdetects
inals
×¨×Ļ×ķ×ª
prints
Ġcoach
ÑĮÑı
à¨ļ
Ġreadability
Ġstats
ĠYeah
erner
Ġnumbered
ussions
Ġidentific
Ġgrouped
extension
extensions
ĠThree
Ã¤tz
Ġorigins
Ġstrony
ŀ×©
Ġmainstream
ĠÙħÙĤ
ĠÙħØµ
ĠplatformSensor
Ġeasiest
ĠXfinity
lishes
thew
their
Ġcounts
Ġcounting
Ġcountless
ä¸¦
athclyde
Ġmonet
Ãłnh
ĠController
Ġtrap
Ġ×Ķ×ĺ
Ġauditing
ĠÐºÑĢÐ°
ĠÐºÐµÐ»
ĠAlign
ĠAlpha
ĠÑģÐµÑĢ
190
1950
ÙĤÙĦ
ãģ¾ãģ§
ĠáĪĺ
ĠConvers
ktops
ĠShacht
ĠTracking
compliance
Ġemailed
à¦°à¦ķ
ucz
",[
Ġestas
ĠPlakat
ÑģÑĤÐ°Ð²
ĠÐ½Ð¾
parser
Proyek
Ġhandful
ĠÐ±ÑĥÐ·
Ġà°°
ĠUSE
áıĻ
136
íķ¨
Ġrefs
ĠØ¨Ø¹Ø¯
ĠBlue
Three
àŃ¨
ĠÐ²Ð¸Ðº
Ġfactual
Ġcomplies
autor
Chart
Ġpopraw
iske
Which
239
ĠSeattle
Ġconfiguring
Ġparticipates
Ġsubsidi
ĠØªÙħ
ĠØªØ·ÙĪÙĬØ±
ĠÄĲ
Ġequally
à°¿,
Ġplanet
Ġslide
ĠBeijing
Ġpresents
Ġprescription
Ġversus
ĠPhilip
ĠPhabricator
ARC
Ġclaiming
à§ĩà¥¤
äºĴ
ĠÐ°Ð·
×ł×ķ×ª
×ł×ĵ
Ġrecognizing
åħ·
Î±Î¯
ederland
åĪĿ
èª¬
Ġ×ŀ×Ķ×
ðŁı
schaft
Ġeducators
ĠØ§ÙĦÙħÙĨ
ĠØ§ÙĦÙħØŃ
å®ŀ
apsed
ĠAirport
ÓĻÑģ
ĠCanvas
Ġexecuting
Ġexecutives
ĠAccenture
Ġnoticeable
ĠØ£Ùĥ
ĠÐ½Ð°Ð¹
Ġfailing
Ġvirtue
Ġà¬ı
ĠÃľ
Ġtiá»ĩn
Ġessere
Ġ1981
áĢ¯áĢ²
Ø·ÙĦ
ĠêłŁ
ĠAutof
Ê»zbek
ĠmaÅĭ
ITO
ĠFileSystem
Ġíİ
mlung
baar
Ó©Ð½
Ó©Ð»
Ġsubstitution
IST
Enc
ĠVerb
ĠAmericans
ennium
ãĤ¢ãĥ«
Ġ×¢×Ŀ
åľĭ
ĠVisit
ĠPerform
ĠPalace
Ð¾ÑĤÐ¾ÑĢ
Ġ×Ľ×ĵ×Ļ
specified
×Ĺ×ķ×§
Ġdeploying
Ġlosses
Ġliteral
sky
Ġgeographical
ĠÑĩÐ¸
ĠÑĩÓĢÐ°Ð»
Authors
paper
à·ĥ
à·Ħ
åĬ¡
Ġlacking
Ġreliably
Ġstayed
ĠProfessor
ĠDirectory
ĠwspÃ³l
Ġcapturing
Ġvisualize
ĠTemplateStyles
ajÄħce
Ġinitiated
Ġobtaining
ðĲĮ¹
Ġjudge
Ġsimplest
Americ
ammers
ĠOTHER
Questions
ÙĪØ±Ø¯ÛĮ
Ã±o
ãĤŃãĤ¹ãĥĪ
Ġtransforms
ĠStrathclyde
Ð´ÑĭÒ£
Ġswimming
Ġcontinuity
æĪĳ
ĠSubmit
Ġchallenged
jÄĻzy
×ķ×ł×Ļ×ª
Ġberkas
ãĥ¼ãĤ·
Ġclarified
ĠTransform
ĠMonitor
áĢŃáĢ¯áĢ¸
Ġempres
ĠAcer
ĠGraduate
Ġ×§×¨
Ġ1977
Ġignoring
Ġfait
ÑĥÐºÑĢÐ°ÑĹÐ½ÑģÑĮÐºÐ°
ĠSonic
ĠFlor
ĠEdits
created
ĠSuccess
Ġcleanup
éģ©
ĠÑĦÐ¾ÑĤ
ĠÐ¶Ð°Ð½Ð°
Ġqualified
ĠContributors
Ġadjustments
Ġscaled
Ġacademics
ĠInvariant
Ġhistorically
Ġcomparator
ĠINTER
ĠBrown
Ġcapitalized
Ġà¤¸à¤ķ
Ġachievements
module
Ġindicators
Przy
Ġconfirmation
àª¤
Transfer
Ø§Ø¦Ø·
Ġsuspect
Ġsuspend
Similarly
simple
åĮħ
áį¢
flare
flix
ĠReader
ĠMinister
ĠHeritage
Ġnuest
Î¹ÎºÎ®
omaaliga
ĠBenutzer
åĨĻ
ĠEveryone
REAT
åºı
ĠÐĿÐ°
à¥Īà¤Ĥ
ĠMcK
á»įn
Ġwykon
ĠAccordingly
ĠMedicine
Supported
Ġcertification
Ġartworks
Ġãģ¨åĳ¼
ĠScheme
Ġznale
ĠCommunication
éĥ¨åĪĨ
Ġanchors
gypt
Ġbriefly
Wikipedi
à¾±
Ġ×ĵ×ĳ×¨×Ļ×Ŀ
à¤ľà¤¨
Ã©tÃ©
ÑĨÑĸÑĹ
visual
å±ķ
å±ŀ
Ġhyphens
ÒĵÑĭ
Ġsweat
Ġprecedent
Ġinvolvement
Ġë°ı
ĠSecretary
ĠRobot
Ġachieving
ÑĤÑĥÑĢÐ°
Ġpreserving
Ġconverting
Browser
ĠKeyboard
Ġpursuing
ĠTrademarks
âµľ
ilipinas
Ġmanufacturing
iczne
ÄĳÃ¢
ĠdostÄĻpne
Ġprivilege
thereum
niejsze
ĠwpÅĤyw
Ġwprowad
Ġadvisories
Ġliaison
Ġdefendant
Ġadvertisements
Ġmirror
ĠIMPLI
ExtensionKeys
êĻĹ
á»ĳc
ĠLessig
Ġëĭ¤ë¥¸
Ġexhibit
Ġinstrumental
ĠÑĺÐµÐ·Ð¸ÐºÐ°
Ġhonestly
ĠUkraine
ĠKomunitas
ãĥ¬ãĥ³ãĥĢãĥ©ãĥ¼
çłģ
ìĤ¬ìļ©
ĠJonathan
ĠØ§ÙĦÙĦØºØ©
Ġinconsistent
ĠíĻķ
ĠMovie
Ġpermissible
preserving
éļĽ
Ġgranular
Ġzadania
ĠÑīÐ¾
ĠÐ¼ÐµÐ½ÐµÐ½
slovenÅ¡Äįina
Ġdictionary
Ġunstable
Ġautofocus
Ġsteward
Country
ë§Į
æ®µ
European
ĠProposal
Ġwuhi
Ġentrepreneurs
Ġdiscontinued
Ġtoggle
áº«n
áĢ¯áĢ¶áĤı
×ĺ×Ĵ×ķ×¨×Ļ×ķ×ª
ĠÙĥØ§ÙĨØª
Ġdissemination
ç²µ
ĠDHCP
ĠAlgeria
Wikimania
Ġpriorytet
Ġìŀ¬ìĤ¬ìļ©
æ¢Ŀ
ĠSumatra
Ġerfolgt
Ġrzeczyw
Ġencompass
Ġ×¤×ľ×Ļ×ľ
ãĤ¦ãĤ§ãĥĸ
Ġcontradict
Ġthumbnail
ëħĦ
etheless
Codecs
ĠÅĽrodowisk
ĠbÉĶhimbu
ĠFrankfurt
âŁ©
ĠTomatometer
ĠMackenzie
ĠKahn
Ð·Ð±ÐµÐº
ĠAmerika
ĠHeathrow
ĠAberdeen
Ġatrybut
áº±ng
ĠCOMMONS
åĻ¨
Ġaforementioned
ĠGutenberg
ĠShachtman
ĠIMPLIED
!).
/âĪĴ
360
:),
AB
BO
Bur
Bul
Bots
Blog
Corpor
Different
Ek
Fast
Field
Follow
Fonts
Gal
GPU
HS
Histor
IO
June
Ko
Known
LF
Low
Look
Mo
Med
Mart
Mode
Mapping
National
Occ
Por
Pod
Pres
Person
PCAOB
Sales
TH
TU
Tra
Troubleshooting
Validator
XR
Xhosa
aid
aÅ¼
bia
bra
bone
bug
bior
copy
cje
df
dt
dot
drop
dzy
full
feed
gements
hm
hive
jem
jest
kina
lag
loss
mic
move
member
mbox
maker
rin
risk
sr
sup
school
syntax
sometimes
uu
vie
wat
wig
wol
wart
were
yfik
zza
¦ãĥ¼ãĤ
°¡
¸ł
Ãī
Åĵuvre
Êģ
Íĺ
Ð¯
ØŁ
ß£
á¡
å¢
ç°¡
è±
Ġãģª
ĵng
ĺĲ
Ġtou
Ġtudu
inition
rester
eron
Ġsake
enne
Ġcra
Ġcached
Ġcursor
ĠpÃ²
Ġpitch
Ġpixel
ĠpoÅĤÄħcz
Ġwet
Ġwore
ĠwÅĤa
Ġwitness
isendr
edo
Ġfires
Ġdels
Ġdining
Ġdumb
Ġdrew
Ġdimin
Ġdirty
Ġbat
Ġbor
Ġbay
Ġbike
Ġbien
Ġbisa
Ġborder
icy
Ġmest
rott
asm
Ġnav
Ġnoun
Ġnti
Ġnorthern
Ġreaches
usa
ushi
usamm
Ġlavor
Ġeing
Ġearth
ilers
ationally
Ġhist
Ġhover
ĠhCaptcha
eti
etic
ĠAk
chor
chter
amation
ĠCG
ĠCad
ĠCatal
ĠCMS
ĠCurrently
utan
unc
unj
unal
ĠSF
ĠSom
ĠSSH
ĠSolo
ĠSchedul
ĠSydney
owal
owment
owali
owymi
owaniu
stal
stakes
strict
ĠTouch
ĠTAG
ĠTiáº¿ng
Ġbee
Ġgior
Ġgraf
ĠWM
Ġorg
Ġconvention
Ġuseless
elo
elog
urb
urut
ulates
acon
acies
ateful
ateurs
Ġstan
Ġstale
Ġstood
opo
ĠMade
ĠMiller
Ġali
Ġalien
ripe
ĠPull
ĠPick
iran
irms
Ġcomedy
Ð°Ñĩ
ecies
ecast
ecnolog
ĠDed
ĠDue
ĠDisk
ĠDuration
plom
Ġnotion
sea
ĠBB
ĠBoy
ĠBTS
ĠBaza
angers
Ġkang
Ġkara
aky
akuten
Ġry
Ġranges
orkk
Ġunint
Ġunblock
andy
ĠLo
ĠLee
ĠLinked
ĠLater
ĠLisa
ĠLinking
ĠHi
ĠHon
ĠHive
ĠHung
udo
ĠRaw
nds
umasan
ipu
ĠEt
ĠEinstein
ĠTheatre
ogo
ogr
ogy
antan
Ġseperti
à¤ģ
ĠUint
ĠOg
ĠOk
ĠOm
ĠOs
ĠOption
ĠOften
ãĥ¯
Ġhes
à¦ĵ
Ð¾Ñĩ
Ġspan
enson
ĠNin
ĠNDC
ÐµÑģÑĤ
ÑĢÐµÐ¼
Ð½Ð¾Ð²
ibes
ibles
irection
Ġappli
Ġarrive
Ġcompeting
ĠWikiversity
ĠWikibooks
Ġenct
Ġintim
ÑĤÐ°Ð¹
Ġjok
Ġjego
Ġjquery
ĠJDK
thur
Ġplaza
actors
gry
ÐºÒ¯Ð½
Ġupstream
ĠVector
ĠVirgin
Ġzal
×Ļ×Ĵ
ĠKL
ĠKubernetes
ellar
Ġaddons
Ġsciences
Ġclos
ÙħÛĮ
Inline
ternoon
Ġfeas
ĠØº
ontalo
ordan
ordered
ordyn
Ġoutages
Ġoutdated
Ġproving
ributor
overe
Ð´Ð¶
ondition
rivile
Ġsecuring
Ġphi
Ġphon
ĠphÆ°Æ¡ng
Ġconsume
Ø±ÙĪÙĨ
Ġfolk
Ġdefens
ĠReality
Ġtransmitted
ÑĭÐ·
Ġcolour
Ġobserver
Ġrelied
Ġreliance
à¬£
Ġprogramu
Ġprogrammatically
ĠØ§ÙĦÙĥ
ØªÙĬ
ØªØ§Ø¨
ĠArthur
Ġgenerator
ĠgeneraciÃ³
ĠChanging
Ġinterval
Ġinterwiki
Ġfunny
anyumasan
ãģ®ãĤĪãģĨãģ«
Ð³Ð¾
Ð³Ñĥ
ÑıÐ½
ÑıÐ´
cyj
Ġverifying
Ġà¤°
ructures
Ġ46
Reading
Rechtsgrundlage
êłĸ
ockt
cipl
Ġminors
problem
Ġlicensee
prist
Ġmarker
à¨Ī
à¨ľ
ÑĢÐ°Ð½Ð¸
Ã¡t
Ġtexte
Ġnowe
Ġprofound
reading
Ġà¦ľ
ĠThunder
Ã¤ÃŁ
Å¼s
Strengthen
Ø¨Ø§
Ġerre
Ġdirectories
Ġdonate
Ġimplementors
Ġende
Ġadventure
Ã¼ber
Ã¼ts
Ã¼tz
Ø³Ø®
ĠAdam
undry
ÙģØ±
Ġexplored
ĠAnderson
ãģ«ãĤĤ
Commun
ĠÐºÐ°Ðº
Ġfrustration
isme
}})
197
inson
à½º
ĠZe
ĠZoo
Ð°Ð»Ð°ÑĢ
Ġtypography
Ġsingular
Ġtranslator
Ġrain
ÑĪÐµ
ĠëĤĺ
ÙĥÙī
Ã¶s
126
127
ĠSecurities
ĠÐ¼Ò¯Ð¼
ÑģÑĤÐ¾ÑĢ
ÑģÑĤÐ²Ð°
Ġextensively
Ġdemocratic
ĠÐ±ÑĥÐ»
Ġclasspath
áıı
Ġreceipt
137
138
ãģĹãģ¦ãģĦãĤĭ
ĠFounders
151
conduct
Ð¾Ð²ÑĸÑĪ
ĠØ¨Ø´ÙĥÙĦ
Space
good
Ġimportantly
Threat
czas
Ġbranding
Ġbridge
Ġbrutal
×Ĳ×ª
174
management
achelor
ĠVersioning
Ġ97
ĠManual
ÐºÐ°Ð·
Ãªu
Ãªng
ERE
ĠLeop
ëĭ¨
ĠØªØ±
æľĥ
æľį
Ġpromising
Ġresponsibly
sha
Ġlineup
ãĤ¹ãĥĨ
Ġexpressing
ĠLicensing
Ð¸Ð½Ð³
Ð¶Ð¸
Ġpresidency
ĠInstances
Ġdistributing
Ġpatient
ãģªãģı
scar
Trust
ĠResilience
254
Ġ×ĳ×¡
à®°
åħ§
åħ¸
Univers
AIN
Ġvalidity
uju
Ġinvested
Ġ×ŀ×Ľ
ĠGuinea
ðŁĴ
Application
ĠØ§ÙĦÙħØµ
ytu
Above
ifiability
ĠMalayu
Ġdaerah
Ð½Ð°Ñı
PAA
Ġquestionable
ĠRegents
Ġà¨¹
Ø§Ø±Ø©
ĠAfghan
Ġcombat
ĠzespoÅĤach
×¤×Ļ
Ġà¬ħ
è¨Ń
Ġtiers
Ġtiáº¿ng
Ġ1986
Ġefekty
Ø·Ø¨ÙĬ
upported
ihan
Ġmaupun
ĠSpecs
Ġmemories
Ġperiodically
ĠØ§Ø³
à¸µà¹ī
Ġexpecting
Ġoccup
Ã´n
Ġbiased
zeniu
element
ÑĺÑĥ
ĠAssistant
ietnam
Ġ:)
Ġß¡
ãģķãĤĮãģ¦ãģĦ
Ġregulated
ÄįeÅ¡tina
Soomaaliga
Ġunsubs
Ġunsupported
Ġprzek
Äģn
Ġinfringes
Ġodn
Ġpopularity
ĠCoast
hibit
Ġngx
Ġworthy
Noah
klop
klÃ¤r
Ġcrisp
Ġsemicol
Ġ×Ľ×Ļ
Ġinnovate
ìļĶ
Ġgeographic
ĠÑĩÑĤÐ¾
withstanding
asco
Ġprogressive
Ġcircle
Israel
Ġmidnight
×Ļ×ł×Ķ
ĠÐļÑĬ
áī½
ĠProfiles
ĠDirectmedia
×ŀ×¨
Ġreflecting
Ġpurchasing
ajÄħcych
Ð¸Ð»Ðµ
Govern
compass
Ġeffectiveness
ydd
ĠSimon
Ð¸ÐºÓ£
Canada
Canvas
Ġinspire
Ġforegoing
Ġtransformed
Ġpositioned
Ġsynced
×ķ×ł×Ļ×Ŀ
×ķ×ł×ķ×ª
Ġpropag
ĠAnyone
Ġgaining
ĠMonero
Comb
Ġsequentially
Ġmomentum
button
Ġklucz
Ġsilos
Ġ×§×ĳ×¦×Ļ×Ŀ
Ġ1979
requis
Ġangular
Ø§Ø¯ÙĦ
Ġcentralized
Ð¾ÑģÑģ
Ð¸ÑĤÑĮ
á»Ļc
Ġhonored
ĠÒ³
ä½¿ãĤı
æł¼
ĠMathemat
Ġassumes
Ġutilize
Ġsatisfied
Ø¸Ø±
à¹ĥà¸«
Ġsixth
Transform
Ġfundamentals
Ġsuspension
inned
Ġpipelines
DateTime
áįį
Ġcorporations
ÛĩØ±
Ġdiscounts
Translations
Report
ĠBerlin
Ġmeantime
åŁºäºİ
ĠViol
Ġillustrates
ãģłãģĳ
Testing
Testwiki
ãĤ»ãĤ¹
ĠDeutschsprachige
ĠLatest
Selected
ĠMultiple
ĠCollins
Activities
à¸Īà¸²à¸ģ
ĠOptions
Ġuncopyright
svenska
Ġliked
Ġcertifications
Ġresilienza
ĠValues
ÅĤoÅ¼
Ġrenewed
Ġbundled
à¦¸à¦®
Ġchains
ĠJean
APIs
è¿Ļ
aczego
ĠGreece
ç»Ħ
ç»Ł
Ġriprist
remove
Ġmigrate
ĠRepublican
Ġdialogue
ospace
Ġobsess
ĠìľĦìĽĲ
Ġwatched
Ġratio
ĠAnnual
æ§ĭæĸĩ
Ġchaos
ĠìķĦ
Ġmitigation
learning
ĠSolos
æĸ°ãģĹãģĦ
ĠdziaÅĤania
Office
Ġappeals
Returns
Ġconstitutional
ĠKnuth
Multi
Multiple
Ġunnamed
ĠØ¢Ù¾
ÙĪØ¹Ø©
Ġsettled
Ġhousehold
Ġpronounced
ĠusÅĤugi
Organization
France
Ġinquiry
Ġhomes
ĠÑģÑĤÐ°ÑĤÑĮÑı
Ġrulem
projects
Ġ×Ķ×Ĵ×¨×ŀ×ł×Ļ×ª
æĭ¬
èŃī
Ġchampion
Minangkabau
Ġvaabu
ĠClassification
Ġcompromise
Ġaccommodation
ĠStanford
ÑģÑĤÐ²ÐµÐ½
ĠrÃ³wnie
æīĢæľī
urdÃ®
ulsion
Ġverarbeitet
Ġamendment
ç¬¬åĽĽ
Ġquietly
Ġnewspapers
ĠHackathon
ĠRestore
ĠëĮĢíķľ
lieÃŁ
Ġbinaries
ĠFortran
Ġneighbor
Ġdowntime
character
Ġguardian
åªĴé«Ķ
Ġchmury
Õ¥Õ¿
ĠØ§ÙĦÙĦØºØ§Øª
à«Ģ
ĠHDMI
Ġgateway
Ġspreadsheet
Ġspreadsheets
ĠprzepÅĤywy
æ¡Ī
ĠCapture
Insights
Ġmultipart
Ġzmiany
æŁĲ
ÑģÐµÐ¼Ð±
Ġpreparation
Ġìĸ´
Ð¾Ð»Ð¾Ð³Ð¸Ñı
ãĤ³ãĥ¢
ê±´
ĠEmployees
ë¶Ħê³¼
Ġthoroughly
ĠWanting
à®¤à®®
ħįìĬ¤íĬ¸
Ġbureaucrat
Ġìļ°
ĠImmersive
Ġmanufacturers
Ġautocomplete
ãĤĴæĮģãģ£ãģ¦ãģĦãģ¾ãģĻ
Ġsuddenly
livia
ĠFotograf
ĠHopefully
ĠbezpieczeÅĦstwa
magyar
ĠLGBT
ĠJackson
ĠszczegÃ³ÅĤ
Ð´ÑĭÐ³Ñį
Ġsurprisingly
Michael
Introducing
FORM
Ġtá»«
ÑģÑħÐ¾Ð²ÑĸÑĪ
ĠwÅĤas
ĠJIRA
Automatically
è§Ĩé¢ĳ
ĠCatholic
Ġenrollment
á»©c
Ġskutecz
ĠTreaty
æį®
Ĳì¸ł
ĠFriedman
Ġunlawful
primary
pskohrvatski
ç¼ĸ
okmÃ¥l
Ġrelevance
affiche
Ġforgotten
Ġpractitioners
crumbs
íħĲì¸ł
ĠAutofix
ç²µèªŀ
¦ãĥ¼ãĤ¶
isendrath
ĠÐ¼Ò¯Ð¼ÐºÒ¯Ð½
ĠìľĦìĽĲìŀ¥
ÑģÑħÐ¾Ð²ÑĸÑĪÑĩÐ°
!âĢĿ
)ãĢģ
.âĢĻ
112
113
800
=,
Aw
Ari
AWS
Br
Cas
CPA
Categor
CatalÃł
Du
Dan
Dam
Diff
Double
Emb
Fe
Found
Functions
Glass
Hed
IX
Igalia
Jan
Linking
Norsk
Ok
Old
Own
POS
RP
Rule
Sal
Sil
TE
TL
Tar
Tur
Typ
Uk
Via
VTT
Word
Zulu
[[
bf
blic
bah
because
cÃ³w
circ
craft
dan
digital
depend
dÅº
ez
eil
false
fetch
factor
gate
hon
hole
higu
jquery
kn
kien
lÃ¢m
mu
missions
mozilla
node
named
nienie
py
pay
pher
rar
rated
rats
sj
size
sets
ska
sá»¥
tly
typ
tier
uur
uya
ville
wij
walls
wiÄĻks
yÉĽ
¢«
²àº
ÃĮ
ÌĦ
Ôº
ßĵ
áĳ
è¢«
ê·¸
ë¬¸
ïĥģ
Ġ_
Ġia
ĠÃŃ
ĠÃ¶
ĠÅ¡
Ġà¹ģ
ĠÃ¡n
Ġounce
ĠÚĨ
ĠãģĿãĤĮ
Ĥçħ§
ĳľ
ĠtÉĶ
Ġtempt
inator
inars
hem
rell
atisf
Ġsf
Ġslic
Ġsap
eno
itet
itous
anst
Ġpiv
Ġwz
Ġwol
Ġwishes
edian
Ġfon
Ġfing
aldi
Ġana
Ġans
Ġdh
Ġdup
Ġdadi
Ġdurable
Ġbases
Ġbatter
Ġbawah
icios
leich
Ġmol
Ġmie
ĠmÃ¼
Ġmai
Ġmusi
Ġinne
Ġinnych
arwanda
Ġanderen
enta
asse
Ġnou
Ġnod
Ġnich
ĠnÃ©
Ġnits
Ġnimi
Ġnerd
Ġnuclear
Ġreass
Ġrecht
Ġrewrite
usia
Ġlon
Ġlighter
Ġthrive
Ġyield
Ġyini
Ġhin
Ġhoped
Ġhiding
othe
etuviÅ³
lymp
ĠAp
ĠCome
ĠChen
ĠCream
ĠCool
unes
ĠSI
ĠSy
ĠSir
ĠSear
ĠSov
ĠSerial
ĠSMA
ĠSky
ĠSegment
owym
owego
ĠTree
ĠTumb
ĠTengg
ĠTitle
ĠTÃ¼rkÃ§e
Ġbere
ĠIV
idos
idgin
Ġproactive
Ġprowad
ĠWear
ĠWAN
Ġorth
abo
emat
Ġvow
Ġverm
Ġvoid
iks
ikol
Ġstain
Ġito
ĠMu
ĠMos
ĠMang
ĠMak
ĠMuch
ĠMars
ĠMaps
ĠMajor
ĠMigrate
Ġalleg
osis
ĠPL
ĠPit
ĠPur
ĠPang
ĠPoint
essential
esting
Ġexclusions
qual
istries
ĠDas
ĠDrag
ĠGUI
ĠBor
ĠBah
ĠFaso
ĠFellow
ĠFamily
Ġkult
Ġkuli
akespe
à¸¨
à¸ĺ
Ġricher
ĠbyÅĤ
android
ĠLine
ĠLapt
ĠLooking
ĠLAW
ĠHE
ĠHP
ĠHet
ĠHOT
ĠHUN
ĠRen
umbers
ipal
ĠEV
ĠEra
Ġconting
ogue
antu
ãĤ±
ustri
à¤«
à¤Ī
ĠOcc
ĠOfficial
ãĥį
erem
eress
Ð¸ÑĤÐ¸
Ġshorth
Ġchances
Ð¾Ð¸
Ð¾Ñŀ
Ġimg
Ġspark
ĠNG
ĠNP
ĠNAS
Ġtradu
ĠtrÃªn
Ġarithmetic
Ġabide
Ġabroad
Ġcomposite
Ġenorm
Ġteks
ÑĤÐ¾Ð³Ð¾
ĠInn
ĠJoe
Ġnearest
Ġresign
Ġresidences
ÑģÑĢÐ¿ÑģÐºÐ¸
associ
Ġupheld
eben
ĠVert
ĠVault
Ġzani
Ġzabez
erves
Ġcrew
ĠStage
ĠKrist
Ġdeserial
Ġdesirable
php
phinx
Ġclin
Ġclusters
Ġnewlines
away
ÙħÙĪ
ÑĥÑħ
Inf
Ġoutlines
obi
obu
Ġprest
Ġevolves
ÙĬÙĪ
Ð´Ñĸ
atures
Ġwebpage
Ġ350
rying
Ø§ÙĦØ«
onditional
Ð¼Ð°ÐºÐµÐ´Ð¾Ð½ÑģÐºÐ¸
Ġbuffer
ĠProp
ĠProton
rowing
Ã³rz
ahr
ositions
Ġdefe
ĠReid
ÑĭÐ¿
ĠForrester
Ġpublicznej
Ġaccessories
ÅĤÄħcz
Ġchangelog
Ġ1923
erty
ĠWebRTC
ĠprogramaciÃ³
ĠØ§ÙĦØ´
Ġregents
Ġexpire
Ġexpects
ØªØ§
ĠChase
ĠChildren
Ġinterchange
Ġacronym
ologii
Ġfunz
Ġlaure
Ð³Ð°ÑĪ
ÑĸÑģ
Ġuga
Forms
wealth
ringement
othy
Ġ44
Ġ404
Ġmetatable
Reference
Ġinvitations
azas
azaki
proving
Ġlegend
ierra
×¨×¡
urrence
Ġcoined
egi
ÉĽm
ÉĽÉĽ
Ġinches
Ġreadily
Ġundue
2013
ĠYear
Ã¡ng
ymbolic
ĠÐ¿Ð¾Ð¼
nergy
ĠThiel
ampu
Ġhadn
Ġcustoms
Student
ieng
ĠspeÅĤ
ĠÙħÙĪ
Ġnoncommercial
express
working
Ð°Ð½Ð´Ð°
Ġadvised
Ġadvancing
Ø³ÙĨ
Ġafterwards
omething
Ġ63
ĠXcode
Arab
Articles
Ã¨r
Ã¨me
Ã¨dia
Ġfoundational
Ġrestoration
ä¸ļ
ounge
itti
ãģ«ãĥŀãĥĥãĥģ
Ġnumbering
Ġtraff
Ġtraversed
Ġniriba
Ġelle
ĠÐºÑĮ
ĠÐºÐ°ÑĢÐ°
ĠÐºÐ¾ÑĤÐ¾ÑĢ
ĠAmsterdam
Ġ107
192
195
Ġáģ
venth
à½ĺ
ÐµÐ½Ð°
ÐµÐ½Ðµ
ÐµÐ½Ñı
ĠShannon
ĠQual
Ġtyped
Ġrealization
Ã¢i
ĠAnsw
Ġë¶
iÄĻdzy
Ġbasket
121
ãĥ³ãĤº
ÐºÐ¸Ð¹
Ġestimate
ĠÐ¼Ð°ÑĤ
ĠÐ¼Ð¾Ð³
ĠÐ¼Ð°ÐºÐµÐ´Ð¾Ð½ÑģÐºÐ¸
Ġpassage
160
164
Ask
Process
Ġdemocr
Ġà°Ĩ
Exp
133
ĠÙĪÙħØ¹
157
Ġcontinent
Ġcontinuation
Ġrefine
Ġrefuse
ĠÑĤÐ¸Ð»
ĠÐ´ÑĢÑĥ
ĠØ¨Ø£
142
145
means
Ġplacement
Ġ×ľ×©
Ġ×ľ×§
àŃ±
Ġanaliz
ognized
ĠOnTr
Ġcollects
170
178
achel
Control
Ġpopup
iska
Deep
ãģĮãģ§ãģįãģ¾ãģĻ
Ġ94
virt
Ġnyan
Ġconfigurable
æľª
ĠmajÄħ
ĠâĪĴ
shirts
ĠWithin
ancer
adaÅĦ
Ġmodeled
Notable
nih
ĠBeast
Ġseparating
Ġassociations
ĠPhoto
ARK
Ġ×Ĳ×Ļ×ł×ķ
111
ĠÐ°ÑŀÑĤÐ°ÑĢ
CAL
ĠRecognition
ãĤ¤ãĥĦ
eese
Ġpresenting
Ø§ÙĨÙĬ
ĠComputing
Ġvalidators
Ġinteractivity
Ġcostly
Ġespec
ĠespaÃ±ol
Appelhans
Ġcommentary
áĪµ
Shirt
ĠStudies
×ŀ×ľ
Ġdetermination
atta
ĠComb
ÓĻÐ¹
Ð½Ð°Ñĩ
Ġanswered
Ġanswering
ĠMicrodata
ĠRegards
ĠRegulations
ĠÐ½Ð°Ð¿
IDE
Ġimmigration
×Ľ×ķ×ľ
amento
Ð»Ð°Ð¼
Ø·Ùģ
ÑİÑĤ
ĠImplementations
ginx
æĸĩåŃĹ
Å¡u
ÏĦÎ·
Ġlaunches
ĠScrim
Ġ×ķ×Ĳ
Ġmeasurable
ÑģÐºÐ¸Ñħ
Ã´t
ĠíħįìĬ¤íĬ¸
baÅĭ
ìĹŃ
elebr
Ð½ÑĭÐ¼
ISO
Ġßĺß
ãģķãĤĮãģ¦ãģĦãĤĭ
eroon
Ġnormalized
2001
ĠPublication
Ġdziel
ĠEmmy
à¦®à¦¨
×¢×ª
Ġunsure
Ġunsafe
Ġencouraging
à¦¯à¦¬
ãĥ¼ãĥĦãĥªãĥ¼
Ġodd
ÛģØ±
ĠBrush
ĠPalest
Ġassistive
Ġcrack
Without
Ġschemes
Ġphysic
Ġconstructing
ĠAfricans
India
Generative
à¶½
Ð¾ÐºÑĥ
Ġsatu
ensorFlow
ãģ®ãĥİãĥ¼ãĥī
ãģ®ãĥķãĤ
à·Ķ
Ġbuyers
Ġattempted
ÏģÎ³
ÛķØª
×ŀ×Ļ×Ŀ
Ġboasts
Ġdrink
ĠðŁİ
à¸ļà¸ģà¸²à¸£
Ġpurchases
éĢĻ
Ġphotographed
Otherwise
Ġdebates
Ġenforceable
Ġauthentic
Ġjudged
ĠStatus
á»¥sá»¥
ç´°
ĠÐĲÐ²
ziÄĩ
ĠSimpl
Ġliberal
doors
Ġprojekty
Ġextraction
ĠAnthropic
logo
Ġtransformations
áº¡o
inyarwanda
Ġpositives
åĽł
à¦ķà¦Ł
marked
Ġenjoying
ĠØ§ÙĦØªÙĤ
Ġeconomics
iguous
ĠEvan
Artificial
íķĺê³ł
ĠAnywhere
Ġexercising
Ġuniverse
Org
ĠÑĺÐ°Ð·
Ġbanner
ĠPCs
ĠMarathon
Ġsilently
requently
ĠCampbell
ĠFlip
ĠOrganizing
ĠÑĦÐ°Ð¹
Ġfancy
services
á»Ļng
Ġ×Ķ×ŀ×¢
Ġmerges
Ġintegers
ÙĦÙĬÙĦ
agaare
áĢ½áĢŃáĢ¯
ãģĵãģ¨ãĤĴ
Ġloose
Ġstacking
Ġagrees
website
atarÃ§a
ĠÊ»Åį
Ġsleek
Ġoversees
Ġstrategicz
znij
Ġcalculate
Õ«ÖĦ
Ġrecipes
Â».
ĠConfidential
àªľ
ĠrequestedLocales
Transclusion
Ġfundamentally
Ġrolled
ãĥĸãĤ¸ãĤ§ãĤ¯ãĥĪ
Ð³ÑĬÐ°Ð½
Õ¸ÖĢ
ĠnajwaÅ¼
ç§»
Ġrows
ĠDemon
Ġadmit
åįĹ
oloji
ç«¯
ĠEleventy
Ġprakt
column
ä¿Ĥ
ĠPostScript
ĠPostmates
ĠEverything
Ġaccelerating
REE
æ¨¡
IPO
áĢ±áĢ¬áĢ·
demo
Activity
ĠÙĩØ°Ø§
Ġcatching
Supporting
Ġcartel
ĠChel
Supp
Ġcertificate
ĠNameTag
à¹Ĥà¸Ħà¸£
Portug
PortuguÃªs
APIClients
Attribution
Ġãģ¨ãģĦãģĨ
Ġargs
æŀĦ
ĠSilimi
Ġdiscovering
Projects
andalone
ĠLLMs
ĠEntreprene
ĠDolan
Background
Ġproceeding
Ġratification
Ġlexical
ãĤĪãģĨãģª
Ġwallets
Ġíķ´
Ġverbatim
Ġprotezione
Ġaplikacj
Malay
Ġscholarly
ĠArbitrator
Ð°Ð»ÑĮÐ¼
åĳ³
Ġoctets
ĠReturn
åĵ¡
ĠLeader
Ġcolonial
ĠkaÅ¼dy
Ġpreserved
Ð£Ðº
Ġsettlement
ë©°
Ġkunnen
Ġgradually
Ġhierarchies
×Ļ×ŀ×ķ×©
à¤ĩà¤²
ĠìłĢìŀĳë¬¼
Organizations
Ġtriggers
display
GeneratedAPIClients
Õ¸ÖĤÕ¡Õ®
Features
Ġenforcing
ĠcaÅĤej
Ġserialization
ÄĹs
Ġczasu
ĠCassation
ECTION
Automatic
Ġsucceeded
Ġaudioph
Speaking
ëĵ¤
Ġsyntactic
Ġamendments
Details
Ġattachments
ç¶ŃåŁºåªĴé«Ķ
àº²àº
åķĨ
Ġyuya
ĠNorway
ãĤĴåıĤçħ§
ĠLimited
eresse
ê³µìľłê²½ìłľ
ãĤªãĥĸãĤ¸ãĤ§ãĤ¯ãĥĪ
Ġfluency
Ø¤ÙĦÙģ
Ġponad
Ġponiew
ĠCircuit
Ġdeutschsprachigen
Confluence
ãĥªãĥ³ãĤ°
éĸĭçĻº
çłĶ
Ġtelah
Ġpitfalls
ĠDialog
ĠHenry
ordinator
Ġcelebrities
à«ģ
ĠHardware
âĪŀ
Ġnivell
ĠJahren
ä½įç½®
slovenÄįina
Ġdictionaries
ĠTypically
Ġstereo
ĠBanjar
Ġridic
ĠEinwill
ÙĪØ¬ÙĪØ¯
Ġìĸ¸ìĸ´
æĬĢè¡ĵ
ĠartykuÅĤÃ³w
×ŀ×ķ×ł×Ķ
mnanti
ÅĤatw
collectively
activated
ĠDeleteMe
Ġìłķë³´
Ġlokal
ĠFiltering
Ġaccompany
Ġdatasets
WspÃ³ÅĤprac
jurisdict
æĴŃ
ĠFedRAMP
Ġà¤Ĩà¤ªà¤ķ
Propos
fenv
pictured
speaking
çĽ´æİ¥
ĠBroadway
Ġpoziomie
Westlaw
integr
Ġdeprecated
ĠzapewniajÄħ
Ġdestroyed
DziÄĻki
ĠãģĵãĤĮãģ¯
Ġmundo
Ġramach
Ġelaborate
ĠÄĳiá»ģu
Ġá¸įÃ¢
Ġvocals
ĠJurassic
Ò·Ð¸ÐºÓ£
ĠciÄħgÅĤ
Ġvibrant
ĠMillennium
ĠDublin
Ġredundant
Ġsoluzione
ĠPROVIDED
Ġpadding
ĠPricing
Ġambiguity
ÙĦÙĪÙħØ§Øª
ĠÎ½Î±
ĠÑıÐ·ÑĭÐºÐ¾Ð²
ĠROI
Ġ×ķ×ł×ķ×ķ×Ļ×¡
haustive
Ġmetaprogramming
ĠMailingliste
Ġunchanged
ĠVerfÃ¼gung
Ġstorytelling
Î´ÎµÎ¹Î±
Ġjurisprud
cobbola
ĺìĿ´ì§Ģ
Ġtongue
Ġelegant
Ê»zbekcha
ĠíİĺìĿ´ì§Ģ
REATIVE
Ġrzeczywist
è±¡
ĠBazaar
Ġrulemaking
ãĤ³ãĥ¢ãĥ³ãĤº
akespeare
ĠHOTEL
ĠHUNTR
ĠOnTrac
à¦¯à¦¬à¦¹
à¹Ĥà¸Ħà¸£à¸ĩ
%),
-,
//
219
329
799
Alemannisch
Bre
Bud
CS
Cur
Crit
Cla
CON
Den
Ded
DID
Ent
Ell
Early
Easy
Fan
Four
Future
Frysk
Galleries
Ido
IBM
Iterator
Joseph
Joris
JAE
Ki
Kore
Kern
Kiswahili
Lib
Line
Lee
Length
Move
Master
Na
Pers
Put
Pass
Render
Rounding
Sun
Sort
Such
Solution
SEC
SLT
Vik
Voice
Vikip
WC
WE
WoT
Wizard
Zero
["
aÃ§Ãµes
bd
bis
big
best
boy
cd
car
dog
dens
dating
draÅ¼
eu
eesti
fri
font
gments
gÃº
gabe
geme
galego
hÉĽ
iOS
jn
jut
kat
kers
kern
kward
maps
nor
nah
nung
nals
numeric
normal
oast
often
pol
poss
rÃ©
rick
she
sche
tags
uis
ueng
vatski
wind
whether
}.
Éĸ
ÌĢ
ÐĨ
Õ®
Ø¢
ß¯
ß°
å¨
æĳ
çľ
è´
éĺ
ëĸ
ë²ķ
ì°
ìĥģ
íĮ
íģ¬
Ġãģĵ
Ġà¸Ĺ
Ġíķľ
Ġidioma
Ġà´®à´²à´¯
Ĩµ
ĪÖĤ
ļĢ
Ńìĭľ
ĠtÃ´
ĠtÉĶn
Ġapr
Ġapache
indu
inciples
Ġsig
Ġsak
Ġtheories
enza
itus
itÃ¤t
Ġcens
Ġcord
Ġcognitive
Ġcockt
Ġpil
Ġpill
Ġpounds
Ġpuzz
Ġwis
Ġward
Ġwind
ĠwdraÅ¼
oust
Ġfired
Ġfasc
Ġfilling
alition
alÃ¡
ĠoÃ¹
Ġozn
Ġanche
Ġdini
Ġdarm
Ġdunia
Ġdáº«n
ĠbÃ¡
Ġbother
Ġbump
Ġbiking
Ġmenggunakan
Ġinclus
arq
arin
roke
enting
entric
asury
Ġnic
Ġnel
Ġnose
Ġnhi
Ġreinst
Ġreaction
Ġrebase
Ġrebuild
uset
usun
omal
Ġlou
Ġlors
Ġlux
Ġthrott
iliz
Ġhood
Ġhints
ĠhÃłnh
eton
Ġisang
implementation
ĠAgriculture
igten
amor
ammlung
ĠCH
ĠCast
ĠCDN
ĠSab
ĠSper
ĠSav
ĠSAP
ĠSovere
stan
stage
ĠTin
ĠTan
ĠTher
ĠTex
Ġbears
olina
aden
aditional
Ġgly
Ġgra
Ġgirls
Ġproy
ĠWOR
Ġconceived
Ġusp
eling
elix
abay
urat
urge
uristic
urgs
emple
Ġvou
Ġvide
ulat
ulis
ulatory
ifference
acion
Ġstarter
opÉĶ
ĠML
ĠMil
ĠMike
osity
riel
rips
ĠPut
ĠPotter
ĠPNG
irs
irundi
ppers
essa
Ġexclusion
econom
econds
ĠGro
ĠGrid
ĠGagana
ourse
plate
plication
plane
Ġnotafish
ĠBN
ĠBang
ĠBott
ĠBoys
ĠFa
ĠFraud
Ġker
Ġkad
Ġkop
Ġkase
Ġkap
Ġkemb
Ġkhi
akukan
iesiÄĻ
romÃ¢nÄĥ
ĠLoc
ĠLove
ĠLoss
ĠLittle
ĠLÃ¶sch
ĠHask
ĠHutch
ĠHBase
ĠHotels
artikel
ĠRust
ĠRES
ĠRyan
ĠRouter
ainer
âĢĻ.
ipa
ipher
ipse
ĠES
ĠEcosystem
ĠTheater
endix
Ġseats
Ġsebu
ĠUl
ĠUpper
ĠUPS
ĠOscar
Ġsua
ãĥĭ
Ġheb
Ġshr
Ġshield
Ġshifts
resources
Ð¾ÑĢÐ°
Ġworkplace
Ð½ÑĤ
ardi
ibt
Ġlee
Ġleps
ichi
iele
Ġcompos
Ġallocation
Ġdoors
Ġdozens
Ġintens
ansas
ÑĤÑĥÑĢ
Ġji
ÙĦØ²
ailand
ĠInline
ĠJir
ĠJenn
ĠJakarta
Ġaccum
Ġaccused
beros
berapa
Ġsovere
Ġsobie
Ġresume
plex
ribu
rible
Ð»Ñĸ
eping
grat
Ġupfront
ebooks
ĠVee
ongol
ĠCommerce
ĠStories
ĠStev
ĠStyling
asturianu
ĠKl
ĠKr
ĠKup
ĠKids
elles
ellan
Ġscales
Ġdesktops
phia
Ġclauses
Ġnewsw
ÙħØµ
ÑĥÐ¶
ternative
lli
ordinate
Ġmanifest
Ã©ng
Ã©conom
Ġpret
Ð´Ð°ÑĢÑĭ
into
Ġrecru
ermark
Ġconsecutive
ositive
Ð²ÐµÐ´
ĠRevenue
ÑĭÑģ
ÑĭÐ½Ð°
ovim
Ġ1941
Ġ1968
Ġ1961
Ġunderneath
Ġrelax
ĠWebM
henomen
ĠØ§ÙĦØ®
Ġoverwriting
wnoÅĽÄĩ
Ġpeu
emente
á»³
á»ħ
ĠChallenges
Ġinterior
ÄĻtr
embler
Ġsystematic
cepts
ãģ®ä¸Ń
ãģ®è¦ģç´ł
Ð³Ð¾Ð½
Ġug
aley
ĠverÃ¶ffent
à§Ī
Ġheaded
ixed
ĠSpect
onese
ringing
cking
othic
Ð·Ð°Ð¼
letters
Refer
Ġdesignate
Ġinvitation
Ġì£¼
êłī
êłĴ
eka
rana
Ġlicensees
Ġwanting
ysz
à¨Ł
Ġunderst
2010
2012
ashPlan
ĠYogy
Ġretired
ĠavailableLocales
Ġnowych
Ġnamely
Ġdecor
Ġguy
ĠÐ¿Ð¾Ð½
ĠÐ¿Ð¾ÑĤ
ĠAppriver
Ġà¦¡
Ġà¦¶
Ġà¦Ĺ
Ã¤Ã¤
Ġbuilders
ferred
Stan
Storkk
Ġsmoke
ieni
Ġgrid
Ġgrass
Ġdirectives
posing
lietuviÅ³
Ġendanger
Ġadverse
Ã¼m
Ã¼t
Ã¼Ã¼ts
nyo
Ġcontributes
Ø¹Ø§Ø¯Ø©
Ġinternationally
ĠExplain
Ġ66
ĠXPath
lisher
106
them
Ã¨h
Ã¨k
zyklop
ĠAtta
Ġbeste
ãģ«è¿½åĬł
Ġinfin
pute
Ġherein
ĠInteresse
ĠÐºÐ¸ÑĢ
Ġshowcases
isma
ĠAlong
Ġengra
anki
notafish
1983
ÑħÑĬ
Ġcompleting
ĠZjedn
kii
kiem
Ġemailing
Ġtypeface
à¸²à¸°
à¸²à¸Ĥ
Ġtranslators
Ã¢t
Ġrail
Ġraises
ÑĪÐ¸
Ġëį
Ġë¯¸ëĶĶìĸ´
ÙīÙĬ
ukum
ÙĥØ©
aires
Ġetwa
122
Ġconstants
Ġconstitu
loaded
ercase
ÑģÑĤÐ²Ð¾
165
ĠÐ½Ð¸
Adapt
lingua
ĠÐ±ÐµÑĢ
iquitous
Ġclassify
Ġclicked
Ġsoundtrack
ãģĹãģı
154
156
conf
Ġcontinually
181
ĠÑĤÑĢÐµÑĤ
ĠØ¨ÙĪ
govern
143
mean
Website
Ġplaceholder
Ġ×ľ×ł
Ġbrid
Ġbraces
ĠOnion
ĠEnablement
×Ĳ×¨
beh
beeld
177
Ġcapac
Ú©ÛĮ
ĠáĢĺ
autom
Chinese
Deploy
ĠMediawiki
Ġhappily
fficiency
Anal
à¸Ļà¸ķ
sidebar
ERIAL
Ġcopyvio
Ġmeanings
ĠØªÙĨ
ĠdevicePixelRatio
Ġcommitter
Ġpromised
ĠÎ´
Ġreplaces
ãĤ¹ãĤ¯ãĥª
Ġtablet
Ġslash
Ġslides
Ġversch
ĠversiÃ³n
ĠInstitut
Convers
ĠPhD
naire
äº§
ĠÐ¸Ð»Ð¸
Ġdaylight
Allow
ĠOrder
Ġ×ĳ×ĸ
Ġ×ĳ×Ĺ
Ġ×ĳ×Ľ
ĠIncre
à®©
à®¯
Ġincreases
arma
Ġmovements
AILA
Ġdefinitive
option
ãģķãģĽ
ðŁĳ
à¸ģà¸¥
ĠMalaju
×©×Ļ
Ġsupplies
Ġquestioned
Ġexecutable
Secret
Implementation
Ġà¨¨
Ġà¨²
Ġconception
Ġcombining
ĠÐ½Ð°Ð¿ÑĢ
ĠzespoÅĤowi
Ġimpacted
ĠÄĳáº¿n
IDC
ĠCape
commun
×¤×Ļ×Ŀ
Ġà¬¹
ĠÃĹ
Ġ1987
Ġduu
ĠduÅ¼
Ġcharacterized
Ġestablishes
ĠParticularly
Ġlaundering
ĠWorldShip
tracking
trzym
ĠScroll
Ġprevention
Ġ×ķ×ľ
zaÄĩ
Î½Î±
à¸£à¸°
Ġmeme
Ġavoided
Ġoriginated
Ġoccurrence
ĠzaÉ£
ĠíĶ
ĠíĹĪ
Ġíı¬
Ã²i
Ġmarketers
Ġcarries
Ġcarpet
Ø²ÙĬØ©
ietuviÅ³
ÎµÎ¯
Ġßĺ
Ã«l
Ã«tz
ĠVeronica
Ġdinner
Ġthreaten
ãĥ³ãĥĹ
ĠMeans
Ġdrafted
Ġcalibr
ĠCoffee
ÅĦsk
à¸¢à¸Ļ
ÑģÐºÐ¾Ð³Ð¾
Ġcrossed
ĠniektÃ³
Ġinterpreters
Within
×Ļ×§×¨
ĠinitialValue
Recreation
Ø³ØªÙĪ
neto
ÑĨÐ¸Ð¾Ð½
ÑĨÐ¸ÑĺÐ°
à¶»
áģĬ
áģŁ
Ġcredible
Ġ×ĳ×Ļ×Ł
ĠÑĩÐ°ÑģÑĤ
ãĤ¿ãĥ«
à·Ģ
Ġ×Ļ×Ľ×ķ×ľ
ÏģÎ¬
Ġbeginners
ĠPrograms
Ġterror
ĠWikipediji
ASCII
áĭ²
áĭµ
áĬŃ
Õ¡Õ£
×Ĵ×ľ
ĠðŁĴ
Ġiterate
PRA
PRESS
Ġprints
tests
à±ģà°Ĥ
Ġinitiate
Books
Ġmedian
Ġcompilers
Ġpaint
Ġpainted
Ġsimplicity
Among
ç´Ħ
à²¨
à²ķ
Ġtwelve
Ġgenres
Ġgenannt
Ġneglig
Ø«ÙĬÙĤ
ä¸Ģéĥ¨
ĠSubRip
Ġelectric
Ġenjoys
×¦×ķ×ª
Ġsusceptible
Partners
à¸²à¸£à¸ĸ
suomi
Ġ×ł×Ļ×ª
ĠReporting
Ġslowing
imbab
å¹¶
ĠGrand
ĠGrants
Ġ1972
Ġ1976
Designed
Ġfootnote
ĠÐľÐ°ÑĢ
ĠFloor
ÑĥÐ½Ðº
Ġanimations
ĠUsed
idiya
ĠÐ·Ð°Ð³
ä¾Ĩ
éģ¸
lawan
Ġdroits
Ġ×Ķ×ŀ×§
Ġanalyzer
Accessible
ĠAttor
Ġstudying
Previously
rooming
ãĥĹãĥĪ
Ġretains
Ġtraveling
ĠNetworking
Prototype
Overall
æłĩ
ĠMatthew
ĠÐ¢ÑĭÐ²Ð°
Ġtranslatewiki
Ġbezpiecz
Ġconducting
Ġencykl
ĠÑħÑĮ
mbH
×ķ×ľ×Ŀ
ĠUniverse
ãĤŃãĥ¥
modified
Â»,
ĠTrustees
Ġmicroformats
Ġnicely
hrvatski
àª°
àªĹ
Ġprohibits
ãĤ°ãĥ«ãĥ¼ãĥĹ
Ġsuspended
Ġtenure
Ġhabit
ĠhoÊ»
Module
åĮº
×Ļ×§×Ļ×ŀ×
áĥĲáĥľ
Assume
ÃŁe
Ġpenalty
ĠDemocr
Ġmaks
Ġmakers
Ġ×ĸ×ķ
ĠMusical
ĠCommonwealth
Ġprzysp
ÑĳÐ½
Ġprawa
Ġthousand
Ġhitting
ednes
Ġ×ª×Ĺ
nski
Ġjournalists
Åįng
ĠTwoje
ĠTwojej
Ġmonitors
Extensible
Identifiers
çīĪæĿĥ
á¹£
abei
à¤Ĺà¤°
ĠTesting
ĠØ§ÙĦØ¹ÙħÙĦ
versely
ç¶ļ
ĠÙĩØ°Ùĩ
ĠMedal
OfLocale
ĠChem
Suomi
ĠCameras
Ġconsumption
Ġawkward
ðĲįĤ
èĩªèº«
æŀĲ
ĠDRI
çĶŁæĪĲ
bridge
Ġconformant
ĠPanel
ĠDetection
Ġtroubleshooting
ä»£ç¨ĭå¼ıèªŀè¨Ģ
olidity
ĠPolish
Ġkamani
ĠIntegrator
Ġsummarized
osphere
ongoDB
éĩĳ
ĠLLM
Ġbulk
ĠkorzystajÄħc
ÙĦØºØ©
Ġproceedings
Ġsurveys
BSIT
ĠluáºŃt
ĠìķĮ
Ġcelebrating
æºĸ
ĠSDKs
TRAN
Ġdimensions
Ġbathrooms
à½¼à¼ĭ
Angular
amanankan
ĠTreasury
Ã¼rkmen
éĽ»
Ġaktiv
ĠChristopher
ìķ½
ĠCRLF
urobo
Ġarrangements
uÉ£u
Mathemat
rÃ³d
åİ»
åŃ¦æł¡
Ġmuseums
Ġoverlap
Ġcitizenship
Ġtweak
Ġbagian
Ġexceeds
Developers
ĠIsraeli
Ò»Ñĭ
fÃ¼ll
ĠSlack
ĠResponse
ĠIranian
ĠElectronic
èŃ°
Ġsanctions
Ġsanctioned
ĠcaÅĤym
ĠWalras
Ġlainnya
ĠAVAILA
ĠBrighton
ãĤ³ãĥ³ãĥĨãĤŃãĤ¹ãĥĪ
ĠSERVICE
çµĲ
Ġcrowd
Ġfoster
Ġseguridad
Ġteacher
Ġsynchronization
Ġallegedly
Ġobserved
Ġadvertisement
Powerful
Ġeliminated
Ġescalate
ĠCalendar
Ġê²ĥìĿ´
ĠìľĦíĤ¤ë¯¸ëĶĶìĸ´
ĠDefinitions
Shortcuts
æ´²
æ´»
Ð½ÑĮÑı
Ġdisruptive
ÄĻdÄħ
ĠÐ¼Ð¾Ð¶Ðµ
Visual
ĠTaywan
Ġkicked
çº§
çº¿
Ġdowol
ĠgÃ©nÃ©ral
Ġszablony
second
Õ§Õ¶
Ġdomestic
ĠartÃŃculos
ĠTrackers
ynchronous
Ġnegotiation
ĠAcademic
ĠOptimizer
LANG
ìĺ¤
Ð¾ÑħÑĩ
ĠsprÃ¥
Ġinconsist
Ġsupersedes
Kategori
è³ĩ
Ġcasual
ĠíĮĮìĿ¼ìĿĦ
èĢĥãģĪ
Ġdisappointed
çħ§çīĩ
ĠWEBSIT
à¸¶à¹Ī
attributes
ĠOriginal
å¤īæĽ´
ĠìŀĲìľł
Namespaces
Ġauxiliary
Ġleverages
Ġleveraging
ãģ¾ãģŁãģ¯
Ġuncertainty
åħ±äº«èµĦæºĲ
ĠÓ©Ð·
Ġeller
Ġstewards
ĠBosworth
Ġsistemi
ĠCNN
Ġdismissed
Ġanalogous
ĠmoÅ¼liwoÅĽci
Ġanticipate
ulitano
ãĥľãĥĥãĤ¯ãĤ¹
Ġsoccer
ĠwartoÅĽci
ĠGeoJSON
ĠNetflix
Ġzakres
Ġcheapest
Ġskept
åħ¶ä»ĸ
ĠkaÅ¼dym
Ġpodejm
æµģ
Ġaugmented
ĠBerners
ĠUntil
Ġaffirmative
Japanese
ĠFROM
æĿ¡ä»¶
ĠãĤĤãģĹ
ĠTutorials
ĠgÉĶli
Ġoccasions
Ġhobbies
ĠLIABILITY
ĠRogers
ibilitÃ©
ymaliz
ÑĦÐ¾ÑĢÐ¼Ð°
ĠØ§ÙĦØ«Ø§ÙĦØ«
à°°à°£
Ġwymagania
ĠØ£ÙĬØ¶Ø§
ZarzÄħdzanie
xygen
ç©¶
Ġà¤īà¤ª
Ġstatistical
ÑĬÑĳÑģ
ĠUrheberrecht
fÃ¤nger
éŁ³
ĠbÄĻdzie
Ġnobody
ĠAstro
ĠEDT
ĠPhiladel
Applications
ĠAssessment
flicht
implemented
ĠOWL
Ġspectrum
Ġaktualiz
Ò±Ð»
ĹãĥŃãĥĳãĥĨãĤ£
stantial
ĠLouis
ĠÐ±Ð¸ÑĩÐ¸Ð³
ìľĦíĤ¤ë
Ġascending
Ġrecruiters
ĠlaÉ£im
Ġanalyses
ì²´
Ġreimburs
ĠRebirth
Ġà¤ıà¤ķ
áĥĿáĥ
ĠpomagajÄħ
å¹³åı°
Ġscrutiny
idelity
quoia
ĠEducational
Ġdesenvol
à¥¨à¥
woofer
Ġamenazas
ĠÐ²Ð¸ÐºÐ¾ÑĢÐ¸ÑģÑĤ
æĪĳä»¬
jÄĻzycz
ãĥ¼ãĤ·ãĥ§ãĥ³
Ġà¤¸à¤ķà¤¤
Ġãģ¨åĳ¼ãģ°
Ð·Ð±ÐµÐºÑĩÐ°
Martin
Íĺ-
Ġfeasible
æľįåĬ¡
ĠAfghanistan
klÃ¤rung
Õ¥Õ¿Õ«
Ġìļ°ë¦¬
FORMATION
Ġbatteries
ĠSMALL
ĠÊ»Åįlelo
Õ«ÖĦÕ«
àªľàª°
ĠChelsea
Ð°Ð»ÑĮÐ¼Ð³
Ġjurisprudence
Ġkembali
ĠHutchins
Ġsebuah
ĠYogyakarta
zyklopÃ¤
ãĤ¹ãĤ¯ãĥªãĥĹãĥĪ
ĠPhiladelphia
'),
**
115
350
970
:,
::
Ak
Bra
Come
CAT
Certain
Cascading
CPRA
Ear
Eisendrath
Fig
Focus
Function
Fourth
Gadgets
His
HADOOP
Men
NE
Op
Po
Pot
Pran
Private
Quality
RR
Rum
RIF
Switch
Scribunto
TA
Tests
Titan
UK
Um
Vers
Valid
WT
Win
Wol
XT
YY
Zas
_{
ao
aq
aam
aud
bir
bare
bek
business
cf
cor
cern
coll
codes
dj
dul
days
gel
hh
hire
hren
hmen
jub
jÃ¤
kim
kont
knowledge
lg
late
loc
linked
layer
layout
mir
mare
many
music
nji
oan
pent
pract
push
rue
rings
same
sApp
szer
security
sá¹³
tune
tiff
thens
uments
wing
wang
wana
xistent
yet
yÅ©
zident
¡åĽ£
ªáı
¾è®
ÃĢ
ÄĿ
Å¯
Î£
Ó¯
Õ°
Öĥ
â²
âģ
âľ
åĤ
åĦ
ç¦
éľ
éĥ½
éħį
ê´Ģ
ë¯
ëŁ
ì¹
ĠÆ
Ġ),
Ġ}}
Ġà½
ĠÐ°ÑĤ
Ġ]]
Ġà¸Ħ
ĠÅ¼y
ĠÏĩ
ĠÛĭ
ĩãģĨ
ĵãĤ¸
Ġtt
ĠtáºŃp
Ġast
ineligible
heast
onie
reed
reporting
erces
atel
atto
Ġsia
Ġsang
Ġsink
Ġsne
Ġsides
Ġsalah
Ġsourcing
esy
esis
items
itivity
Ġcave
Ġcook
Ġcá»¥
Ġcaso
Ġcurrencies
Ġcircles
Ġpia
Ġpause
ĠpoÅĤ
Ġpunch
Ġphenomen
isia
ouw
edown
Ġfer
Ġflickr
Ġfoi
inge
Ġoxygen
Ġdict
Ġdorm
Ġdrets
Ġdá»ĭ
Ġblow
Ġbaz
Ġbilled
Ġbanya
ĠbÄĻdÄħ
lein
leash
Ġtow
Ġmale
Ġmung
Ġmute
Ġmask
Ġmá»Ľi
Ġmountain
ĠmiÄĻdzy
Ġinbre
arang
entures
asin
aser
Ġnut
Ġnke
Ġreven
Ġreusing
Ġreversed
usz
omes
Ġls
Ġlala
Ġlounge
Ġthirty
Ġeld
ilen
otations
etia
eterm
images
imecast
amen
ĠCab
ĠCamb
ĠCancell
ĠCREATIVE
ersey
ĠSS
ĠSOL
owanych
styles
stellen
stÃ¤nd
ĠTs
ĠTri
ĠTER
ĠTengah
ĠTicket
Ġbela
Ġbeberapa
idas
idget
agt
olan
olph
Ġona
Ġonsite
adr
adom
Ġgun
Ġgesetz
Ġgarden
ĠWF
ĠWednes
ayar
Ġconce
eland
uries
empo
Ġved
Ġvir
Ġvak
ikut
ulio
acular
opera
ĠMind
ĠMedi
ĠMoz
ĠMountain
ĠMbps
Ġalc
rije
ãģĴ
ĠPeng
ĠPER
ĠPenn
Ġdeck
Ġdeze
irits
ublik
herit
Ð°Ð±
Ġexit
Ġexcluding
iap
ecks
istingu
ĠDoc
ĠDark
ĠDocuments
ĠDistribution
ĠDagaare
ĠGa
ĠGPU
ĠGiven
ploss
sex
ĠBuch
ĠFer
ĠFavor
Ġkami
akata
ewis
eworthy
nty
Ġrub
Ġunmatched
pton
illes
anden
ĠLA
ĠLan
ĠLia
ĠLind
ĠLala
ĠHilling
ĠHello
ĠHDR
ĠHausa
ĠRd
ĠRac
ĠRod
ĠRating
ĠRiver
ĠRolling
umlah
ĠEames
ĠEye
ĠEcho
ĠEHD
ĠEvaluation
ĠEuropa
ĠEgypt
ogram
antes
ãĤĩãģĨ
Ġseal
izar
ĠOw
ĠOx
ĠOPS
ĠOlymp
Ġsuites
Ġadapter
Ġhell
à¦ŀ
Ð¸Ð°
ĠchÃºng
ĠchÃŃnh
ĠspÃ©c
Ġsparse
ĠNas
Ġworker
ĠâĢº
ommission
ĠdoÅĽ
ĠdokÅĤad
Ġintense
perhaps
inee
ÑĤÓĻ
ÑĤÑĭÐ½
Ġjam
Ġjoke
ÙĦÛĮ
ÙĦØ§Ùħ
Ġrepublish
ĠJu
ĠJob
ĠJury
ĠJerman
ĠJordan
than
itekt
Ġneat
Ġplate
pleks
Ð»Ñİ
à°ĸ
gran
Ġdisabling
Ġperception
derick
ĠVIP
ĠVenture
ĠVillage
ĠVelve
ĠVulnerability
orsu
achs
ĠzadaÅĦ
imeWire
ĠStarter
ĠKu
ĠKansas
reek
Ġscams
Ġscopes
phr
awans
ÑĥÑĩ
ÑĥÐ²Ð°
Include
Initial
Ġpredomin
Ġsubwoofer
ÙĬØ«
resses
Ġpryw
ÙĪØ§ÙĨ
ÙĪÙĦÙĬ
intendo
Ġrecons
Ø§ÙĦÙħ
Ø§ÙĦØª
ondere
âĢĿ!
Ð¼Ð°Ð´
×ķ×ļ
ahing
Ġthematic
Ġdefence
Ġdefended
Ġdefending
iances
Ġtranscript
oval
ieden
Ġiw
Ġoffensive
Ġ1965
Ġ1969
Ġobst
Ġrelate
ĠWebCodecs
à¬¦
à¬·
à¬ļ
ÄħÄĩ
ĠprotÃ©g
aje
Ġassurance
Ġexpiration
ĠChampaign
ĠChapters
Ġuserpage
Ġbetre
ãģ®ç´łæĿĲ
Ð³Ð»
Ð³Ð»Ð¸
Ġkeine
ÑĸÐ¼
ĠuÅĤatw
ÑıÐ¼
ferencing
Ġ51
Ġ56
Ġroots
Ġyearly
Ġ41
Ġjustification
Ġblur
Ġdiscard
Ġdetr
azy
azz
êłİ
Ġsau
spr
spects
prop
×¨×Ļ×Ķ
Ø¯Ø±
Ø¯Ø¯
Ġincur
Ġincub
à¨¼
201
203
asha
ĠYoshi
ĠYahoo
Ã¡u
ymara
applic
ĠDeals
ĠThan
ampung
ampangan
Ġpermett
Ġstrangers
Ġcustomizing
Ġlookup
à±Ĭ
Ġgram
Ġgrund
Ġgrateful
Ġerforder
posed
Ġdonn
Ġdonated
ĠExpl
ĠExecut
ĠExcel
Ġ67
ĠXI
ĠXreal
theora
Ã¨neto
Ġviewport
ä¸ī
ĠAtkins
elsh
Ð±Ð°Ð¹
Ġdevised
ãģ«ãģĬ
Ãłng
Ġdelicious
ĠniÅ¼
Tool
Ġâī
Ġels
Ġelast
ATA
ĠÐºÐ°ÑĢ
ĠAlmost
ĠAlmanca
ÃŃas
Ġcorrupted
ãģ¾ãĤĮ
ãģ¾ãĤĬ
ÑħÐ¾Ð´
Ġpossession
insensitive
ÐµÐ½Ð¸Ðµ
ÐµÐ½Ð´ÓĻ
ãģ§ãĤĤ
ĠShakespeare
Ð°Ð»ÑĭÐº
compliant
kiw
Ġselectively
à¤¾à¤Ĥ
Ġtypos
Ġtranslates
Ġëĵ
Ġë¯¸
Ġapprovals
taining
Ġclever
Ã¶glich
Ġetap
ĠEngels
ynet
Ġconstitution
Ø¬ÙĦ
ĠNotebook
Ġfullest
167
168
ĠÐ±Ð¸Ð»
Express
Ġclassroom
Ġgoverns
Ġindividuality
ĠIndeed
ĠÙĪÙĬ
Ġdatat
152
185
ĠÐ´ÐµÐ³
Ð¾Ð²Ðµ
ĠØ¨Ø¯
ĠActivities
Speech
aupt
146
ijd
ijÃ´
Ġ1891
Ġintegral
tted
ĠBackend
àŃĥ
ĠÐ²ÑĸÐ´
Ġlasts
Ġportray
Ġportrait
ĠáĢĤ
ĠáĢħ
ĠáĢĿ
ĠWorkspace
ĠWorkshop
Ð¾Ð»Ð°
Ð¾Ð»Ð¸
Changing
Ġpopover
Ġphotographie
Ġnyang
aniami
Ġcontacted
ERY
ĠLeah
Ġcollaborator
Ġparticipated
æľ¨
æľ¯
ESE
ä»Ĭ
Ġpayload
à°¿.[
araan
Ð¾Ð½ÑĤ
åıĹ
ĠClimate
Ð¸Ð½Ð¸
Ð¸Ð½Ð°Ð»
Ġslight
Ġsloven
Ġfacing
ĠPreston
ĠAgency
ĠBeam
Ġtakedown
ĠpaÉ£
OSD
Ġ×Ĳ×ļ
ĠÐ°Ð¶
ĠÐ°Ð±Ð¾
ĠÐ¾Ðº
ĠResidents
ĠRecover
áİ¸
waan
Ġ×ĳ×Ĵ
ĠQuarter
Ġrecogniz
åħ³
Ġpresentations
åĪĩ
ãģŁãģ¡
Located
åĲĳ
Ġsecured
×ĳ×Ļ
×ĳ×Ļ×¨×Ķ
ĠÐ¿ÑĢÐ¾Ð´
Ò¯Ð³
Ġaccepting
]],
ĠTechnics
×ŀ×¢
dziesz
Ġbrother
×©×ķ
×©×Ļ×Ŀ
ĠAirGo
ĠComplete
Ġexecutes
ĠNoah
Imagine
ĠRegional
ĠRegistries
Ġà¨ª
ĠAfir
ĠØ£Ø®Ø±Ùī
ooi
ĠCapaldi
command
Ġpacked
Ġcorrections
Ġessence
Î¿Î»
à¼į
ÐµÑĤÐµ
Ġêłĥ
Ġêłİ
Ġactivation
ĠImportant
ĠtreÅĽci
Ġ1991
Ġwarn
ITS
Ġliá»ĩu
Ġ×ķ×Ķ
à¸£à¸¡
à¸§à¸Ļ
Ġavoiding
Photo
Ġinstitute
Ã²m
Ð½ÑĭÐ½
Ġsubstance
Ġalternatif
à¤¤à¤®
ieter
jekte
ÎµÎ¹
ĠWhatsApp
Ġregulators
Ġembarr
Ġcorrectness
Ġmentioning
Soft
ãĥ³ãĥī
Andrew
Ġveter
Ġveto
×ķ×¨×Ļ×Ŀ
ãĥ¼ãĥł
Ġinfringing
ĠFrag
Ġà¤ķà¤¯
Ġcurve
Ġcurate
hibu
ĠBusinesses
ĠPerfect
ĠIPO
ÑģÐºÑį
ÐµÐ¼Ð°ÑĤ
Buy
Ġáİ¢
netic
Bez
Beat
evolving
ĠshÉĽm
Ġ×ĳ×ķ×ķ×Ļ×§×Ļ×¤×ĵ×Ļ×Ķ
within
frames
paque
Ġtransferring
Isi
Ġ×Ļ×ĵ×Ļ
Ġbreakfast
Ġdifficulties
Ġbeginner
áº£o
Ġmisinformation
Comparison
Ġwspier
sequently
à¸ļà¸ļ
ĠjakoÅĽci
Ġflagged
ĠDisclosure
Ð¸ÑĢÐ¸
Ġexceptionally
ĠsociÃ©tÃ©
Ãºn
Ù¾ÛĮÚĪÛĮØ§
ĠARE
oweit
à²°
ĠIEEE
Ġtwist
ĠSimi
ĠìłĦ
OPY
Ġwerken
Ġforemost
ĠJudge
ispecies
ĠØ³Ø¨
Ð´ÑĭÐ·
åĽ¾
åĽŀ
ĠswÃ³j
ĠPortuguÃªs
Å¼ej
Ġirre
Scal
Scope
Ġkaro
×ķ×ł×Ķ
Ġevaluates
×¦×ľ
ĠArrayBuffer
à¯Ī
ë¡Ŀ
Party
daq
Ġdestruction
ĠTransfer
Ġslower
imburgs
Subject
Ġsilimin
Anywhere
Ġfooter
çĲĥ
ĠFlask
à¹ģà¸ģ
ĠJohnson
Resource
Ġkontro
Ġkontek
ĠOutreach
Ġimplies
Ġcleaner
Ġarbitrarily
ĠIllini
ĠÑĦÑĥÐ½Ðº
ĠGovernor
1998
celerator
ĠCharacter
Ġqualities
Ġqualifications
ĠContribute
Ġtreats
Ġadjusting
Ġtaal
Ġmixing
Ġlengths
Ġlengthy
áĢ½áĢ¶
ĠDesignated
werp
ĠCustomizing
Ġcircumvent
subject
subscribe
Ġwearables
Ġseemingly
oniecz
ĠINCLUDING
Ġassumption
Ġcapitalize
ĠprojektÃ³w
ĠIdentifier
ĠTiming
CLAR
ĠDiamond
ÐĴÑĸÐºÑĸ
ĠWarrant
MSC
ìĭŃìĭľ
Ġpredefined
Ġrouting
ĠSteering
ãĤ°ãĥ©
Simon
Ð¾Ð·Ð¾ÑĢ
Ġbelonging
Ġopposition
Ġlaunching
æİ¢
ĠStartups
glot
icipality
Ġdemanded
áĢľáĢĿ
Ġstrengthens
Ġcorporation
Ġsustained
ĠAffairs
ĠMinistry
Ġlistened
Ġlanded
Ġloops
ĠFinance
ĠFinland
ĠRussell
Ġconstraint
ĠSamuel
Ġaplic
Ġkuwe
Latih
Finland
ĠMultimedia
Specific
Ġcryptographic
ĠokreÅĽl
ĠÐłÐµÑģÐ¿ÑĥÐ±
ĠRemove
ĠRemote
ĠMagSafe
ãĥ«ãĥ¼ãĥ«ãĥĦãĥªãĥ¼
ĠDanny
ĠNeither
Health
Ġ×¡×¤
Ġ×¡×ł×ĺ
Ġcertified
Ġlaser
ĠCameron
Ġdoctor
ĠmoÅ¼esz
ĠmoÅ¼emy
Used
Ġhacks
ĠÐ¿Ð¾Ñĩ
ðĲįħ
ĠPayments
Tamzin
×Ļ×ĳ×ķ×ª
Ġdepicts
Defining
Ġmigrating
áºŃn
Ġmagazines
Ġsuffer
×ķ×¤×Ł
éĩį
ĠkpuÉ£
ãĤ¹ãĤ¿ãĥĥãĤ¯
Ġbulan
Ġ×ľ×Ķ×¢
áĥĺáĥĻ
ĠCONTR
ĠBetween
development
IGH
IGN
Smart
organization
halte
ÊĭÊĭ
ĠEXTENT
Ġscrolls
Available
Ã¤ngÃ¶
á¸¥
Ġtanggal
ãĥ³ãĥĢãĥ©ãĥ¼
Offset
Restrict
Æ¡n
Ġoctet
ÎŃÏĤ
Ġapartment
Ġmandate
ĠLeadership
à¦ĩà¦ķ
Ġarranged
è©²
edsiÄĻ
Ġyounger
accessible
ĠAgentic
rechte
á»±c
Ġpomocy
Method
ĠwiedzÄħ
icznych
×Ļ×ŀ×Ļ×Ŀ
Ġpronouns
Ġpolymor
arnate
Ġknowingly
Ġwonderful
å¤ļãģı
ĠSlushi
Ġartifact
Ġfragments
åĲĮãģĺ
Ġvictim
ÏīÎ½
Ð´Ð¼ÑĥÑĢÑĤ
ĠEspaÃ±ol
ĠIndustrial
Ġsupervision
Ġsupervisory
ĠÐ³Ð¾Ð´Ð¸Ð½Ð°
besondere
èµ·
Ġcompromised
Ġincorrectly
å¤ĸéĥ¨
Ġadvertisers
Ġwelcomes
Ġdisclaimers
êĻĳ
Ġwhitel
Ġtekstu
SiSwati
isyon
Ġfighting
Ġhyperlink
gricultural
Ġsculptures
Ġà¦ħà¦¨
Ġestimates
ĠÐ¸Ð½ÑĤÐµÑĢ
Visit
íĻĶ
ĠSpeakers
Ġbeliefs
Endpoint
è²¡åĽ£
Ġtechnologii
processing
Committee
ĠEncryption
Ġwsparcia
ĠktÃ³rych
wendung
ĠUmbrella
Ġáİłáİ´
Magyar
ÛĪØ±
Ġreverted
Ġdisagree
ĠíĻľ
éĹľ
ĠMovimento
Ġcooperate
ĠBlockchain
Boarisch
ĠWissen
ĠAdaptation
Ġniveau
ĠRankings
ĠKalim
Ġdecrease
Ø®ØªÙĦÙģ
ĠOrigin
Ġpleasure
è®¸åı¯èŃī
Navigation
Ġabbreviations
Ġautorskich
ĠØ§ÙĦØ§Ø³Øª
Ġinventor
áº¯n
ĠExceptions
ê±°
íĺĳ
ĠPermissions
ä¸ĸä»£
ãģĤãĤĬãģ¾ãģĽãĤĵ
×ŀ×ķ×ł×ķ×ª
Ġinnoc
Ġthorough
Ġdehydrator
Ġexchanging
×¨×¤×ª
ĠHeathers
ãģ¨ãģĦãģĨãģĵãģ¨
Ġìłľê³µ
ĠMaterials
Judge
Ġaziende
ĠwynikÃ³w
Ġlieu
ÛĮÙ¹Ø§
Ġ×ľ×¤×Ļ
ĠObservatory
ãĥĦãĥ¼ãĥ«
ĠKategorien
ĠuzyskaÄĩ
ĠÐºÐ°Ð¾
Ġ×ľ×Ķ×Ļ×ķ×ª
reenshot
reenshots
ĠPrinceton
critical
è«¾
Ġpuede
ĠMoore
ebuerg
Ġvaried
ãģ¸ãģ®
ĠJavanese
Ġoverwhelming
åľĸåĥı
Ġbottlenecks
éłħçĽ®
åķıé¡Į
Semantic
ãĤ³ãĥ³ãĥĨãĥ³ãĥĦãĤĴ
Ġaudiobooks
çĦ¶
Ġludzi
Ġproportion
Ġexcessive
ĠLizenz
uminum
ĠpostÄĻpy
Ġprzypadku
Nevertheless
ĠPipelines
Ġfiltered
Ġà¨ķà¨°
Ġpregnant
à¸ªà¸²à¸¡à¸²à¸£à¸ĸ
è©³ç´°
ĠQuadrantTM
Freedom
ĠUyeda
zeichnet
ĠGregor
ĠKerberos
ĠDisclaimers
Ġirrevocable
Ġ×ŀ×Ļ×ł×Ļ×ŀ
Ġrigorous
Ġureueng
itudes
ĠCoinhive
ãĤ´ãĥª
Ġenacted
Ø¨Ø¯Ø§Ø¹
Ġfrustrating
Ġprzewod
Ġturntable
restricted
ãĤĴåıĹãģĳ
ĠêµŃê°Ģ
Practical
Ġcáº¥p
ĠwskazÃ³w
ĠMarbella
ðŁı»
ĠVerbix
åĮħæĭ¬
ĠznaleÅº
Ġgiornal
ĠDedication
Ġintimid
Ġclosest
ĠLeopold
Ġunsubscribe
ĠrÃ³wnieÅ¼
Ġìĸ´ëĸ
Hedwig
ĠSoviet
Ġenormous
Ġbasketball
virtual
Ø·ÙģØ§ÙĦ
Ð£ÐºÑĢÐ°ÑĹÐ½ÑģÑĮÐºÐ°
ĠponiewaÅ¼
çłĶç©¶
ĪÖĤÕ«ÖĦÕ«
Ġglyph
Ġusprawn
Ġíı¬íķ¨
Ã«tzebuerg
×Ļ×§×Ļ×ŀ×ĵ×Ļ×Ķ
ĠAVAILABLE
Ò±Ð»Ð´ÑĭÐ·
âģĦ
Ġinbreuk
ĠHillingdon
ĠdoÅĽwi
ĠVelvet
Ġprywat
ìĭŃìĭľìĺ¤
(?)
.âĢĶ
450
549
700
:)
Az
Ach
Astronom
BB
Ba
Bal
Battery
Babel
Cia
Care
Cite
Cross
Dear
Dark
Dansk
Educ
Feedback
Germ
Hal
Hack
Knowledge
Keeper
Lang
Lev
Lego
Mor
Mus
Mov
Mair
Music
Maps
MUST
Moving
Ns
Nie
Network
NET
Natural
Oct
Pain
PoÅĤÄħcz
Parsing
Que
RA
Rich
Rank
ROU
Role
Sin
Sist
Tol
Tel
Tek
Tumb
TAG
Tutorial
Tesla
Ult
Voca
Week
Werner
Zazaki
]ãĢĤ
aac
bÃ¡
bahasa
cross
category
din
elect
every
euskara
fb
fy
fang
fuk
faced
foo
fiction
follow
fusc
gf
gle
gles
graph
global
giving
gaben
http
iÅŁ
kor
kÃ¢
kiej
kÅ©
ln
lia
lio
lagen
must
mount
nian
nof
oen
oit
ping
pir
pak
prom
present
predict
rif
rance
rint
san
sight
sell
syl
sczi
sweat
til
tos
uct
vr
vat
vier
vidia
water
wiÄħz
weni
yx
yah
zip
ziel
zilla
½ĺ
¾æİ¥
Â§
Â«
É»
Î¶
ÎĶ
ÑĴ
Ô±
Õ½
×¼
ÚĮ
á¨
åĺħ
çĭ
èħ
éĵ
ê¯
ëıĻ
Ġig
Ġoun
ĠãģĿ
Ġà¥¤
Ġiba
Ġä¾ĭãģĪãģ°
ģíģ¬
Ĥáģ
ĨĮ
Ġtense
Ġtah
Ġtough
ĠtÆ°Æ¡ng
Ġauss
Ġawa
inet
inue
oned
aton
atars
orad
orable
Ġsher
Ġsog
Ġsurre
Ġsama
ĠsÃ³n
Ġsigu
itoring
Ġcad
Ġcats
Ġcraw
Ġcáº£
anied
Ġpoc
Ġpaa
Ġwen
Ġwed
isine
eday
edya
Ġfed
Ġfault
Ġfiber
Ġfandom
Ġoploss
Ġdent
Ġdated
Ġdah
Ġdivers
Ġbio
Ġboli
icide
ician
Ġms
Ġmur
Ġmop
Ġmant
ĠmÃªme
Ġinject
Ġinjury
arai
rovers
asis
Ġndu
Ġnous
ĠnÉĽ
Ġneng
Ġngo
Ġnouns
Ġrenown
Ġlakes
Ġlately
Ġlights
Ġlhib
Ġlodge
Ġei
Ġeco
Ġeuro
otr
otu
etal
etun
etta
Ġyouth
imp
imize
Ġforked
ĠAy
ĠAAC
ĠAlice
igibility
ignty
ĠCod
ĠCreat
ĠClean
ĠCBS
ĠClear
ĠCOD
ĠConditions
uther
unning
unctuation
ĠSus
ĠSri
ĠSame
ĠSong
ĠSund
ĠSMB
ĠSagnarigu
owo
stud
structure
ĠTed
ĠTar
ĠTail
ĠTrain
Ġbeings
ĠIve
ĠIch
agam
agian
adin
Ġged
Ġgia
Ġgier
Ġgoli
Ġprose
âĢł
ĠWan
ĠWars
ĠWenn
ĠWelch
ayi
ayah
Ġcondu
Ġusur
elu
abytes
emory
Ġvarsity
ulent
ulaw
ulative
Ġwithd
acrit
Ġstakes
Ġstroll
Ġstabil
ĠMen
ĠMall
ĠMix
ĠMair
ĠMold
ĠMapping
ĠPM
ĠPT
ĠPs
ĠPu
ĠPent
ĠPuch
ĠPiano
ĠPulit
Ġdecept
oda
odzi
verting
ubstantial
estro
Ð°Ð²Ð°
eche
istik
occo
ĠDB
ĠDent
ĠDays
ĠDistribute
ĠDNA
ĠDurobo
ĠGeese
ĠGothic
ĠGmbH
plik
plugs
Ġnoteworthy
sere
Ġweights
forth
forcing
ĠBin
ĠBat
ĠBob
ĠBath
ĠBoot
ĠBush
ĠBinding
ĠBanyumasan
ĠFL
ĠFP
ĠFig
ĠFore
ĠFoto
Ġkr
Ġkart
Ġkons
Ġkategor
Ġkilled
Ġkiedy
Ġrus
Ġrack
Ġride
Ġ140
Ġunamb
ĠLC
ĠLing
ĠLang
ĠLjub
ĠHS
ĠHuron
arte
ĠRB
ĠRT
ĠRue
ĠRace
ĠRamb
ĠRole
ĠRendering
ivan
nde
umed
ĠEsc
ĠEthereum
upo
antically
Ġseat
ustry
Their
ĠOD
ĠOzone
ĠOAuth
ãĥ¢
Ø§ÛĮ
iale
eremy
Ġhei
Ġchurches
ĠimÃ¡
Ġspo
ĠNep
ĠNone
ĠNeg
ĠNick
ĠNutzer
ĠNigeria
ĠNederland
ĠNintendo
aret
arelawan
Ġtricks
Ġlew
close
closed
Ġarc
Ġarrest
osten
Ġabort
Ġdoit
Ġenrich
Ġtej
Ġtegen
ÑĤÐº
ÑĤÐ°ÑĤ
Ġjeder
ulties
Ġrepair
ĠJD
ĠJoh
ĠJUnit
Ġwaste
apÃ¼k
apampangan
those
igning
Ġplur
×Ļ×Ļ×©
Ġresc
Ġresolves
ÑģÐ¾
Ð»ÑĬ
Ð»ÐµÐ³
Ð»ÓĻÑĢ
actory
Ġdish
Ġdisasters
ĠVeg
ĠVLT
ĠVLAN
ĠVendor
ĠVerein
achment
Ġquer
Ġzro
ervers
Ġmeg
ĠStation
ĠStructure
Ġpartie
Ġpartition
×Ļ×ļ
ĠKil
ĠKot
ĠKenn
avior
avgat
Ġaddict
Ġscoring
Ġdeserve
Ġdeserves
Ġclothing
awn
awas
ĠØĮ
Ġoutbound
Ġoutdoors
ÙĬØ²
Ð´ÐµÑĢ
Ð´Ó©
Ġ2027
cesz
Ġsomebody
ÙĪØ¨
ÙĪÛĮÚ©ÛĮ
inting
intensive
Ġaggressive
Ġbuff
ĠProof
ĠProView
ĠProjekt
Ġemerge
Ġemoji
Ġconsoles
Ð²Ð°ÑĢ
Ð²Ð¾Ð»
ĠReve
ĠReach
ĠReading
ĠUnter
ĠUnits
ÑĭÑĤ
Ġlistener
nex
Ġaccessoire
issen
Ġforming
Ġindent
Ġindices
Ġtherein
ÅĤych
Ġmodest
Ġexamines
Ġ1967
Ġ1966
Ġ1955
Ġ1957
erten
Ġobserve
Ġsupporters
Ġmateria
employ
à¬ĸ
Ġattain
ĠØ§ÙĦÙĪØ³
ajn
Ġovert
Ġexpires
ØªÙĨ
ØªÛĴ
ĠpeÅĤ
á»ī
ĠChad
ĠChieng
Ġusergroup
adequ
ãģ®ãģ¯
ãģ®èĳĹä½ľæ¨©
ularies
Ġvern
Ġà¤§
Ġentre
ĠSpa
tenant
Ġsimul
Ġparl
iente
oya
Ġdisconn
Reusing
Ġì»
azer
êłĪ
êłĻ
ugin
ugging
uganda
spam
spective
eko
ekut
proyek
ierung
ossary
Ġeditar
ÑĮÑģÐºÑĬ
Ø¯Ûķ
ashi
ernate
Ġretire
ungg
Ġprofess
Ġprofits
apper
Ġdocumenting
reads
ĠApples
ĠAppeals
Ġà¦¥
amping
Ġ71
Ġ78
Ġdiacrit
ãĥ¼ãĤĴ
à±ĥ
Stock
áº©
enga
Ð°Ð½Ð¸
ĠTeil
Ã¼d
Ø³Ø©
ĠExit
×ľ×Ļ
Ġperformant
zyt
Ð±Ð½Ð¸
Ġbestimm
ãģ«ãģĤãĤĭ
ãģ«éĸ¢
Ġtravers
cribing
ĠInto
ĠInteress
Ġeligibility
ĠÐºÐ»Ð°Ñģ
Ġshowc
ĠAls
ĠAllow
ĠAlban
ĠÑģÑĥÑĢ
1961
Ġchooses
ÙĤÙī
ÙĤØ§Øª
Ġinsubstantial
Wikisource
Ġáį
playing
ãģ§ãģ®
ĠZwecke
ĠShot
ĠShapi
ĠShipping
Ġselective
Ġencod
Ġencikl
ÙīØ±
ÙīØ³Ùī
Ġapproving
ukwa
arson
ÉĶÉ£
Ġarguably
Ġconstru
ÐºÐ¸Ð½
ĠÐ¼ÓĻ
Ġpulling
annah
altung
Ġcheckuser
Ġdemographic
Ġadminship
ÐµÑĢÑĤ
iquid
ricks
Ġsounded
Ġlearners
áıĦ
ãģĹãģ¦ãģĦ
ãģĹãĤĩãģĨ
ĠÙĪØ¨
ĠÙĪÙĤØ¯
ĠFounded
158
Ġrefused
183
184
Ġflight
Ġlifting
Ð¾Ð²Ð°ÑĤÑĮ
Ð¾Ð²ÐµÐ½Ñı
ĠSoft
ĠActually
Ġsurpass
Those
Thomas
ttps
Ġ×ľ×¦
ĠÐ²Ð¸ÑģÐ¾Ðº
Ġanalyst
ĠEnh
ĠEnjoy
ĠEnabling
ĠEnzyklopÃ¤
Ġlasted
175
Ú©ÙĪØ±Ø¯ÛĮ
ĠáĢĴ
ĠáĢŁ
Ð¾Ð»Ñĥ
China
afka
Ġdeletions
ãģ¨ãģ¯
ØŃÙĬ
Ġguiding
Ġblocker
Ġblockchain
ÐºÐ°Ñħ
Ð¾ÑĢÑĤÐ¾
Ġideally
ĠLeon
Ġcollaboratively
Ġsubsid
Ġsubscri
ĠØªÙĤ
ä»ĺ
Ġpromo
ĠÎ³
ĠÎł
Ġreplication
Ġreplicate
shirt
ãĥ«ãĥĪ
Ġcritics
vertrag
ĠLicensor
åı²
åı·
Ġsugar
Ġplanowania
ancially
ĠClark
Ġslim
Ð¶Ð°
ĠModified
Ġversa
Ġtakich
Ġcenturies
Ġsuggesting
Ġstreamlined
ĠÐ°Ðº
ĠÐ°Ð¿
ĠÐ°Ð±
ãģªãģĳ
Trade
Tracking
ĠÙĦÙĦÙħ
ramani
protection
áİ¬
à®²
Ġprize
Unicode
×ĵ×Ķ
×ĵ×ķ×ª
Ġcyk
Ġinformasi
×ĳ×ķ×ª
Ġsender
NSI
ĠÐ¿ÑĢÐ¸Ð¼
schd
ĠØ§ÙĦÙħØ¬
ĠØ§ÙĦÙħØ³ØªØ®Ø¯Ùħ
ĠØ§ÙĦÙħØªØŃØ¯
áĪĪ
áĪĭ
Shona
Shikuru
ĠStudy
Abstract
ĠMalware
amaic
Ġdaabil
Ð¾Ð´Ð°
Ġgovernmental
Ð½Ð°Ð³Ð°
PAGEN
Ġ144
Ġprimitive
ambo
ĠNoScript
à¹Ģà¸Ĥ
Ġconceptual
ĠzespoÅĤem
Ġ131
Ġà¬ķ
ĠÃģ
Ġpackaged
×Ľ×ł
Ø·Ø©
Ġactivate
Ê»o
IND
ollo
Ð½Ð¸Ð¼
Ð½Ð¸Ð¹
tras
ĠScen
ĠScore
Place
à¸£à¸²à¸¢
Ġparental
Ġsamua
ĠDoct
ÑĺÐ¸
Ġß£
Ġßķ
Ġregulator
2002
ĠPublicly
Ġdzi
ĠEmbed
ĠSmarter
ĠCloudflare
download
ĠprzedsiÄĻ
Ġvisitor
ãĤ¦ãĥ³ãĥ
ìĿ´ëĤĺ
áĢĲáĢļ
ĠAdvance
Ġtemp
Ġcalendars
chers
ãģĤãģ£ãģŁ
Ã¥r
Ġmindful
ĠPerhaps
à¸¢à¸§
359
zÄħÄĩ
liminary
Ġcompetitions
ĠIDC
ĠIDEs
Record
×Ĺ×¨
Ø³ØªØ§ÙĨ
Ġáİ¯
ìļ´
irmer
Ġpoj
Ġboards
iffing
à¶Ĥ
Closing
Cloning
Ġmeaningfully
Ġpodczas
Ġreachability
Ġ×Ķ×Ļ×Ķ
ĠÑĩÑĭ
ÑĹêĻĹ
279
Ġblogged
Ġbreakdown
umnus
×¡×ĺ
ĠAustrian
Computer
ãĤīãģ®
Ġconversational
ë¥ł
Ġcaptures
Ġcharters
Ġdigunakan
ìĸĳ
Ġohne
Ġpanoram
Ġauthenticate
à¦¬à¦°
Ġjournals
à°²à°¨
ĠStatements
TMP
Amb
Ġtuples
ĠVisualEditor
designed
ĠÐĲÐ»
ĠÐĲÐ¹
ammed
Ġpicking
Ġliber
ãģįãģ¾ãģĻ
setting
Ġillustri
Ġinspect
Ġinspir
Äĥm
ĠÕ°
ĠSchutz
ĠMeto
ĠMetrics
ĠMetadata
á»ĩc
Ġswipe
ictionary
ĠSubs
ĠLaun
ĠìĿ¸
ĠpomÃ³c
Ġafternoon
Ġãĥĸãĥ©ãĤ¦ãĤ¶
ĠÙĨÛĴ
Ġassigns
ĠSweden
Disclosure
Ġlowercase
Ġdemonstration
Ø¯ÙĬÙĨ
ĠDevices
áĢŃáĢ¯áĢ·
ĠÂ».
Ġsequential
Ġklien
×ĳ×¢
×ĳ×ł
Ġdivisions
ristian
Upcoming
å¾ĵ
æ¬¾
Ã®n
ĠUsage
ĠUsually
ĠÙĤØ§ÙĨ
Resolution
riminals
éģĵ
ografi
1991
Ġstructs
Ġdropping
Ġmerger
rava
ÏĢÎ±Î¯
Ġtaun
SHACL
addons
áĢ½áĢ²
Ð¾Ð±ÑĢÐ°
werken
ĠÒĵ
Ġregistering
ĠPlayCanvas
larative
largest
å¼Ģ
ĠÐ¢Ð°
ĠINC
ĠINFORMATION
ĠRelig
ĠFormData
Ġcapitalization
Ġutilizing
ĠTimor
ĠTimur
ĠTimeline
Ġseekers
Ġbesides
Ġthrown
Ġthrowing
ĠsituÃ©e
model
Ã©die
åł´æīĢ
Ġairplane
Ġmicrophones
ÐµÑĢÐ°ÑĨÐ¸Ñı
Ġpredator
Ġprzejr
Ġroutines
Ġrollback
Ġbanking
Ð³ÑĬÑĥ
Õ¶Õ¥ÖĢ
Ġpiped
ĠLogin
Ġhoe
Ġvacation
ĠØ¬Ø³
ĠØŃÙĬØ«
Ġambass
áĥĲáĥ¨
Ġpeny
Ġchancell
ĠDrafting
Ġcuts
Ġmeasurements
TypedArrayFrom
Ġrepeating
ë¦Ń
ĠBenÉĽÉĽ
Ġadvancement
ĠÄĳá»ģ
Ġfraudulent
ĠTajiks
ãģ¤ãģ®
ocabularies
Ġaccelerated
Ġexperimenting
á¹Ń
ĠìĤ¬íļĮ
ĠìĤ¬ì§Ħ
Specify
Ġokay
ĠØ§ÙĦØ¹Ø±Ø¨ÙĬØ©
seudo
ĠÐłÐ¾ÑģÑģ
Ġappealing
Ġinteligenc
Tagalog
ĠogÃ³l
enzo
Ġexcellence
à¹Į:
ĠÐ±Ð¾Ð»ÑĥÑĢ
Ġmistaken
ĠCameroon
ĠSkill
ãĥ©ãĤ¤ãĥĲ
ĠyaÉ£a
Ġsplits
Ð¿ÑĢÐ¾Ð·Ð¾ÑĢ
Ġnanga
Ġsponsor
Ġargues
ichever
Ġswoich
×Ļ×¡×ĺ
à¬ķà¬°
ĠTranslat
ĠmigracjÄĻ
ATIONS
ĠSecureAnywhere
å¯¹
ĠØ¦Ùī
ĠIntegrity
ĠIntegrators
ß²ß«
Ġsurroundings
ĠMarketScape
Ġduplication
callback
iosity
ÄķÑĢ
reville
iddity
kcji
Ġlandscap
ĠCorporate
ĠosÃ³b
Ã©cnic
Ġdragging
Ġê³µìļ©
ĠvÃło
Malagasy
ĠEXPRESS
ĠCrashPlan
ĠSolar
Ġà¦ıà¦ķà¦Ł
Outreach
ä¹ĭ
ä¹Ł
immel
ĠAPAs
ãĥīãĤ¤ãĥĦ
Ġintentions
Ġprevails
Ġfunctionalities
ĠáĢķáĢĽ
ìķĦ
ĠÏĥÏĦÎ¿
Ġpaling
Ġconsequential
ĠEssential
ĠsztucznÄħ
opened
Ġretrieval
Ġsquee
rÃ³Å¼
jalan
Ġfetching
Ġoverlook
Ġoverlapping
Metrics
Ġwieder
technology
Ġrealizacji
ĠØ¨Ø±ÙħØ¬
Developer
funded
gitignore
gitattributes
ĠDropout
Ġkalinli
Ġfaithful
fÃ¼hr
ĠBoost
ĠHyde
è§£æŀĲ
released
Ġbirthday
ĠSPH
Ġrotating
Ġsignatures
Displayed
Color
ĠSaudi
Ð´Ð¼ÑĸÐ½
íķ´ìķ¼
consider
ĠpuÃ²
ĠNaN
Ġretailers
ĠÐ³Ð¾Ð´Ð°
ĠÐ³Ð¾Ð´Ñĥ
Ġsoul
Ġdelegation
Ġunfamiliar
ĠStanley
Ġadvisors
ĠÐ¹ÑĭÐ»
Ð¾Ð»ÑĮÐ·
AndroidTM
êĻģ
Ġinclu
ĠLiability
Ġregistrations
ĠAuthority
ÐºÐ¾ÑĹ
Ġpursued
ĠCritical
ĠTwÃ³j
ĠLessons
Ġjednak
Ġqualifies
ontaktuj
ãĤĤãģ®ãģ§ãģĻ
Ġreinforce
Ġisolated
ĠPeters
ĠVRT
Ġfluent
ĠÚ©Ø±ÛĮÚº
Ġacknowledged
reflist
ĠMSPs
Ġchmurow
ëĲĺëĬĶ
Singapore
ìĺģ
ĠÑĸÐ½ÑĪ
Ġllenguatge
Ġcomprise
Ġcomprises
Ġdisagreement
Ġmargins
rillic
Ġsegmenter
Ġmerchant
Ġnaszego
ãĥĹãĥŃãĥĳãĥĨãĤ£
Ġutilisateurs
ĠNeeds
Ġpertinent
Ġpremises
ĠAdaptive
ĠConnellan
Policies
ĠCaptions
Ġintrinsic
ĠRevolution
ĠSponsors
ronoSync
ĠSupply
Navigate
QUEST
Ġautofill
Ġpreparing
ĠØ§Ø³ØªØ¹ÙħØ§ÙĦ
æĬĢæľ¯
resolvedOptions
Ġallocated
ĠbiÉĽhigu
PLICA
Paul
Ġrectangular
ĠphÃ¡p
è¨ĺäºĭ
ãĤ¦ãĤ£ãĤŃãĥ¡ãĥĩãĤ£ãĤ¢è²¡åĽ£
Super
pattern
Ð¨ÐĲ
Ġdodat
Ġekspert
Ġforbidden
Ġstamps
Ġdiscouraged
ĠOrdman
ĠØ§ÙĦÙħØ´ØªÙĤ
Õ¸Õ¾
Considerations
Leadership
ĠÐ°ÑĢÐ³
Ġsubdomains
Ġà¦®à¦£
12345
Ġskelet
ĠÃ¸y
ĠMuslims
åģ´
ĠWriting
ĠBehind
Ġbenchmark
ĠWooPayments
Opera
Ä©kÅ©
ĠSustainable
ĠSustainability
ÑĢÐ°Ð·Ð¸Ð»
Strateg
ĠÃ½y
Ġnajlepsze
ĠBrooklyn
ĠÅĽwiecie
Ġubiquitous
Ġwielu
Ġì¡°ê±´
Ġbottleneck
Ġtribunal
Ġverwenden
Ġì§Ģ
ĠAnnotation
Speedtest
ĠPhysics
ãģ®ãĥ¬ãĤ¤ãĤ¢ãĤ¦ãĥĪ
Origin
Ġ×Ķ×ŀ×©×¤×ĺ
ĠobsÅĤugi
Ġneighbour
ĠÐĴÑĸÐºÑĸÐ¿ÐµÐ´ÑĸÑı
ĠumoÅ¼liwiajÄħ
jamin
reasonable
ĠIrish
ĠPriority
Ġcompleta
Ð»Ð¾Ð²Ñ£
ĠâĨĶ
Ġë²ķë¥ł
ĠrÃ³Å¼nych
Ġbonus
Ġbubbles
ĠWWDC
Ð¾Ð»Ð´Ð¾Ð²ÐµÐ½Ñı
Ġdescendants
Until
timestamp
ĠOdys
Ġreshaping
áİ³áİ©
è¨±è«¾
Ġ×Ľ×Ĳ×Ł
Ġnarrative
wierdz
è¶Ĭ
ĠSPAM
ĠTyler
Ġdisadvantage
ĠWebSocket
Ġpredecessor
ĠszablonÃ³w
Ġmiejscu
Credit
javascript
Ġchunks
Ġzagro
Ġambitious
ĠÐ¸ÑģÐ¿Ð¾Ð»ÑĮÐ·
Indonesia
ĠczÅĤonk
Dialog
Ġpierws
cknowledgements
Ġhorizontal
imiento
styled
ĠMATERIAL
Ã¤tzlich
ĠÐºÑĢÐ°Ñĸ
å±ŀæĢ§
Ġ×¤×ľ×Ļ×ľ×Ļ×ª
vieÅ¡u
ç°¡åįĺ
ĺĲëĬĶ
Ġlavoro
ĠScheduler
Ġhesitate
ĠVirginia
rivilege
åħ§å®¹
Ġsemicolon
Ġripristino
Ġdupes
âĪŀ,
possibly
ĠTexas
Ġproyect
opÉĶin
ĠVeeam
Ã©conomie
Ġunderstands
Ġinfinite
Ã¢tiau
ĠÑĤÑĢÐµÑĤÑĮ
ĠíĶĦ
Ã¼rkmenÃ§e
éĽ»åŃĲ
ĠWEBSITES
Ġreimbursement
Pranala
Å¯nski
ÖĥÕ¥Õ¿Õ«
åĦª
éľĢ
ë¯¼
ĠÛĭÛķ
ĠCancellation
ĠWednesday
ĠFavorite
Ġë¯¸êµŃ
Ġrecognizably
íĺĳíļĮ
Ġ×ŀ×Ļ×ł×Ļ×ŀ×Ļ×¡
ĠznaleÅºÄĩ
½ĺíħĲì¸ł
éĵ¾æİ¥
Ġrenowned
Ġusurped
ulawesi
ĠPuchko
ĠPulitzer
ĠLjublj
ĠShapiro
Ġsubscriber
ãģªãģĳãĤĮãģ°
PAGENAME
ÏĢÎ±Î¯Î´ÎµÎ¹Î±
ãĥ©ãĤ¤ãĥĲãĤ·
Ä©kÅ©yÅ©
Ð¾Ð»Ð´Ð¾Ð²ÐµÐ½ÑıÑģÐºÑį
"]
([
)ãĢĤ
220
567
:(
?]
Akt
Bat
Bab
Bile
Bright
Bah
Bread
Bien
Branch
Bagabaga
Become
Bethany
CI
CX
Cult
DA
Due
Domain
DEN
Domin
Et
Elect
EAR
Efficient
Eula
Face
Film
Games
Hy
Hel
Host
Hok
HID
Ik
Ir
IPAA
Jon
Jos
Jak
JBL
JECT
Kat
Kan
Kel
Lon
London
Lists
Linux
Layout
Mis
Mel
Must
Much
Mini
Ny
Nov
Naming
Natuur
NERS
OF
Ott
PH
PP
Pan
Pak
Pick
Pron
Pinned
Ring
Root
Runa
San
Syntax
Szyb
Segments
TÃ¼rkmenÃ§e
VI
Vi
Very
Width
YARN
Za
aat
aÃ§Ã£o
bat
bour
bits
bio
bÃ¢
born
bruck
cend
custom
cope
coded
div
daw
digit
dÃ¼Ã¼ts
each
fw
fas
fly
few
fach
gone
glasses
hre
hira
iable
iores
iÅ¾
jer
join
jacking
jadi
kum
kich
kach
kania
kara
live
lÃ©s
links
languages
lreq
mint
muje
mosphere
nj
nom
nst
nost
niki
nica
oosing
pool
pending
private
pagename
pÅĤat
pruch
qal
rout
rand
sale
sensor
tes
tom
tif
tak
tok
txt
target
van
vian
vinn
vkii
wiet
xM
yro
zg
zim
zik
zzi
¥àº²àº
´è¯Ń
»ĺ
Ã°
ÃĹ
Í¬
Î²
Ðķ
ÒĹ
Õ©
Öģ
Öī
ÙĮ
Ùį
Úĳ
Úļ
ßİ
ßĽ
âĺ
âĺħ
åĿ
åŀ
æĩ
ê¦
ê»ĺ
Ġriv
Ġä¸Ģ
Ġæ¬¡
ĠàŃ¨
ħà¦¸à¦®
ĴÎ¹Îº
ķi
ķĮ
Ļæī
Ŀ¤
Ġted
Ġtons
Ġtys
Ġtune
Ġtamb
Ġtaste
Ġaqu
Ġapt
inating
infinity
onen
onnect
reich
requirements
erk
erist
atility
atern
atables
ativa
orock
Ġsouthern
itement
itives
itects
Ġcul
Ġcher
Ġcura
Ġcui
Ġcette
Ġpem
Ġpah
Ġposes
Ġpocket
Ġware
Ġwire
Ġwong
Ġwizard
isis
isim
isure
educ
editable
Ġfoc
Ġfool
alff
alya
Ġoc
Ġook
Ġangg
Ġdop
Ġdana
Ġditut
Ġdfs
Ġduri
ĠbÃ¢
Ġbala
Ġbills
Ġbanned
Ġbattle
Ġbanyak
icter
icole
ichern
Ġtoeg
ĠtoLocale
Ġmul
Ġmuss
Ġmenc
ĠmÄģ
Ġmopping
Ġinlines
arus
argu
rock
Ġofer
asks
ashed
Ġnia
Ġnations
Ġngu
Ġnella
Ġnginx
ĠnÄĥm
Ġrew
Ġrenov
Ġreinstall
usu
usus
usuf
omery
ĠlÃ©
ĠlÃ¤
Ġlying
Ġloyal
Ġec
Ġeg
Ġeat
Ġepis
Ġecommerce
ilst
Ġyina
Ġyaku
Ġhate
Ġhang
Ġhaut
Ġhired
Ġhunt
etisi
Ġisland
imod
imeter
ĠAPA
ĠAspect
chrom
chord
chten
amar
amers
ĠCS
ĠCra
ĠCard
ĠCurrent
ĠCounter
ĠCroat
unik
ĠSB
ĠSz
ĠSat
ĠSession
ĠSSO
ĠSeveral
ĠSphinx
ĠSIGN
owie
stift
ĠTap
ĠTarget
ĠTwitch
ĠToken
ĠTCP
ĠTembea
ĠTensorFlow
ĠTarnate
ĠIBA
idu
idian
idering
agar
agog
olars
olidate
ceased
adt
ader
adapt
Ġgre
Ġger
Ġgry
ĠgÅĤ
Ġgeme
ĠWish
ĠWays
ĠWinter
Ġoral
Ġust
elengg
abs
aban
ablished
Ġvic
Ġvous
ĠvÃµ
ikt
ikewise
ifik
acional
Ġstip
Ġstraw
Ġstopping
Ġstellen
ophers
opÃ©dia
ĠMast
ĠMillion
ĠMga
ĠMey
ĠMTV
ĠMiha
ĠMongoDB
ĠMimecast
Ġalumnus
ĠPI
ĠPU
ĠPas
ĠPig
ĠPoz
ĠPosition
ĠPUR
ĠPurpose
ĠPilipinas
Ġdealt
Ġdeceased
irks
irma
verb
Ġ240
ĠDC
ĠDoll
ĠDramani
ĠGab
ĠGithub
ĠGrowth
rah
raid
racht
ourage
Ġweaving
ĠBon
ĠBus
ĠBall
ĠBear
ĠBarb
ĠBird
ĠBerg
ĠBole
ĠBilling
ĠBowl
angeb
ĠFis
ĠFul
ĠFill
ĠFond
ĠFOU
ĠFirm
ĠFollow
Ġking
Ġkac
Ġkob
ĠkÃ¼
orem
Ġcans
Ġcance
akar
à¸į
ĠbyÅĤo
ighting
Ġuno
Ġunve
Ġunpar
Ġunreg
Ġunavailable
Ġunanim
Ġuniform
Ġunavoid
Ġunmodified
andid
ĠLu
ĠLion
ĠLyn
ĠLAN
ĠLuck
ĠLego
ĠLTS
ĠLewis
ĠLimeWire
ĠHan
ĠHum
ĠHob
ĠHence
ĠHarb
ĠHalo
ĠHUD
artet
ĠRF
ĠRise
aine
ivals
umba
iph
ipo
ĠEver
ĠEts
Ġato
Ġcontenu
ĠThem
upid
ogh
ogan
ãĤį
endi
áĢī
áĢı
ĠUng
ĠOlivia
ãĥ¦ãĥ¼ãĤ¶
à¦ħà¦¸à¦®
Ġshit
licher
Ġchor
Ġchurn
Ġchá»ī
Ð¾ÑĨ
Ġspy
ĠNk
ĠNu
ĠNie
ĠNature
Ġworkaround
ÐµÑĨÐ¸
area
arena
Ġtrab
ibo
Ġlect
Ġlemon
ostrop
Ġabusive
ĠWikivoyage
Ġintl
Ġintimate
Ġteens
onsense
Ġjav
Ġjaw
Ġjoy
ÙĦØ³
ĠInns
oryz
ĠJer
ĠJambi
ĠJerry
Ġaccent
Ġneutr
Ġpla
oka
okan
duk
ÑģÐµÐ½
Ð»ÓĻ
à°¶
à°Ń
lower
ĠVari
ĠValid
ĠVorb
ĠVITO
ĠVogue
achuset
Ġzac
ĠzÅĤoÅ¼
imeo
ĠStÃ©
Ġpartly
asti
×Ļ×Ķ×
ĠKi
ĠKid
ĠKem
ĠKul
ĠKult
ĠKaz
ĠKev
ĠKobo
xture
avo
ellers
001
phan
phine
photo
ÙħØ«ÙĦ
Internal
ĠØ¶
×ķ×Ļ
ordinary
Ġmanif
ĠmaniÃ¨re
Ġouts
Ã©di
Ġprovin
Ġprovinc
Ġautre
obre
obuf
Ġpreliminary
teen
Ġprime
Ġwebh
Ġwebinars
inta
intÉĶ
Ġrecovered
ermaid
ishi
Ġbuzz
ĠProdu
Ġphases
Ð²Ñĥ
Ð²ÐµÐ½
Ð²Ð°Ð»
Ð²ÐµÑĤ
ÙĨØ²
ÙĨÛĴ
ĠAICPA
Ġfolg
Ġfolklore
Ġtransient
Ġlistings
ritten
issDI
Ġirod
ictitious
Ġthereafter
Ġoffsite
à¥Į
Ġexamined
Ġexamination
Ġ1948
Ġ1954
Ġobjet
Ġobfusc
Ġmateri
Ġmatrix
ĠWebVTT
à¬Ń
Ġbackyard
Ġbackbone
Ġexped
Ġexpounds
ØªÙĩ
ĠArm
ĠChairs
ĠChukwa
Ġintercept
Ġintervention
anymi
ãģ®ãģŁãĤģ
ÑĸÐºÐ°
Ġorganising
Ġheadquart
ixon
Ġenters
ĠSpro
ĠSpaces
ĠSpenden
ĠSpirits
wei
ringe
Ġ401
Ġjustified
Ġlawan
Ġdisconnect
Ref
Reve
Reuters
Require
Ġinvites
Ġì½ĺíħĲì¸ł
azÉĻrbaycanca
êłĦ
ockey
Ġcoerc
ÑĮÑĢ
Ø¯Ùĩ
Ø¯Ø§Ø±
mina
tools
icker
Ġincubator
à¨ª
à¨¬
ÑĢÐ°Ð±Ð¾ÑĤ
Ġstartbootstrap
ĠYekut
Ã¡rio
Ġretreat
Ġretali
ungk
ĠÑİ
Ġdecommission
..."
ĠDeath
ĠDehydr
Ġstandardize
Ġstandardizing
ĠGoing
ĠGoPro
Ġteammates
ĠÐ¿Ð°Ð´
Ġoperand
Ġoperands
ĠApply
ĠAppSec
Ġà¦ļ
ĠThurs
Ġstricter
Store
Still
iencies
Ġspeichern
Ġerh
ĠÙħÙĪØ³
ĠÙħÙĪØ¬ÙĪØ¯
existent
Ġplatformie
Ð°Ð½Ð¾
ĠTeen
Ã¼ck
Ġautomates
Ġmultib
ĠAdvent
ĠXP
ĠXSD
these
Ã¨is
Ã¨nt
Ã¨ka
Ġviewers
ä¸Ķ
ÙģØ¶
Ġdevoted
Ġposture
ãģ«å¾ĵ
ediate
ĠContinu
ĠtraitÃ©
ÅĽred
ÅĽcia
Ġhighs
à¸²à¹Ģà¸Ľ
ĠÐºÐ°Ð½
ismu
ĠAlan
ĠAlert
ĠAlways
ĠAlgorith
ĠAlumni
}}"
notice
Ġ1080
Ġimports
Ġcorn
194
1967
ÙĤÙĪÙĤ
ĠConversely
ĠOctocat
×ª×Ķ
ĠZap
ĠShared
ĠTrue
ĠTrampu
ilters
kih
Ġtypo
Ġderive
Ġrealizing
Ã¢Å¡
ĠAnna
ĠAsh
Ġpointcut
ãĤĴè¡Į
Ġminimizing
Ã¶d
Ġarguing
ynote
ÐºÐ¸Ñħ
ĠestÃ¡
ĠÐ¼Ð°ÑĢ
anners
ĠPlans
ĠPlanning
encycl
Ġconcaten
ÑģÑĤÑĢÐ°
ĠÐ½Ñı
ãĤĭãģ¨
Ġextensible
Ġextensibility
ofia
Ġdemanding
ĠÐ±Ò¯
ĠÐ±Ð°ÑĪ
Ġà°²
Ġadminister
Export
Exchange
iquip
ĠCodex
áı¥
áıĨ
ĠIndoor
ãģĹãģĭ
Ġ86
ĠÙĪØ±
ĠÙĪÙĨ
ĠÙĪÙģ
encing
const
Ġshel
ĠÑĤÐµÐ»
ĠÑĤÐ¾Ð³Ð¾
ĠÑĤÐµÑħ
Ġflour
Ġflaws
ĠØ¨ÙĦ
ĠØ¨ÙĬÙĨ
ĠØ¨Ú¾ÛĮ
Ġplaykit
Ġarchivo
Ġcommunicated
Ġcollator
tti
ĠBackground
ĠÐ²Ðµ
ognito
×Ĳ×Ļ
beats
172
autoc
Chi
White
Whoop
ĠOpenDNS
ãģĮãģĤãĤĭ
ãģĮå¿ħè¦ģ
Ġ96
238
ĠManila
ĠButton
Ġfreien
ĠSeason
Ġcommonplace
rounded
Ġopis
Ġappliances
Ġsubsist
Ġmeanwhile
ĠØªØµ
ĠØªÛķ
æľº
ĠÄĮ
à¸Ńà¸Ĺ
Ġ×©×ł
Ġ×©×ĳ
ĠÎ¿
Ġconsiderably
Ġreplies
Ġreplied
Ġequals
ancis
ancies
ancaster
Ð¸Ð½Ñĥ
Ð¸Ð½Ð´Ðµ
à¤°à¤£
Ġ128
ĠPreÅ¡
Ġqueues
niet
Ġlabi
Ġlawsuits
Ġfintech
Ġfinancially
ãģªãĤī
240
ĠÐ¾ÐºÐµ
ramid
ĠAbraham
Ġê´Ģ
Ġmusicians
à¸¡à¸²à¸ģ
Ġrecognizable
à®³
åħĥ
byte
×ĵ×ª
values
Ġinforming
ujemy
Ġ×ŀ×¤
Ġ×ŀ×ĸ
Ġ×ŀ×ŀ
GLAM
åĲ¦
åĲ´è¯Ń
ĠGuest
×ĳ×ķ×¨
Ġnevertheless
Appro
scht
ĠÙģØ§Ø±Ø³ÛĮ
áĪ³
Shift
Shannon
å®ĥ
Ġsuccessive
Ġdetermin
atted
attdÃ¼Ã¼ts
Ġbroker
Ð¾Ð´Ð¾
uxiny
Ġprima
ambda
Ġtriage
Ġtrials
à¹Ģà¸£
Implement
Î¹ÏĢÎ±Î¯Î´ÎµÎ¹Î±
ĠRegulation
Ġà¨ħ
Ø§Ø±ÛĮ
Ø§Ø±ÙĬØ±
ĠØ£Ø¹
Ġrevolved
Intel
Ġà¬¬
Ġà¬ľ
ĠÃī
Ð¾Ð¼Ð¸
Ġ+/âĪĴ
Ġredef
Ġredistribute
Ø·ÙĪØ±
à¼¡
Ġwarned
227
trl
ÐµÐ»Ð¾
ĠGenerator
ITLE
Ġ×ķ×Ļ×§×Ļ×ŀ×ĵ×Ļ×Ķ
ĠØ¹ÙħÙĦ
Ġbarg
gesch
ĠØ§ÛĮÚ©
ĠTHROU
Ġhomepage
ãĤ¯ãĥ©
ÑģÐºÐ¸Ð¼
Ġzaanga
Ġzaawans
TimeZone
Ġassemble
Ġassembled
Ġassembling
ĠxÃ¡c
ĠObviously
Ġcarrier
ĠDoing
Ġalgorithmic
ĠÚ©ÛĮØ§
Ð´Ð°Ð¹
à¦¤à¦°
Ġwaived
Ġembrace
áĢ±áĤı
ĠVerifiable
Ġamongst
Ġdials
Ġ2119
Ġtabular
ĠShell
Ð»Ð¸Ðº
Ġmerit
rawd
ĠMeir
ĠMevkii
Ġvetted
ìĿ´íĬ¸
Ġcopi
Ġ×¢×ĳ×¨×Ļ×ª
ĠCoordinator
ĠCoalition
Ġcuriosity
ÑģÐºÐ¾
ÑģÐºÐ¾Ñħ
limit
Ġfrequencies
ÐµÐ¼Ð°
Ġschemas
Ġsemantically
ĠÐĴÐ¾
species
hael
haul
Ġessentials
Ġstyl
Generate
ographer
à¶¸
Ġoptimal
Ġoptimizing
Beh
Ġgeen
Ġgeography
Ġgeolocation
Ġjej
ĠjeÅĽli
ãģĻãĤĭãģ¨
fragen
paq
paid
Ġcircular
Ġcircuit
×Ķ×Ĳ
TeX
Sept
Ã£y
ÏģÎ¿
ÏģÎ¯
áīĢ
ĠAustria
Component
áĬĵ
Ġboast
Ġdrinks
Õ¡Õ¯
ĠÑĢÐµ
ĠÑĢÑĸÐ·
Ġvisuals
PROV
éĢ²
Ġsolo
Ġjaki
Ġohong
Ġnarus
Ġcompiling
ãģ£ãģ¦ãģĦãĤĭ
Ġjudges
Ġsimplifying
ç´¢
Ġbalancing
IONS
ĠÐĲÐ½
Ġpreferable
Ġtwenty
Ġcampuses
genes
unteer
ÏĥÎ¹
ÏĥÏĦ
Ġlibtheora
Ø«Ø±
Ġinspection
Ġdegli
è¦ģä»¶
Ð¸Ð¼Ð°
ĠPlatforms
Ġswift
ywanie
Scan
Screen
Ġminorities
Ġcolorways
ĠìĿĺ
MIL
Ġpomaga
è¯Ĩ
à¹Ħà¸Ĥ
Ġãĥ¬
Ġãĥİãĥ¼ãĥī
ĠÙĨØ§Ùħ
Ġistnie
profile
jÄħt
ĠITS
Ġclarification
Ġ×ł×ķ×©
ĠTransport
Disaster
Disclaim
imbang
ĠFranzens
lichten
Ġadvocating
ĠUpdates
Comment
Complete
Ġmanuals
auri
Ġ1971
ĠfaÃ§on
Ġangle
Ġoneself
å¾Ĺ
ĠInterview
ĠFlash
coins
Ġbackgrounds
ĠÙĤØ¨
Ġharms
Ġkontributor
ĠOrganizations
ĠÐ·Ð°Ð¿
éģĭ
éģķ
BLACK
ĠÐ¶Ðµ
Ð¸ÑĤÐµ
Ġtreaty
ĠPatrick
Ġadjustment
loqu
ĠDesigns
Ġstacks
ĠØ¥ÙĨ
ĠÑģÑĤÐ°Ð½Ð´
ë¡ľëĵľ
Ġurged
ĠNetworks
Ġcomparisons
éĸĢ
Values
ÐļÑĬ
Ġstandout
olutely
Ġà¤¸à¤®
CLOS
znym
áĢ®áĢ¯
ĠItalia
ĠItaliano
Ġrecipe
Ġrecipro
Ġlegislative
Ġcritici
ĠØ§ÙĦØ£Ø·ÙģØ§ÙĦ
Ġsatisfying
Principles
Ø¸Ùħ
Ġpowin
Ġchatbots
Ġscientist
ĠProductivity
Ġartikli
ĠartikÃ©l
Ġlangs
Performance
Ġrollout
Ġglance
åŃ¸çĶŁ
Similar
â°°
alleled
Ġhabe
Ġconditional
ĠExtensible
ĠCarolina
Ġgroundbreaking
ĠOperating
Ġproduktu
ujÄħcych
Associ
Ġpromptly
ĠMusk
ĠViewing
Ġwszel
ĠAffirmer
ĠMinangkabau
ĠPowerbeats
ĠpracownikÃ³w
ednak
ĠBritain
ãĤ·ãĤ¹ãĥĨ
ilosoph
Ð°ÑģÑĭ
Ġrozwij
etzt
Ð»ÑıÐ´Ð·
Ġpostscript
Verified
oshop
Fiji
Ä±r
Ġmentorship
Ġmanipulated
ĠÄĳá»ĵng
ĠÄĳá»ķi
ĠGraphics
plingFrequency
ĠUrban
Ġpoza
×ĸ×§
×ĸ×ķ×ĺ×Ļ
ĠyiÉ£isi
Ø§Ø³Ø¨
Ø§Ø³Ú©
Ġinteligencia
ĠMagaz
Ð¸ÑĩÐµ
LTK
é¡¹
Ġyeah
ĠMedical
Ġaggregation
Heather
ĠAzara
ĠCheers
ĠEPUBs
à¹Ĥà¸«à¸¥
Customizing
áŀģ
áŀĺ
áŀļ
áŀŁ
ðĲįĦ
áĮĪ
account
Ġbroadcasts
holes
ĠØ§ÙĦØŃØ±
Ġswoje
ĠFrederick
Starting
ĠFAQs
olidated
ĠÐĵÐµÑĢÐ¼
ĠNumberFormat
KalturaOtt
éĻ¢
ĠDelta
Ġrecovering
éĩı
ĠÐ¥Ð°Ð»ÑĮÐ¼Ð³
ĠkpÉĽ
Interpret
à¾²
Registration
Ġduplicated
à³ģ
Ġwatts
Ġwatermark
ĠdotyczÄħcy
Ġdiesen
Ġjuice
developer
Ġboosts
PTO
Ġcommissioned
halb
Ġaligns
áĢ»áĢ°
åħ¨ä½ĵ
åħ¨çĲĥ
íķľêµŃê³µìľłê²½ìłľ
ÒĵÐ°Ð½
Ġapolog
Ġapostrop
Ġdeliberate
Ġdimension
Ġhourly
platforms
Ġsniffed
Ġingred
ĠAPPLICA
ĠMartha
ĠNovissDI
Ġintentional
ìłģìĿ¸
Ġdigitally
Ġcoordinating
Ġprecisely
Ġconsequence
ĠÐ¿ÑĢÐ¾ÐµÐºÑĤ
Ġklienta
Ġklientom
ĠDAGs
Ġterminated
Payment
namenode
rechts
Ġunsere
Ġunseres
Ġunseren
ãĥ¡ãĥĩãĤ£ãĤ¢
ãĥ¡ãĥ³ãĥĪ
×¨×Ĳ×©
iemy
ë©Ķ
Ġgradient
ìĹĲìĦľëĬĶ
EEA
Ġtweeter
Ġzasady
Ġdescending
ĠrealizacjÄĻ
ĠArtikeln
Ġpolyfill
Ġpolyglot
Black
Dependency
ĠSHACL
ĠusÅĤugami
Frame
discipl
ĠudostÄĻp
ilerplate
Ġfragmented
LocalesOf
Ġconcerts
Ġcease
ĠCPUs
ĠMassachuset
ĠBurkina
Ġsukarelawan
íķ´ìĦľ
åĪ¶ä½ľèĢħ
Ø´Ø±ÙĪØ¹
ĠØ§ÙĦØ¥Ø¨Ø¯Ø§Ø¹
Employ
é¢Ĩ
Ġdarauf
ĠAVIF
utzerklÃ¤rung
Again
Ġotros
Ġconvince
elijke
ÑĥÑİÑĤÑĮ
ä»ĸãģ®
Ġpotrzeby
Ġzgodnie
ĠzgodnoÅĽci
LAB
Understand
rtmp
Ġdelegated
ĠÑŀÐ·Ð±ÐµÐºÑĩÐ°
Ġadvisor
Ġ×ĳ×ŀ×§
Ġliteratures
richten
ĠØ§ÙĦÙĤØ±
Postcard
Ġwelche
ĠIngles
ĠSteps
Ġeliminates
Ġeliminating
Detect
fields
Ġtunes
Ġinclined
iderspruch
Ġtekst
Ġattachment
Ġregistrant
Ġ×Ķ×¤×ķ×¡×ĺ×¨
Ġê²ĥìŀħëĭĪëĭ¤
Ġyuun
êłŁêłĲ
ĠInstaller
Ġharmonogram
Ġhypervis
HEAD
systems
ĵ×Ļ×ł×ķ×ª
ĠAutomation
SamplingFrequency
íĻĺ
ractional
ĠWikipedya
ĠÐĴÑĸÐºÑĸÑģÑħÐ¾Ð²ÑĸÑĪÑĩÐ°
Director
nologue
Ġsvenska
agonÃ©s
ĠUkrain
ÑĥÑĪÑĥ
Ã©lÃ©
ØµÙĪØµ
ãĥ¬ãĥ³ãĥĢãĥ¼ãĥĦãĥªãĥ¼
TOO
Ġulang
Ġjedoch
Ġtraditionally
éĹ´
ĠFields
à·Ĵà¶Ĥ
ĠutilisÃ©
ĠWPWP
Ġreconfig
ĠìĦľ
Ġtaxpayers
åĨħå®¹
Ġsukcesu
Ġtutela
Ġfictitious
ĠRanking
Ġtricky
Ġincentives
Ġsupplemental
Ġpleasant
opedias
ĠDiritti
Providing
ãĤ³ãĥŁ
Ġnesting
á¸įÃ¢
Ġsistema
Ġdlaczego
Ġdramatically
Ġrectangle
ĠCNET
ĠphÃ¡t
Ġìĺ¬
ĠAmbon
ĠskalÄĻ
ĠConsiderations
ä»¥ä¸ĭãģ®
Ġanticipated
ĠAufbew
owanym
ĠVersa
ĠVersions
Ġchemistry
ĠØ§ÙĦÙħØ´Ø§Ø¹
åĨįåĪ©çĶ¨
ĠMitgliedervers
Ġmembuat
Ġenclosed
Ġaccompanied
ĠKategorie
ĠAlgol
ĠAlgardi
Ġdataset
Ġaugment
Ġskipped
Ġinherently
ĠLarry
Ġbenchmarks
Participation
RozwiÄħz
determ
èģĶ
ĠSTAT
ĠRapid
ĠRaphael
æĦıåĳ³
ĠMessages
ĠNevertheless
Ġensiklopedia
Ġoccasional
ĠwydajnoÅĽci
ĠNetzwerks
Piola
Renaming
ë³Ħ
ĠPicard
ĠChampions
ĠÐºÐ¾Ð½Ðº
ĠÐ³ÐµÐ½ÐµÑĢÐ°ÑĨÐ¸ÑĺÐ°
ĠÐ¿ÑĢÐ¾Ð³ÑĢÐ°Ð¼Ð¼Ð¸ÑĢÐ¾Ð²Ð°Ð½
Ġbedrijf
ãĥķãĤ©ãĥ«ãĥĪ
represented
å·¥åħ·
ĠResponsible
Ġaudiobook
Zapew
nbsp
internet
Ġmobility
Ġinevitably
Ġthuá»Ļc
ĠRoam
Ġjanvier
ĠRequester
uggestions
ãģĻãģ¹ãģ¦ãģ®
ĠÑģÒ¯ÑĢÓ©ÑĤÑĤ
àŃ¦àŃ§
ĠAssignments
Ġdialekt
ç³»ç»Ł
RomÃ¢nÄĥ
trizes
ßĺßĭ
áŁĤ
áŁĴ
unktion
ĠWilson
ĠBryant
ãģ«å¯¾å¿ľ
Agentic
Separ
Ġtheoretical
Ġnawet
ĠOhio
ãĥĢãĤ¦ãĥ³ãĥ
ĠNordic
Ġdisparate
Increase
ĠreprÃ©sent
è¤ĩæķ°
ĠSMTP
enschutzerklÃ¤rung
epsÃ¤n
ĠKelly
ĠShopify
Ġenciclopedia
èªŃãģ¿
ĠÑĩÐµÑĤÐ²ÐµÑĢ
ĠproduktywnoÅĽÄĩ
Ġconvinced
çı¾åľ¨
Library
Ġà¸«à¸£
Ġbiznes
Ġtodos
ĠLICENSE
Ð¼ÐµÐ´Ð¸Ð°
åĲİåı°
ĠØ§ÙĦØªÙĪØ«ÙĬÙĤ
ãĤŃãĥ£ãĥĥãĤ·ãĥ¥
Szablony
ßĻßĬ
ë¸Ķ
ĠÚĪÛĮÙ¹Ø§
Ġwajar
ĠBrainfuck
ĠLaboratory
ĠêłĢêłŀ
Ġcoupon
ç§ģãģŁãģ¡
Ġà¤ħà¤ªà¤²
KarimzÉĶÅĭ
Flexible
inspired
Ġperpetual
Ġsubsidiaries
à·Ħà¶½
American
Ġencompasses
Corporate
Training
ĠpÃ²ster
ĠwÅĤaÅĽci
Ġdumbbell
plomacy
Ġryzy
Ġappliance
Ġenctype
Ø±ÙĪÙĨÛĮ
ä½¿ãĤıãĤĮ
Ġobsessive
Ġneighborhood
Arienzo
Caselli
POSE
Ġdhcp
Ġnodig
ĠSkyy
ĠPitkern
ĠLaptop
Ġshorthand
ĠNPOV
associated
ĠVaultPress
ahrung
Ġlaureates
Arabic
ĠEinwilligung
WspÃ³ÅĤpraca
Kernighan
RoundingMode
friisk
çľŁ
ĠbÃ¡o
Ġreinstated
ĠWORK
ĠBNF
Ã¼tzen
ĠëįĶ
Ġà¨²à¨Ī
Ġcalibration
Ø³ØªÙĪÙī
Ġ×ł×Ļ×ª×Ł
imbabwe
fÃ¼llung
970226
åĤ³
ĠCambridge
heritance
ĠRodr
Ġpredominantly
Ġerforderlich
Ġâī¤
ê±°ëĤĺ
Ġinnocent
Ã«tzebuergesch
ĠprywatnoÅĽci
Germany
Movie
Tumbuka
nofollow
sylv
ÚĮÙĬ
ĠimÃ¡genes
ĠVegas
ĠØ§ÙĦÙĪØ³Ø§Ø¦Ø·
Ġà¤§à¤°
Ġdisconnected
Ð¾ÑĢÑĤÐ¾ÑģÑĤÐ°Ð½
ĠprzedsiÄĻbior
Ġillustrious
Ġklienci
Ġprzejrzyst
Ġchancellor
ĠLjubljana
Breadcrumbs
DENCAT
Hokin
HIDDENCAT
¥àº²àº§
ÚļØªÙĪ
åŀĭ
æĩī
ĴÎ¹ÎºÎ¹ÏĢÎ±Î¯Î´ÎµÎ¹Î±
Ġepisodes
imodal
stiftels
ĠPURPOSE
Ġunparalleled
ĠInnsbruck
Ġirodal
ĠYekutiel
ĠTrampuÅ¾
ĠPreÅ¡eren
attdÃ¼Ã¼tsch
uxinyu
ĠTHROUGH
ĠzaangaÅ¼
ãĤ·ãĤ¹ãĥĨãĥł
à¹Ĥà¸«à¸¥à¸Ķ
KalturaOttGeneratedAPIClients
íķľêµŃê³µìľłê²½ìłľíĺĳíļĮ
ĠMassachusetts
ĠØ§ÙĦØ¥Ø¨Ø¯Ø§Ø¹ÙĬ
)ØĮ
+/
-)
.*
/*
099
599
527
650
AH
AK
Air
Bon
Bak
Bob
Board
Biden
CG
Cut
Central
Dig
Dep
Diversity
Eff
Esc
Eye
Eesti
Euskara
EJAE
FT
Fork
Final
Fiduciary
GA
Gor
Got
Gain
Game
GUI
GÄ©kÅ©yÅ©
Hard
Harm
Hidden
Http
HMM
Ill
Jet
Jack
July
KE
Kam
Kut
Kongo
Kirundi
Long
Lock
Loop
Lux
Large
Label
LietuviÅ³
Limburgs
MO
MV
Mu
MIN
Marshall
Major
Matching
Nav
Native
North
Named
NESS
Nulla
Om
ORS
Pra
Past
Pict
Risk
Rendering
Seb
Seed
Sustain
Sandbox
Samsung
Tor
Taj
Tips
Uzys
Ve
VIS
Virtual
Various
WD
WO
Would
Winaray
XSL
Yor
Yeah
Zesp
aar
bub
bÉĽ
blog
bosanski
cin
cio
criminals
dal
een
eletion
fic
fire
fung
filled
family
flichten
gre
gas
gam
gunt
hit
hÃ¶r
iad
iÅ¡
jang
java
km
kp
kÄĻ
kÃ³w
kulu
lay
lung
lank
lama
mie
members
major
nl
nÃŃ
nament
nienia
oÊ»zbekcha
phe
pas
personal
prior
phishing
paste
rust
rong
rina
richt
rado
summ
signed
szyst
sides
safe
sync
sÃ¤tzlich
tp
uin
uers
upper
vu
vid
vable
vari
vCat
wie
would
wert
yen
yak
zar
zig
zial
zaj
£áİ³áİ©
¤Ģ
¥à¦®
ªħ
±ħ
·ľ
¹Ħ
Äµ
Äī
Å±
Æ½
Í¨
Ðĸ
Ó¦
ÙĢ
Þ¬
ÞĢ
ÞĪ
Þĭ
ßķ
ßŀßĬ
ç¡
çĨ
èĲ
ëĿ
ì¡°
Ġile
ĠÅ¾
Ġãģ¤
ĠåĲĦ
ĢÕ¡ÕµÕ¥ÖĢÕ¥Õ¶
ĢìĪĺ
ģéĿ¢
īà¨£
īáĮį
Ĭ¹
ıħ
Ĳ×Ķ
ĽáĪŃáĬĽ
ĿßĬ
ŀáĥĶáĥ
Łèĥ½
ł×Ķ
ł×Ĺ
Ġtay
Ġtert
Ġtrop
Ġtired
Ġtorn
Ġtych
Ġtecnolog
Ġtáº¡o
ĠtatarÃ§a
ĠtÃ©cnic
incre
includes
hend
rez
erde
atura
atyw
ativo
orar
Ġsor
Ġsous
Ġsli
Ġsums
ĠsÉĶÅĭ
Ġsaja
Ġsáº½
Ġsorry
enos
enary
Ġcual
Ġcars
ĠcÃ²
Ġcá»Ļng
anch
Ġpane
Ġpii
Ġwest
Ġwood
isor
isal
isÃ©
edish
Ġfat
Ġfab
Ġfond
Ġfiduciary
Ġfestival
Ġfabric
Ġfemale
ingoli
Ġodz
Ġotrzym
Ġdag
Ġdess
Ġdign
Ġdance
Ġdili
Ġdrast
Ġdomen
Ġdnia
Ġdubb
Ġdrei
Ġbh
Ġbond
Ġbert
Ġburn
Ġbajo
Ġbatches
Ġbricks
icion
ichen
Ġmm
Ġmig
Ġmart
Ġmend
Ġmont
Ġmvn
Ġinessential
arf
arp
arzenia
entuan
asas
asik
asure
asuk
Ġnak
Ġnorsk
Ġniche
Ġreuser
Ġrewriting
Ġlin
Ġlam
Ġlug
Ġluk
Ġlover
Ġlider
Ġez
ilge
Ġyoga
vex
Ġhog
Ġhype
Ġhurt
ĠhÃ£y
oton
othetical
imag
impl
imbu
Ġforcing
ĠAch
ĠAqu
ĠAang
ĠAli
ĠANSI
igte
iguation
igkeit
channel
amah
ĠCE
ĠCie
ĠCategories
ĠCtrl
unu
uned
unque
unisia
ĠSiv
ĠSaw
ĠSex
ĠSlov
ĠSaro
ĠSanta
ĠSierra
owana
owani
station
sters
stable
structured
ĠTro
ĠTec
ĠTaking
ĠTested
ĠTRI
idt
idy
agge
agÄĻ
adoc
Ġ(@
Ġ(â
Ġgá»
Ġglov
Ġgespe
Ġgambar
Ġgrooming
Ġproget
ĠWy
ĠWave
ĠWind
ĠWants
ĠWelsh
Ġorange
Ġcond
Ġconclusions
elah
ablish
urze
urkan
ematic
emakers
Ġvra
ikame
ifferences
acs
acjÄħ
acije
aciones
Ġstead
Ġstems
Ġstellar
ĠMol
ĠMir
ĠMÃ¤
ĠMission
ĠMason
ĠMAP
ĠMidd
ĠMorgan
Ġalpha
Ġalbeit
Ġasá»¥sá»¥
ĠPin
ĠPot
ĠPast
ĠPier
ĠPowers
ĠParsing
ĠPacific
Ġdek
Ġdeed
Ġdeeds
mentions
tery
odot
odob
estaw
quer
quotation
ecil
ocze
ĠDal
ĠDall
ĠDown
ĠDomen
ĠDomin
ĠDurch
ĠDriver
ĠDurationFormat
ĠGH
ĠGU
ĠGra
ĠGust
ĠGates
ĠGran
ĠGalleries
ĠGWT
raum
raÅº
Ġwhites
Ġwholly
places
ĠBible
ĠBalt
ĠBali
ĠBrid
ĠBÃ¢n
ĠBanks
ĠBrief
ĠBilder
ĠBruce
ĠBSD
ĠBUT
ĠBethany
ĠBikol
ĠFle
ĠFriend
ĠFIF
ĠFBI
ĠFrequently
ĠFOSD
Ġkin
Ġkab
Ġkup
Ġkant
Ġkoj
Ġkiller
Ġkaca
ĠkÃ«n
orer
oreai
eware
urezza
Ġrt
Ġrit
Ġrational
Ġrising
Ġunalienable
Ġunofficial
Ġunleash
andi
andise
ĠLIVE
ĠHY
ĠHel
ĠHart
ĠHok
ĠHADOOP
ĠHBO
ĠHERE
ĠHIPAA
artificial
ĠRose
ĠREC
ĠRPC
âĢĻ,
ipada
ĠEN
ĠET
ĠEld
ĠEuro
ĠEnergy
ĠfromIndex
upe
updated
ogene
antha
ãĤ¬
Ġseu
avel
ĠOpp
ĠOOP
ĠOVER
ĠOromoo
Ġsuits
ãĥĬ
ãĥĿ
Ø§ÙĪÙĨ
Ð¸Ð²
Ġshout
Ġshake
Ġships
Ġshifting
lict
Ġchurch
Ð¾ÑĦ
Ġspacing
Ġspelled
Ġspammers
ĠNames
ĠNatives
ĠNulla
ÐµÐµ
ÑĢÑĭ
ÑĢÐµÐ´
Ġ"-
Ġtrays
Ġtrillion
arda
Ġlea
Ġleather
Ġapple
ieval
ieÄĳÃ¢
Ġarmy
Ġabused
Ġcompound
Ġcomplying
Ġcompressed
ĠWikiqu
Ġenf
ansi
permission
performing
Ġteen
ÑĤÑĥÐ½
ÑĤÐ°ÑĤÐ°ÑĢÑĩÐ°
Ġwheel
Ġjug
ĠjÃ¡
Ġjumlah
ÙĦØ§ÙĦ
ÙĦØ§Øª
ĠInformat
ĠJest
ĠJee
ĠJiry
apot
ths
think
itech
Ġanybody
Ġplates
Ġplakat
×Ļ×Ļ×ª
Ġresize
okal
okument
Ð»Ð½
Ð»Ð°Ð½Ñĭ
actically
activity
grades
ÐºÐ°Ð»
inda
Ġdisamb
ĠVa
ĠVin
ĠVid
ĠVarious
ĠVineet
achow
Ġquiz
Ġquarta
Ġzar
Ġzali
Ġzooi
ffiti
Ġmayor
Ġmeal
ikele
ĠStra
ĠStew
ĠStock
ĠStrict
ĠStructured
ĠStripe
Ġpartn
astro
ĠKang
ĠKai
007
early
Ġscream
Ġdescent
phot
Ġclothes
awned
ÙħØª
ÙħØ§ÙĨ
ÑĥÐ´Ð°
ontemb
akeasy
ypass
ftar
×ķ×Ļ×§×Ļ×©×Ļ×ª×ķ×£
ruj
Ġoutright
Ã©ment
Ã©qu
Ġlicen
Ġlicenc
Ġliczb
Ġlicencia
Ġpreval
Ġprezident
team
Hubbub
Ġevident
ÙĬØ§Ø³
Ð´ÑĥÑĥ
ĠprÃ©s
ÙĪØ§Ø±
ÙĪØ§Ø¹
inted
intelligence
Ġrecal
Ġrecall
Ġ39
Ġ320
Ð¼ÓĻ
Ð¼ÐµÑĤ
Ġbuah
Ġsecular
Ġsecurities
Ġconscious
Ã³m
Ã³s
Ã³di
Ø±ÙĬØ±
Ø±Ø§Ø¦
ĠRexx
Ġfirma
iani
Ġprojectors
neutral
useful
Ġaccesskey
Ġcolabor
Ġindeterm
Ġmodo
Ġmodifies
Ġ1924
Ġ1928
Ġ1939
erta
sson
ĠobjÄĻ
Ġobej
Ġunderp
Ġunderway
ĠWebD
ĠØ§ÙĦØ¨Ø±
ĠprotecciÃ³n
Ġoverflow
Ġexpands
Ġexponent
arium
arians
alking
ĠCha
ĠChua
ĠChannel
ĠChronoSync
woj
Ġpersona
Ġpersonnel
embered
Ġfunc
anye
anym
Ġsystematically
Ġlazy
ãģ®ä¸ĭ
Ð³ÑĮ
Ġkele
Ġkeynote
ÑĸÐº
ÑĸÐ±
Ġua
Ġupt
Ġuji
Ġuzn
ÑıÐ²
itsch
itsonga
Ġverwend
Ġheadband
ĠmyÅĽl
Ġtechnic
cker
espan
Ġfiletype
Ð·ÑĮ
Ġmetod
Ġmetody
Ġmetropolitan
Ġblo
Repl
azu
ciÄĩ
proved
probably
ĠWeather
ierz
Ġeditable
lassians
ÛĮØ²
toerist
Ġincurred
à¨īà¨£
Ġundes
Ġundis
ĠYoast
Ġdifferenti
Ã¡r
Ã¡tic
Ġguitar
ĠDead
Ð¿Ñĭ
Ġprobabil
Ġteamwork
ĠÐ¿Ð¾Ñģ
Ġà¦ł
Ã¤tt
Ġ750
olding
ĠCCGN
Ġnaive
Strict
Staff
StÃ³di
Ġsmo
ienced
Ġgrupy
ĠÙħØª
ĠÙħØ¬
ĠÙħØ§Ø±
ĠÙħØ«ÙĦ
Ð¹Ð¾Ð½
Ġnonpublic
exist
exhaustive
lemetry
Ġlongest
Ã¼h
Ġ650
Args
×ľ×§
×ľ×Ļ×ĺ
Ġperformers
Ġtoolset
athy
Ġworlds
elson
Ġpostcard
Ġcharger
Ġcharset
Ġcharitable
Ġinfra
guide
Ġtrail
Ġtrails
ĠâĤ¬
Ġpolicym
Ġdistractions
ĠÐºÐ¼
ĠÐºÐµÑĢ
ĠÐºÒ¯
ĠÐºÑĭÐ»
ĠÐºÐ¾Ð»Ð´
ĠAlh
Ġengages
Ġlogically
Ġlogins
ĠÑģÑĮ
ĠÑģÐ¾Ð´
ĠÑģÐ°Ð¹
ĠÑģÐ²Ð¾
ÃŃt
1969
ÙĤØ©
Wikiversity
Wikivoyage
Ġlocalizations
Ġdiscusses
ĠConsole
ktor
×Ķ×Ļ×Ķ
à½Ĭ
à½Ķ
ĠproblemÃ³w
istrator
Ġsubjected
×ª×Ļ
×ª×Ĺ
ĠZug
Ġselections
à¸²à¸ª
à¸²à¸Ī
ÑĨÓĢ
Ġencode
Ġë²
ĠëķĮ
tained
ÙĥØ±
backup
ãģĦãģŁ
Ġbaseline
ĠDataFile
Ġesta
Ġeste
ĠÐ¼ÐµÑĤ
ĠÐ¼Ð°Ñģ
ĠNotable
ĠNotting
rena
ÑģÑĤÑĮ
161
ĠÐ½ÑĸÐ¼ÐµÑĨÑĮ
ofers
ofanie
Ġchecker
Ġcheckbox
Ġdemons
ĠÐ±Ð»Ð°
ĠÐ±ÑĸÐ»ÑĮ
Ð°ÑĤÑĭ
Ð°ÑĤÑģÐºÐ¸
Ġgovernor
áı©
áı«
áıĴ
ĠÙĪØ§
ĠÙĪØªØ±
íķŃ
encicl
Ġshee
ĠÑĤÐµ
ĠÑĤÐ°ÑĢ
ĠÑĤÑĥÑĢ
ĠÑĤÑĥÑĢÐ°
ĠÐ´Ñĥ
ĠÐ´Ð¾Ð»
ĠÐ´Ð¶
ĠÐ´ÐµÐ¿
Ġlift
SpruceID
ĠBlender
ĠBlocker
ijer
Ġbeloved
Ġ1870
WebXR
Ġskup
Ġskilled
czes
ĠÐ²ÐµÐ»
ĠÐ²ÑĥÐ»
Ġbrill
Ġfactorial
landa
×Ĳ×Ķ
Ġ--âĺħ
173
Ġportals
ĠáĢĳ
Continu
ĠWorkflow
auth
Chrome
December
ÑįÑĤ
Ġ98
chell
ØŃÙĪ
Ġviable
ĠManche
ĠManavgat
Ġnyaa
anii
ĠSeoul
.):
Ġspeaks
ĠLeave
Ġopz
Ġopcode
ëĭ¹
Ġbooking
ĠReputation
ĠØªØ´
ä»»
ä»½
Ġsmallest
Ġ×©×ŀ×ķ×ª
Ġproposing
ĠÎ¶
ĠÎ»
ĠÎķÎ»Î»Î·Î½Î¹ÎºÎ¬
short
shqip
Ġtaxonom
Ġcritically
araqal
çļĦèĳĹä½ľ
åı³
ĠCluster
Ġslate
Ð¶Ð°Ð½
ĠPrevious
swet
niu
ĠAgreements
ĠBei
ĠBeat
Ġpotencja
Ġpresets
Ġdistributions
Conclusion
Ġpatients
ĠstrategiÄĻ
ARD
Ġclaimant
à§ĩ,
hiy
hiri
ĠÐ¸Ð¼Ð°
Ġfinale
scanning
Ġfamously
ĠResolve
áİ¶
Ġ×ĳ×§
Ġ×ĳ×ŀ
ĠQueries
Ġrecognise
à®¾
Ġentirety
265
Ġbene
×ĵ×Ļ×Ŀ
åĪ¤
åĪ«
åĪĽ
Ġcultiv
aneous
Ġ×ŀ×¦
Ġ×ŀ×ĵ
Ġ×ŀ×Ĺ
GLãģ¯
Ġcosting
ãģķãĤĵ
ĠÐ¿ÑĢÐ¸Ð½
ĠÐ¿ÑĢÐ¸Ðº
Ġearning
Ġearnings
Apply
Ġ175
IRECT
áĪİ
Shark
AbuseFilter
Ġpolished
×ŀ×ĵ
ĠDatabases
Ġbrokers
×©×ĳ
ĠComing
boards
Ġprimitives
à¹Ģà¸Ĭ
à¹Ģà¸Ħà¸£
Ġà¨ĩ
Ø§Ø±Ø§Øª
Ġconsisted
prev
Ġrevoked
ĠÄĳáº§u
IDL
ĠDesigned
è¨³
è¨¼
ĠÃ²
ĠÃĩ
ĠCourts
×Ľ×ķ×ª
amentu
Ø·Ø§ÙĤ
Ġêłª
Ġactivist
ĠÐ·Ð°Ðº
ÑİÐ½
ÑİÑĤÑĮ
228
Ġfirmie
ECMA
ÐµÐ»ÐµÑĢ
ĠwyjÄħt
ĠGenerative
Ġ×ķ×ŀ×
ĠØ¹ÙĬØ¯
ĠSpecifications
à¸§à¸¡
ĠØ§Ø¯Ø§
ENCE
Phys
ĠzaÅĤo
Ġbihi
Ġadaptable
Ġsupreme
bolt
contact
ĠíĨµ
Ġxml
Ã²t
ĠAssist
century
Ġsyntaxes
Ð´Ð°Ð°
ãģķãĤĮãģ¦
cellent
Enjoy
Ensure
ĠEmir
Äįa
à¸±à¹Ī
×¢×¨
Ġprzest
ĠprzeglÄħd
Andre
ãĥ¼ãĥĲ
ãĥ¼ãĥŀ
ëĭ¤ë©´
ĠWikiLatih
):[
Ġ×¢×¦
Ġ×¢×¨×Ľ×Ļ×Ŀ
ĠÃ©crit
Ġmole
Ġmoins
Ġquoting
USE
Ġabstractions
ÑģÐºÐ»Ð°Ð´
Ġassistants
ICUL
297
Ġholistic
ORY
Ġfavorable
Ġsemver
Ġuniquely
Ġinitialized
Recognition
Ġáİ¦
Ġconstructive
Ġomissions
ìŀ¬
Ġdeliverables
Closed
Cluster
evity
ĠshÉĽba
Ġpodem
Ġ×ĳ×Ļ×ķ×ª
Useful
ãģĻãĤĭãģŁãĤģ
ĠWikimedian
Ġblogging
ascot
ĠÙĬÙĥÙĪÙĨ
ĠÙĬÙĪÙĦÙĬ
Ġtransferable
break
×Ķ×¢
×Ļ×ł×Ļ×Ŀ
åĬŁèĥ½
branded
Ġlacked
ÛķØ±
isiXhosa
Ġterrible
ĠAvoid
ggi
×¡×Ļ×ĳ×ķ×ª
ASE
merge
Ġbaseball
Ġobliged
áĬĲ
Ġboom
365
ĠÑĢÐµÐ·
ĠÑĢÑĥÑģÑģÐºÐ¸Ð¹
ĠðŁ¤
ĠðŁĵ
Ġsomeday
Ġiterator
ë¥´
ByClass
Ġsolves
Ġlightning
Ġtraditions
Ġrozszer
ĠDisaster
ĠDisrupt
Others
ĠpanÃ¨ka
operability
Ù¾ÚļØªÙĪ
Ġexcitement
ãĤĪãģ³
Ġsimplifies
description
à²¡
à²¤
Ġindexed
Ġattacker
ĠktÃ³r
áĢķáĢ¡
Ġdoubled
lemental
Ð¸ÐºÑĥ
Ġnegara
Ø«Ø§ÙĦ
CodeQL
Ġextraordinary
Ġrespectful
ÑĩÐ°Ñģ
ĠAntenne
ĠAntalya
ĠGetLocale
ĠMetropolitan
ä¸ĢåĢĭ
ÐµÐ·Ð³Ð¸
Ġiron
Ġwidocz
Ġelectron
ĠAustralians
Ġharmless
ĠLaunch
Ġcolorful
ĠØ§ÙĦØªØŃ
ĠìĿ¼
Ġevaluations
Ġberikut
Ġassigning
daÅĦsk
ĠÑįÐ½ÑĨÐ¸ÐºÐ»Ð¾Ð¿ÐµÐ´
Ġclarifies
Ã¹bÃ¡
Ġnaszym
à¸Ľà¹Ĥà¸«à¸¥à¸Ķ
ĠTransparent
Ġexercises
ĠRoadmap
Ġtimer
375
ĠÂ»).
Submit
SubHubbub
Ġempowered
Ġà¦ªà¦°
ĠÙĥÙĦ
Ġklwaan
ĠSmartglasses
×ĳ×ĵ
Ġsilicon
ĠfaÊ»
Description
ĠInterchange
ĠInterfaces
ÑĥÐ½ÑĥÐ½
æĮī
Ġanimated
ĠUses
Ġáı¥
WSDL
ĠÐ¡Ð¿
Ġkontakt
ĠOutlook
Ġimpressions
ĠOrganisation
éģİ
Ġfigured
Ġvoter
1990
1999
Ð¡ÑĢÐ¿ÑģÐºÐ¸
ÐĲÑĢ
Ġanalyzes
Î·ÏĤ
à¸ķà¸²à¸¡
Ġsubtags
SHALL
SHOULD
addy
Ġloi
ãĥĹãĥ©ãĤ¤ãĥĲãĤ·
à¦ªà¦°
werk
Ġdirekt
Ġdiretrizes
ãĥŃãĥĥãĤ¯
ĠFormatDateTime
ĠÑģÑĤÐ²Ð¾ÑĢ
à¸ģà¸²à¸£à¸Ń
ë¡ľê·¸
aÅĤy
Ġurban
Ġurgent
ĠSignals
à¸·à¹ī
poÅĽred
éĸ©
ĠAudi
Ġwinter
ĠbezpoÅĽred
Ġutiliz
Ġutilization
Ġoversee
å°Ī
ÑĭÐ»Ñĭ
CLA
CLI
CLAI
ĠTamil
Ġinstructional
Ġassessments
ships
ÐĴÐ¸ÐºÐ¸Ð¿ÐµÐ´
ĠWarren
Ð¸Ð·Ð¼
çĻ½
opedya
ojn
ĠDiscord
ĠDiscussions
æī±
streams
Transport
Leak
ä¸ĬçļĦ
Ġanonymity
Ġtokenization
Ġtokenizer
ranging
rangle
ĠÑĢÐ°Ð¹Ð¾Ð½
Thankyou
Simpl
Ġdynamics
Ġnajnow
×Ļ×ľ×Ķ
ä»¥å¤ĸ
Launch
similar
Ġnightly
Ġvacc
æİĪ
ĠStarting
ujÄħce
æĶ¹
ĠDemands
Ġadmitted
Ġequivalents
ĠDavies
Ġ×ĸ×ķ×ĺ×Ļ
InstantCommons
Ġredirected
ç«Ļ
Ġgiáº£
à¦°à¦¥à¦®
ĠPowerPC
Ġkoordyn
Ġ×ª×ŀ×ķ×ł×ķ×ª
ĠDatei
agnÃ²l
Ġprogrammed
Ġprogrammation
Ġtalented
ĠØ´ÛģØ±
Ġillustrated
ÑĶÐ´
Ø£ÙĨ
ë¦½
ĠSamantha
ĠBenjamin
Remember
Reminder
Ġmentor
Ġmutually
Ġkhusus
Ġtelecommun
Ġjoins
ĠShareAlike
Latina
ĠSurv
ÐµÐ³Ð¾
çīĪæ¬Ĭ
Ġpozwala
ĠCollator
Obj
×ĸ×¨
eurswet
ĠayÉĶbu
ĠRemoving
á»įc
ç¶Ļæī
Ġdeadlines
¤ëªħ
Ġprediction
Ġcartoon
Ġlikewise
ĠLabels
ĠáĥĽ
invuÉ£
ĠGenAI
Ġdoctoral
ÙħØ§Ø²
à¹Ĥà¸¢
Ġinterprets
Ø¨ÙĬØ§ÙĨØ§Øª
Customize
áŀĹ
Ġbundles
Ġinherits
Ġnominate
ĠJeÅĽli
Ġznac
aeilge
Ġtendency
ichert
Ġswoim
Ġswojej
ĠØ±Ø®ØµØ©
Ġdepictions
ĠÙĪØ§ÙĦØªÙĬ
Ġwszystko
uws
Ġripping
Ġcontrasting
ÐĳÑĬÐ»Ð³Ð°ÑĢÑģÐºÐ¸
æŃ¢
æŃ¤
Ġmigrated
Ġdetecting
â±ħ
â±ĳ
ĠØ¦Ûķ
æĸ¹å¼ı
Ġsummarizes
Ġimagem
Ã¤nn
ĠÙħØ¹ÙĦÙĪÙħØ§Øª
Ġexploited
WikipÃ©dia
Ø¦ÛĴ
Ġbullying
Ġnonexistent
ĠCredit
Designated
Downloading
repositories
Ġfirewalls
Ġreferencing
idding
Ġratings
Ġcolleague
Ġ×ľ×Ķ×©
Ġ×ľ×Ķ×ª
Searching
Ġburdens
Ġhoused
ĠClaim
Ġkonfig
iegt
Ġchaotic
Ġzwrot
Ã©tis
Ã©cur
Ġnanpa
ĠØ§ÙĦÙĨØµ
Ġ{\
Ġpreceded
Ġextracts
Ġextracted
ĠSolus
Ġalbums
obertura
á¸ĵ
Ġbahwa
Ġ×¨×§
Ġoctobre
à¸ĵà¸ķ
ĠRetention
Ġdigitale
ÎŃÎ½
[...]
