{
  "ivals": 26441,
  "Ġputting": 9384,
  "Ġphotographers": 15765,
  "Ã¨ka": 26681,
  "Ġneg": 4421,
  "×ķ×Ļ×ķ×ª": 10134,
  "yle": 1669,
  "ãģĭ": 3909,
  "Are": 10836,
  "Ð¸ÐºÐ¸": 4275,
  "Ġ2014": 5267,
  "owal": 20736,
  "Ġß¡": 21107,
  "56": 6570,
  "Ġvaries": 12935,
  "ormal": 11878,
  "Ġshopping": 5702,
  "ãĤ¦ãĤ§ãĥĸ": 20526,
  "ìĦ±": 17706,
  "Diversity": 27628,
  "Ġtys": 26166,
  "Ġold": 2323,
  "×ľ×Ļ": 25214,
  "Ã©c": 8405,
  "ĠHart": 28111,
  "OfLocale": 23187,
  "Ġmaintains": 9638,
  "Dev": 7532,
  "Ġcomposite": 21700,
  "Ø®Ø±Ùī": 17665,
  "åĽł": 22053,
  "Ġone": 654,
  "Ġplug": 4983,
  "ÑĤÐ¾ÑĢ": 7676,
  "Ġfocusing": 10613,
  "ĠWikipedii": 12369,
  "Ġheavily": 13992,
  "base": 7807,
  "ĠFord": 18640,
  "ei": 9542,
  "Ġelected": 15766,
  "ubb": 9450,
  "Ġidi": 15162,
  "Ġapparently": 17839,
  "owered": 3797,
  "Ġtheoretically": 29270,
  "imeo": 26515,
  "agabaga": 14020,
  "keh": 30581,
  "Ġcrypt": 6962,
  "olan": 23704,
  "ĠBluetooth": 6932,
  "AG": 5282,
  "ĠÙĩÙĪ": 19655,
  "ÐµÑĺ": 30135,
  "uma": 5601,
  "Ã¡c": 5436,
  "Ġcircumstances": 6671,
  "ĠScreen": 13048,
  "ĠEssential": 25680,
  "Ġfilmed": 30848,
  "Ġmant": 24830,
  "effective": 19070,
  "Ġhgroup": 29850,
  "Custom": 7325,
  "Trans": 5920,
  "Ġlangu": 639,
  "ĠNeo": 19359,
  "hmen": 23525,
  "Ġpracy": 5364,
  "Ġwyk": 7057,
  "Tracking": 25348,
  "bola": 16661,
  "Ġsimultaneously": 15848,
  "ĠNonetheless": 31139,
  "Ġex": 340,
  "Ġindustry": 3547,
  "Ġedisi": 20086,
  "Ġbecoming": 7316,
  "illy": 19256,
  "imum": 18591,
  "ismu": 26696,
  "sets": 21479,
  "Q": 53,
  "Ġìłľ": 13939,
  "OF": 26023,
  "çļ": 2165,
  "áĢ½áĢ±": 17762,
  "ĠWITH": 18037,
  "ãĤĴæĮģ": 14545,
  "Ġplanowania": 25332,
  "Ġusp": 22570,
  "ĠEthnologue": 29158,
  "aldi": 21536,
  "ĠáĢŁ": 25300,
  "td": 12439,
  "Ġdiscrimination": 13120,
  "Ġdev": 1347,
  "Ġaround": 1732,
  "ent": 251,
  "Ġerforder": 23959,
  "Ġdefense": 10744,
  "Ġcable": 10102,
  "ted": 5893,
  "Ġaplic": 24329,
  "áĪĪ": 25368,
  "çĤº": 15067,
  "Zazaki": 24681,
  "orm": 1603,
  "ĠMaker": 19298,
  "Ġrefine": 21886,
  "hop": 29600,
  "iemy": 27244,
  "Ġãĥ": 4735,
  "AC": 4326,
  "ET": 8761,
  "Ã¨h": 22832,
  "StÃ³di": 28387,
  "Ġconten": 16488,
  "aat": 26046,
  "ass": 537,
  "Ġorganiz": 1901,
  "Pict": 27685,
  "ç¥": 29683,
  "ĠEsc": 25003,
  "Ġwheel": 28183,
  "includes": 27844,
  "osphere": 23209,
  "Show": 13335,
  "erst": 1764,
  "åĢ¤": 12849,
  "ĠkÉĶbiga": 31431,
  "ĠEnglish": 2113,
  "202": 30367,
  "plomacy": 27506,
  "×ł×ķ": 30626,
  "ĠCirc": 12014,
  "×ĸ": 6960,
  "ĠUse": 2828,
  "anted": 10263,
  "Ġfloods": 29277,
  "â°": 6057,
  "×ł×Ļ": 13903,
  "Ġmoderator": 31166,
  "Ġcombined": 9763,
  "icht": 4618,
  "Ġranking": 18348,
  "ĠOtt": 14856,
  "ĠRecommendations": 17771,
  "ãĥķãĤ": 8100,
  "Ġstupid": 29968,
  "Ġë²": 28458,
  "Ġsame": 1087,
  "BY": 5799,
  "109": 11871,
  "åĩ": 6793,
  "pload": 1314,
  "ßŀßĬ": 27809,
  "izi": 17525,
  "Ġinspir": 25492,
  "Ġohne": 25471,
  "IteratorPrototype": 31568,
  "ited": 819,
  "requis": 21176,
  "ÛĨØ±Ú©": 11944,
  "liv": 14735,
  "ĠUSB": 8429,
  "Ġquietly": 21299,
  "Ġdirected": 8077,
  "mention": 12709,
  "Ġcher": 26190,
  "Ġëĵ": 24007,
  "eworthy": 23765,
  "ĠBoth": 10393,
  "Ð±Ð¾ÑĤ": 18181,
  "Ġche": 1237,
  "ittle": 2695,
  "Bel": 8359,
  "Ġobviously": 13093,
  "Pronunciation": 31633,
  "Ġyoga": 27932,
  "ĠØ§ÙĦØ¨Ø±ÙħØ¬Ø©": 8867,
  "ł×Ķ": 27831,
  "efined": 3751,
  "é¡": 7137,
  "alties": 11292,
  "Ġmanufacture": 14319,
  "Backup": 19673,
  "ansom": 8398,
  "liche": 12269,
  "Ġregulations": 8438,
  "ontakt": 11647,
  "ework": 2668,
  "Ġframeworks": 8249,
  "Gain": 27642,
  "ĠÑĩÑĤÐ¾": 21132,
  "ĠPDFs": 19023,
  "ĠÐ±Ð¸": 19489,
  "Ġlengthy": 24278,
  "Ġflagged": 24207,
  "Ġcommunication": 5406,
  "ÑĢÐ¿ÑģÐºÐ¾ÑħÑĢÐ²Ð°ÑĤÑģÐºÐ¸": 29443,
  "Ġlign": 29827,
  "String": 5823,
  "ãģĪ": 7669,
  "ne": 769,
  "Ġprivately": 16072,
  "ĠNP": 21693,
  "exper": 18174,
  "Rooms": 14040,
  "ĠSafari": 8250,
  "den": 2439,
  "êłİ": 23928,
  "11": 2306,
  "upported": 21089,
  "Ġfocusable": 8164,
  "ĠBad": 11610,
  "áģ": 3809,
  "ĠCybersecurity": 11531,
  "Ġaccess": 776,
  "Ġcateg": 1123,
  "Ð½ÑĭÐµ": 15373,
  "activ": 14150,
  "ĠRES": 22639,
  "uits": 16859,
  "Ġhorror": 13993,
  "yg": 19182,
  "ederal": 3916,
  "¤ë": 7135,
  "ĠOak": 11628,
  "Sensor": 8364,
  "æ¸": 15153,
  "Govern": 21149,
  "sim": 6101,
  "ÑĨÐ¸Ð¸": 17716,
  "Ð°ÑĤÑĮ": 13308,
  "hers": 6589,
  "Cola": 29464,
  "Lon": 26008,
  "Ġkamp": 15223,
  "Ġarchitecture": 4708,
  "ammed": 25485,
  "Ġmá»Ľi": 23656,
  "ãģĶ": 15211,
  "akti": 30058,
  "Cloud": 7634,
  "soft": 2727,
  "ĠDigital": 4335,
  "PG": 10841,
  "Ġfinally": 7185,
  "ŀáĥĶáĥĵ": 29429,
  "icker": 26632,
  "Ġanalyze": 9912,
  "unan": 15950,
  "ĠReport": 4833,
  "Ġpow": 5850,
  "ĠÐ¿": 1162,
  "Ġmeasurements": 25593,
  "ugin": 25175,
  "Ġà¨¸": 14972,
  "ãģĮãģĤãĤĬãģ¾ãģĻ": 12087,
  "ĠPS": 8487,
  "lines": 5975,
  "Ġgain": 4848,
  "Ġprofit": 14514,
  "Ġperm": 1181,
  "Parts": 12378,
  "Ġrotation": 29092,
  "Ġinfringement": 4758,
  "Ġà¦ħà¦¨": 24446,
  "Ġproving": 20887,
  "zgl": 31997,
  "ĠXbox": 30417,
  "Ġenerg": 9986,
  "Ġeveryone": 2846,
  "Ġagent": 3170,
  "Ġasks": 17489,
  "ep": 536,
  "Ġverifying": 20928,
  "ako": 12949,
  "chter": 20719,
  "Ġachie": 8968,
  "Customize": 28979,
  "anged": 13802,
  "ius": 11558,
  "Ġarbitr": 5190,
  "ĠLadino": 14847,
  "ipedia": 682,
  "Ġendorsement": 14662,
  "ĠEinwill": 22246,
  "ĠDav": 6272,
  "FDL": 4838,
  "Ġcondition": 6115,
  "ĠQuick": 13038,
  "rounded": 26798,
  "ĵ": 198,
  "auses": 18886,
  "Wat": 31857,
  "Ø¯": 1052,
  "Help": 5972,
  "Ġpublicly": 5207,
  "ĠØ±Ø®ØµØ©": 28991,
  "ees": 2452,
  "ĠAnti": 17190,
  "Ġlightning": 28757,
  "Ġtyl": 13747,
  "lov": 5448,
  "Ġbypass": 7673,
  "WY": 31854,
  "ĠÙģ": 2621,
  "Ġcord": 22484,
  "uni": 3053,
  "Ġkar": 4653,
  "ĠJir": 22684,
  "Ġactively": 8846,
  "iquid": 25265,
  "Ġrevis": 30692,
  "à¹Ģà¸Ħà¸£": 28627,
  "Ã©l": 12049,
  "ÙĩØ¬": 15677,
  "tool": 12302,
  "Ġ×ĳ×Ĵ": 24096,
  "Ġregistry": 10795,
  "Ġâī¤": 27554,
  "ark": 619,
  "Sprooch": 14316,
  "Ã¡m": 16557,
  "iency": 6134,
  "loc": 23533,
  "ĠPURPOSE": 27589,
  "angan": 7968,
  "Ĭ": 189,
  "owi": 9838,
  "Ġalpha": 28025,
  "iled": 14798,
  "ãģ®ãĥİãĥ¼ãĥī": 22017,
  "sze": 14373,
  "×ĺ": 2975,
  "Ø§Ø±Ø¯ÙĪ": 18865,
  "Ġcáº¥": 19882,
  "ĠHor": 18653,
  "that": 5089,
  "ĠãģĿãĤĮ": 21512,
  "Ġcustoms": 21812,
  "ĠAN": 2784,
  "Õ": 147,
  "ĠFirst": 5992,
  "1990": 28842,
  "ĠMold": 24926,
  "ĠAgreements": 28568,
  "ĠInn": 21704,
  "Ġpad": 18562,
  "Multilingual": 31163,
  "Ġarbitrary": 12599,
  "Ġba": 4263,
  "Ġpierws": 25888,
  "86": 6301,
  "DN": 4052,
  "é": 167,
  "Ã³b": 7836,
  "Ġranked": 8861,
  "Ġcompleting": 22851,
  "Ġthrive": 21573,
  "Vol": 15119,
  "ĠRealities": 19030,
  "Ġoccasionally": 14683,
  "Ġpostal": 30429,
  "ins": 1496,
  "IT": 3039,
  "rovers": 24835,
  "à±ģ": 4232,
  "ĠKo": 19388,
  "èµ": 10530,
  "ĠIMI": 7216,
  "Ġclasses": 5439,
  "herent": 12324,
  "Ġdili": 27889,
  "uetooth": 6780,
  "Ġoprogramowania": 18450,
  "Ġcontinued": 7849,
  "Ġefficiency": 7541,
  "aff": 3069,
  "ĠcÃ¡c": 9822,
  "pÃ¼": 29631,
  "ĠÐĲÐ¹": 25484,
  "Ġconstructing": 22009,
  "Ġfundamentally": 22105,
  "ĠHE": 21663,
  "Ġcharacteristics": 12352,
  "ĠPaper": 7794,
  "ĠßŀßĬ": 18888,
  "Ġquis": 18113,
  "Ġher": 1950,
  "Ð¾Ð·": 6071,
  "Ġcloning": 13835,
  "arm": 2441,
  "Ġanchor": 9793,
  "Ġexpressing": 21040,
  "util": 13782,
  "rate": 13442,
  "nij": 14051,
  "most": 3091,
  "Ġspecialized": 10457,
  "vatski": 22440,
  "Ġclos": 20875,
  "aduate": 5550,
  "174": 21020,
  "Troubleshooting": 20595,
  "ĠSeattle": 20220,
  "Ġinteligencji": 10822,
  "ĠÑĩÓĢÐ°Ð»": 20309,
  "ĠÐ": 358,
  "Ġwhenever": 11650,
  "Ġwebcam": 30244,
  "Ġ8": 1776,
  "ĠGo": 1157,
  "nect": 4869,
  "Esc": 27630,
  "Ġthoughtful": 15391,
  "Maps": 24650,
  "whel": 14744,
  "¡áĥ": 29662,
  "Ġneither": 9726,
  "ĠDefense": 29098,
  "Ġimmedi": 4217,
  "Ġcrack": 22005,
  "Ġlew": 25032,
  "Ġpomoc": 9511,
  "odies": 9584,
  "Ġrestricts": 30632,
  "Ġquyá»ģn": 19101,
  "Ð½Ð°": 2726,
  "ĠHopefully": 21348,
  "Wikidata": 17630,
  "PM": 10083,
  "Ġsepar": 2259,
  "avgat": 25086,
  "ĠCategory": 2785,
  "Ġpus": 4764,
  "agai": 12694,
  "overs": 4703,
  "ĠSiv": 27962,
  "classic": 30947,
  "ĠBehind": 25818,
  "ĠHBase": 22635,
  "Ġitalics": 15039,
  "leshooting": 11952,
  "Ġreleasing": 18779,
  "äºĭ": 10938,
  "Ġassociation": 12554,
  "ĠÎ»": 28553,
  "ology": 1380,
  "Ð¸ÑĢÐ¾Ð²Ð°Ð½": 18311,
  "ecode": 13499,
  "ĠInput": 20052,
  "ÑĨÐµ": 13302,
  "Extensible": 23175,
  "Ġengine": 2303,
  "Ġframe": 5006,
  "ĠWikim": 3883,
  "Ġ×Ĳ×Ļ×ł×ķ": 21929,
  "Ġmonitor": 7690,
  "ĠRequests": 15052,
  "Ġperceived": 13830,
  "ĠIndividual": 18205,
  "YouTube": 17031,
  "Ġconverting": 20447,
  "ĠSennheiser": 17467,
  "Ġ(@": 27985,
  "Politikerezh": 15087,
  "gl": 6208,
  "ĠAgriculture": 22542,
  "ĠShapiro": 25949,
  "Ġ×Ķ×": 1389,
  "Transclusion": 22104,
  "Ġaussi": 31607,
  "ĠHob": 26432,
  "ĠåĲĦ": 27818,
  "Requirements": 16060,
  "Ġcap": 1936,
  "Ġà²": 14762,
  "Ġsar": 16389,
  "ĠÑģÑĥ": 15673,
  "ãĥľãĥĥãĤ¯ãĤ¹": 23345,
  "×Ļ×ŀ": 9595,
  "ĠmoÅ¼": 7315,
  "ĠâĢĺ": 4490,
  "Ġdevelop": 809,
  "JavaScript": 29223,
  "Back": 8109,
  "Ġroles": 7606,
  "sa": 5286,
  "Ġcontribute": 3727,
  "Ġarts": 13847,
  "sel": 2614,
  "Ġencl": 14472,
  "ĠMessages": 27406,
  "èªŀè¨Ģ": 13347,
  "ifferent": 10553,
  "Ġhadn": 21811,
  "zw": 14746,
  "Ġtreated": 6560,
  "èĲ": 27812,
  "ĠÃ¥": 17688,
  "æ®": 14060,
  "ĠÐ°ÑĤ": 23591,
  "Ġicon": 6103,
  "Ġarrange": 30148,
  "ĠCancellation": 25933,
  "ĠCO": 18011,
  "ĠVal": 7293,
  "ampangan": 23950,
  "kt": 1497,
  "Ġorient": 8905,
  "ĠPricing": 22297,
  "Protecting": 31245,
  "ftware": 974,
  "Att": 7408,
  "ĠAs": 1581,
  "bersecurity": 6467,
  "Ġsibling": 31499,
  "ĠMor": 11414,
  "untu": 5188,
  "Autom": 10640,
  "match": 19441,
  "Ġimpose": 14489,
  "ãĤĪãģ£ãģ¦": 30841,
  "Halaman": 31770,
  "ĠMechan": 30764,
  "Ġconventional": 15050,
  "Request": 7240,
  "ames": 1197,
  "ĠProfessional": 7318,
  "ĠSwitzerland": 15954,
  "ĠÐ°Ñģ": 18239,
  "Deutsch": 8730,
  "GL": 2540,
  "reation": 17411,
  "published": 17834,
  "Ġeth": 5083,
  "Ġlead": 1659,
  "Ġrecommend": 2720,
  "ãĤĤ": 3858,
  "ĠSam": 6634,
  "omo": 12687,
  "Ġfirewalls": 29020,
  "Ġtechnologii": 24455,
  "æİ¨": 30984,
  "Ġth": 259,
  "Local": 8518,
  "Templates": 10998,
  "Ġeasier": 3728,
  "kszta": 30275,
  "Ġretro": 15299,
  "Ġey": 18002,
  "ĠDiv": 15573,
  "izar": 23799,
  "Ġillustration": 16697,
  "iter": 2406,
  "Ġabroad": 21699,
  "Ġstylesheets": 17751,
  "ĠUr": 6808,
  "RE": 6787,
  "vantage": 12092,
  "Ġdebugging": 15449,
  "isk": 1978,
  "bolic": 11770,
  "Æ": 132,
  "Ġstrictly": 11743,
  "Ġterrit": 8528,
  "Run": 10845,
  "Ġì¡°ê±´": 25833,
  "Ġwelcomes": 24435,
  "Ġnomenatge": 11756,
  "Ġíķ": 8280,
  "isy": 11212,
  "Ø±ÙĪÙĨÛĮ": 27510,
  "áĪİ": 28615,
  "close": 25033,
  "ĠMackenzie": 20537,
  "Tumb": 24673,
  "íĤ": 8656,
  "åıĬ": 16136,
  "Ġcamera": 5281,
  "Ġtrans": 756,
  "Mark": 11964,
  "ca": 4917,
  "Ġverwendet": 31669,
  "SQL": 11968,
  "encicl": 28492,
  "query": 12029,
  "à¾²": 27193,
  "aren": 9720,
  "Ġnella": 26245,
  "Ġpopulation": 8837,
  "readers": 14515,
  "166": 16112,
  "Ġeinem": 18289,
  "itions": 3367,
  "Ġbrought": 7495,
  "Ø¨Ø¯Ø§Ø¹": 24567,
  "ĹãĥŃ": 17958,
  "ĠStill": 13531,
  "Ġbal": 4309,
  "à·ı": 16196,
  "whether": 22442,
  "Ġinstance": 3708,
  "GPL": 19125,
  "HADOOP": 23477,
  "raz": 7157,
  "]]": 2654,
  "Ġunavailable": 26415,
  "uf": 2580,
  "Õ¥Õ¿": 21313,
  "ĠzwiÄĻks": 17814,
  "umed": 25002,
  "ÑİÑĤÑĮ": 28648,
  "SO": 11966,
  "feren": 952,
  "Ġwishes": 21532,
  "Ġstoring": 13208,
  "ļãĥĩãĤ£ãĤ¢": 10364,
  "][": 1448,
  "ĠNotes": 2594,
  "Ġcivil": 8471,
  "Ġland": 6397,
  "ĠØ§ÙĪØ±": 11123,
  "Air": 27617,
  "Ġdrug": 19238,
  "ĠØ§ÙĦÙĥ": 20911,
  "ĠÑıÐºÑĸ": 19591,
  "ĠDaily": 18630,
  "Ġrepetitive": 19084,
  "athML": 13569,
  "Ð»Ð¸": 3391,
  "ĠInternational": 4831,
  "Bot": 14026,
  "à¸«à¸¡": 4964,
  "Ġpartially": 13832,
  "Ġblend": 16059,
  "ĠÃ¨": 4737,
  "Ġrapidly": 13994,
  "Ġdied": 10540,
  "ĠÐĴÐ¸ÐºÐ¸Ð¿ÐµÐ´Ð¸": 29254,
  "http": 24708,
  "FAQ": 19800,
  "ahrung": 27526,
  "Ġthis": 412,
  "utation": 5856,
  "istics": 4851,
  "ĠCommons": 708,
  "anden": 23771,
  "ferent": 1068,
  "Ġtej": 25041,
  "uke": 16109,
  "ÐµÑĢÐ»": 30502,
  "×ķ×¨×ļ": 30769,
  "ÐµÑĢÑĤ": 25264,
  "ĠFrames": 18897,
  "Ġstand": 5645,
  "NeverCry": 6951,
  "ihi": 11560,
  "Freedom": 24553,
  "ÑįÐ½": 14560,
  "Ġwid": 4648,
  "Super": 25796,
  "ĠFeature": 6069,
  "net": 3719,
  "Ġreceived": 3769,
  "Ġhighs": 26693,
  "ĠBetween": 24374,
  "cych": 8933,
  "ĠStr": 4554,
  "ĠLeon": 25313,
  "ĠParliament": 16183,
  "ĠPur": 21635,
  "reet": 5523,
  "ĠAlthough": 8330,
  "ERY": 24063,
  "ĠFreedom": 17247,
  "Ġconducting": 23128,
  "Ġpreced": 8593,
  "TF": 8197,
  "War": 15491,
  "à¸²à¸¢": 8426,
  "Ø§Øª": 2121,
  "Ġuntr": 16127,
  "Ġdiscovered": 11662,
  "Ġinnovation": 6470,
  "oct": 15890,
  "Ġestimates": 24447,
  "onic": 11790,
  "ÙĪØ±Ø©": 19593,
  "Ġrecognizing": 20244,
  "Ġvern": 25160,
  "Ġrole": 3935,
  "Ġhtml": 11587,
  "á¹£": 23178,
  "ĠLoss": 22630,
  "HR": 19126,
  "Ch": 1970,
  "Ġ78": 25202,
  "Ġnarrow": 12585,
  "é¢ĳ": 19705,
  "ww": 17393,
  "unte": 4386,
  "map": 5976,
  "áĢį": 18081,
  "ĠSkills": 18995,
  "Ġlightweight": 13062,
  "Ġsouthern": 26185,
  "Ġglasses": 2480,
  "kaÅĦ": 30583,
  "â´°âµ": 19197,
  "ilingual": 8441,
  "lg": 23531,
  "Ġdip": 15538,
  "Nie": 24654,
  "Ð°Ð½Ð½Ñı": 9157,
  "Ġdecisions": 3516,
  "àŃ±": 21897,
  "boards": 28624,
  "oughly": 10006,
  "Ġice": 11786,
  "roke": 22516,
  "signed": 27765,
  "Ġfavors": 31247,
  "yer": 19850,
  "onditional": 21744,
  "unto": 9020,
  "iliates": 8080,
  "mu": 21465,
  "Ġimpressive": 8975,
  "enforce": 16393,
  "ĠUpper": 22654,
  "ĠTerms": 3369,
  "å½ĵ": 18987,
  "Ġknowing": 9741,
  "çĲĨ": 5513,
  "theme": 30420,
  "Ġprovincial": 31643,
  "Ġarbit": 3197,
  "Ġlots": 10034,
  "Ġrigorous": 24561,
  "ĠThunder": 20951,
  "lich": 4879,
  "abilities": 2963,
  "Ġmoved": 6424,
  "Business": 10671,
  "189": 18810,
  "ĠÙĬØªÙħ": 30809,
  "Ġbarely": 19058,
  "ĠYour": 2438,
  "eedi": 31894,
  "ÑģÐµ": 13251,
  "Sep": 17356,
  "á»ĭ": 10589,
  "Ġob": 811,
  "Ġroughly": 14131,
  "Ġsucceeded": 22200,
  "Ġgone": 8672,
  "sis": 16358,
  "à©ĩ": 8003,
  "Ġcelebr": 8352,
  "iana": 11068,
  "pret": 3355,
  "áį": 6258,
  "Ghana": 14343,
  "Ġjam": 23824,
  "Ġdat": 1782,
  "arding": 18680,
  "hi": 2314,
  "Ġhacks": 24354,
  "Unless": 18844,
  "ªáı": 23565,
  "Ġauthorized": 7844,
  "Ġintens": 22677,
  "ĠDaten": 4520,
  "â±": 7810,
  "ayang": 29943,
  "ÄĽ": 29668,
  "ĠOrd": 14226,
  "ĠRelations": 19624,
  "omes": 23670,
  "adequ": 25156,
  "ÐµÐºÑĤ": 15733,
  "Ġnh": 5852,
  "EMENT": 15800,
  "Ã¼Ã¼ts": 22821,
  "Ġáĭ": 8510,
  "ĠniektÃ³": 23026,
  "ĠAfirka": 31602,
  "Ġog": 7084,
  "ĠznaleÅº": 24581,
  "inars": 21518,
  "anal": 17423,
  "host": 17375,
  "Ġpost": 1355,
  "ĠIntroduction": 17629,
  "gi": 8029,
  "Ġpun": 6263,
  "ĠÏĦ": 7491,
  "Ġdemographic": 25262,
  "Ġremoval": 9497,
  "post": 17384,
  "à·Ĵà¶Ĥ": 27345,
  "Ġwallet": 16749,
  "ĠValid": 26508,
  "Ġassuming": 17211,
  "Data": 3863,
  "format": 8688,
  "Cr": 8268,
  "45": 4237,
  "Ġattended": 12292,
  "ĠniÅĭ": 10155,
  "ãģ§ãģĤãĤĭ": 12539,
  "ĠMars": 21627,
  "Ġdoor": 12734,
  "ĠDifference": 30015,
  "ĠBand": 14127,
  "Ø«ÙĬÙĤ": 23078,
  "áĢ½áĢ²": 25544,
  "Ġona": 23706,
  "Ġlocalization": 10765,
  "ĠMultimedia": 24333,
  "Ġemerged": 15777,
  "usamm": 20706,
  "Ġ×Ķ×ŀ×": 5274,
  "ÐµÑĢÐ°ÑĨÐ¸": 13385,
  "ĠÑĤÐ°ÐºÐ¶Ðµ": 31331,
  "atars": 24792,
  "Ġmigrate": 21243,
  "eling": 22571,
  "ĠZjedn": 22852,
  "Ġsafeguard": 11362,
  "ĠChem": 23188,
  "135": 15683,
  "ĠMATERIALS": 29401,
  "ame": 523,
  "reek": 23857,
  "ìĿ": 1443,
  "Ġencapsulation": 29218,
  "Ġ{{": 1590,
  "ÑģÑĤÑĮ": 28473,
  "ĠCambridge": 27549,
  "Ġada": 12724,
  "lij": 14919,
  "Ġattorney": 13121,
  "é¡¹çĽ®": 29418,
  "åĤ": 23577,
  "nat": 29624,
  "AME": 9178,
  "New": 4042,
  "Ġbestimm": 25218,
  "Ġped": 17972,
  "Ġdouble": 7544,
  "Ġconsider": 2161,
  "çħ§çīĩ": 23320,
  "Ġpurchase": 6095,
  "isch": 5897,
  "×Ļ×Ļ×Ŀ": 7507,
  "Manager": 13626,
  "97": 7010,
  "Participation": 27398,
  "ìŀĲ": 9650,
  "Ġgeometric": 30805,
  "ĠTechniques": 30671,
  "æ²³": 29236,
  "Tesla": 24676,
  "ãĤŃãĥ¥": 23134,
  "uviÅ³": 14331,
  "Ġstatus": 1818,
  "ĠÑĦÐ°Ð¹Ð»": 31561,
  "Location": 13332,
  "à¸¹à¹ī": 17732,
  "Ġnight": 6107,
  "apter": 4702,
  "á»Ļng": 22079,
  "ĠWer": 18614,
  "ounded": 17021,
  "backs": 18196,
  "Ġrozpoc": 19081,
  "ĠCH": 22546,
  "Ġsummaries": 10941,
  "ĠÐĴÐ¸ÐºÐ¸Ð¿ÐµÐ´": 16677,
  "esti": 12943,
  "Come": 23464,
  "Us": 7329,
  "ìļ©": 4835,
  "ãĥŀãĥĥãĥģ": 14660,
  "astern": 14790,
  "Ġreferen": 8129,
  "candy": 29580,
  "Ġzar": 28220,
  "Ġhei": 25017,
  "Ġcela": 29747,
  "Ġproblem": 1504,
  "ĠAAC": 24862,
  "onica": 19219,
  "à¦ī": 15597,
  "ĠmiÄĻdzy": 23658,
  "!": 5,
  "Ġartifact": 24418,
  "Ġtid": 11990,
  "áĢ½áĢŃáĢ¯": 22085,
  "Ġnumerous": 9258,
  "ĠBo": 9844,
  "~~~~": 17816,
  "fter": 1050,
  "ĠExtensible": 27113,
  "Ġstructures": 8857,
  "Pat": 9411,
  "ãģ«ãģªãĤĬãģ¾ãģĻ": 17281,
  "Ġ×¢×ĳ×¨×Ļ×ª": 26937,
  "ãģĺ": 12940,
  "RIF": 23488,
  "ĠNon": 8690,
  "éľĢ": 25930,
  "Ġappearance": 9884,
  "pha": 8403,
  "Ġtree": 3061,
  "Ġroundup": 19636,
  "Ġroutine": 11734,
  "akuten": 20796,
  "Ġapproval": 7846,
  "ĠRow": 18657,
  "read": 1137,
  "ĠDal": 28047,
  "ĠAnabi": 13579,
  "Ġjednak": 25740,
  "Ġnanga": 25629,
  "ĠSon": 5023,
  "ĠDaniel": 15426,
  "isendr": 20679,
  "Ġdeliverables": 28714,
  "1950": 20180,
  "Ġponiew": 22221,
  "ĠÙħÙĨ": 3171,
  "Mand": 19807,
  "proport": 30349,
  "Ġconfidence": 8075,
  "ĠÐĳ": 5326,
  "ick": 1077,
  "Ġupgrading": 16736,
  "áº¿n": 15385,
  "ä»£è¡¨": 31079,
  "ĠJupyter": 14475,
  "ĠpoczÄħ": 31608,
  "Registration": 27194,
  "Ġconnect": 2302,
  "2002": 25412,
  "Ġautomat": 1785,
  "bay": 12184,
  "ĠcaÅĤym": 23261,
  "ha": 3696,
  "Ġtoget": 2562,
  "fragen": 26966,
  "Navig": 13150,
  "áº¿t": 10805,
  "ĠBlender": 28504,
  "Ġcleaner": 24262,
  "dle": 5689,
  "kÅ©": 24713,
  "ÅĽred": 26691,
  "Ġfolg": 26569,
  "sv": 7134,
  "Ġpotrzeb": 10448,
  "Ġred": 2903,
  "ree": 587,
  "bour": 26049,
  "Ġged": 24896,
  "problem": 20938,
  "list": 3737,
  "ĠAv": 4013,
  "uju": 21060,
  "ĠStart": 6175,
  "Ġprovides": 2211,
  "Per": 5929,
  "ĠRussia": 15421,
  "£âµ": 29663,
  "Ġadults": 17533,
  "áĲ": 15905,
  "Ġhol": 3642,
  "Ġpres": 2256,
  "Ġoneself": 27050,
  "Ġallegations": 31552,
  "Ġgest": 12019,
  "NumberFormat": 8256,
  "ãģĬ": 9238,
  "Ġbag": 9566,
  "160": 21874,
  "Ġtraversed": 21841,
  "Ûģ": 3539,
  "ĠáĮīáĮįáĪį": 31389,
  "ĠFrancisco": 10664,
  "ecting": 14430,
  "Allow": 22942,
  "Dec": 13141,
  "track": 14244,
  "ç¶²": 31049,
  "Ġmedium": 9185,
  "Ġcontinuity": 20341,
  "Ġcriter": 30593,
  "ĠHe": 1949,
  "Ġmole": 28694,
  "Ġanal": 1892,
  "ater": 2982,
  "Ġband": 4629,
  "æľ¨": 24067,
  "Ġcurious": 16671,
  "Ġà¤Ĩà¤ª": 15073,
  "Ġnaturally": 15370,
  "Ġforms": 4469,
  "Ġobsessive": 27512,
  "ĠUpdated": 14280,
  "forma": 16486,
  "Ġusergroup": 25155,
  "veal": 6022,
  "ĠAnal": 6554,
  "Ġtom": 13469,
  "ĠNE": 20038,
  "zenia": 7252,
  "Ġmembers": 1812,
  "Ġimple": 16005,
  "Ġdireitos": 17205,
  "Ð´Ñĥ": 15267,
  "oved": 8070,
  "ĠREST": 9130,
  "ĠWikipedya": 27328,
  "pu": 31949,
  "ĠOperations": 17220,
  "owa": 11408,
  "Ġìľ": 7454,
  "Ġketentuan": 31452,
  "Ġfeed": 2209,
  "Ġsummarize": 13105,
  "get": 1016,
  "stan": 22554,
  "Ġá¸į": 16302,
  "èī²": 19088,
  "80": 4914,
  "Ġconsent": 3899,
  "Ġcomparing": 14867,
  "endi": 26454,
  "ãĥ¼ãĤ¯": 11273,
  "Ġstacking": 22088,
  "Ø£ÙĨ": 28940,
  "ĠEnter": 3236,
  "Ġinvestor": 16635,
  "Ġou": 5078,
  "Ġfestival": 27879,
  "Ġunpre": 20006,
  "ORS": 27682,
  "Ġfree": 1051,
  "Ġscaling": 11519,
  "That": 5630,
  "ares": 6391,
  "asts": 11842,
  "acles": 18617,
  "ucz": 20191,
  "ĠØ§ÙĦØ¬ÙĬÙĦ": 11360,
  "ĠÑĺ": 4885,
  "åĵ¡": 22172,
  "ãĥ¬ãĥ³ãĥĢãĥ¼ãĥĦãĥªãĥ¼": 27338,
  "reed": 23605,
  "Ġsam": 3229,
  "Ġrigor": 19076,
  "ĠDramani": 26373,
  "aban": 26332,
  "Ġuseless": 20753,
  "itle": 8660,
  "ÑĥÐ½": 5059,
  "ĠPortuguÃªs": 24231,
  "ÌĢ": 22445,
  "earn": 3133,
  "ĠPHP": 11416,
  "Ġwelcome": 7207,
  "Ġhuman": 2361,
  "ĠMailinglist": 19090,
  "Ġreduces": 11316,
  "Ð¾Ð²Ð°Ð½": 8946,
  "ĠëķĮ": 28459,
  "Ġë¬¸": 11097,
  "Ġcreates": 5400,
  "Î±Î¯": 20246,
  "ĠEPUB": 7283,
  "isition": 13462,
  "Ġdesirable": 21722,
  "plementations": 15301,
  "Ġbehavior": 3354,
  "Ġrefuse": 21887,
  "Ġrestrictive": 15352,
  "nd": 395,
  "ouns": 11674,
  "wiet": 26122,
  "ecz": 6539,
  "ĳľìĭľ": 29339,
  "Ġenjoying": 22056,
  "picu": 31953,
  "Ġlakes": 24844,
  "Ġcontact": 2069,
  "ctory": 29835,
  "Ġneutral": 9990,
  "ĠDec": 5735,
  "ammers": 20331,
  "Ġfinancial": 5100,
  "Ġstretching": 31474,
  "Ġavatar": 30306,
  "Ġban": 4901,
  "Ġeco": 24850,
  "ĠTwist": 31238,
  "AQ": 5888,
  "Ġauthoring": 14199,
  "Ð¨": 14058,
  "150": 11101,
  "Ġpars": 11660,
  "Try": 16335,
  "mosphere": 26092,
  "Ġclosed": 6706,
  "agine": 14112,
  "Ġrecipients": 13961,
  "ĠuÅ¼yt": 11949,
  "ĠPress": 10889,
  "ĠÏĨ": 29699,
  "âĢĻ": 397,
  "Ġabilities": 18685,
  "Ġdramatically": 27368,
  "Ġoverload": 30297,
  "Rel": 4782,
  "Ġrein": 11803,
  "Ġeffect": 4281,
  "valid": 17672,
  "usp": 29826,
  "alo": 7083,
  "àª¤": 20387,
  "History": 7196,
  "Ġkarim": 8350,
  "ĠÙĦÙħØ¤ÙĦÙģ": 29242,
  "java": 27735,
  "ikes": 14119,
  "Ġofficial": 3319,
  "Æ°á»Ľ": 19630,
  "implementation": 22541,
  "Ïĩ": 8375,
  "isis": 26202,
  "rian": 5777,
  "chell": 28530,
  "Ġunusual": 20008,
  "rum": 8995,
  "Sol": 19138,
  "Ġtrying": 5099,
  "Ø§ÙĦÙħ": 23875,
  "iful": 9976,
  "Ġmisund": 30819,
  "sandboxed": 29268,
  "Release": 2443,
  "ĠAlong": 22845,
  "istan": 8800,
  "ĠCap": 2827,
  "virtual": 24594,
  "¥": 102,
  "Ġqualifies": 25741,
  "idiya": 23104,
  "Ġeating": 19919,
  "would": 27781,
  "Ġ16": 2487,
  "ĠIoT": 18027,
  "ĠÃ¸": 14582,
  "Ġdiscount": 6504,
  "imize": 24859,
  "ÙĦØ§ÙĦ": 28187,
  "Ġambiguity": 22298,
  "ĠSaaS": 16933,
  "Ġ250": 13798,
  "sing": 2223,
  "Ġcrowded": 31211,
  "ÐºÑĤÐ¸": 30175,
  "Ġfunz": 21775,
  "ĠWissen": 24474,
  "å¹´": 7799,
  "Ġresult": 1216,
  "å¿ħè¦ģ": 15468,
  "patch": 17385,
  "å¦Ĥ": 11752,
  "Ġwymagania": 23376,
  "Ġcomputation": 15668,
  "ĠSponsorship": 31302,
  "Ġmodify": 5033,
  "umer": 4078,
  "ĠLisa": 20807,
  "Ġrename": 12009,
  "ap": 504,
  "Dam": 21408,
  "ìĦ¸": 17707,
  "ĠzaleÅ¼": 30197,
  "udio": 10562,
  "iritto": 14668,
  "ĠSecureAnywhere": 25639,
  "Ġcontained": 7989,
  "360": 20553,
  "ĠÐ´Ð°Ð½Ð¸Ñħ": 19748,
  "Ġdis": 546,
  "Ġpostscript": 27136,
  "Ġforever": 16700,
  "led": 942,
  "ĠWell": 9023,
  "ĠNh": 20040,
  "ĠØ§ÙĦÙħÙĤ": 19534,
  "íħ": 19858,
  "Free": 7646,
  "oby": 12740,
  "kon": 14366,
  "Ġargue": 13667,
  "Ġordinary": 14284,
  "ban": 6150,
  "Ġro": 973,
  "ĠBrockhaus": 18977,
  "iÄħz": 7004,
  "Ġdefended": 23884,
  "ĠCommentary": 29310,
  "Ġmá»Ļt": 11219,
  "ĠDisclaim": 18922,
  "ĠCoupon": 19057,
  "given": 31904,
  "æĢ§": 9929,
  "top": 13443,
  "urrency": 4801,
  "Vari": 19145,
  "atching": 16090,
  "filled": 27723,
  "Ġlisensi": 16916,
  "ï¿½ï¿½ï¿½ï¿½ï¿½ï¿½ï¿½ï¿½ï¿½ï¿½": 31031,
  "Ġparentheses": 17305,
  "Ġdabisili": 29238,
  "phr": 23860,
  "ĠLogic": 30977,
  "ĠBrad": 30779,
  "Ġdivers": 24822,
  "Ġreplication": 25322,
  "ĥģ": 10363,
  "Ġtackle": 19740,
  "amping": 25200,
  "AR": 2299,
  "ç½": 8278,
  "àŃ¦àŃ§": 27438,
  "Ġfails": 11493,
  "ĠPlayer": 18342,
  "zeg": 31996,
  "ikol": 21619,
  "Ġviruses": 15831,
  "Ġevaluated": 13071,
  "Ġevening": 16079,
  "Ġsupports": 3383,
  "Ġsupport": 812,
  "Pull": 15484,
  "giving": 24706,
  "ì¹": 23586,
  "Ġaddressed": 9618,
  "ading": 3743,
  "ĠRon": 11237,
  "Ġmenus": 18837,
  "udi": 13812,
  "Ġmobility": 27429,
  "idy": 27981,
  "Ġkaj": 13507,
  "ĠAmbon": 27373,
  "ĠáĬĵ": 31038,
  "this": 9462,
  "ĠÐ³ÐµÐ½ÐµÑĢÐ°ÑĨÐ¸ÑĺÐ°": 27418,
  "Ġah": 18553,
  "Ð¾Ð±ÑĢÐ°Ð¶": 31626,
  "Ġdocumentation": 2600,
  "ç§": 6213,
  "ney": 3884,
  "Ġwik": 2278,
  "ĠWikipedias": 7860,
  "Ġadopted": 6561,
  "okm": 18690,
  "ĠTAG": 20745,
  "zhin": 30954,
  "ĠÑĥÐºÑĢÐ°ÑĹÐ½ÑģÑĮÐºÐ°": 31274,
  "Ġlabor": 8787,
  "ĠPoz": 26360,
  "Ġlit": 6110,
  "apers": 9137,
  "ĠOff": 2970,
  "Ġkarimbihi": 31306,
  "Ð³Ð°Ð½": 9736,
  "169": 17639,
  "Oppose": 9805,
  "Ã©e": 6376,
  "Ġcommunicate": 8241,
  "ĠÐ±Ð°": 17641,
  "éĿŀ": 12628,
  "Early": 22349,
  "pro": 1030,
  "ters": 3050,
  "Ġprepar": 13265,
  "amed": 6689,
  "aupt": 24037,
  "Ã³l": 8699,
  "esch": 8776,
  "Thank": 6040,
  "Ġbubbles": 25858,
  "root": 1952,
  "Ġassigning": 28802,
  "Ã¤t": 9367,
  "ĠLicense": 2825,
  "Ġgenerating": 13544,
  "ĠÒĵ": 25547,
  "ĠØ§ÙĦØ«Ø§ÙĦØ«": 23374,
  "×ķ": 627,
  "ÐµÐ½": 1509,
  "à¸´à¹Ī": 18310,
  "Ġbatteries": 23440,
  "Ġpolo": 13042,
  "Ø³Øª": 3710,
  "Ġopenly": 17606,
  "olic": 1065,
  "Ġundelete": 16762,
  "Ġvol": 2462,
  "ãģĵãģ®": 7394,
  "ĺħ": 13453,
  "ĠØ¨ÙĨØ³Ø¨": 31361,
  "Ġoperational": 10285,
  "TA": 23491,
  "Ġpoor": 9327,
  "Ġautorskim": 29191,
  "r": 86,
  "ĠMast": 26347,
  "Ð¸Ñħ": 7370,
  "Ġrectangle": 27369,
  "Ġpanorama": 11135,
  "alth": 2447,
  "ĠSt": 576,
  "Ġproces": 11229,
  "TTED": 30707,
  "Ġhybrid": 10064,
  "Ġnduweni": 31610,
  "Ġnowe": 20947,
  "Ġexecution": 7250,
  "ansion": 12501,
  "ĠØªÛĨØ±Ú©Ø¬Ùĩ": 13592,
  "ÙħØ©": 11058,
  "Ġê¸°": 13326,
  "ĠtÉĶn": 22472,
  "Ġstatuses": 12326,
  "ĠÐ³Ð¾Ð´": 10467,
  "Ġmultiling": 18759,
  "ĠÑĢÐµÐ·": 28748,
  "estern": 4011,
  "aws": 10401,
  "ãĥĸ": 5998,
  "raÅ¼": 19988,
  "Galleries": 22355,
  "Ġ×Ķ×ĳ×¨×Ļ×ª": 29300,
  "Ġsold": 7205,
  "Tamali": 19663,
  "Ġremediation": 18143,
  "Ġdenied": 12105,
  "ĠÃŃ": 21505,
  "\\": 64,
  "ä¸Ģéĥ¨": 23079,
  "ÐºÐ°": 2051,
  "ynorsk": 14547,
  "ĠAlumni": 26701,
  "Ġmatching": 5549,
  "ĠÛĭ": 23596,
  "ĠViol": 21209,
  "Ġcreative": 4655,
  "Ġtypo": 26719,
  "Ġprimitive": 25382,
  "ãĥĥãĥģ": 11903,
  "Ġ×Ķ×¡": 18774,
  "Ġtrigger": 10967,
  "ĠPep": 16956,
  "Ġbahaso": 13680,
  "Ġ}": 14382,
  "rill": 12438,
  "Êĭ": 8556,
  "Ë": 137,
  "Ġusprawn": 24601,
  "Page": 12426,
  "only": 6157,
  "Ġexceptions": 6334,
  "Length": 22369,
  "eremy": 25016,
  "çµĲ": 23268,
  "Ã¢Å¡": 26722,
  "fen": 15127,
  "include": 29720,
  "ÙĦÙī": 4148,
  "Media": 3424,
  "Or": 4867,
  "Ġshorth": 21686,
  "Ġescal": 10969,
  "æ²": 15509,
  "ĠCases": 6401,
  "ĠDeclaration": 14013,
  "Ġbuy": 3948,
  "ĠCreami": 31546,
  "Alike": 12101,
  "×ŀ×Ĳ": 19537,
  "Ð²ÑĢ": 20091,
  "arp": 27912,
  "Ġscen": 7101,
  "72": 10076,
  "Ġthreats": 5350,
  "ãģªãģĳ": 25346,
  "Ġconservative": 29250,
  "Ġauditors": 17734,
  "É£isi": 16611,
  "ĠTesla": 18025,
  "erous": 6727,
  "acjÄħ": 28011,
  "ÑĤÐ¾Ð¼": 20050,
  "Ġentry": 4989,
  "CL": 5687,
  "ĠInt": 1405,
  "ÐĶ": 12207,
  "jekten": 30741,
  "Ġmandate": 24395,
  "Ġinvestigated": 30991,
  "ĠØŃ": 6176,
  "Ġtraditionally": 27342,
  "anii": 28536,
  "à¥Į": 26579,
  "enses": 4823,
  "Ġack": 7379,
  "Ġcompiling": 26993,
  "Ġpublish": 3143,
  "Ġrather": 2657,
  "ishes": 12678,
  "ements": 2930,
  "ë¬¸": 21501,
  "ĠAllard": 18253,
  "ÑıÑĢ": 14174,
  "ĠYekut": 26638,
  "ĠHawai": 15231,
  "ĠChamber": 30304,
  "Pages": 8273,
  "à¸": 372,
  "tak": 26114,
  "Ġ×Ĵ": 7504,
  "Ġpon": 11998,
  "Ġaria": 16875,
  "Ġresidence": 11642,
  "Introducing": 21357,
  "ĠSERVICE": 23267,
  "ĠyaÉ£": 7317,
  "Ninja": 14037,
  "Ġamendment": 21297,
  "ĠUnfortunately": 12745,
  "Ġsudden": 14680,
  "leep": 13769,
  "Ġappointed": 9526,
  "Ð³Ð¾Ð»": 18729,
  "reÅĽl": 19873,
  "ramid": 26832,
  "uny": 29884,
  "ĠJonathan": 20483,
  "eng": 1229,
  "rities": 20096,
  "Ġrestriction": 11893,
  "íĻ": 11572,
  "Ġtáº¡o": 27840,
  "ulla": 13275,
  "Understanding": 19708,
  "Ġsemver": 28706,
  "ĠVegas": 27566,
  "ĠRod": 23783,
  "Ġlean": 16497,
  "ç¢": 13447,
  "bard": 29562,
  "oud": 1363,
  "pping": 4075,
  "Ġpredict": 7167,
  "ãĥ¼ãĥł": 24171,
  "łáĪĽáĪŃáĬĽ": 29281,
  "unda": 17623,
  "Ø®Øª": 13036,
  "matically": 14186,
  "Ġsubstitute": 16178,
  "ablo": 29950,
  "oj": 5843,
  "tic": 2097,
  "Ġcorporation": 24317,
  "orsu": 23850,
  "Ġjack": 19372,
  "ource": 921,
  "Ġfamily": 4320,
  "Ł": 210,
  "ĠÊ»Åįlelo": 23442,
  "Ú©ÛĮ": 22909,
  "Ø¨Ø±": 5125,
  "Ġamend": 10913,
  "Ġlifestyle": 15472,
  "ĠDependabot": 7259,
  "Ġtruth": 10729,
  "áĬĽ": 16689,
  "ĠÐ°": 2322,
  "ĠhÃ£y": 27937,
  "Ġliaison": 20464,
  "nergy": 21808,
  "Bal": 24625,
  "ĠSm": 3360,
  "ĠFIT": 30043,
  "Ġdá»ĭ": 23643,
  "ĠTeamwork": 18286,
  "Ġberikut": 28801,
  "ĠSeries": 7630,
  "styled": 25892,
  "Col": 10080,
  "ĠØ§ÙĦØ¥Ø¨Ø¯Ø§Ø¹": 27275,
  "Ġplacement": 21894,
  "IG": 8361,
  "×Ļ×§×Ļ×ŀ×": 23151,
  "ĠUR": 2383,
  "è¤ĩ": 17949,
  "iders": 11029,
  "Ġvolunteers": 9513,
  "Ġrepresent": 1801,
  "koove": 16168,
  "look": 12662,
  "Ġoprac": 19235,
  "ĠTransl": 7695,
  "Ã¨s": 11872,
  "89": 8647,
  "ĠtÃ´i": 31572,
  "ĠIts": 4984,
  "Ġcelebration": 18430,
  "ç¬¬åĽĽä»£ç¨ĭå¼ıèªŀè¨Ģ": 29336,
  "ĠGro": 22604,
  "ĠPrin": 5067,
  "uds": 3046,
  "Ġniemi": 19461,
  "ÑĨÐ¸ÐºÐ»Ð¾Ð¿ÐµÐ´": 17331,
  "Ġfurn": 14781,
  "my": 4786,
  "rado": 27763,
  "ĠRichard": 13102,
  "ÛĶ": 10854,
  "Ġconsistent": 5278,
  "prem": 18263,
  "Ġlevels": 4726,
  "Ġbureaucrat": 21339,
  "AL": 3791,
  "ĠTechCrunch": 10959,
  "ĠzdjÄĻ": 31443,
  "Ġparagraph": 10754,
  "Ġconsiderable": 18228,
  "ĠDISCLAI": 29294,
  "Ta": 12655,
  "Ġrestore": 5824,
  "ĠMicro": 2776,
  "ĠRunning": 31315,
  "ĠTan": 22557,
  "Ġ×ĸ×ķ×ĺ×Ļ": 28923,
  "Ġmaintaining": 9171,
  "arcz": 10544,
  "Furthermore": 31027,
  "erce": 5485,
  "Ġsponsors": 18998,
  "Ġcharter": 11086,
  "Ġreportedly": 18950,
  "Ġhob": 15941,
  "Ġcáº¥p": 24575,
  "hydr": 10990,
  "makers": 12664,
  "Ġparents": 10316,
  "ious": 1148,
  "Ġeditar": 25185,
  "ĠÐ´ÐµÐ³": 24032,
  "ĠíķľêµŃìĸ´": 18548,
  "Ġw": 230,
  "letters": 22775,
  "oloji": 22116,
  "Dialog": 25887,
  "Ġscopes": 23859,
  "Ġrepair": 25047,
  "Ùĥ": 1606,
  "ĠEmail": 15728,
  "ouble": 14239,
  "ÐµÑģÐ¿ÑĥÐ±": 19771,
  "Ġgegen": 18033,
  "Ġpostcard": 28411,
  "ç¾İ": 19664,
  "Ġperdita": 31694,
  "ĠØ£Ø®Ø±Ùī": 24127,
  "Ġshowcases": 22843,
  "fach": 26068,
  "6": 26,
  "áī½": 21141,
  "Ġsimplicity": 23069,
  "ĠÐ¿ÑĢÐ¾Ð´": 24108,
  "designed": 25482,
  "×Ļ×¨×Ķ": 13084,
  "([": 25958,
  "¦ãĥ¼ãĤ¶": 21386,
  "Ġ1995": 18266,
  "Ġobserved": 23275,
  "ê±´": 21332,
  "ĠThrough": 11460,
  "ouse": 3273,
  "asti": 26518,
  "Ġrationale": 16479,
  "Ġentire": 2436,
  "abeth": 29953,
  "ĠSponsor": 31301,
  "çĻ¾": 11145,
  "Ġmerchant": 25765,
  "à¸Ľà¸£": 14613,
  "ĠLL": 7970,
  "Ġpolicym": 28420,
  "Ġsalah": 23615,
  "Engineering": 31348,
  "Ġanalog": 13892,
  "ta": 4408,
  "ĠSPEC": 31190,
  "1": 21,
  "ĠCommissioner": 17777,
  "Î¼Îµ": 17766,
  "FO": 31758,
  "Ġacting": 11450,
  "ĠbÃłi": 19241,
  "ĠsÄħ": 7816,
  "Ġjournal": 6472,
  "market": 15398,
  "Ġjeder": 25045,
  "Ġdescribing": 10162,
  "ĠUsed": 23103,
  "Ġquarta": 28219,
  "inda": 28210,
  "Ġinwest": 29803,
  "Ġelement": 1495,
  "ĠÚ©ÛĮØ§": 26917,
  "OW": 7067,
  "ĠØ§ÙĦØ´": 21765,
  "Ġpossibility": 13882,
  "×ĵ×ª": 26841,
  "å®Į": 18255,
  "ĠLocal": 8685,
  "owaniu": 20740,
  "Ġcodebase": 18134,
  "ĠLLMs": 22152,
  "Ġdifficult": 3967,
  "Ġrebuilding": 29825,
  "annah": 25259,
  "åĲį": 17678,
  "acies": 20760,
  "Ġresidential": 13250,
  "imental": 18912,
  "zm": 29654,
  "ÙĪØ¬": 13269,
  "ĠIn": 498,
  "ĠØ§ÙĦÙĦØºØ§Øª": 21314,
  "Ġenviron": 2417,
  "Ġmad": 19910,
  "à·Ģ": 23043,
  "ĠAlgardi": 27391,
  "Ġunenforceable": 19327,
  "Ġla": 914,
  "Ġpotrzeby": 27287,
  "Pain": 24659,
  "Ġdeveloper": 3430,
  "Ġnawet": 27454,
  "ademark": 2001,
  "ĠFocus": 19320,
  "cept": 912,
  "news": 31946,
  "oczeÅĽnie": 31664,
  "Ġrat": 8143,
  "à°¿": 2185,
  "Ġthin": 17452,
  "amp": 1180,
  "Ġook": 26212,
  "Ġretailers": 25719,
  "Ġresemb": 30161,
  "Ġexpose": 8323,
  "ĠMAPPER": 29433,
  "Ġcá»Ļng": 27865,
  "University": 15355,
  "))": 15851,
  "Þ¨": 17941,
  "artificial": 28117,
  "sensor": 26110,
  "Ġ×Ķ×¢": 8718,
  "ĠBoard": 5170,
  "Ġ×ľ×§": 21896,
  "olute": 5654,
  "ĠGuinea": 21063,
  "zaj": 27788,
  "ĠMillion": 26348,
  "Ø±Ø©": 11848,
  "Fre": 17891,
  "ĠFOSD": 28086,
  "Ó±": 17399,
  "Ġimpressions": 28837,
  "ruction": 3515,
  "Ġprett": 4955,
  "Ã¤nn": 29009,
  "Ġstub": 29966,
  "What": 1847,
  "Ġformatting": 6333,
  "ĠÐ¼ÐµÐ½ÐµÐ½": 20494,
  "Ò¥": 15147,
  "Ġtranscript": 23887,
  "Ġzagro": 25882,
  "Ò¯Ð¼": 18251,
  "Ð¾Ð½Ð¾Ð¼": 17659,
  "akarta": 14447,
  "Ġwishlist": 30852,
  "layout": 23536,
  "Ġaccused": 22688,
  "rights": 12975,
  "à¸·à¹Ī": 9094,
  "ĠEmir": 28679,
  "gement": 12193,
  "Ġtricky": 27356,
  "ĠComments": 4562,
  "Ġdish": 25065,
  "ĠNCAA": 19781,
  "July": 27654,
  "ĠSeph": 12691,
  "Ġwealth": 15979,
  "Ġminutes": 4021,
  "Ġderivative": 5379,
  "Ġhoud": 29848,
  "Attribut": 31068,
  "ĠLes": 13807,
  "Ð¸ÑĢÐ¾Ðº": 30833,
  "flic": 17372,
  "Ø§Ùģ": 7749,
  "Ġexploited": 29011,
  "anymi": 26600,
  "ÑĪÐºÐµÐ²ÑĸÑĨÐ°": 18453,
  "ognized": 21899,
  "Ġassessed": 19629,
  "Ġfact": 1913,
  "Ġproposals": 7779,
  "×ķ×ŀ": 11447,
  "Ġobtaining": 20326,
  "à¤¼": 11048,
  "ĠKrist": 21720,
  "Ġdifficulty": 16686,
  "à¸ªà¸£": 17722,
  "ĠExpressVPN": 31271,
  "×ķ×¤×Ł": 24366,
  "ĠCy": 6399,
  "ĠMozilla": 5530,
  "eah": 14726,
  "Ġslower": 24247,
  "stellen": 23692,
  "000": 1543,
  "35": 3612,
  "Äħ": 834,
  "Ġak": 7882,
  "Ð³Ð°": 8230,
  "ribut": 646,
  "lt": 4304,
  "ĠWHAT": 30579,
  "Ġproposed": 5217,
  "Ġinherent": 14789,
  "ĠVikip": 9348,
  "ĠbÉĶhimbu": 20533,
  "ÑĭÐ²Ð°": 14494,
  "ifts": 15563,
  "rep": 8123,
  "imento": 17715,
  "çĽ®": 7548,
  "give": 31903,
  "Ġpercent": 5031,
  "à°¿.[": 24072,
  "ansomware": 8868,
  "ĠLestat": 14695,
  "Ġ×¨": 8809,
  "ĠPlus": 6769,
  "ĠáĢħ": 24051,
  "Ġlistener": 25123,
  "Ġwyniki": 31334,
  "),": 675,
  "Sell": 29539,
  "Ġserious": 6288,
  "à¹Ĥà¸¢": 28976,
  "Ġdeath": 9126,
  "KalturaOtt": 27185,
  "Dz": 15856,
  "ä»¶": 7465,
  "ãĥĥ": 3151,
  "develop": 8334,
  "eton": 22539,
  "Äĥm": 25493,
  "ĠØ¨Ùħ": 30529,
  "áĢ·": 7828,
  "Ġfinancially": 26828,
  "ĠComm": 574,
  "spr": 23930,
  "ãģĿãģ®": 6777,
  "Ġprojek": 4466,
  "Ġyoung": 9226,
  "ĠWeekly": 4218,
  "agonÃ©s": 27333,
  "Ġimagen": 15599,
  "è³": 12446,
  "/âĪĴ": 20552,
  "ateurs": 20762,
  "ĠEye": 23789,
  "ternative": 22722,
  "Ġdot": 6355,
  "ĠØ§ÙĦÙĤ": 10750,
  "upload": 14055,
  "Ġsustained": 24318,
  "Ġbibli": 19907,
  "Thomson": 5754,
  "Ġaffiliates": 8012,
  "Ġà¤¸à¤ķ": 20381,
  "Ġplugin": 10481,
  "playing": 25239,
  "Ġ:)": 21106,
  "ocze": 28046,
  "Book": 4238,
  "ĠÐĴÑĸÐºÑĸÐ¿ÐµÐ´": 16287,
  "itz": 12909,
  "avi": 18117,
  "ĠÑıÐº": 15762,
  "pol": 22431,
  "çķĮ": 29057,
  "åĬ©": 15382,
  "Double": 21410,
  "Ġfavorite": 5445,
  "okmÃ¥l": 21377,
  "iler": 9833,
  "apot": 28193,
  "ĠChristian": 17262,
  "Char": 18214,
  "Ġstaff": 4104,
  "Because": 7949,
  "Ġharassment": 13078,
  "Ġexemptions": 31213,
  "Ġjur": 2728,
  "ìĭ": 5845,
  "Ġreaching": 15380,
  "ĠRemember": 17791,
  "ake": 620,
  "ĠSan": 8385,
  "illions": 5739,
  "ĹĪ": 17408,
  "ĠTeach": 30410,
  "actory": 25064,
  "Ġlitigation": 15784,
  "Ġcam": 4093,
  "Ġperformant": 25215,
  "lantic": 17922,
  "ymara": 23945,
  "Kiswahili": 22365,
  "áĢ¾áĢº": 12631,
  "PRA": 23058,
  "Ġalso": 528,
  "Rank": 24665,
  "Ġstriking": 30395,
  "ored": 2006,
  "Ġsukcesu": 27352,
  "Ġtowards": 8899,
  "40": 2507,
  "Ġvulnerabilities": 6882,
  "ĠVogue": 26511,
  "ologii": 21774,
  "ĠSpotlight": 15460,
  "Ġeit": 29837,
  "ipher": 22645,
  "Ġfaculties": 30603,
  "Ġasset": 12749,
  "ãĤµãĤ¤ãĥĪ": 15840,
  "France": 21275,
  "ìĻĢ": 16796,
  "eta": 1362,
  "Ġkegi": 14905,
  "ĠPulit": 24935,
  "Ġderive": 26720,
  "ëĲĺëĬĶ": 25754,
  "å®¶": 13603,
  "Ġchapters": 15598,
  "Ġdari": 9435,
  "ĠPolicies": 12115,
  "Ġexecutable": 22963,
  "Ġassert": 9473,
  "sub": 5483,
  "Ġcrypto": 16735,
  "åħ¥åĬĽ": 17827,
  "urches": 19285,
  "Ġ1984": 14976,
  "woÅĽÄĩ": 30305,
  "Ġeste": 28467,
  "Ñĩ": 1440,
  "Ġin": 246,
  "ĠAcadem": 12129,
  "Cre": 2521,
  "Ġ×ĳ×¢": 13905,
  "Ġexpl": 1340,
  "ĠÎ": 2158,
  "Ġtal": 6580,
  "ĠlÃłm": 31130,
  "Bas": 10510,
  "ĠAssociation": 7551,
  "Ġcritics": 25326,
  "tri": 16858,
  "ANT": 10042,
  "Ġ×ķ×ĳ": 30724,
  "Ġtagging": 16600,
  "ĠÎ±": 10781,
  "bÃ¢": 26052,
  "Ð¹": 1232,
  "ifiable": 5068,
  "Ġtheories": 22479,
  "ubstantial": 24940,
  "Ġsuccessor": 16640,
  "Î·": 5314,
  "ene": 4972,
  "à¤Ī": 21679,
  "Ġyears": 1485,
  "Ġvoc": 16450,
  "ĠArray": 4725,
  "Ġplanned": 11440,
  "ãģ«ãģ¤ãģĦãģ¦": 14194,
  "Ð»Ð¸Ðº": 26929,
  "iente": 25167,
  "rar": 21474,
  "Viewing": 12394,
  "ĠKamina": 29308,
  "ĠNotting": 28471,
  "Ġzapewnia": 15824,
  "Äħczy": 14499,
  "Ġshifted": 19007,
  "ĠAch": 27944,
  "ĠRen": 21668,
  "ĠFred": 30041,
  "Ġvoluntary": 19078,
  "ĠSelatan": 19068,
  "Ġbeen": 778,
  "Ġubiquitous": 25831,
  "engineering": 29259,
  "ĠrÃ³": 10724,
  "Tom": 31837,
  "Ġage": 5521,
  "Ġcalls": 4445,
  "ÑģÐºÐ¾Ð³Ð¾": 23024,
  "idan": 19277,
  "Ġpreferences": 6645,
  "Zapew": 27426,
  "ischen": 16624,
  "Ġbrowse": 10021,
  "olen": 9697,
  "rics": 3866,
  "Ø¯Ø¯": 23935,
  "1961": 25232,
  "¬": 109,
  "asks": 26240,
  "Ġkids": 10258,
  "Ġlasts": 24047,
  "Ġprototype": 13274,
  "Ġwikimedia": 18237,
  "riendly": 6719,
  "Ġvinyl": 18044,
  "Ġexpanding": 12518,
  "Ġbreaking": 10790,
  "Ð¾Ð²ÐµÐ½Ñı": 25282,
  "ĠPhone": 11306,
  "andise": 28107,
  "ĠìĿ´ë": 12388,
  "Ġexample": 905,
  "Ġfield": 1426,
  "×¨×ķ×ª": 17604,
  "wart": 20640,
  "erna": 30373,
  "ĠTech": 4827,
  "Ġagents": 3447,
  "bruck": 26054,
  "áº£nh": 11715,
  "Ġarbitrarily": 24263,
  "Ġcentered": 30615,
  "Ġdedicated": 4623,
  "ivos": 14850,
  "attributes": 23323,
  "Ġmáº«": 29801,
  "ĠÚ©Ø±ÛĮÚº": 25749,
  "ĠHickson": 9590,
  "ĠgÅĤ": 26323,
  "ĠÐ¼ÐµÐ½": 13018,
  "ach": 557,
  "bases": 29565,
  "ĠInstitut": 22935,
  "Ġà¦¡": 22802,
  "rengthen": 19757,
  "Crunch": 9931,
  "Ġresilienza": 21227,
  "ĠFl": 5055,
  "Ġconform": 7574,
  "ĠÄĲ": 20226,
  "Ã¼nd": 17616,
  "Ġspelled": 28153,
  "Ġprotected": 2870,
  "ĠBarb": 26386,
  "App": 2596,
  "ÐµÐ½Ð¸Ðµ": 23996,
  "Ġreliable": 5070,
  "norsk": 13440,
  "canc": 17366,
  "Standard": 13003,
  "uda": 13512,
  "etch": 7350,
  "Ð½": 452,
  "ĠPolit": 13496,
  "anyol": 18727,
  "Ġreceipt": 21002,
  "Ġpremises": 25771,
  "ĠMcC": 16733,
  "roit": 15936,
  "Ġnag": 13190,
  "Ġnotation": 11826,
  "jego": 18521,
  "Ġsubject": 1513,
  "×ĳ": 2558,
  "ãĥ§": 12267,
  "ĠMagic": 13980,
  "ãĥķãĤ¡ãĤ¤ãĥ«": 14665,
  "ĠÐ¿Ð¾Ðº": 8507,
  "Ġcontributors": 4317,
  "onse": 3214,
  "ulate": 7149,
  "ßĲ": 17943,
  "Ġoffere": 6163,
  "urkan": 28004,
  "Ġëª": 15679,
  "à¥į": 2108,
  "urow": 17391,
  "ĠProView": 25110,
  "opped": 17159,
  "Ġtitles": 7055,
  "iduci": 9696,
  "Ġwol": 21531,
  "ÑĪÐ¸": 22863,
  "Ġattention": 6417,
  "è±¡": 22320,
  "Ġflexibility": 9783,
  "Ġ97": 21024,
  "iced": 6105,
  "Ġenthusiasts": 31340,
  "Ġgateway": 21317,
  "ÑĸÐ¹": 14173,
  "Ġ×Ķ×ŀ": 12766,
  "äºĴ": 20240,
  "à¦®à¦¨": 21993,
  "ĠPrimer": 12870,
  "Ġsein": 16993,
  "IBM": 22357,
  "ĠProblem": 18708,
  "Ġgoli": 24899,
  "atz": 16878,
  "jÄħt": 27031,
  "rout": 26107,
  "obi": 21733,
  "à¨®": 17065,
  "grades": 28208,
  "Ġgraduation": 29069,
  "Ġwhitespace": 15074,
  "ĠÑģÐ°Ð¹": 28433,
  "Ġpes": 16890,
  "ļ": 205,
  "Ġmedi": 7208,
  "Ġutenti": 30697,
  "áºŃ": 7768,
  "Ð±ÑĬÐ»Ð³Ð°ÑĢÑģÐºÐ¸": 18772,
  "ÙĨØ²": 26566,
  "Ġ×ĳ×Ĳ×ķ×¤×Ł": 31159,
  "ched": 2498,
  "roub": 14871,
  "åıĤ": 16135,
  "aus": 3220,
  "Ġdl": 13762,
  "immed": 31147,
  "Ġplaceholder": 22898,
  "ĠcaÅĤej": 22193,
  "Ġthree": 2159,
  "Ġambitious": 25883,
  "ĠQual": 21858,
  "endor": 20025,
  "ste": 7146,
  "Ò¯Ò¯": 14574,
  "Ġcopyrighted": 3265,
  "ìŀħëĭĪëĭ¤": 17176,
  "Ġprogram": 830,
  "Ġfragment": 17829,
  "pta": 12261,
  "Ġlicence": 11060,
  "®à´": 14376,
  "ĠAut": 2929,
  "Despite": 13705,
  "ĠÐ½Ð¸Ð²Ð¾": 31580,
  "ĠCampus": 8443,
  "ĠcÃ³": 7563,
  "ĠColor": 11301,
  "Ġkom": 5000,
  ":)": 24619,
  "Ġunofficial": 28104,
  "Ġcor": 1459,
  "Ġlocated": 4534,
  "ĠYahoo": 23943,
  "ĠAd": 1302,
  "Ġexecut": 2759,
  "ßĺßĭ": 27444,
  "Ġtransmit": 17578,
  "Deploy": 22913,
  "Ġcream": 30198,
  "edio": 29764,
  "Category": 5224,
  "Ġdiscussed": 8331,
  "heber": 12907,
  "ĠsÃ©": 29735,
  "ack": 440,
  "ibi": 17003,
  "isen": 29761,
  "machine": 19172,
  "Ġpan": 4223,
  "ÑĸÑĪ": 16053,
  "æ°´": 19719,
  "ĠáĢķ": 8949,
  "Ã¨me": 21831,
  "Ø§Ø¨Ø¹": 9910,
  "Ġfeature": 858,
  "Ġnoun": 20700,
  "Life": 29504,
  "bo": 5285,
  "Ġcommenters": 30668,
  "æīĢæľī": 21293,
  "áº¡i": 10323,
  "ensch": 18091,
  "ĠOffic": 11629,
  "Component": 26979,
  "Ġrequires": 3263,
  "ĠÐ¾ÑĢ": 14959,
  "etwork": 1612,
  "ĠAustrian": 25462,
  "Ġgalego": 29933,
  "Ñĳ": 6349,
  "Ġsum": 13173,
  "ĠMinister": 20399,
  "ocket": 10597,
  "negative": 14320,
  "ë²": 19201,
  ".),": 15852,
  "Eng": 4992,
  "ering": 1384,
  "ularies": 25159,
  "roat": 17443,
  "progress": 30350,
  "face": 2137,
  "End": 11763,
  "Ġconsidering": 8509,
  "Ø¬": 1687,
  "Celebr": 31744,
  "vid": 27776,
  "Improving": 30686,
  "naire": 22938,
  "Ġexpects": 21768,
  "Ġsni": 14397,
  "ĠTHIS": 14246,
  "Jak": 26002,
  "ĠpracÄĻ": 12393,
  "owana": 27969,
  "ä¸Ģ": 4559,
  "Ġbenchmarks": 27397,
  "Ġbrill": 28515,
  "åħ³": 24099,
  "pack": 5633,
  "ĠPerl": 14987,
  "Ġsuperior": 17761,
  "ĠIRC": 9575,
  "Ġmaxim": 4836,
  "Ġdeveloping": 7299,
  "abe": 6904,
  "ux": 2740,
  "Ġãģ¨åĳ¼ãģ°": 23429,
  "ĠI": 286,
  "()": 4050,
  "ls": 6209,
  "Ġpushed": 9088,
  "Ġcomments": 4144,
  "Ġdivide": 17747,
  "Ġzn": 7446,
  "Ġmajor": 2346,
  "Ġpasswords": 10932,
  "akat": 10396,
  "Ġtum": 16377,
  "conduct": 21008,
  "people": 16355,
  "Ġlawy": 9867,
  "Ġcollect": 1930,
  "ÏģÎ¹": 18300,
  "Ġmali": 9225,
  "ëł¤": 31290,
  "Applic": 17139,
  "ĠStudies": 21948,
  "§ĳ": 29664,
  "anka": 30449,
  "amet": 1788,
  "Ġhereby": 16578,
  "çī": 3720,
  "Ġpi": 3777,
  "aser": 23663,
  "Ġcredits": 19576,
  "ĠMeto": 25496,
  "ĠNinja": 13518,
  "ĠPortable": 16208,
  "amor": 22544,
  "×ĳ×¨": 5583,
  "Ġcampaigns": 12814,
  "Ġuppercase": 29324,
  "ĠField": 12483,
  "Ġsem": 3669,
  "Ġelaborate": 22283,
  "Ġprzek": 21114,
  "Ġnet": 11403,
  "ressed": 12050,
  "ĠSovere": 22553,
  "Ġ×ĳ×ŀ×": 10625,
  "Rules": 9539,
  "åĪĽ": 28599,
  "Kategori": 23314,
  "adata": 4551,
  "inaray": 18406,
  "×Ļ×ĺ×ª": 31035,
  "Ġethics": 17201,
  "SHOULD": 28851,
  "ĠCBS": 24869,
  "Ġja": 13245,
  "Ġearly": 3294,
  "ĠÐ½Ð°": 2812,
  "fly": 26066,
  "ĠWebKit": 6758,
  "181": 22891,
  "Ġderivatives": 16699,
  "ĠK": 581,
  "LietuviÅ³": 27666,
  "Ġqui": 8694,
  "Ġnuest": 20401,
  "Ġzmiany": 21325,
  "ĠBry": 16971,
  "åľĭ": 20295,
  "Ġendpoints": 10816,
  "ĠAssist": 28671,
  "oa": 10356,
  "Ġconfirm": 5876,
  "kunde": 31927,
  "Ġdon": 1246,
  "è·": 19200,
  "uko": 30481,
  "Ġhierarchies": 22182,
  "5": 25,
  "Ġcomply": 5432,
  "à¤¤": 3276,
  "Low": 20577,
  "olars": 26314,
  "ī¡": 8560,
  "Ġilleg": 11130,
  "ĠJS": 13247,
  "Ø³ÙĨÚĮÙĬ": 29345,
  "Ġ67": 23966,
  "ĠDemocratic": 16725,
  "agi": 6312,
  "ĠgrundsÃ¤tzlich": 29373,
  "Ã§a": 5304,
  "Ġoversees": 22094,
  "ÑģÑĤÑĢ": 17098,
  "Ġdivisions": 25522,
  "bypass": 31881,
  "ĠPanorama": 15044,
  "ond": 705,
  "Cy": 9800,
  "ĠKen": 15262,
  "Ġmenurut": 30622,
  "):[": 28690,
  "ĠØ¹ÙĬØ¯": 28656,
  "Ġportable": 9630,
  "embers": 1421,
  "entralized": 11748,
  "ĠÅĤat": 19006,
  "ãĥ³ãĤ¸": 30492,
  "Ġconclusions": 28000,
  "ĠProjekt": 25111,
  "ĠÐ¼Ò¯Ð¼ÐºÒ¯Ð½": 21388,
  "ĠKeyboard": 20449,
  "Christ": 17112,
  "Ġ×ĳ×§": 28588,
  "ĠChapter": 7520,
  "×¨×Ļ×Ľ": 30353,
  "Paul": 25791,
  "158": 25275,
  "pski": 14966,
  "Ġtransfer": 3914,
  "outhern": 14130,
  "ÙģØ±": 20968,
  "vie": 20636,
  "à¬ĩ": 10140,
  "CLOS": 27084,
  "Ġcheck": 1729,
  "Ġseparating": 21925,
  "Partner": 19601,
  "Ġrewards": 19250,
  "Ġwhole": 3964,
  "éĢļå¸¸": 17830,
  "ĠCall": 6536,
  "Ġmer": 3400,
  "Ġarguing": 26729,
  "ĠPri": 11231,
  "California": 18484,
  "Permission": 31433,
  "ĠSar": 14809,
  "reading": 20949,
  "Ġasc": 18622,
  "Ġseparate": 3318,
  "Ġmanual": 4954,
  "Ġtalking": 8001,
  "ĠãģĿãģ®": 15520,
  "HDFS": 13710,
  "Ġoutdated": 20886,
  "à®©": 22948,
  "Ġkan": 6273,
  "Ġmil": 5233,
  "ÑĸÐ¼Ðµ": 17052,
  "Ġdad": 29777,
  "ysterious": 17324,
  "ĠEuro": 28126,
  "Ġinches": 21800,
  "Ġà¤Ĺ": 19424,
  "Ġwait": 7939,
  "Ð´Ð¶ÐµÑĢÐµÐ»Ð¾": 31538,
  "Obs": 31042,
  "Ġdepicting": 16253,
  "unik": 26289,
  "Ġmedia": 1783,
  "Ġthousand": 23165,
  "ĠParker": 30974,
  "Ġarrays": 17544,
  "Ġstops": 16451,
  "Cl": 3794,
  "Ġadded": 2007,
  "ĠAccount": 4048,
  "Ġcapabilities": 4706,
  "Ġlog": 1434,
  "prot": 2356,
  "ÎŃÏĤ": 24393,
  "lwoodward": 7263,
  "Ġnodes": 10874,
  "Ġdraw": 5098,
  "Ġspok": 15242,
  "Ġ12": 2232,
  "Ð·": 986,
  "ression": 9730,
  "ĠAuthor": 11120,
  "ĠÐºÒ¯": 28424,
  "ĠBezos": 18433,
  "ãĤĢ": 18080,
  "ĠAir": 2707,
  "Writ": 11969,
  "express": 21818,
  "hether": 4583,
  "Ġpassword": 6996,
  "ÐºÐ¸Ð¹": 21868,
  "SLT": 22383,
  "Ġwaive": 15727,
  "Tsh": 18510,
  "à°": 539,
  "Syntax": 26036,
  "ĠInv": 5399,
  "Ġhandling": 6817,
  "Ġcompanies": 2845,
  "Manage": 14597,
  "ðŁı": 20251,
  "Ġsimpl": 4294,
  "quality": 8577,
  "Ġlower": 4845,
  "II": 5926,
  "astic": 7979,
  "Ġtym": 12903,
  "Î³ÏģÎ±": 31133,
  "Ġmai": 21551,
  "Ġinfluence": 8183,
  "ĠDomen": 28050,
  "Ð½Ð°Ñĩ": 21954,
  "ĠPhilippine": 29115,
  "ä¸ļ": 21835,
  "Ġeconomy": 11138,
  "Ð¾ÑģÑĥÐ´Ð°ÑĢ": 31701,
  "Ġlider": 27929,
  "ĠmacOS": 12591,
  "-)": 27608,
  "quirements": 5045,
  "Ġowns": 14178,
  "ãĤ¬": 28133,
  "ĠSteam": 17216,
  "ĠPUR": 26362,
  "Ġalle": 6270,
  "é¢": 10223,
  "Ġunauthorized": 10561,
  "run": 10217,
  "Ġ1891": 24041,
  "Ġteens": 26485,
  "Ġcirc": 3906,
  "kara": 26084,
  "Ġgovern": 1753,
  "Ġrare": 6382,
  "Ġinstruct": 14493,
  "ä¼": 7202,
  "Ġmany": 1183,
  "alffralff": 31634,
  "Ġtechnical": 2320,
  "71": 10669,
  "iche": 7496,
  "à¸Īà¸²à¸ģ": 21221,
  "ĠÑģÐ¸ÑģÑĤ": 18189,
  "Ġhosting": 7118,
  "aries": 2735,
  "Ġcompleted": 7231,
  "bed": 13726,
  "ĠGerrit": 31358,
  "Ð¾ÑħÑĩÐ¸Ð¹Ð½": 29363,
  "ĠEmploy": 13616,
  "Son": 16332,
  "ĠAffiliates": 11151,
  "ĠSharing": 18791,
  "ende": 6321,
  "gam": 27728,
  "Ġpic": 15167,
  "ĠDisk": 20783,
  "Der": 13140,
  "coins": 27054,
  "ĠTengah": 23697,
  "erd": 9427,
  "known": 4664,
  "ĠSecurity": 2593,
  "ãĥ©ãĤ¤ãĤ»ãĥ³ãĤ¹": 10507,
  "àŃģ": 13586,
  "Ġoctets": 22170,
  "Ġadds": 6596,
  "ĠchaÅĭ": 13677,
  "Ġearth": 20709,
  "Ġdfs": 26217,
  "vey": 5424,
  "Ġmisconception": 30820,
  "Ġcopyleft": 17653,
  "File": 2514,
  "Ġpulling": 25258,
  "Ġhitting": 23166,
  "ellan": 22714,
  "Spanish": 5066,
  "gran": 23841,
  "chool": 2143,
  "Ġ×ĳ×ķ": 18914,
  "Ġlocales": 7614,
  "yek": 6791,
  "ÙħÙĦ": 8696,
  "FF": 14028,
  "Ø¯Ø§Ø±": 26629,
  "UM": 13432,
  "ĠSpons": 12988,
  "Ġusable": 14117,
  "ĠAlgorith": 26700,
  "ĠLand": 15993,
  "å§": 15152,
  "Ġsight": 17416,
  "ĠPrism": 14562,
  "Ġattempt": 3949,
  "ĠArticles": 17048,
  "ĠOb": 3224,
  "abases": 6736,
  "Ġ×ĳ×¨": 13059,
  "Ġoffice": 6131,
  "Ġaid": 12219,
  "áĢŃáĢ¯": 4896,
  "ĠWix": 13489,
  "íķĺìĭŃìĭľìĺ¤": 30891,
  "ĠStudents": 14234,
  "chiTumbuka": 31172,
  "Ġlat": 1490,
  "Ġviewing": 12533,
  "ĠEnabling": 25294,
  "jÄĻ": 4663,
  ")ãĢģ": 21392,
  "Ġjourney": 10183,
  "herity": 19303,
  "MUST": 24651,
  "gg": 4023,
  "ites": 1458,
  "åķĨ": 22210,
  "Ġexempt": 10555,
  "Od": 16328,
  "ĠGun": 30017,
  "galego": 22413,
  "×Ļ×¦": 12045,
  "Scribunto": 23490,
  "ÙĦØ§Øª": 28188,
  "ĠchÃºng": 23809,
  "à¤ķ": 3142,
  "ruption": 10737,
  "Ġunw": 11041,
  "Ġà¦ķ": 6420,
  "Ġcitizen": 31128,
  "op": 316,
  "Royal": 31825,
  "ity": 331,
  "ëĶ": 11785,
  "Ġinterpreting": 31062,
  "ãĥ»": 7095,
  "Ġadvantages": 17200,
  "ÃĢ": 23567,
  "ÑĭÐ¹Ð·Ð°Ð¼": 29206,
  "Ġaltered": 18921,
  "SA": 2508,
  "Ġaffiliate": 9778,
  "athons": 30424,
  "PH": 26025,
  "ĠRambler": 29390,
  "ung": 1116,
  "ê²½": 9183,
  "anger": 9033,
  "×¨×ļ": 13864,
  "Ġà®": 10693,
  "Ġach": 3855,
  "rastructure": 3535,
  "Project": 7775,
  "Ãµ": 5228,
  "ĠÄĳiá»ģu": 22284,
  "Ġprom": 2154,
  "Ġtall": 16873,
  "Ġ×ĳ×Ļ×ķ×ª": 28720,
  "ĠfromIndex": 28128,
  "×Ļ×ĳ": 7598,
  "Ġà¦®à¦£": 25811,
  "mpeg": 31051,
  "ØŁ": 20652,
  "ãģ«ãģĤãĤĭ": 25219,
  "Ġmisinformation": 24201,
  "lin": 6347,
  "Ġdrawing": 10329,
  "London": 26009,
  "ãĤĪãĤĬ": 12122,
  "Ø¨ÙĬ": 7307,
  "íĺ¸": 31314,
  "daÅĦsk": 28803,
  "Ġantic": 13466,
  "Ġcharacter": 2936,
  "Ġghi": 29929,
  "136": 20204,
  "ulai": 15965,
  "ĠprzepÅĤyw": 12856,
  "ĠMATERIAL": 25893,
  "Ġplace": 1877,
  "Ġ2026": 1833,
  "Ġdiversity": 10869,
  "ĠLists": 19329,
  "Ġphys": 3664,
  "Ġreuser": 27922,
  "ÑıÐ´": 20926,
  "Ġwaj": 19233,
  "ĠWikip": 2793,
  "MB": 9936,
  "Ġharness": 17752,
  "ĠUnity": 14164,
  "ãĥ©ãĤ¤": 7313,
  "Ġcustomizing": 23953,
  "Water": 31860,
  "ĠRitchie": 11622,
  "Ġrevert": 12229,
  "ĠDJ": 12945,
  "ĠÙħÙĪ": 21816,
  "Ġphotographs": 4254,
  "itous": 21527,
  "Ġkept": 7605,
  "ĠCompliance": 13337,
  "ouncil": 7458,
  "Ġorganized": 8157,
  "Ġnonpublic": 28396,
  "PI": 1199,
  "Ġpra": 6353,
  "ĠGermany": 7003,
  "Ġbold": 10376,
  "eping": 22698,
  "ilot": 1953,
  "Ġversus": 20234,
  "Ġwel": 10868,
  "Ġmiejsc": 18466,
  "BSD": 31109,
  "Ġpaper": 5758,
  "Ġvital": 15205,
  "aba": 5324,
  "ĠZoo": 20981,
  "ãĤ¨ãĥ³ãĤ¸": 31248,
  "Ġprodukty": 18357,
  "Ġcapture": 9395,
  "Ġlicensor": 10599,
  "ĠSqu": 15952,
  "Ð¾Ð´": 2715,
  "ĠðŁĶ¥": 10074,
  "Ġfaith": 9785,
  "Ġmanip": 6707,
  "outube": 30060,
  "Ø§ÙĦØ©": 15618,
  "ructures": 20930,
  "Ġadmitted": 28920,
  "Ġwholly": 28066,
  "Ġtypically": 4516,
  "ĠÅĭÉĶ": 6198,
  "publ": 18409,
  "Ġwherever": 15632,
  "heets": 11011,
  "Ġchild": 2592,
  "ÙĨÙĪØ¨": 31378,
  "Ġdistractions": 28421,
  "Ġmonths": 3505,
  "Ġengage": 7772,
  "Ġbill": 10701,
  "Ġexpanded": 10331,
  "ĠReviews": 17189,
  "Ġexercising": 22064,
  "zta": 29658,
  "Ġunter": 12260,
  "Ġengagement": 6991,
  "Ġkeywords": 11300,
  "ÙģØŃ": 13570,
  "vate": 31978,
  "urposes": 12700,
  "Ġenjoy": 4677,
  "ÙħÛĮÚĪÛĮØ§": 30226,
  "×Ļ×§×Ļ×ŀ×ĵ×Ļ×Ķ": 24604,
  "ÙĦ": 494,
  "Ġadjustable": 17758,
  "Ġaware": 4610,
  "ĠslovenÅ¡Äįina": 31601,
  "ĠMark": 2643,
  "ĠVersa": 27380,
  "à¦¦": 9043,
  "cribed": 14924,
  "ĠwiÄĻ": 8779,
  "oney": 4395,
  "Ġring": 9845,
  "Export": 26750,
  "ĠTheatre": 20820,
  "rence": 15681,
  "Ġmethodology": 18800,
  "ujÄħ": 6189,
  "Ġsides": 23614,
  "Ġrapport": 16106,
  "Ġnumeric": 14513,
  "kurdÃ®": 29613,
  "term": 6405,
  "erde": 27847,
  "Ġoverlapping": 25689,
  "Russia": 31434,
  "Tutorial": 24675,
  "ÑĦÐ¾ÑĢ": 16179,
  "ile": 481,
  "MITTED": 30879,
  "ĠØ§ÙĦØ£Ø·ÙģØ§ÙĦ": 27093,
  "Ġdiscounted": 17780,
  "baar": 20284,
  "ĠBooks": 13801,
  "Lego": 24644,
  "116": 14337,
  "rieb": 17488,
  "ãģĹãģ¦ãģĦãĤĭ": 21005,
  "Ġrendere": 7391,
  "Ġà¤Ĩ": 10753,
  "arigu": 17442,
  "SG": 10513,
  "livia": 21346,
  "Ġservicios": 30283,
  "profit": 5512,
  "47": 5014,
  "Transport": 28896,
  "ÑıÐ·": 30321,
  "line": 1080,
  "ç²µèªŀ": 21385,
  "Ġmanipulation": 13976,
  "Ġsuits": 28140,
  "Ġcontrary": 12858,
  "Ġexperiences": 5659,
  "ings": 719,
  "Ġclip": 17029,
  "Featured": 15066,
  "Ġbat": 20688,
  "ĠwydajnoÅĽci": 27410,
  "æĶ¯": 14297,
  "ĠRamadan": 19063,
  "ĠØ§ÙĦØ": 3315,
  "jav": 18520,
  "ĠsiÄĻ": 2955,
  "ĠKrono": 17559,
  "Ġbought": 15541,
  "Ġstall": 19294,
  "ĠMagaz": 27155,
  "sz": 14371,
  "Úļ": 26144,
  "ĠTrue": 26715,
  "acyj": 10588,
  "Histor": 20571,
  "Hisense": 29365,
  "ĠbezpieczeÅĦst": 15015,
  "cape": 8366,
  "Ġchampionships": 29221,
  "ofanie": 28477,
  "ĠlaÉ£": 18728,
  "ĠÐ¼Ð¾Ð³": 21871,
  "ĠOS": 6748,
  "Ġurged": 27075,
  "Ġcáº£": 24805,
  "499": 12877,
  "Ġsugar": 25331,
  "Ġcurrencies": 23625,
  "æĸĩåŃĹ": 21970,
  "æİ¢": 24310,
  "los": 29615,
  "ÐµÐ¶": 14468,
  "Ġdeletion": 3938,
  "Ġ1990": 9768,
  "Ġensikl": 15685,
  "YY": 23502,
  "Ġentreprene": 14907,
  "Ġlifting": 25280,
  "when": 12202,
  "istant": 10389,
  "Ġplagiarism": 14149,
  "ussion": 9155,
  "Ø¬Ùĩ": 8944,
  "9": 29,
  "ĠSolus": 29043,
  "Ġconstants": 22872,
  "ãĥ«ãĥĪ": 25325,
  "ĠTimes": 11226,
  "ĠRet": 8911,
  "Ġqueries": 7594,
  "Ġbedrijf": 27420,
  "Previously": 23115,
  "à¨": 1079,
  "ÑĥÐ¿": 13535,
  "Ġpass": 1705,
  "ĠRecommend": 5879,
  "Ġheav": 7894,
  "Ġcredit": 5178,
  "Ġjez": 18916,
  "ey": 3000,
  "atal": 4484,
  "Ġrefer": 2834,
  "åı¯": 5038,
  "à¨ĸ": 30365,
  "ĠMuseum": 7576,
  "Ã§": 2084,
  "Ġpushes": 12594,
  "ĠLearn": 7033,
  "Site": 18507,
  "148": 18211,
  "kina": 20620,
  "ĠChel": 22136,
  "Ġnights": 29813,
  "ĠVice": 19384,
  "developers": 31115,
  "ÑĭÐ¹": 13850,
  "Ð·Ð°Ð¼": 22774,
  "Ð¸Ð½Ñĥ": 26818,
  "embre": 30312,
  "ä»£ç¨ĭå¼ıèªŀè¨Ģ": 23203,
  "Ġbring": 4073,
  "çŃĸ": 13672,
  "çĬ¶": 16811,
  "Ġpackage": 6662,
  "Ã¯": 10689,
  "Ø¨Ø§ÙĨ": 8938,
  "Chi": 26785,
  "pad": 17927,
  "ãĥ¼ãĤ·": 20348,
  "áįį": 21200,
  "áģļ": 16681,
  "Ġtickets": 12831,
  "utal": 14421,
  "ĠTomatometer": 20536,
  "ĠSeb": 29890,
  "å·": 9549,
  "Ġloc": 853,
  "ĠÑĤÑĢ": 30523,
  "Ġ--âĺħ": 28519,
  "Ġtu": 4307,
  "à¸Īà¸°": 19654,
  "Ġutiliz": 28874,
  "á¹³": 13395,
  "Ġmalware": 7791,
  "Ġflaws": 26769,
  "Ġlaureates": 27527,
  "Pilot": 31816,
  "was": 13737,
  "Ġdek": 28035,
  "Ġuniform": 26417,
  "ĠBelgium": 29303,
  "ĠogÃ³l": 25617,
  "ĠDativa": 30673,
  "ĠNight": 16494,
  "ĠXreal": 23968,
  "Ġaccident": 6323,
  "ĠktÃ³ra": 18928,
  "ĠT": 284,
  "Ġnou": 21559,
  "éĸĢ": 27078,
  "ĠOakley": 12871,
  "Ġsom": 4119,
  "Ġallocation": 22674,
  "ĠMeas": 18891,
  "Ø·": 2919,
  "me": 1856,
  ">": 34,
  "Ġgiant": 17224,
  "max": 11381,
  "×Ļ×ľ×Ķ": 28909,
  "Ġsatisfied": 21190,
  "ìŀ¬": 28713,
  "Looking": 15481,
  "Ġsyntax": 3285,
  "ĠÐ¿ÑĢÐ¸Ð½": 28608,
  "reflist": 25751,
  "Ġhowever": 3363,
  "223": 29450,
  "ille": 8382,
  "Ġevents": 2617,
  "icol": 13187,
  "ĠÃ¸y": 25814,
  "Ġsys": 9560,
  "toerist": 28364,
  "å¾ĭ": 18331,
  "Bethany": 25975,
  "projects": 21280,
  "å¦": 10528,
  "ĠFeder": 14442,
  "Ġà¬ı": 20269,
  "Below": 13406,
  "Resources": 15404,
  "Ġcold": 16041,
  "Zobacz": 15873,
  "Ġcriminals": 18422,
  "erry": 15530,
  "ĠWCAG": 14116,
  "Comment": 27043,
  "Ġacronym": 21773,
  "ĠLine": 21659,
  "ruch": 17569,
  "iform": 16947,
  "sty": 19937,
  "Ġgew": 15200,
  "Ġgreatest": 14943,
  "ĠIndustrial": 24425,
  "×ķ×©×Ķ": 31070,
  "Samsung": 27692,
  "Ġpursuing": 20450,
  "Ġê°Ģ": 12557,
  "íĻĺ": 27326,
  "×ĳ×¨×Ļ×Ŀ": 13378,
  "Ġunits": 10260,
  "Ġassertions": 31180,
  "ĠSpecifically": 17857,
  "ĠOn": 1898,
  "structure": 24885,
  "Ġhous": 8211,
  "Bali": 31734,
  "ıãĥĥãĤ·ãĥ¥ãĥŀãĥĥãĥĹ": 31683,
  "urut": 20757,
  "stop": 18020,
  "Ġbulan": 24370,
  "Ġ1989": 11701,
  "Ġoutright": 28253,
  "different": 29587,
  "Ġbinding": 8287,
  "ensed": 19358,
  "ĠVerb": 20290,
  "END": 30730,
  "especially": 17058,
  "Ġtimelines": 30898,
  "Ġdecides": 19440,
  "alam": 4205,
  "Ġmeta": 7911,
  "Ġaud": 1395,
  "ĠBrit": 6407,
  "Ġdesigns": 6921,
  "ĠOwens": 31593,
  "ĠíĻķ": 20486,
  "Ð»Ð¾Ð²Ñ£": 25853,
  "Ġarchives": 8430,
  "83": 7066,
  "-,": 22331,
  "Ġexpire": 21767,
  "Ġguidance": 4686,
  "ĠSingapore": 8638,
  "ĠØ§ÙĦÙĪ": 20104,
  "Ġsections": 4628,
  "Michael": 21356,
  "Ġencyclopedic": 19772,
  "×ĵ×Ļ×Ŀ": 28596,
  "Ġimproving": 7049,
  "Ġopposed": 11927,
  "Ġtrends": 7638,
  "Ð³ÑĬÐ°Ð½Ð´Ñĭ": 31562,
  "outh": 3381,
  "ä¹Ĳ": 31146,
  "Experience": 19760,
  "Ġ×Ķ×Ľ×ľ": 29260,
  "issue": 12982,
  "Ġsuffer": 24365,
  "Ġpurpose": 2730,
  "ĳľ": 21514,
  "Canvas": 21156,
  "ĠAddition": 5957,
  "founder": 13998,
  "Ġcontenu": 26448,
  "ĠPMC": 29992,
  "Ġcrow": 10537,
  "Ġhot": 8294,
  "SI": 16331,
  "Ġnodig": 27518,
  "ĠOnePlus": 17143,
  "Ġfind": 1173,
  "VTT": 21437,
  "Ġdiscipl": 17599,
  "ationally": 20711,
  "Ð´Ð¼ÑĸÐ½": 25714,
  "ĠSumatra": 20521,
  "ieni": 22811,
  "Ġlingua": 16270,
  "Ġdirectly": 2129,
  "Ġmanufacturing": 20454,
  "Ġcorrupted": 23990,
  "ë³Ħ": 27414,
  "available": 13833,
  "Ġafternoon": 25506,
  "Ġcompr": 12275,
  "Ġspecifying": 11255,
  "oz": 1988,
  "Ġoften": 1983,
  "ĠGre": 18632,
  "Ġpaling": 25678,
  "Ġstages": 15206,
  "ych": 3697,
  "ĠHigh": 5995,
  "ØĮ": 2535,
  "Ġbo": 4094,
  "Ġfilm": 4340,
  "ÞĲ": 29677,
  "Ġdistin": 4961,
  "ĠCNN": 23339,
  "Ġdesignated": 10283,
  "Ġchancell": 25590,
  "oÅĤecz": 16141,
  "Ġtouch": 5846,
  "Ġargs": 22146,
  "ÛĮÚĪ": 14281,
  "Ġaccounting": 7915,
  "entures": 23661,
  "Afrika": 12416,
  "life": 19842,
  "Ġenroll": 17006,
  "ger": 2397,
  "ãĤ³ãĥ": 13377,
  "Ġbind": 17437,
  "ĠCommonwealth": 23161,
  "Ġpointing": 14542,
  "Ġsuff": 7892,
  "ety": 2020,
  "æĻ": 9684,
  "their": 20162,
  "Ġillustrate": 15031,
  "Ġindefin": 18131,
  "Ġinvoke": 12756,
  "Ġtuuli": 17729,
  "Ġwanted": 5505,
  "ace": 641,
  "ĠLimited": 22214,
  "Ġbattery": 3302,
  "à¤Ĺ": 6913,
  "Ġposition": 4586,
  "ext": 1170,
  "ĠRepresentatives": 31255,
  "ate": 314,
  "Ġgar": 16443,
  "ockey": 26625,
  "ific": 571,
  "ĠTarnate": 26307,
  "Ġblocked": 7778,
  "ĠÐ³Ð¾Ð´Ð°": 25720,
  "Szablony": 27482,
  "elligence": 3192,
  "ĠThough": 15305,
  "cons": 10213,
  "kÄĻ": 27738,
  "ĠPas": 26358,
  "ashington": 9152,
  "Ġobsess": 21247,
  "chore": 29865,
  "Ã©n": 5538,
  "èĳĹä½ľæ¨©": 12634,
  "ãĤĴè¡Į": 26726,
  "!âĢĿ": 21391,
  "Ġinstant": 11448,
  "ENCE": 28660,
  "permission": 28178,
  "ĠWind": 27995,
  "ERS": 18222,
  "rors": 19844,
  "Ġvendors": 7798,
  "ÐĴÐ¸ÐºÐ¸": 18959,
  "ĠYes": 12995,
  "Ġmaintained": 9170,
  "Ġediting": 4035,
  "Ġactor": 10408,
  "Ġlivre": 19703,
  "ĠAVIF": 27279,
  "Ġincreasingly": 9516,
  "Pour": 31814,
  "Ġsemantic": 11326,
  "ĠJewish": 14476,
  "Ġkons": 24977,
  "awans": 23861,
  "sidebar": 22919,
  "ãģĹãģ¦ãģĦãģ¾ãģĻ": 13021,
  "corsu": 31887,
  "ĠBat": 24963,
  "ipa": 22644,
  "ãģĪãģ°": 14659,
  "êĻĹ": 20470,
  "Ġstrengths": 29185,
  "Wikimedia": 4933,
  "ÑĢÑĥ": 7751,
  "China": 25302,
  "ĠCCPA": 11461,
  "Ġrecipe": 27089,
  "ĠShopping": 9619,
  "jÄĻzy": 20345,
  "Ġprec": 5499,
  "CPRA": 23468,
  "Ġsuspect": 20390,
  "ĠLjub": 24989,
  "Deb": 31747,
  "Ã©s": 2830,
  "Ø±ÙĪÙĨ": 20898,
  "Ġwymag": 16269,
  "à¤Ĥ": 3565,
  "ĠGU": 28056,
  "íķ©ëĭĪëĭ¤": 19493,
  "ĠtÃłi": 29716,
  "áŁĤ": 27445,
  "Ġtheater": 19224,
  "Ġmaximum": 6344,
  "ĠRepresentative": 19722,
  "Ġassist": 3608,
  "ĺ": 203,
  "Ġfingers": 31545,
  "Ġbrightness": 15808,
  "Ġexcitement": 28766,
  "Ġallowable": 17061,
  "Ġjar": 20051,
  "istribution": 14433,
  "Ð°Ð¹": 3927,
  "Ġarms": 13519,
  "à¸Ľ": 4821,
  "Ġrule": 2886,
  "Ġcle": 1614,
  "aeilge": 28986,
  "ÐĨ": 22446,
  "Ġimpossible": 7377,
  "ĠÑģÐ°": 14201,
  "Ġlifest": 14555,
  "drop": 20611,
  "Ġfrozen": 17858,
  "ĠPattern": 17757,
  "anners": 26734,
  "ibu": 4443,
  "ª": 107,
  "Ġpointed": 11469,
  "adecimal": 18467,
  "ampu": 21810,
  "Ġspecify": 6127,
  "Ø§Ø³": 7038,
  "pl": 355,
  "achment": 25072,
  "Ġà¨¦": 16644,
  "Ġinternet": 2608,
  "Ġwhat": 882,
  "ĠSD": 29886,
  "ĠVerg": 30186,
  "hearsal": 31686,
  "ĠComplain": 30676,
  "ttp": 9880,
  "Ġmeaningfully": 25451,
  "IRED": 3255,
  "ĠSong": 24879,
  "Ġcalendars": 25426,
  "Ġbyte": 15989,
  "SubHubbub": 28816,
  "ĠSh": 1521,
  "Kut": 27657,
  "Ġpriced": 16523,
  "ĠNorthern": 13682,
  "Ġgiáº£": 28927,
  "Ġnu": 6442,
  "Ð¼ÓĻ": 28276,
  "ĠF": 364,
  "ÏĮ": 7655,
  "Ġfacilitates": 18980,
  "ÑĢÐ°Ð·Ð¸Ð»Ð¸Ñı": 29399,
  "×ĺ×Ĵ×ķ×¨×Ļ×ķ×ª": 20511,
  "Ġmitig": 8527,
  "à¸«à¸¥": 12567,
  "ĠHUNTR": 22326,
  "Ã«tzebuerg": 24603,
  "ĠTaiwan": 16439,
  "×Ļ×Ľ": 14157,
  "wich": 31985,
  "gung": 14727,
  "ds": 15880,
  "vas": 6896,
  "ĠTec": 27976,
  "ĠWhatsApp": 24160,
  "ĠActivity": 17103,
  "Ãº": 4261,
  "Ġlicensors": 12528,
  "drag": 29586,
  "ĠCont": 1385,
  "performing": 28179,
  "Ġven": 8048,
  "ĠCivil": 11810,
  "abi": 8575,
  "dropping": 31237,
  "Ġluar": 19675,
  "Read": 5244,
  "Ñı": 927,
  "ellers": 26530,
  "Ã©es": 12739,
  "ĠPat": 5295,
  "Ġsupplier": 14970,
  "Ã¥r": 25429,
  "Ġfooter": 24252,
  "Hotel": 29484,
  "Ġhealthy": 15753,
  "ãģ®ãĥ": 3860,
  "archer": 6845,
  "ĠÑĤÐ¾Ð³Ð¾": 26766,
  "Ġcri": 19229,
  "ĠVocabulary": 14876,
  "ĠGerman": 4690,
  "azing": 8413,
  "Ġmeet": 2893,
  "anto": 8490,
  "Ġà¦ª": 4932,
  "gÃº": 22410,
  "Ġstat": 1098,
  "ziej": 14748,
  "Ð¾Ð»Ð¾Ð³Ð¸Ñı": 21330,
  "disc": 17368,
  "ĠÂ§": 3666,
  "ĠSeptember": 3473,
  "ounge": 21836,
  "ĠØ§ÙĦØŃ": 7516,
  "Ġliá»ĩu": 24145,
  "Ġutilis": 12604,
  "Implement": 26873,
  "129": 12076,
  "ĠInsights": 15794,
  "Usage": 11932,
  "ĠRoam": 27432,
  "Ġassume": 7303,
  "Ġviolated": 17671,
  "Ġtens": 19214,
  "ĠInternal": 13896,
  "2015": 16553,
  "Ġholders": 9641,
  "Ġability": 3441,
  "release": 15164,
  "ĠStory": 9854,
  "Ġbaru": 13919,
  "ĠÃł": 4545,
  "Ġinlines": 26235,
  "Ġvide": 22580,
  "96": 11548,
  "áĥ¥áĥĲáĥłáĥĹáĥ£áĥļáĥĺ": 19450,
  "Ġmerges": 22081,
  "Ġ×ŀ×Ľ": 21062,
  "Tamzin": 24358,
  "IR": 2610,
  "lee": 16414,
  "Ġcrim": 11129,
  "ĠÐºÐ¾Ð»Ð´Ð¾Ð½": 29439,
  "ĠCustomizing": 24282,
  "Ã¶n": 6653,
  "Ġpronouns": 24411,
  "Kongo": 27658,
  "Ġresponses": 11484,
  "Ġ1969": 23893,
  "Ġexclusive": 6026,
  "Ġà¹ģà¸¥à¸°": 15915,
  "łáĥ": 9552,
  "ãģĤãĤĬãģ¾ãģĽãĤĵ": 24495,
  "Ġrece": 1763,
  "feed": 20614,
  "ĠSpecs": 21092,
  "Ġp": 229,
  "Ġsubdomains": 25810,
  "random": 29640,
  "Ġdependent": 16603,
  "ĠJika": 30155,
  "Ġnewlines": 21727,
  "04": 5837,
  "Ġcapx": 14947,
  "Ġnoted": 5737,
  "aur": 4968,
  "ë¡ľ": 5476,
  "Ġdeg": 4512,
  "Ġfactorial": 28516,
  "ŀßĬ": 14065,
  "Ð»Ñĭ": 18108,
  "ĠÐ°Ð¶": 24089,
  "ĠSoftware": 3471,
  "osa": 10717,
  "ĠTC": 29904,
  "Ġelements": 1718,
  "Ġclips": 17562,
  "Ġcomfort": 4591,
  "Ment": 31797,
  "Ġpiped": 25581,
  "istence": 19308,
  "Ġenctype": 27509,
  "ĠÙĤ": 5140,
  "Ġsniffed": 27219,
  "Rulesets": 31182,
  "ĠHon": 20810,
  "pictures": 31369,
  "åįĺ": 17222,
  "ĠAlpha": 20177,
  "ĠSephard": 13133,
  "Ġ×Ķ×ŀ×ĵ×Ļ×ł×Ķ": 30930,
  "ÙĬØ«": 23868,
  "Ġmotion": 15783,
  "aps": 2684,
  "oples": 16453,
  "ĠIndependence": 17101,
  "Ġdepth": 10252,
  "Challenge": 18215,
  "ãģ®è¦ģç´ł": 22761,
  "ĠU": 421,
  "â²": 23574,
  "Ġappropriate": 3179,
  "Ach": 24621,
  "eld": 7355,
  "Ð¾Ð´Ð¾": 26866,
  "Ġprotocol": 10411,
  "Ġvarying": 18362,
  "byt": 30647,
  "æĿ¥": 17741,
  "ìł": 3425,
  "vn": 16361,
  "ĠBetawi": 31112,
  "on": 217,
  "Ġsh": 434,
  "Ġprezident": 28261,
  "ĠÐ¾Ñģ": 19527,
  "Ġfostering": 17838,
  "ĠUp": 4904,
  "Tol": 24670,
  "åĦª": 25929,
  "Ġpyt": 13180,
  "Ġlistened": 24321,
  "Ġdepartments": 12865,
  "ĠPoint": 21637,
  "Ġphysically": 19571,
  "catalÃł": 19832,
  "Ġë¯¸ëĶĶìĸ´": 22865,
  "sers": 1911,
  "Ġgiornal": 24582,
  "Ġ1979": 21175,
  "Ġaudit": 4577,
  "43": 6949,
  "ß²ß«": 25644,
  "ĠBrighton": 23265,
  "ĠtiÅĭgbani": 15080,
  "ought": 8702,
  "Ġber": 4699,
  "Ġmoins": 28695,
  "ĠÑĦ": 5213,
  "Ġautorsk": 13264,
  "ĠJudaeo": 7256,
  "142": 21891,
  "TR": 8650,
  "Ġ365": 8927,
  "ĠÐ±Ð¾Ð»": 7182,
  "Ġsemantics": 11132,
  "reduce": 19765,
  "Ġfire": 8128,
  "iones": 14782,
  "adoop": 2393,
  "Ġexpressive": 30594,
  "Ġpersonenbezogenen": 17855,
  "ĠmÃ¡s": 14094,
  "ĠØ¹ÙħÙĦ": 26898,
  "ĠfÃ¼r": 5559,
  "fts": 30232,
  "Ġì°¸": 29241,
  "èħ": 24769,
  "iczne": 20455,
  "å¼Ģ": 25552,
  "orld": 1024,
  "ĠÐ¿Ð¾Ð»Ð¸ÑĤÐ¸": 29199,
  "Ġcover": 2170,
  "ĠSite": 10378,
  "Zero": 22391,
  "ĠTransformation": 30889,
  "ĠFinland": 24325,
  "ÄĻd": 11454,
  "Ġsubscri": 25316,
  "]:": 15121,
  "okument": 28203,
  "Ġautre": 26546,
  "DDL": 31748,
  "ã": 161,
  "áıħ": 16117,
  "ãģĻãģ¹ãģ¦ãģ®": 27436,
  "Ġlongevity": 30409,
  "Ã©p": 8816,
  "icion": 27902,
  "lassians": 28362,
  "Ġlossless": 9648,
  "Ġtight": 19213,
  "Ġgallery": 8793,
  "bolt": 28666,
  "Ġìł": 4374,
  "ãģ¤": 6738,
  "æĸ¹": 7850,
  "awan": 17563,
  "update": 12037,
  "áĬ": 4091,
  "Ġbroadcasts": 27175,
  "ĠSri": 24877,
  "ffic": 2034,
  "Ġaccording": 2997,
  "aaS": 10296,
  "Ġinherits": 28982,
  "ĠAssessment": 23393,
  "Ġana": 21537,
  "ĠBenjamin": 28943,
  "ĠNevada": 29296,
  "Ġkomunik": 12622,
  "Ġexcellence": 25619,
  "create": 15403,
  "empl": 821,
  "Ġslides": 22932,
  "ĠFrost": 30047,
  "2010": 22789,
  "hh": 23522,
  "ĠÙĪØ±": 26759,
  "gsa": 29597,
  "Ġ2006": 5152,
  "idgin": 21607,
  "Ġtied": 14389,
  "Ġchemistry": 27382,
  "awod": 30224,
  "ĠStatus": 22037,
  "à«ģ": 22234,
  "Ġaudiob": 16283,
  "NN": 31806,
  "Ġdeprecated": 22276,
  "Ġpredictable": 18378,
  "mond": 17924,
  "Ġinclude": 1364,
  "ĠLIVE": 28108,
  "ĠWikisource": 9851,
  "Ġorganising": 26603,
  "Ġcodec": 7784,
  "ions": 391,
  "ĠWiFi": 13402,
  "ÅĤu": 17585,
  "Ġbounds": 18380,
  "Contract": 30557,
  "enable": 18559,
  "ungk": 26642,
  "ref": 11993,
  "ĠMaster": 7966,
  "Steve": 31281,
  "ĠDocument": 4145,
  "Ġkase": 22621,
  "hn": 14728,
  "ĠVerifiable": 26923,
  "ĠÎµ": 11302,
  "sha": 21037,
  "Ġhappy": 5756,
  "Official": 14348,
  "Ġdriven": 14998,
  "ordered": 20883,
  "iversity": 1097,
  "Training": 27502,
  "ĠConstitution": 16102,
  "phic": 20074,
  "elt": 5165,
  "áİł": 17667,
  "interlingua": 31037,
  "Jira": 14344,
  "Ġoc": 26211,
  "information": 11205,
  "ĠLAN": 26424,
  "Ġcarpet": 23007,
  "ontaktuj": 25742,
  "zilla": 24753,
  "ĠÙħÛĮÚº": 10019,
  "Ġrozp": 14606,
  "æ·": 16869,
  "DI": 15097,
  "ÃŁe": 23154,
  "Ġoder": 6629,
  "ĠCommission": 6415,
  "Tembea": 31845,
  "Ġheadline": 30324,
  "Ġpercentage": 11921,
  "without": 12811,
  "Ġ×ľ×¡": 30547,
  "ming": 1323,
  "Ġupd": 1420,
  "Ġvocals": 22286,
  "ç¹": 11782,
  "hil": 31907,
  "Ġprediction": 28967,
  "ĠAufbew": 27378,
  "Tar": 21432,
  "Ġcommitter": 22925,
  "GLAM": 26848,
  "Ġpayroll": 18229,
  "Exper": 15682,
  "Ġsoluz": 17186,
  "Ġauthor": 1428,
  "Ġtechn": 964,
  "Ġback": 846,
  "à·Ĵ": 12582,
  "prov": 11456,
  "ÑĦÐ¾ÑĢÐ¼Ð°": 23373,
  "idd": 8132,
  "ĠHBO": 28114,
  "ĠGPC": 12031,
  "Transl": 6517,
  "Ġma": 3033,
  "essor": 9448,
  "cellent": 28676,
  "Ġjuice": 27201,
  "Ãł": 1374,
  "Repl": 28354,
  "Ġdaabil": 25376,
  "utilisation": 31327,
  "Requ": 20127,
  "Ġcre": 566,
  "ĠOutput": 14619,
  "ĠHence": 26433,
  "Ġassumes": 21188,
  "tern": 610,
  "48": 5478,
  "outs": 15582,
  "ÑĢÐ¾": 14469,
  "Ġlacks": 16198,
  "Ġ×ŀ×Ĳ": 14229,
  "urally": 13205,
  "graph": 24704,
  "arily": 3011,
  "ÐµÐ²ÑĸÑĨÐ°": 18364,
  "ç»Ł": 21240,
  "Ġprepared": 12868,
  "ÐµÐ¿": 11049,
  "Ġshowcase": 15317,
  "íħĲì¸ł": 21383,
  "ieng": 21814,
  "ÙħÙĥÙĨ": 10275,
  "ĠLE": 13510,
  "Ñļ": 9952,
  "Ĩµ": 22467,
  "fb": 24692,
  "ilerplate": 27263,
  "Ġsubt": 5336,
  "Ġmet": 988,
  "Systems": 13401,
  "áĢĴ": 7036,
  "Ġbisa": 20693,
  "Ġfond": 27877,
  "Ġupgraded": 15035,
  "Ġarchitectures": 18283,
  "Ġ×ĳ×ĵ": 14961,
  "Taj": 27694,
  "ĠSalesforce": 13415,
  "Ġleps": 22670,
  "Product": 11948,
  "Ġverm": 21616,
  "Ġzali": 28221,
  "acije": 28012,
  "elson": 28410,
  "+,": 16315,
  "/.": 18476,
  "Ġãĥ¡": 30883,
  "Ġpersonal": 1310,
  "istik": 24944,
  "uitive": 8884,
  "itus": 22481,
  "ROU": 24666,
  "Ġvague": 18042,
  "school": 20632,
  "ĠprojektÃ³w": 24292,
  "Ġexpectations": 7706,
  "Ġcustomize": 7306,
  "Ġchat": 5864,
  "Ġresc": 25058,
  "ĠÐ¡": 5169,
  "everCry": 5652,
  "Ġpartie": 25079,
  "ĠmogÄħ": 11947,
  "ugging": 25176,
  "Ġchurches": 25018,
  "à®¤": 13907,
  "ures": 1419,
  "ĠWednes": 23714,
  "Ġhigher": 3981,
  "500": 9665,
  "ruit": 11059,
  "Ġincidental": 11142,
  "ĠÃī": 26884,
  "Peter": 31818,
  "Similar": 27108,
  "ĠTur": 5809,
  "èµĦæºĲ": 19773,
  "ĠArch": 4341,
  "ollywood": 29197,
  "Ġoffset": 18716,
  "à¦¤à¦°": 26919,
  "Sync": 15488,
  "pot": 29629,
  "Ġlaws": 2289,
  "Ġbuildings": 8419,
  "Ġ2027": 25100,
  "ı¬": 17956,
  "unc": 20727,
  "Ġmarkup": 5181,
  "ixon": 26605,
  "Ġencouraged": 6665,
  "=,": 21397,
  "Ġtraining": 3802,
  "Ø®ÙĬ": 14569,
  "tion": 9544,
  "Ġthrown": 25565,
  "ĠMang": 21624,
  "Ġscreensh": 8263,
  "ondi": 30251,
  "Ð¿ÑĢ": 7381,
  "Ġmatter": 3096,
  "Ġserves": 7300,
  "Ġtitled": 12564,
  "Ġà¤ħà¤ª": 19679,
  "Ġinterpreter": 8982,
  "Ġlake": 16915,
  "ĠAbout": 5185,
  "Ġnext": 2082,
  "ĠìĤ¬ì§Ħ": 25608,
  "à¸¶": 12718,
  "Create": 6089,
  "ĠHunt": 17517,
  "ienia": 14188,
  "message": 31938,
  "Ġpur": 1210,
  "à¹Ħà¸Ĺà¸¢": 13943,
  "ãĥŃãĥĥãĤ¯": 28859,
  "Ġchairs": 20035,
  "esperson": 17057,
  "Ġê³µìľłê²½ìłľ": 15441,
  "×Ļ×Ķ": 3467,
  "Ġrecal": 28272,
  "Ġaplikacje": 19683,
  "ãģ§ãģ¯ãģĤãĤĬãģ¾ãģĽãĤĵ": 31012,
  "edish": 27874,
  "Ġmenu": 4539,
  "µáĢ¯": 19188,
  "à¸Ħà¸£": 13058,
  "Ġforget": 10706,
  "ĠzgÅĤoszenia": 29234,
  "Ġkindly": 16639,
  "¤ëªħ": 28966,
  "Ġfreel": 9881,
  "ĠØ§ÙĦØ¹Ø§Ùħ": 31044,
  "ĠTopics": 10494,
  "Ġpersona": 28321,
  "Ġmalicious": 7475,
  "Ġà¦¹à¦¯": 17837,
  "ibly": 4338,
  "About": 3423,
  "ĠÐ±ÑĸÐ»ÑĮ": 28482,
  "ĠOrganiser": 30924,
  "Ġnil": 8784,
  "ĠSab": 22549,
  "Ð½Ð¾ÑĹ": 30811,
  "Ġ×¦": 13237,
  "war": 14056,
  "Trade": 25347,
  "isation": 5488,
  "wer": 5449,
  "åķı": 15828,
  "dan": 21448,
  "Ġlove": 3868,
  "ashion": 9478,
  "ĠResolve": 28586,
  "encycl": 26737,
  "ľ": 207,
  "Ġintermediate": 17856,
  "Ġrefers": 8084,
  "Ġvariations": 18177,
  "áº¯": 13289,
  "dar": 29583,
  "Ġbiased": 21100,
  "Ġmaintainers": 13331,
  "å¨": 22451,
  "Nasdaq": 31416,
  "Galego": 29479,
  "Ġmessages": 4233,
  "Article": 8715,
  "Ġhappens": 6006,
  "Ġfran": 6161,
  "ni": 2247,
  "dig": 29584,
  "scale": 11892,
  "Yes": 6788,
  "ified": 1247,
  "ĠDisrupt": 28761,
  "ĠÑģÑĥÑĢ": 25231,
  "ami": 2576,
  "ĠØ§ÙĦØªØŃ": 28798,
  "ĠVersailles": 29421,
  "itude": 10536,
  "When": 1775,
  "ĠWikivoyage": 26482,
  "Ġrew": 26248,
  "ard": 456,
  "cher": 3548,
  "Ġsist": 13749,
  "ĠFlip": 22074,
  "JSON": 11765,
  "Ġcomponents": 4236,
  "Ġfraud": 6720,
  "ĠØ§ÙĦØ¹": 6985,
  "áıĽ": 18804,
  "Ġtroubleshooting": 23202,
  "blem": 10677,
  "orial": 3891,
  "kow": 19167,
  "ĥ½": 5934,
  "Ġconfiguring": 20221,
  "ship": 5771,
  "Ġbottlenecks": 24531,
  "Ġãģ¯": 7490,
  "à¬Ĥ": 11452,
  "azaki": 21790,
  "yes": 8555,
  "say": 19179,
  "Ġbest": 1351,
  "Ġverified": 7683,
  "ĠÐºÐµÑĢ": 28423,
  "Ġperdit": 30180,
  "ÐµÐ»ÐµÑĢ": 28652,
  "Ġkonk": 19674,
  "à½£": 14203,
  "ava": 2219,
  "çŁ": 11199,
  "odob": 28041,
  "ĠFloor": 23100,
  "ian": 754,
  "keeping": 30582,
  "ĠMarketplace": 13404,
  "hon": 21458,
  "ĠAffiliate": 18365,
  "chair": 29868,
  "ĠprogramaciÃ³": 21764,
  "alya": 26210,
  "ĠVite": 30185,
  "ĠApr": 3021,
  "Ġtaxpayer": 16795,
  "Ġpatents": 14957,
  "awa": 4799,
  "ute": 4266,
  "iosity": 25649,
  "break": 28729,
  "âŁ©": 20535,
  "ĠWrit": 14820,
  "Ð°ÑĪ": 5457,
  "Ġê·¸": 17664,
  "Tumbuka": 27561,
  "Ġ×ª×ŀ×ķ×ł×ķ×ª": 28931,
  "upport": 2946,
  "Ġtangible": 16760,
  "ĠBar": 4852,
  "ĠOr": 2399,
  "uers": 27773,
  "Ġenrolled": 19370,
  "Ġì»": 25171,
  "×Ĳ×©": 30551,
  "Ġorg": 20751,
  "good": 21012,
  "Ġlawsuits": 26826,
  "ĠEssentials": 13683,
  "ormative": 13580,
  "dict": 2440,
  "ĠSegments": 29901,
  "Ġkepada": 31485,
  "ĠDeals": 23947,
  "Ġnegara": 28779,
  "Ġdrone": 13935,
  "ĠStay": 16024,
  "Ġconnectors": 30620,
  "à¼": 2920,
  "ĠÐ·Ð½Ð°": 17692,
  "ĠCSV": 19930,
  "umn": 4016,
  "around": 13472,
  "lobal": 1569,
  "ĠMahamaru": 13422,
  "Ġclimate": 10736,
  "Ġaus": 8122,
  "Ġfolk": 20899,
  "Ġlookup": 23954,
  "Ġmailing": 3887,
  "ĠNOCLAR": 29204,
  "Dark": 24633,
  "applic": 23946,
  "ĠStan": 10575,
  "olf": 13199,
  "Ġchmury": 21312,
  "oom": 5801,
  "à½´": 14204,
  "Ġearned": 12104,
  "Affiliates": 17299,
  "Ġdedication": 15731,
  "ction": 635,
  "Ġcarrying": 16741,
  "nan": 15502,
  "arch": 861,
  "ml": 3202,
  "eeper": 14898,
  "ĠDoes": 13351,
  "Ġrecognise": 28591,
  "èµ·ãģĵ": 29380,
  "Screenshots": 30876,
  "Ġwikip": 17662,
  "ĠAlso": 4062,
  "bur": 13433,
  "Ø¯ÙĬØ¯": 19604,
  "Ġsis": 29734,
  "ixel": 6869,
  "ıãĥĥãĤ·ãĥ¥": 29704,
  "ĠSF": 20730,
  "Ur": 14352,
  "Technology": 19671,
  "Ġquite": 4195,
  "arin": 22515,
  "ĠArea": 14617,
  "×ķ×©": 7449,
  "Ġpháº©": 30258,
  "aign": 3084,
  "Ġ×Ķ×Ĵ×¨×ŀ×ł×Ļ×ª": 21281,
  "Ġassociate": 7466,
  "ĠÙĦ": 2341,
  "Ġestim": 11472,
  "Ġoptimal": 26957,
  "Ġiconic": 17773,
  "Make": 10840,
  "ðŁ": 2574,
  "ĠÐ°Ð¿": 25344,
  "Ġsuited": 18667,
  ")ØĮ": 27606,
  "æĳĦ": 31570,
  "åĽ½": 10811,
  "erner": 20142,
  "ĠComputing": 21938,
  "Ġem": 717,
  "æ³ķ": 5661,
  "Ġhas": 527,
  "ĠØªÙĤ": 25317,
  "ĠProviders": 31179,
  "Ġmisleading": 15751,
  "Ġsociety": 5768,
  "Ġabuse": 9984,
  "âĪĴ": 19738,
  "ĠWolf": 29939,
  "ĠnÃł": 12463,
  "ĠDistribution": 23752,
  "Gal": 20568,
  "Ġdelegated": 27293,
  "acu": 19293,
  "Ġrul": 6699,
  "Ġdati": 9379,
  "imin": 6799,
  "ĠResolution": 14960,
  "ĠlÃ½": 17999,
  "ĠSanki": 29902,
  "Personal": 10084,
  "Ġgaining": 21166,
  "ĠLim": 11425,
  "Ġsampling": 8437,
  "âĭĨ": 19780,
  "Photographs": 14323,
  "Ġscreenshots": 15440,
  "Ġremark": 17595,
  "ëĸ": 22456,
  "Ø´Ø±ÙĪØ¹": 27274,
  "Ġstorage": 2874,
  "~~": 8374,
  "Ġend": 1271,
  "Ġtransclusion": 8594,
  "hend": 27845,
  "Ð³Ð¸": 16535,
  "Ġsecara": 19399,
  "Ġyina": 26265,
  "ĠHelp": 6225,
  "mult": 19843,
  "Ġsomebody": 25102,
  "ĠLegal": 7034,
  "Ķáĥ": 10095,
  "akespe": 21653,
  "Ġseeking": 11731,
  "ĠList": 4313,
  "nung": 22425,
  "Automatic": 22199,
  "Ġzoom": 14879,
  "ĠBreak": 31239,
  "ĠÐ¼": 1674,
  "Ġà¤¸": 5675,
  "ĠWikiversity": 20851,
  "ãĥªãĤ½ãĥ¼ãĤ¹": 30729,
  "ĠIDC": 25437,
  "Ġnobody": 23388,
  "ĠPhys": 16142,
  "fill": 9201,
  "Ġdigit": 8969,
  "Ã¨nt": 26680,
  "Ġmotivated": 29178,
  "acc": 7429,
  "Ø¯ÙĬ": 4884,
  "ÑıÐ²": 28339,
  "Ġ×ł×Ļ×ª": 23088,
  "à¸§à¸Ķà¸«à¸¡": 9175,
  "weni": 24748,
  "elle": 6735,
  "Ġloss": 3722,
  "PL": 4452,
  "Ġdelicious": 23979,
  "Ġíı¬íķ¨": 24602,
  "Ġmedicine": 18924,
  "æĶ¿": 12142,
  "Ġ<": 17950,
  "Ġ2002": 8074,
  "Ġproud": 13461,
  "Ġopport": 4026,
  "om": 256,
  "Ġdonating": 30407,
  "ianu": 9860,
  "ĠSmarter": 25416,
  "Ġmau": 29798,
  "ilianu": 17455,
  "ĠLapt": 21660,
  "XPath": 31866,
  "city": 29571,
  "ĠÅĽrodowisk": 20532,
  "wie": 27780,
  "Ġcaused": 11139,
  "gricult": 11441,
  "Ø®Øµ": 9887,
  "ĠVari": 26507,
  "zz": 15900,
  "urrencies": 17319,
  "ĠPowerPC": 28929,
  "Ġreveal": 7961,
  "urm": 29955,
  "ĠspeÅĤ": 21815,
  "commit": 16647,
  "named": 21469,
  "ĠTreasury": 23230,
  "ĠRule": 18658,
  "API": 7407,
  "Ùħ": 602,
  "oton": 27938,
  "ision": 1467,
  "Ġsched": 9596,
  "ĠScen": 25401,
  "2007": 19561,
  "Ġmonitors": 23174,
  "odzi": 24938,
  "Ġproperties": 4518,
  "force": 2692,
  "ÐºÐ¸": 1664,
  "technical": 17274,
  "existent": 26668,
  "fÃ¼hr": 25702,
  "ĠÎº": 10306,
  "Ġreflect": 4132,
  "amiliar": 18598,
  "Duration": 29467,
  "ĠLinked": 20805,
  "reensh": 15009,
  "side": 2053,
  "fin": 5194,
  "Ġcircular": 26969,
  "Å": 131,
  "Ġhood": 22536,
  "ĠGoogle": 1572,
  "ĠVen": 16017,
  "Ġdescending": 27251,
  "Dansk": 24634,
  "auth": 28525,
  "Ġverbal": 31114,
  "ĠudostÄĻp": 27262,
  "Ġpossess": 18784,
  "à¨¼": 23938,
  "Ġà¨¨": 22966,
  "ĠDennis": 30014,
  "ĠPayment": 18381,
  "ĠGovernor": 24266,
  "Consider": 14313,
  "rial": 9332,
  "ral": 1640,
  "áī°": 19580,
  "Cas": 21402,
  "Related": 8351,
  "exico": 16082,
  "ĠFot": 14840,
  "Ġlast": 1920,
  "Ġ×¢×ľ": 8340,
  "ĠChairman": 17835,
  "Ġstellar": 28016,
  "Copilot": 15096,
  "Ġinevitably": 27430,
  "ato": 6158,
  "Ġpause": 23628,
  "Ġperform": 1317,
  "Ġinquiries": 14003,
  "Ġicons": 14688,
  "abric": 12238,
  "impact": 29858,
  "uta": 9969,
  "Ġlayer": 6464,
  "ĠNations": 9249,
  "Making": 17902,
  "Width": 26043,
  "Ð²ÐµÐ´": 22735,
  "Ġjest": 4881,
  "67": 4729,
  "Ġ1970": 10277,
  "ãĤ¯ãĤ·": 30732,
  "Ġconfidently": 16773,
  "Ġwskaz": 19890,
  "áĪ³": 26857,
  "ĠGard": 7502,
  "ĠBell": 14440,
  "Pub": 16831,
  "El": 10208,
  "iceworks": 8450,
  "igi": 15184,
  "ĠFavor": 23761,
  "Ġflagship": 9905,
  "Ġplane": 16620,
  "Ġaf": 4712,
  "arus": 26236,
  "Ġwenn": 19889,
  "ragen": 31961,
  "Ġexistence": 13297,
  "Segments": 26038,
  "à·Ħ": 20313,
  "ĠduÅ¼": 22982,
  "List": 3557,
  "Ġholds": 7002,
  "zent": 17935,
  "ĠOrganization": 9092,
  "CX": 25977,
  "ĠAcer": 20354,
  "Ek": 20563,
  "Ø§Ø±Ø§Øª": 28629,
  "astonbury": 9534,
  "ĠAccounting": 10475,
  "Ġanalysis": 3770,
  "èĳĹ": 8358,
  "Ġpoliticians": 18933,
  "Ġplayers": 14212,
  "Ġarbitration": 5510,
  "eil": 21453,
  "Ġsubjects": 8511,
  "Ġframework": 4325,
  "ĠFITNESS": 31692,
  "txt": 26116,
  "edn": 6394,
  "Another": 8242,
  "ðĲĮ²": 30837,
  "ĠØ£ÙĬØ¶": 16296,
  "Ġsobie": 22692,
  "Ġlear": 1757,
  "Ġweek": 2373,
  "Ġsubset": 12090,
  "êłĴ": 22781,
  "Ġhit": 6357,
  "Ġjew": 17547,
  "else": 29947,
  "formance": 4246,
  "Ġthoroughly": 21335,
  "Ġfant": 11582,
  "çĭ": 24768,
  "ĠÚ©ÛĮ": 13921,
  "Pad": 10675,
  "ãģķãĤĮãģŁ": 12799,
  "Ġimagine": 14312,
  "answ": 30149,
  "Ġmatters": 5785,
  "Ġassets": 9053,
  "Ïį": 12443,
  "ab": 305,
  "ĠAudio": 11522,
  "Store": 26661,
  "Ġidentifiers": 9870,
  "Ð§": 17397,
  "family": 27724,
  "ÑĸÐ¼": 23913,
  "Ġwhatsoever": 20112,
  "ser": 903,
  "Ġ×Ĳ×ª": 7701,
  "Ġshake": 28146,
  "Ġhackers": 17798,
  "Ġdefinition": 4134,
  "galia": 18389,
  "Ġ639": 16085,
  "option": 22955,
  "Watch": 15120,
  "Flexible": 27494,
  "Ġspos": 9719,
  "Ġrendered": 7620,
  "dule": 8401,
  "Ġrecent": 3726,
  "ĠAm": 1430,
  "Æ¡": 8885,
  "Ġhardly": 19507,
  "Ġcomo": 8799,
  "Ġtwor": 10184,
  "ardziej": 15248,
  "æ§ĭæĸĩ": 21252,
  "ĠØ³ÛĴ": 18318,
  "Ġkunst": 31177,
  "ÑĤÐµÑĢ": 9724,
  "Ġcy": 2474,
  "ĠMcK": 20411,
  "Ġconcepts": 6825,
  "kpa": 31926,
  "ais": 19825,
  "Ġdh": 21539,
  "consuming": 31195,
  "lit": 12891,
  "Ġfunkcj": 31316,
  "ØŃ": 2010,
  "znÄħ": 16230,
  "Ġcelebrating": 23221,
  "Ð°ÑĤÐ°": 8513,
  "undred": 6989,
  "Welcome": 6253,
  "Ġspoke": 18673,
  "Ġexpected": 4704,
  "áĭµ": 23052,
  "Ġnie": 3628,
  "CV": 19792,
  "ĠPhoenix": 30612,
  "Ġpromin": 10884,
  "ĠIG": 19945,
  "ĠDetails": 31076,
  "ĠUN": 7367,
  "ĠXPath": 22828,
  "à¬·": 23898,
  "ological": 5270,
  "riage": 29985,
  "ults": 7752,
  "nof": 24721,
  "×Ļ×ķ×ª": 4323,
  "Ø·ÙĪØ±": 26889,
  "Ġscripting": 7700,
  "ĠNeeds": 25769,
  "ĠMade": 20767,
  "br": 3969,
  "èª¬": 20249,
  "Ġvendor": 7943,
  "Ã¡rio": 26639,
  "ink": 579,
  "Ġsurv": 10618,
  "ĠÐ¿ÑĢÐ¾Ð³ÑĢÐ°Ð¼Ð¼": 16235,
  "Ġsums": 27855,
  "Ġbeautiful": 11938,
  "ĠArgentina": 14697,
  "Ġwriting": 2860,
  "ulary": 7739,
  "keit": 16617,
  "Ġfigures": 13079,
  "ï": 173,
  "Camp": 19793,
  "ç®¡": 12387,
  "hael": 26950,
  ",": 16,
  "Ġmilit": 11021,
  "ĠKensington": 17024,
  "Ġko": 6408,
  "Ġsummarizes": 29007,
  "ĠBowl": 26391,
  "Î¹ÎºÎ¬": 11155,
  "Ġv": 308,
  "Ġ150": 11831,
  "Ġpran": 30242,
  "Ġcontributing": 6872,
  "Ġkunnen": 22180,
  "ĠStock": 28229,
  "æ¬¡": 7257,
  "Ozone": 31813,
  "Ġfairness": 14963,
  "Ġgrams": 15309,
  "ike": 575,
  "Î¯Î±": 14631,
  "Review": 10596,
  "owane": 10114,
  "ĠÐ¿ÑĢÐ¾ÐµÐºÑĤ": 27230,
  "ä½įç½®": 22239,
  "uby": 5990,
  "Yor": 27706,
  "Ġcentralized": 21179,
  "ively": 4077,
  "àª°": 23141,
  "Ã©ment": 28254,
  "HER": 15862,
  "awuni": 30225,
  "Ġiba": 24777,
  "Ġecosystems": 14608,
  "Ġregistering": 25548,
  "urpose": 8298,
  "Ãª": 2067,
  "Ġsquee": 25684,
  "Ġep": 14796,
  "Ġencicl": 18194,
  "ait": 11374,
  "govern": 22894,
  "ography": 6136,
  "cis": 31882,
  "Section": 12883,
  "Des": 5015,
  "Ġsurvey": 9753,
  "ßķ": 27808,
  "Ġplaza": 20861,
  "Ġarray": 3859,
  "apa": 9344,
  "Ġintention": 8151,
  "unting": 11224,
  "Ġconsequ": 9024,
  "Under": 5106,
  "Ġprincip": 7793,
  "ications": 4291,
  "ERIAL": 22920,
  "existing": 13563,
  "Ġfed": 24814,
  "é¡¹": 27158,
  "Ã¡i": 15656,
  "Ġpursu": 9369,
  "èĻ": 29686,
  "Ġà°ħà°¨": 29214,
  "ÖĦ": 14380,
  "mor": 16352,
  "ĠêµŃ": 19754,
  "ustri": 21677,
  "aching": 7444,
  "defined": 6954,
  "ĠUzbek": 18085,
  "Ã©cnic": 25657,
  "Ġpronounced": 21272,
  "Ñĭ": 759,
  "ï¿½ï¿½ï¿½": 5061,
  "Ġdemonstr": 5552,
  "Ġtelah": 22228,
  "Ġrecipient": 11348,
  "Ġtrademark": 2387,
  "ĠNote": 5299,
  "ãģ¾ãģŁãģ¯": 23331,
  "Books": 23064,
  "Ġdishes": 20063,
  "Ġtake": 1616,
  "ĠRecognition": 21933,
  "Ġescalation": 19047,
  "Ġreadability": 20139,
  "ĠTeams": 19567,
  "ĠCanada": 5374,
  "ĠGreek": 9099,
  "olocation": 19279,
  "Ġ52": 12990,
  "ĠStorage": 7376,
  "ediate": 26688,
  "olid": 7736,
  "access": 9236,
  "Ġsubstantial": 7946,
  "Ġsle": 5637,
  "ĠHunter": 14135,
  "Ġãģĵ": 22462,
  "ĠShould": 15323,
  "áĢ¬áĢ²": 30576,
  "ĠFullscreen": 31157,
  "Ġid": 8205,
  "ĠShow": 8332,
  "ĠPreviews": 29232,
  "pal": 31950,
  "ĠRecovery": 13328,
  "ł": 211,
  "Ġap": 8561,
  "ĠUploadWizard": 29146,
  "Ġcrossed": 23025,
  "ased": 874,
  "Ġrecognizable": 26837,
  "OD": 10674,
  "Ġappeals": 21261,
  "Ġacc": 509,
  "Ġranks": 17512,
  "Ġwerk": 15394,
  "ifiability": 21069,
  "ĠJetBra": 31188,
  "Ġpill": 22488,
  "ĠVS": 14152,
  "Ġmeetup": 18871,
  "Ã¡r": 28371,
  "Ġspect": 17537,
  "2020": 12061,
  "ĠSupply": 25780,
  "Ġpanoram": 25472,
  "Ġlimits": 8614,
  "Ġgovernor": 28485,
  "Ġwhatever": 8391,
  "Ġathletes": 16282,
  "ĠUpload": 11627,
  "ĠEll": 15235,
  "Ġsolves": 28756,
  "ĠVanguard": 17875,
  "Ġlasting": 16124,
  "ÑĭÑĢ": 9732,
  "Ġ×ĳ": 3830,
  "Ġsocial": 2783,
  "Ġunderway": 28306,
  "ashed": 26241,
  "iderspruch": 27310,
  "Ġkm": 5944,
  "ĠElement": 14137,
  "ĠMobile": 9237,
  "oÅĤ": 2276,
  "ĠMol": 28017,
  "Ġãģ§ãģ¯": 13744,
  "Ð¸Ð½Ð¸": 24077,
  "Ð¸Ð²": 28144,
  "Ġprinter": 13595,
  "Ġbutton": 4080,
  "InstantCommons": 28924,
  "ĠLabels": 28970,
  "isms": 17091,
  "aq": 23506,
  "Ġattain": 25144,
  "Ġaccountable": 17609,
  "letter": 7912,
  "Ġelectron": 28793,
  "èŃī": 21283,
  "sky": 20306,
  "Ġannot": 10700,
  "áĢĨáĢĢ": 31377,
  "Ġturning": 11356,
  "Ki": 22362,
  "Ð´Ðµ": 8817,
  "wei": 26611,
  "ĠOnt": 6369,
  "DurationFormat": 14339,
  "ceptions": 30314,
  "bell": 13434,
  "ĠÐŃ": 11421,
  "Ġreimbursement": 25925,
  "ĠRaphael": 27404,
  "Ġbur": 8209,
  "çī¹": 11909,
  "Ġguest": 17610,
  "ĠÑģÐ¾": 11090,
  "Evalu": 31755,
  "recognition": 16716,
  "TemplateStyles": 30937,
  "Ġpromising": 21035,
  "Insert": 29182,
  "Æ°": 3738,
  "Ġhá»£p": 17310,
  "Ġspeedtest": 10167,
  "Ġagainst": 2424,
  "Ġseparately": 11486,
  "ĠContributions": 15406,
  "Ġadvance": 6652,
  "Å¼y": 6814,
  "Harassment": 31415,
  "Ġexclusively": 14291,
  "itness": 16885,
  "Ġmovements": 22952,
  "ĠlÃŃ": 11805,
  "Ġcovering": 4500,
  "Ð¾ÑĤ": 3618,
  "technology": 25692,
  "Values": 27079,
  "Ital": 7924,
  "Ġredes": 19546,
  "arbage": 12996,
  "ĠComp": 2490,
  "×ŀ×¨": 21144,
  "Sources": 29541,
  "ĠNoise": 15713,
  "Ġgift": 13201,
  "ĠRecord": 7122,
  "ĸâµľ": 29708,
  "Ġdevices": 2915,
  "Ġwire": 26199,
  "Ġsomehow": 15617,
  "zza": 20643,
  "acle": 11230,
  "Ġsafeguarding": 19721,
  "ĠBlue": 20208,
  "×Ļ×ĳ×ķ×¨": 31078,
  "iqu": 1743,
  "Ġdr": 4103,
  "olding": 28382,
  "Ġcarries": 23006,
  "cles": 9133,
  "opes": 14429,
  "Ù¹": 9682,
  "ĠPoland": 18385,
  "emin": 7356,
  "Def": 7645,
  "Press": 4730,
  "cluded": 4883,
  "owie": 26298,
  "ĠCould": 16926,
  "nty": 23766,
  "ìĹĲ": 4020,
  "æľŁ": 15345,
  "ateur": 18047,
  "zeit": 18783,
  "Ġ66": 22827,
  "ommen": 17004,
  "Ġevent": 1795,
  "Ġterminated": 27234,
  "Ġsvg": 29150,
  "aru": 8783,
  "Ïģ": 3986,
  "Ġ\"-": 28161,
  "Ġresident": 10573,
  "Ġmeanings": 22922,
  "},": 31998,
  "Ġimportant": 1860,
  "Ħ": 183,
  "Brian": 9409,
  "Ġe": 260,
  "ĠmÄģ": 26233,
  "ceive": 14114,
  "Ġsyntactically": 31225,
  "ĠExchange": 4473,
  "Ġperks": 30179,
  "ips": 3724,
  "ãĤīãģ®": 25464,
  "Ġdeck": 23738,
  "Ġlist": 768,
  "Ġgiv": 1804,
  "133": 21881,
  "Ġwalk": 5591,
  "Ġperspectives": 13989,
  "Ġscrolls": 24383,
  "io": 954,
  "ammad": 30853,
  "Ġsciences": 20874,
  "Ġexperience": 1899,
  "Conformance": 19523,
  "ĠZe": 20980,
  "Ġhad": 1205,
  "rie": 6167,
  "Ġlou": 22531,
  "ĠØ¨ÙĬÙĨ": 26771,
  "ĠStripe": 28232,
  "Ġà°ī": 19490,
  "anima": 10867,
  "ÐµÐ·": 4617,
  "fw": 26064,
  "Ġdid": 1578,
  "Ġuncopyrightable": 29335,
  "ĠMem": 11602,
  "inkle": 20069,
  "oday": 6317,
  "Ġáİ": 3712,
  "Ġsales": 5848,
  "Za": 26045,
  "ĠPit": 21634,
  "Ġdetermine": 4401,
  "Ġadvocates": 8855,
  "Ġaudi": 10763,
  "(\"": 18472,
  "å¤ļ": 9772,
  "æł¡": 8637,
  "Ġpermanent": 10966,
  "Anywhere": 24251,
  "Ġsubsequent": 9925,
  "Ġsr": 9558,
  "kam": 29607,
  "Ã¶s": 20990,
  "Ġved": 23720,
  "ouch": 4240,
  "illing": 5146,
  "Ġincome": 12060,
  "ĠRSVP": 16308,
  "Ġkhi": 22624,
  "Enjoy": 28677,
  "Ġpermitting": 31207,
  "ĠPhilippines": 12867,
  "Ġsm": 1213,
  "ÐºÑĸ": 5177,
  "annt": 17424,
  "Pixel": 15108,
  "Ġimperative": 19064,
  "ĠGeese": 24952,
  "Ġoffices": 13851,
  "ĠbÄĻdzie": 23387,
  "ĠÚ¾": 15518,
  "ÑĸÑĨÐ°": 15633,
  "jen": 31918,
  "à¦Ń": 11632,
  "ĠMinangkabau": 27125,
  "ä¾ĭãģĪãģ°": 19045,
  "ÙĪØ§Ø±": 28268,
  "Î¹ÎºÎ®": 20402,
  "fran": 15128,
  "Ġneat": 23836,
  "Pods": 5416,
  "amour": 29871,
  "VD": 9674,
  "ini": 2308,
  "arse": 12916,
  "Ġaimed": 10645,
  "wal": 12441,
  "Ob": 6952,
  "Ġ×ľ×¤": 14215,
  "document": 8461,
  "Ġprocurement": 19083,
  "Ġelimin": 10927,
  "Ġalbeit": 28026,
  "Tac": 31838,
  "Ġjan": 16502,
  "Ġpopraw": 20216,
  "à°°à°£": 23375,
  "ĠWH": 2065,
  "ĠCard": 26285,
  "78": 11958,
  "Place": 25403,
  "Ġauteursrechtelijk": 31383,
  "ĠCOVID": 19931,
  "uckerberg": 11953,
  "aret": 25029,
  "ĠWol": 19282,
  "WO": 27702,
  "ãĥ¼ãĥĪ": 10920,
  "ĠDeutsch": 6762,
  "Ġseem": 5568,
  "Ġklientom": 27232,
  "Ġig": 24773,
  "zÄħÄĩ": 25434,
  "DL": 3375,
  "æ¨Ļ": 19649,
  "Ġresolving": 16507,
  "ÐµÐ³Ð¾": 28954,
  "Its": 31774,
  "ĠJackson": 21352,
  ").--": 30237,
  "ĠLimeWire": 26429,
  "Ġlock": 8596,
  "ÃŃ": 1453,
  "Ġhearing": 11836,
  "Ø¹Ø¯": 10151,
  "Ġteach": 14473,
  "Ġformally": 14495,
  "check": 11105,
  "à½¼": 8723,
  "Ġstability": 14427,
  "ĠPrinceton": 24520,
  "çķªçĽ®": 31429,
  "Ġargument": 3729,
  "Ġlonger": 3278,
  "Ġannoy": 15690,
  "êĻĳ": 24437,
  "atform": 1069,
  "Ġstraight": 7867,
  "Ġpack": 2865,
  "Ġconference": 6537,
  "Ã´ng": 6342,
  "ĠRing": 7825,
  "Reference": 21787,
  "ĠDigibib": 31505,
  "Ġbylines": 14843,
  "isted": 8677,
  "Leak": 28897,
  "ĠAli": 27947,
  "ammlung": 22545,
  "Ġrelig": 7173,
  "Ġdokument": 13699,
  "<": 32,
  "erstand": 2018,
  "Ġloud": 15939,
  "Ġroutines": 25576,
  "Shannon": 26859,
  "ĠPrograms": 23047,
  "theora": 23969,
  "Ġthereof": 18715,
  "Ġconstitutional": 21263,
  "ĠGrant": 19986,
  "Ġadopting": 15595,
  "ĠØ§ÙĦØ£": 5761,
  "Ġinvok": 8232,
  "cidental": 31886,
  "reader": 12530,
  "ĠLar": 14845,
  "ĠCloud": 3395,
  "uk": 1602,
  "very": 747,
  "ĠNow": 5176,
  "Äģ": 3450,
  "ecure": 30006,
  "ĠTin": 22556,
  "ÅĤo": 7298,
  "ĠBear": 26385,
  "Ġsomeday": 28752,
  "ooper": 30461,
  "åĬł": 10642,
  "×ľ×ķ×ª": 17622,
  "Ġà¬ħ": 21082,
  "æĴ": 14758,
  "áıĵ": 13310,
  "aque": 15495,
  "anya": 9476,
  "Ġnegoti": 12124,
  "à¨Ī": 20942,
  "Ġà¤ľ": 10414,
  "ĠFellow": 21649,
  "apes": 18101,
  "lining": 19841,
  "Ġstamp": 14122,
  "Ġbreaks": 11331,
  "çīĩ": 13625,
  "à¦¶": 11631,
  "à±Ĥ": 18170,
  "Ġsuper": 5377,
  "Ġcomparisons": 27077,
  "vir": 2039,
  "you": 8373,
  "Magyar": 24464,
  "ĠTitle": 21602,
  "Ġsaf": 2434,
  "ĠáĢĹ": 19506,
  "ĠEnvironment": 12869,
  "Ġcategorize": 12588,
  "á±": 15151,
  "Ġideally": 25312,
  "Ġvalidated": 16151,
  "Ts": 19818,
  "Ġmotivation": 31297,
  "Ġtransition": 8069,
  "angkabau": 15075,
  "ounds": 10899,
  "297": 28702,
  "Ġmentorship": 27141,
  "Ġprompted": 19640,
  "Ġfol": 748,
  "Ġconsist": 2794,
  "Ġequality": 14953,
  "Ġinterpreted": 7858,
  "ĠData": 1625,
  "Ġmeasures": 5967,
  "boy": 22398,
  "ä¼ļ": 13662,
  "oke": 3995,
  "Ì": 138,
  "Digit": 29470,
  "Dial": 19120,
  "06": 8870,
  "Ġpose": 17973,
  "Ġobserve": 25139,
  "Ġaugmented": 23357,
  "ĠX": 1304,
  "ĠMakassar": 31551,
  "tin": 31972,
  "idu": 26309,
  "Ì±": 3041,
  "=\"": 8022,
  "clude": 5783,
  "yling": 19852,
  "nh": 4068,
  "Validator": 20596,
  "Ġartists": 7448,
  "é«ĺ": 11532,
  "×Ļ×ª": 2838,
  "ĠÐºÐ¾ÑĢ": 13011,
  "ĠEnc": 11882,
  "âģ": 23575,
  "Module": 23149,
  "ç¤¾": 11739,
  "ates": 594,
  "Ġdepicts": 24360,
  "ĠManaged": 30568,
  "×ķ×¨×Ĵ": 30768,
  "free": 3854,
  "ãĥģ": 10893,
  "Will": 16337,
  "elenggarakan": 31637,
  "Ġlinks": 1902,
  "ĠPromo": 10985,
  "ê»ĺ": 26153,
  "à¸Ľà¹Ĥà¸«à¸¥à¸Ķ": 28808,
  "Form": 11076,
  "uga": 10598,
  "ĠCOMMON": 19770,
  "Ġpopup": 21906,
  "Ġlearners": 25268,
  "uj": 2494,
  "ideo": 1296,
  "Inv": 14483,
  "Ġinfobox": 17627,
  "Apple": 5713,
  "Ġßĺß": 21985,
  "Ġounce": 21510,
  "Ġuntuk": 7390,
  "Ġsuggestions": 5759,
  "ĠCluster": 28562,
  "knowledge": 23530,
  "Ġ1963": 20100,
  "Ġlarge": 2286,
  "Breadcrumbs": 27577,
  "Ġdistingu": 7920,
  "Ġdepictions": 28992,
  "Ġquy": 17019,
  "Ð¸Ð½Ð³": 21042,
  "Ġcolon": 9052,
  "Ġdetermin": 26862,
  "Ġpreliminary": 26549,
  "ĠPreferences": 19518,
  "Ġbers": 19239,
  "áģĭ": 10471,
  "æĿĥ": 14277,
  "Ġpunctuation": 11149,
  "Ð²Ð¾": 7680,
  "á»ģ": 7518,
  "Ð¼Ð°ÐºÐµÐ´Ð¾Ð½ÑģÐºÐ¸": 21745,
  "Ġimp": 704,
  "Ġsowie": 17294,
  "Ġkill": 19998,
  "ĠrÃ³wnie": 21292,
  "Ġindic": 5748,
  "ĠAdmin": 6459,
  "ĠEnd": 6644,
  "Ġznale": 20421,
  "ĠEveryone": 20406,
  "TTP": 3850,
  "Ġconditions": 3409,
  "Ġclosest": 24585,
  "Ġcreation": 3596,
  "ciÃ³n": 13862,
  "Ġcompetitors": 14256,
  "ÐºÐ°Ñħ": 25310,
  "ĠNovember": 2563,
  "ĠPreÅ¡eren": 27595,
  "Ġrail": 22861,
  "Ġtagged": 10433,
  "ĠÐ½Ð¸": 22878,
  "Ġfreien": 26795,
  "ĠEP": 30100,
  "ĠPublisher": 29166,
  "na": 2307,
  "ĠSemantic": 14305,
  "Ġenterprise": 4604,
  "Closed": 28715,
  "ollo": 25397,
  "With": 3652,
  "Ġisch": 29856,
  "ĠHistor": 17518,
  "lem": 1255,
  "é¡ŀ": 17792,
  "ĠFonts": 29106,
  "Ġexplores": 15667,
  "Ġrelevant": 2755,
  "sec": 11976,
  "Ġtaxes": 10620,
  "Ġefficiently": 10489,
  "ĠPictures": 31504,
  "ison": 3812,
  "ãģĤ": 3552,
  "ĠMost": 4945,
  "ãģĻãģ¹ãģ¦": 16565,
  "èªŀ": 3049,
  "Ġunivers": 4854,
  "ĠExceptions": 24490,
  "tp": 27771,
  "ÎķÎ»Î»Î·Î½Î¹ÎºÎ¬": 16863,
  "Ġmetric": 15292,
  "ßŀß": 18538,
  "×¨×Ļ×ķ×ª": 20134,
  "Ġward": 22492,
  "iÅŁ": 24709,
  "Ġverifies": 30323,
  "Ġ2021": 3629,
  "á¸": 8771,
  "áº±ng": 20544,
  "Ġexplo": 7988,
  "MCA": 13430,
  "itekt": 23835,
  "upu": 19349,
  "Ġsich": 10534,
  "iber": 5866,
  "ĠNews": 4802,
  "Ġpahi": 11399,
  "Ã©": 638,
  "app": 1131,
  "auc": 11375,
  "star": 11027,
  "Ġnotifications": 8141,
  "ĠÙĥØ§ÙĨ": 15770,
  "Ġdescribe": 5917,
  "Through": 18212,
  "Ġdup": 21540,
  "atural": 9958,
  "Ġagreement": 6034,
  "ĠCharge": 17754,
  "ÑĸÑĩ": 30317,
  "evolving": 24188,
  "Ġuw": 8598,
  "ĠIndonesian": 12807,
  "ĠDraft": 6366,
  "134": 16599,
  "ulatory": 22583,
  "ĠkpuÉ£": 24368,
  "Ġkob": 26402,
  "ĠMovie": 20487,
  "Ġmere": 5639,
  "Important": 10313,
  "eni": 11012,
  "wier": 17934,
  "ĠLife": 12035,
  "prise": 2359,
  "Ġexternal": 3780,
  "ĠJones": 13248,
  "col": 6436,
  "Ġuntil": 2739,
  "inli": 19869,
  "ĠIntegr": 7843,
  "owo": 24883,
  "Ġmon": 1354,
  "Ġtelevision": 14641,
  "ĠíĮĮìĿ¼ìĿĦ": 23317,
  "Ġmicrosyntax": 30964,
  "Ġpoc": 24807,
  "Ġroots": 23919,
  "ĠÅĤÄħcz": 18391,
  "Ġguarant": 6988,
  "Ġzal": 20868,
  "Ġshik": 5999,
  "Ġwebsites": 3546,
  "do": 4454,
  "sá¹³": 23552,
  "Ġapplicants": 16066,
  "PortuguÃªs": 22142,
  "nde": 25001,
  "adas": 15197,
  "ĠDesigns": 27070,
  "mer": 4067,
  "Ġplatforms": 3491,
  "ued": 3146,
  "ä¿¡æģ¯": 17884,
  "à¸ŀ": 7032,
  "ĠHilling": 23777,
  "Ġwood": 27870,
  "Ġattempted": 22021,
  "ĠJD": 25048,
  "Ġhabit": 23147,
  "EJAE": 27634,
  "ĠQuality": 7923,
  "ĠUint": 20827,
  "ĠÃģ": 25390,
  "ĠIV": 21605,
  "à¦Ł": 7974,
  "Ġconfer": 19439,
  "ĠRestrict": 31233,
  "letion": 3153,
  "Ġfun": 907,
  "ĠAnim": 18193,
  "ĠÙħÙĪØ¬ÙĪØ¯": 26667,
  "áŁ": 16868,
  "Ġmac": 4548,
  "ĠAcademy": 17848,
  "Ġburn": 27898,
  "ÑģÐºÐ¸Ð¼": 26905,
  "Pinned": 26031,
  "ĠCor": 9693,
  "Ġremix": 12520,
  "rowth": 18122,
  "Ġsalo": 29737,
  "ever": 1020,
  "ical": 656,
  "ĸ": 201,
  "ĠHungama": 31535,
  "agen": 5114,
  "ĠbiÉĽhigu": 25789,
  "ĠFull": 9034,
  "à³ģ": 27196,
  "adom": 23709,
  "Ġadequ": 13234,
  "lieÃŁ": 21304,
  "ĠWh": 2005,
  "ÑĨÑĸÑĹ": 20432,
  "Ġeks": 14100,
  "SH": 5381,
  "Ġ×ķ×ľ": 22992,
  "Disclaim": 27037,
  "ĠÐ¼Ð°ÑĤ": 21870,
  "aki": 8215,
  "Ġwilayah": 29237,
  "ĠAugust": 4049,
  "rew": 4462,
  "path": 14737,
  "Ġadmins": 13309,
  "eligible": 12476,
  "GN": 14341,
  "Ġown": 979,
  "Ġplus": 4982,
  "ott": 2983,
  "ĠsÃ¨": 11207,
  "Ġreverse": 12230,
  "piece": 29634,
  "alternate": 19768,
  "ui": 5518,
  "Ġreplay": 29821,
  "Job": 31778,
  "ĠÐ´Ð¶": 28500,
  "Ġsince": 1544,
  "ographics": 30443,
  "Ġtrend": 6090,
  "obertura": 29045,
  "Ġphone": 4060,
  "Ġfederal": 6307,
  "Ġrecon": 12742,
  "Ġglob": 6903,
  "Games": 25991,
  "fi": 17371,
  "Ġkata": 19323,
  "Ġsistema": 27366,
  "Ġaudio": 2326,
  "Ġunlock": 10890,
  "eature": 4087,
  "ĠShannon": 21857,
  "yond": 4566,
  "ĠVault": 21714,
  "rings": 23547,
  "Ġtrad": 4175,
  "ples": 1480,
  "ognitive": 16607,
  "ulsory": 29124,
  "Lim": 19129,
  "ĠRecht": 20093,
  "().": 18473,
  "Ġexpressed": 7120,
  "Ġof": 250,
  "ĠParticularly": 22985,
  "Ġà¨": 2781,
  "Ġintellectual": 6563,
  "åĭ": 10691,
  "ĠÐĴÐ¸ÐºÐ¸Ð¿ÐµÐ´Ð¸Ñı": 11507,
  "ĠØªØª": 30584,
  "Ġhype": 27935,
  "ĠNachrichten": 29205,
  "ĠWas": 12931,
  "×Ĵ×ľ": 23055,
  "Masz": 31804,
  "Attractions": 14655,
  "ãĥĹãĥ©ãĤ¤ãĥĲãĤ·": 28854,
  "atible": 6728,
  "Therefore": 18802,
  "Ġ×¤×ľ×Ļ×ľ": 20525,
  "ê³¼": 6521,
  "Ñĥ": 605,
  "Ġworth": 3603,
  "iii": 13918,
  "Ġfilmmakers": 18926,
  "ensington": 14465,
  "ãĥ©": 3307,
  "Ġincreased": 9172,
  "ÏĢÎ±Î¯Î´ÎµÎ¹Î±": 25953,
  "orrect": 9792,
  "Ġstructure": 3086,
  "ĠXR": 9873,
  "à¸Ħ": 3800,
  "ersey": 23687,
  "ĠstrategiÄĻ": 28576,
  "Educ": 24635,
  "×ł": 2336,
  "ĠCamb": 23684,
  "Ġroyalties": 31216,
  "Ġindices": 25129,
  "åıĳ": 18231,
  "Ġpak": 16892,
  "ĠÐ¹": 10721,
  "Ġnation": 9965,
  "Ġflaw": 18209,
  "Ġillustrious": 27572,
  "Ġperpetual": 27496,
  "ources": 1574,
  "eme": 11032,
  "Ġtransitive": 18125,
  "irm": 3746,
  "Ġdonate": 20958,
  "Î¯": 5977,
  "ãģķãĤĮãģ¦ãģĦãĤĭ": 21986,
  "Ġclaimant": 28578,
  "ĠWooCommerce": 19694,
  "ãģĮãģĤãĤĭ": 26789,
  "Ġyet": 3204,
  "Jav": 29495,
  "ĠCurrent": 26286,
  "ĠÑĢÐµ": 26984,
  "Ġcontracts": 13354,
  "Ġemailing": 22855,
  "Ġlicencia": 28259,
  "Ġactors": 9255,
  "Ġcascade": 13458,
  "Ġreach": 3827,
  "Ġlongest": 28400,
  "appy": 12308,
  "ĠLight": 12951,
  "Ġscheduling": 19716,
  "lection": 2529,
  "awai": 12508,
  "Ġexemple": 30002,
  "æķ°": 10649,
  "2005": 18890,
  "Sagnarigu": 29543,
  "alienable": 13464,
  "Ar": 1308,
  "Ġcontro": 1320,
  "ĠQu": 2410,
  "Ġrenewed": 21230,
  "state": 12692,
  "èª": 2486,
  "]]:": 11898,
  "config": 13023,
  "Ġtennis": 29717,
  "Ġslate": 28563,
  "ĠEra": 21672,
  "ĠBarrett": 9655,
  "Mile": 29508,
  "Ġcontrols": 4399,
  "MediaWiki": 5716,
  "à°Ĺ": 6754,
  "ä»": 2131,
  "ç²µ": 20514,
  "ruct": 970,
  "Ġinbre": 23659,
  "ĠÑģÐµÑĢ": 20178,
  "ÑĤÑĥ": 9135,
  "ĠPractice": 18990,
  "ondon": 2070,
  "Ġ46": 20931,
  "Ġpub": 611,
  "cribe": 5825,
  "Ġpicked": 13370,
  "Windows": 9104,
  "Either": 18490,
  "off": 5770,
  "Ø§ÙĦ": 700,
  "Ġcombining": 22969,
  "Ġasked": 4640,
  "Ġrealiz": 9621,
  "Ġoriented": 31148,
  "Ġsi": 4071,
  "å®ļç¾©": 11730,
  "ĠDon": 5531,
  "opting": 13792,
  "ĠCNET": 27370,
  "leted": 5650,
  "Ġunwanted": 13129,
  "unia": 15951,
  "Ġwan": 11796,
  "183": 25277,
  "Ġcharger": 28412,
  "Ġannual": 5755,
  "ĠSP": 9970,
  "ĠIran": 9972,
  "elengg": 26330,
  "cb": 15878,
  "Sp": 1826,
  "ĠRequ": 16526,
  "vious": 1807,
  "à®¯": 22949,
  "Ġnous": 24838,
  "ÐµÑģÑĤ": 20842,
  "Ñĸ": 920,
  "icios": 21546,
  "Ġtalks": 17230,
  "ĠRolling": 23786,
  "Ġdotycz": 8104,
  "ĠLess": 11426,
  "human": 16847,
  "Ġholiday": 29103,
  "Ġyuma": 19921,
  "ĠFort": 11423,
  "Customer": 16251,
  "Ġag": 709,
  "Ð°Ð³": 14432,
  "Ġno": 721,
  "alse": 4141,
  "Disclaimer": 31647,
  "ĠKn": 9139,
  "WCAG": 19148,
  "ofers": 28476,
  "Ġìĭ": 19431,
  "ush": 2583,
  "Ã¢u": 30475,
  "ĠÙħØ¹ÙĦÙĪÙħØ§Øª": 29010,
  "Ġextens": 1712,
  "Ġorigins": 20151,
  "Ġassistive": 22004,
  "Ġtau": 29715,
  "mare": 23538,
  "Kund": 16322,
  "php": 21723,
  "Connecting": 29120,
  "áº·": 11275,
  "iesz": 13226,
  "å¸¸": 11929,
  "Ġà¦Ĩ": 16562,
  "auer": 11476,
  "prom": 24727,
  "Ġwiele": 29091,
  "ĠPros": 30256,
  "Known": 20575,
  "ĠkorzystaÄĩ": 19010,
  "ĠPet": 11820,
  "Policies": 25774,
  "elijke": 27284,
  "ĠHutch": 22634,
  "Ġzaanga": 26906,
  "ĠDocker": 16467,
  "ĠAlways": 26699,
  "Î": 140,
  "Segment": 10085,
  "Ġapostrop": 27214,
  "Ġrealize": 15324,
  "Ġprimarily": 6466,
  "ãĤ·ãĤ¹ãĥĨ": 27130,
  "Ðµ": 448,
  "á»Ļi": 14285,
  "RDFa": 19659,
  "Ġrebase": 22526,
  "ients": 3889,
  "ĠTeen": 26671,
  "ĠDescription": 10041,
  "ĠChanges": 16051,
  "ĠConformance": 10427,
  "åľĸ": 15732,
  ":\"": 18478,
  "Ġtransferring": 24194,
  "Ġblog": 3885,
  "Ġamendments": 22205,
  "Ġarchitect": 3493,
  "ĠJapan": 5816,
  "Ġ72": 18168,
  "ĠWilson": 27448,
  "Ġdirector": 11668,
  "ä¾Ĩ": 23106,
  "rick": 22434,
  "¸ìĸ´": 18533,
  "Ġvra": 28007,
  "jpg": 2862,
  "ordinator": 22232,
  "×Ļ×ĸ": 13257,
  "ĠWhat": 3295,
  "der": 554,
  "dfs": 18516,
  "ymaliz": 23372,
  "Copyright": 5283,
  "kami": 17921,
  "åŃĲ": 13350,
  "Ġrecruiters": 23406,
  "iesiÄĻ": 22626,
  "Ġfoc": 26207,
  "Ġrecordings": 13619,
  "agnarigu": 17779,
  "Ġsuggest": 2298,
  "ĠBazaar": 22321,
  "ĠFriday": 7065,
  "Ġuno": 26411,
  "ignty": 24865,
  "Ġpu": 10231,
  "XT": 23501,
  "Ġthematic": 23882,
  "Ġcompound": 28172,
  "Ġreliance": 20907,
  "las": 13438,
  "Ġwild": 14082,
  "ĠJul": 9853,
  "Ġalerts": 4541,
  "Ġintentions": 25672,
  "ĠchÃŃnh": 23810,
  "zÉĶÅĭ": 12204,
  "Ġflags": 13634,
  "Ġomissions": 28712,
  "orock": 26184,
  "ĠPalace": 20298,
  "Staff": 28386,
  "Internal": 26536,
  "Ġengines": 7385,
  "Ġlub": 6733,
  "pages": 10683,
  "ĠwiÄĻcej": 11747,
  "Ġvery": 1547,
  "Ġ×§×Ļ×ĺ": 16215,
  "Ġtrading": 19360,
  "Ġloan": 18337,
  "Ġà¤": 946,
  "ãģĹãģĭ": 26757,
  "ĠVRT": 25747,
  "×": 149,
  "Ġdeclared": 13924,
  "Step": 9613,
  "×¨×¤": 13863,
  "about": 14823,
  "parser": 20197,
  "Ġ×Ľ×ĵ×Ļ": 20300,
  ")?": 11957,
  "les": 818,
  "ĠØªÙħ": 20224,
  "×ĳ×Ļ×¨": 30656,
  "Ð¸ÑĢÐ¸": 24209,
  "Ġrenderer": 10341,
  "Ġcorrections": 24132,
  "Zesp": 27708,
  "ĠMass": 10120,
  "ausa": 18885,
  "ĠTicket": 23698,
  "Ġdefend": 10743,
  "Ġteac": 10570,
  "oint": 1004,
  "Tre": 29544,
  "ĠANY": 8005,
  "Ġcursor": 20670,
  "hetical": 19693,
  "Ġloyal": 26258,
  "ĠMarkup": 10629,
  "Ġpresentation": 7627,
  "Ġconstructs": 12578,
  "Exception": 17642,
  "ownik": 30248,
  "ĠTyler": 25873,
  "Ġextent": 5651,
  "ĠKulash": 31641,
  "ulontalo": 29960,
  "phis": 29630,
  "Zulu": 21439,
  "Ġmak": 6265,
  "ĠWalras": 23262,
  "×Ĵ×ķ×ł×Ļ×ª": 30824,
  "ĠÐĴÑĸÐºÑĸÐ¿ÐµÐ´ÑĸÑı": 25846,
  "×ľ×§": 28404,
  "Szabl": 19075,
  "Ġarranged": 24398,
  "Ġremains": 5831,
  "Ġlaptops": 9398,
  "ĠMiss": 16456,
  "GFDL": 12879,
  "Central": 27625,
  "__": 8765,
  "mit": 7722,
  "ãĥĳ": 5863,
  "Ġbackwards": 18136,
  "Ġpel": 16891,
  "Thanks": 10775,
  "sylv": 27563,
  "Lock": 27661,
  "Ġfetching": 25687,
  "illes": 23770,
  "ÐµÐ»Ð¾": 26894,
  "ication": 2266,
  "ĠØµ": 10902,
  "203": 23940,
  "Ġmotiv": 12836,
  "à¬¹": 13543,
  "à°¤": 6753,
  "Ġci": 9431,
  "Ġbroadcast": 7473,
  "anz": 11015,
  "Authors": 20310,
  "Ð¸Ñģ": 5742,
  "ĠMusarc": 15415,
  "ĠLibrary": 7639,
  "espe": 15641,
  "ebooks": 22701,
  "Ġinstitutional": 9771,
  "ĠÄĳá»ĥ": 16239,
  "Zap": 16338,
  "Ġindigenous": 12746,
  "Ġ).": 19859,
  "Ġrespect": 4471,
  "Ġtopic": 2909,
  "Ġ10": 1454,
  "Ġreplacement": 11337,
  "Ġindivid": 15625,
  "Ġfirst": 897,
  "educ": 26205,
  "Ġsupporters": 25140,
  "igene": 30803,
  "ĠDisaster": 28760,
  "have": 15887,
  "Ġanim": 5079,
  "Ġaccesskey": 28293,
  "ĠAk": 20717,
  "Ġtra": 1388,
  "spective": 25179,
  "à¸«à¸Ļ": 12794,
  "Ġfavour": 19053,
  "Ð²Ð°": 3217,
  "Ġslice": 16881,
  "aded": 10882,
  "ĠÅ¼": 19860,
  "ĠEp": 19347,
  "ÑĩÑĥ": 18187,
  "ãĤĴåı": 11290,
  "Ġdifficulties": 24198,
  "pkg": 13733,
  "Ġcars": 27863,
  "Ġinterface": 2944,
  "Ġcorresponds": 19577,
  "aturing": 11995,
  "Ġnear": 7232,
  "æıĲä¾Ľ": 10986,
  "éģĵ": 25533,
  "Ġjuga": 12736,
  "Ġshutdown": 31292,
  "Ġà¦ļ": 26658,
  "ulu": 7219,
  "Ġprojekty": 22045,
  "nyÉĽ": 8831,
  "car": 22400,
  "×ķ×ł×Ķ": 24237,
  "avel": 28135,
  "asan": 11802,
  "ĠÄĳÆ°á»£": 9765,
  "ĠFail": 30039,
  "Ġprecise": 8976,
  "Ġanniversary": 14949,
  "Ġdeal": 3080,
  "ĠKalim": 24478,
  "ĠCOM": 4242,
  "eech": 7450,
  "Ġcopied": 7314,
  "ĠRam": 12264,
  "Ġà¹ģ": 21508,
  "Ĺ": 202,
  "Ġcontroversial": 16757,
  "Ġpilot": 13460,
  "ĠActually": 25284,
  "ĠVerarbeitung": 17866,
  "iÅĤ": 31916,
  "systems": 27322,
  "Ġcompany": 1720,
  "sey": 15576,
  "Ã«l": 23012,
  "Reusing": 25170,
  "Program": 11099,
  "hy": 13729,
  "Agentic": 27451,
  "VP": 17361,
  "Ġpublishes": 13957,
  "ĠSpecialist": 30979,
  "Ð£ÐºÑĢÐ°ÑĹÐ½ÑģÑĮÐºÐ°": 24596,
  "ĠOlympic": 31594,
  "zyw": 14920,
  "ines": 972,
  "ashes": 14412,
  "ãĥĢãĤ¦ãĥ³ãĥ": 27456,
  "åģ´": 25816,
  "è¾": 10855,
  "unn": 19932,
  "×Ļ×ľ×ķ": 30978,
  "ãģªãģı": 21048,
  "à¥ī": 14496,
  "ĠNA": 14863,
  "ugs": 14182,
  "wu": 12440,
  "ĠFound": 1778,
  "Ġlink": 983,
  "ĠRendering": 24999,
  "Ġsurroundings": 25645,
  "Ġprivacy": 1629,
  "2011": 17607,
  "çł": 12211,
  "Ġnotafish": 22611,
  "companyname": 29312,
  "Ġcontroversy": 15054,
  "Ġcomb": 2802,
  "Ġaudience": 7990,
  "ĠWith": 2180,
  "SaaS": 31830,
  "Ġsafe": 3822,
  "music": 23540,
  "ashPlan": 22791,
  "Fa": 29473,
  "ĠvirtualSensor": 18280,
  "Commercial": 18182,
  "Ġprojector": 13271,
  "Ġkol": 18068,
  "wy": 11384,
  "Ġsz": 4202,
  "Ill": 27651,
  "Ġprize": 25354,
  "iegel": 11941,
  "ĠTown": 16437,
  "andard": 992,
  "áº·c": 13694,
  "ĠTumbler": 31549,
  "iope": 31917,
  "Ġcache": 10866,
  "Ġpaint": 23067,
  "ĠÐ¶Ðµ": 27064,
  "Ġfing": 21535,
  "Jenkins": 29498,
  "Ġclosely": 10178,
  "Large": 27664,
  "hour": 10521,
  "ç°¡åįĺ": 25899,
  "Port": 7328,
  "isan": 12003,
  "åŁ": 5288,
  "Ġtang": 8774,
  "ç¢º": 15466,
  "ī": 188,
  "ield": 1221,
  "Ġedge": 7601,
  "inted": 28270,
  "lama": 27744,
  "Ġprov": 644,
  "Continu": 28523,
  "Recent": 15739,
  "ĠAgile": 8516,
  "ĠJan": 17011,
  "Ġprocedures": 8636,
  "Ġrest": 1319,
  "ĠKaltura": 3766,
  "head": 4382,
  "ku": 3507,
  "ĠMarb": 19967,
  "Ġpriorytet": 20518,
  "ÙĬØ±": 5500,
  "Ġlighting": 19583,
  "Ġneural": 12965,
  "useFilter": 18713,
  "Ask": 21876,
  "åĮº": 23150,
  "ÙĨØ§Ùĥ": 31294,
  "Privacy": 7198,
  "imb": 4846,
  "Ġobliged": 28744,
  "ĠAustralia": 7062,
  "ee": 816,
  "Ġfeet": 15612,
  "ĠÃ©crit": 28693,
  "eric": 2470,
  "ĠModel": 5680,
  "SP": 3864,
  "ĠSale": 9573,
  "big": 22396,
  "ogue": 21674,
  "verage": 5859,
  "Ġpackaging": 17690,
  "amless": 6398,
  "hab": 19838,
  "Ġdivid": 12913,
  "ķáĥĺáĥĻáĥĺáĥŀáĥĶáĥĵ": 31684,
  "Th": 1862,
  "ĠWanting": 21336,
  "ats": 2453,
  "ĠImportant": 24140,
  "Joris": 22360,
  "ãĥĩ": 4949,
  "ãģ«å¾ĵ": 26687,
  "Ah": 31722,
  "uto": 16429,
  "Ġvous": 26335,
  "ĠÐ±Ñĭ": 16113,
  "Ġ×Ķ×ŀ×©×¤×ĺ": 25843,
  "Ġcoming": 6447,
  "Ġnd": 17444,
  "ĠSPAM": 25872,
  "sys": 31966,
  "Ġhaving": 2977,
  "ĠâĪ": 2162,
  "Ġexper": 1342,
  "Sorting": 31832,
  "Ġìŀ¬ìĤ¬ìļ©": 20519,
  "êł¦": 10915,
  "Ġresponsive": 10780,
  "ĠMaluku": 18861,
  "Ø³ØªÙĪÙī": 27543,
  "ĠEst": 13231,
  "Ġza": 3132,
  "imodal": 27587,
  "ÛĮÚ©": 7456,
  "Ġtypeface": 22856,
  "Ġdisclosure": 7056,
  "eren": 5330,
  "Ġcontainer": 9747,
  "lickr": 4430,
  "ĠÎ¼": 14223,
  "Ġ102": 30456,
  "enbe": 11997,
  "iera": 18155,
  "ĠÑĩÐ¸": 20308,
  "ĠTik": 9120,
  "Ġfirewall": 15439,
  "Ġpromote": 8170,
  "eron": 20665,
  "Ġcorrection": 15717,
  "Ġlists": 3457,
  "à§ĥ": 17054,
  "Ġattractive": 19020,
  "flare": 20396,
  "isma": 22844,
  "ZarzÄħdzanie": 23378,
  "Ġ101": 14927,
  "Ġrepresentative": 9879,
  "fade": 29591,
  "Ġvisual": 4152,
  "Ġ42": 13277,
  "iligaynon": 17271,
  "Ġrollout": 27105,
  "Ġ×ķ×ł": 18878,
  "code": 4783,
  "Ġà¤ķ": 3528,
  "visual": 20433,
  "Ġemails": 7773,
  "ĠAlmanca": 23988,
  "isicing": 17975,
  "TS": 6252,
  "áŀģ": 27168,
  "ĠMbps": 23731,
  "Ġthank": 10409,
  "ĠWindows": 3149,
  "ĠGH": 28055,
  "Ġviolate": 9173,
  "\";": 19786,
  "ĠÃľ": 20270,
  "Ġdass": 11016,
  "Ġgenuinely": 19732,
  "Ġrecorded": 10637,
  "ÙĪ": 690,
  "Ġcancellation": 5685,
  "Ġplural": 14872,
  "Ġbad": 3615,
  "Du": 21406,
  "Ġpermissions": 4036,
  "ĠHDR": 23779,
  "âī¡": 17944,
  "Ġtokenizer": 28901,
  "ĠÐ¿Ð¾Ð½": 22799,
  "funded": 25696,
  "Ġjointly": 29133,
  "Ġetc": 2811,
  "ashi": 25188,
  "ĠImplementation": 13046,
  "ĠAssignments": 27439,
  "uzz": 15017,
  "ĠØ³Ø¨": 24226,
  "Starter": 14520,
  "joint": 31922,
  "Keeper": 24641,
  "subscribe": 24285,
  "ences": 4842,
  "Description": 28825,
  "thens": 23555,
  "à¨£": 12304,
  "ĠRoyal": 19341,
  "Ġinfra": 28415,
  "Ġandere": 16911,
  "Google": 6615,
  "Ġexchange": 7027,
  "Very": 26042,
  "Ġrecognized": 7309,
  "ä¾": 5196,
  "Ġappl": 2100,
  "ĠRecommendation": 6947,
  "Ġconforming": 19001,
  "Ġà¦¥": 25199,
  "2022": 15654,
  "Ġresearchers": 8265,
  "ning": 891,
  "rapher": 30613,
  "Ġsel": 9559,
  "ĠCritics": 19052,
  "NATION": 31810,
  "ĠReuters": 2225,
  "Ġwhereas": 15285,
  "Ġprohibited": 10332,
  "ĠInterest": 8613,
  "Ġbro": 2698,
  "éĩĳ": 23211,
  "Ġdar": 10233,
  "Ġcarbon": 17969,
  "ostÄĻp": 20047,
  "no": 2292,
  "ĠÐ²": 1889,
  "ĠTypeScript": 15429,
  "Ġbegan": 5053,
  "ivirus": 7826,
  "Ġãĥİãĥ¼ãĥī": 27027,
  "à¤¾": 1536,
  "ÙĬÙĨ": 6128,
  "ĠintlObj": 29411,
  "ordyn": 20884,
  "Ġwindows": 15170,
  "à¥ģ": 7603,
  "B": 38,
  "imately": 5202,
  "Americ": 20330,
  "Ġponad": 22220,
  "áº¿": 4130,
  "ç¶Ń": 10974,
  "Flickr": 14711,
  "Ġia": 21504,
  "×¨×Ĳ×Ĵ×ķ×ł×Ļ×ª": 31173,
  "eurswet": 28960,
  "åĨį": 14299,
  "Ġmed": 4241,
  "ĠRack": 30091,
  "¯": 111,
  "Ġsummarized": 23208,
  "ilet": 13522,
  "Ġproximity": 15043,
  "Pro": 1719,
  "ckhaus": 18735,
  "thon": 6123,
  "ĠÐ¾Ð±": 10452,
  "áĢĲáĢļ": 25423,
  "Ġbr": 1897,
  "ĠÐ³": 3617,
  "ĠBe": 2251,
  "Due": 25980,
  "Ġberkas": 20347,
  "Ġencod": 25246,
  "nds": 20815,
  "Ġadvise": 18176,
  "alif": 3286,
  "Ġbiz": 18577,
  "ç®Ģ": 13959,
  "sic": 16856,
  "Reading": 20932,
  "ĠØ¨Ø£": 21890,
  "oration": 13172,
  "ĠCo": 3543,
  "ounced": 14921,
  "ara": 2198,
  "Ġà¦ĩ": 30389,
  "gf": 24701,
  "vi": 4870,
  "Commun": 20972,
  "ëĬ": 3292,
  "Ġnoticeable": 20264,
  "Ġattribute": 2163,
  "ãĥ¬": 5459,
  "æ¬Ĭ": 13950,
  "ãģĳ": 7088,
  "Ġrun": 1265,
  "Ġplot": 30160,
  "Ġautomate": 9615,
  "ĠFounded": 25274,
  "Ġcontrib": 6700,
  "Ġshowed": 12320,
  "DateTime": 21199,
  "ê³": 3654,
  "Ġprevious": 2483,
  "igibility": 24864,
  "undi": 13874,
  "Ġfindings": 13870,
  "Ġmachine": 2549,
  "Ġauthorities": 12071,
  "eals": 19835,
  "va": 7876,
  "Ġbacked": 8700,
  "Ġpresident": 6335,
  "ãģĹãģĦ": 15334,
  "Ġcitiz": 8540,
  "ispecies": 24225,
  "ÙĤ": 1469,
  "ffer": 10272,
  "://": 31718,
  "Ġtongue": 22314,
  "íĻĶ": 24450,
  "Info": 30231,
  "Ġplaylists": 14213,
  "arÃ¡": 29804,
  "Ġrecre": 12511,
  "ĠMashable": 1874,
  "Ġstrive": 19295,
  "Ġstarts": 7109,
  "ĠÑħÑĮ": 23130,
  "Ġdirty": 20687,
  "Ġareas": 4592,
  "ĠFyre": 30045,
  "ĠÛģÛĮÚº": 18991,
  "Ġaddict": 25087,
  "supported": 15060,
  "ĠTimor": 25560,
  "Ġbardziej": 19242,
  "Ġreduce": 4688,
  "×¨×ŀ×ł×Ļ×ª": 19077,
  "Ġreused": 17451,
  "Ġc": 227,
  "player": 30463,
  "Ġautonomy": 19044,
  "Ġbirthday": 25707,
  "ÑĥÐ°": 30228,
  "Ġfiled": 9861,
  "Ġtw": 4361,
  "ail": 497,
  "ãĢį": 11267,
  "Ġauthority": 5679,
  "%": 9,
  "alego": 12297,
  "Ġinstitution": 9770,
  "emy": 12240,
  "Ġdegree": 6432,
  "ĠPrime": 5470,
  "ĠEar": 14454,
  "ulating": 15964,
  "áº§n": 16781,
  "ĠOura": 8689,
  "à¸ģà¸²à¸£à¸Ń": 28862,
  "yÅ©": 23562,
  "Ġresume": 22693,
  "fare": 17373,
  "Ð»Ñİ": 23839,
  "Ġopenness": 19436,
  "esteÅĽmy": 29217,
  "ĠCoCounsel": 10466,
  "ÛĮÚº": 6096,
  "Ġtap": 11991,
  "Ġcells": 12400,
  "Ġsli": 27854,
  "ĠÛĮ": 12673,
  "°¡": 20645,
  "Ġsprint": 29161,
  "ediation": 14196,
  "Ġproductive": 15655,
  "Ġaccent": 26496,
  "amethod": 17646,
  "ĠJun": 11052,
  "Ref": 26617,
  "Ġquiet": 11054,
  "pache": 2675,
  "ĠDisney": 11332,
  "Ġaccounts": 4231,
  "ĠSper": 22550,
  "iller": 9847,
  "Download": 8110,
  "ĠØ¥": 5463,
  "ä¸º": 17082,
  "Ġimplementors": 20959,
  "ĠwartoÅĽci": 23347,
  "rt": 10525,
  "Ġdesenvol": 23420,
  "Ġimpacts": 11494,
  "ðĲ": 3127,
  "Relevant": 29286,
  "CapX": 8254,
  "ĠWe": 1036,
  "ĠrÃ³wnieÅ¼": 24588,
  "Ġrestart": 19454,
  "Ġge": 3828,
  "ĠCPU": 10109,
  "ĠØ§ÙĦØ¬": 7302,
  "ĠJuly": 3329,
  "Ñ": 143,
  "ktop": 4083,
  "íķĺìĹ¬": 30890,
  "Person": 20589,
  "\":": 17333,
  "ĠÃ¡": 10225,
  "ĠAfricans": 22010,
  "127": 20992,
  "2000": 14706,
  "attered": 17144,
  "Ġà¦¸": 8417,
  "fiction": 24698,
  "ia": 342,
  "ĠtÉĶ": 21515,
  "Ġmuss": 26231,
  "ĠrozwiÄħzania": 15827,
  "ãģ§ãģį": 8237,
  "Ġenters": 26606,
  "Ø·Ø§ÙĤ": 28643,
  "Se": 3955,
  "Ġliczb": 28258,
  "Ġalternatives": 11504,
  "Werner": 24680,
  "Ġnga": 8570,
  "ĠNu": 26469,
  "Ġboast": 26981,
  "ĠDallas": 31665,
  "ĠWhe": 14819,
  "Ġthirdparty": 30540,
  "ÑĸÐ·": 16536,
  "ytes": 17680,
  "ĠRegarding": 30689,
  "ĠprotecciÃ³n": 28309,
  "ĠUm": 12040,
  "ĠMichael": 9775,
  "ĠIslam": 16146,
  "Sel": 15112,
  "Resource": 24257,
  "Ġsuitable": 9247,
  "ĠNie": 26470,
  "empor": 29957,
  "Ġfell": 19893,
  "ĠSimon": 21153,
  "Ð´ÑĭÐ³Ñį": 21354,
  "ĠLIMITED": 31514,
  "ĠSound": 7667,
  "oman": 7025,
  "ĠPatwa": 30932,
  "Ã³rz": 21750,
  "ĠOf": 7162,
  "inch": 4941,
  "Ġcomplex": 2911,
  "Ġspeeds": 10624,
  "ÃŃm": 30454,
  "orig": 5487,
  "Ġproteg": 16262,
  "Ġdefined": 2345,
  "Ġshould": 814,
  "ĠPre": 2237,
  "ĠAwesome": 31398,
  "szyst": 27766,
  "noÅĽÄĩ": 8002,
  "Ġquestioned": 22962,
  "ĠÐ¼Ð¾Ð¶": 11473,
  "à¸Ī": 7031,
  "ĠÎ½Î±": 22300,
  "Ġnormalization": 15726,
  "arians": 28314,
  "Ġabstractions": 28698,
  "Ġdetermination": 21950,
  "ĠtÃ©cnic": 27842,
  "ĠKá»³": 30214,
  "Ġroll": 5953,
  "ĠCE": 27954,
  "âĢĿ).": 11446,
  "ĠHarm": 16984,
  "Node": 17354,
  "Deleting": 18216,
  "ĠPlatform": 4578,
  "Ġheadings": 11854,
  "Ġstere": 13207,
  "Ġsituations": 9096,
  "Ġuk": 15635,
  "hous": 31912,
  "shop": 16619,
  "istor": 4269,
  "Ġà¤ķà¤°": 13928,
  "Ġundue": 21802,
  "íķĺëĬĶ": 11723,
  "ĠHut": 30080,
  "Ġgra": 22565,
  "ondere": 23877,
  "Ġexpressly": 12336,
  "sprach": 8706,
  "Ġchron": 17536,
  "Ġtype": 1551,
  "Ġmerg": 5292,
  "Ġexpert": 2372,
  "sche": 22436,
  "romÃ¢nÄĥ": 22627,
  "dh": 29582,
  "Ġhurt": 27936,
  "ßİ": 26145,
  "Ġcertain": 1912,
  "ĠskalÄĻ": 27374,
  "Legal": 7951,
  "Ġvaluable": 6498,
  "ìķĦ": 25676,
  "Ġcá»§a": 8021,
  "ÄįeÅ¡tina": 21110,
  "Ġconcert": 10028,
  "ĠZusamm": 30466,
  "ÄĻtr": 22756,
  "Ð´Ð°ÑĢÑĭ": 22729,
  "Ġfork": 12921,
  "Ġingred": 27220,
  "ĠÐºÐ°Ðº": 20973,
  "Ġtools": 1332,
  "æķ´": 30938,
  "Ø¯Ùī": 17605,
  "ĠMMC": 29976,
  "Ġë²ķë¥ł": 25855,
  "hol": 7485,
  "ĠÙĬ": 3905,
  "Ġdhcp": 27517,
  "Ġcovered": 4668,
  "Ġwur": 8036,
  "eless": 10714,
  "Ġtotally": 14986,
  "áĪµ": 21946,
  "ĠCast": 22547,
  "Ð¸Ð½": 2218,
  "iew": 633,
  "ĠzespoÅĤami": 30693,
  "ĠAssess": 17160,
  "ãģ«ãĤĪ": 13572,
  "ĠBern": 14838,
  "ĠÐļÑĬ": 21140,
  "Ġdirectories": 20957,
  "Ø³Ø®": 20965,
  "à·Ĭ": 13933,
  "ÑħÑĮ": 11091,
  "ÑįÑĢ": 8838,
  "ktÃ³": 19471,
  "Eisendrath": 23470,
  "ĠEarth": 13232,
  "ĩãģĨ": 23597,
  "ĠvirtualSensorType": 31471,
  "more": 5555,
  "ĠÙĪØ§ÙĦØªÙĬ": 28993,
  "Ġ×ķ×Ķ×": 16175,
  "orrow": 9214,
  "ĠDiscovery": 19632,
  "ÏĦÎ±": 16656,
  "ĠJ": 501,
  "Player": 12796,
  "ip": 398,
  "Ġcipta": 29065,
  "æºĲ": 11539,
  "Ġsa": 1021,
  "ãģ¦ãģĦãģ¾ãģĻ": 5136,
  "ĠHit": 30079,
  "Ġexceptional": 15696,
  "ĠTreat": 17470,
  "ĠSVG": 6023,
  "Ġentre": 25162,
  "279": 25457,
  "Ġfiduciary": 27878,
  "ĠGoing": 26650,
  "val": 2484,
  "Ġlikelihood": 18586,
  "Ġattribution": 4357,
  "Ø§ÙĦØ«": 21743,
  "Ġwritten": 2385,
  "Ġcha": 8309,
  "×Ķ×Ĳ": 26971,
  "ĠTeam": 3590,
  "ns": 6437,
  "ĠURAA": 13327,
  "ÆĲ": 29670,
  "Ġmain": 1222,
  "Ġ×Ķ×ł": 13574,
  "×¡×Ļ×ĳ×ķ×ª": 28740,
  "Ġreported": 5247,
  "Ġgrateful": 23958,
  "ĠNov": 8920,
  "Ġcommercially": 13827,
  "Ġeye": 9439,
  "TimeFormat": 5348,
  "Ġfs": 17977,
  "ÙĦÙħ": 6454,
  "Ġcorrectly": 7940,
  "Ġadministrator": 7186,
  "istr": 1507,
  "ĠGlastonbury": 10495,
  "Ġcreate": 1186,
  "raf": 3910,
  "recht": 7139,
  "Country": 20500,
  "Ġdign": 27887,
  "aÅĤo": 19621,
  "Ġà¸Ĺ": 22463,
  "ĠEnergy": 28127,
  "Ġadmissions": 18360,
  "Enumer": 30748,
  "Ġenthusiasm": 31341,
  "Conversation": 29359,
  "egin": 14183,
  "Ġalgorith": 2699,
  "object": 14885,
  "ĠÐºÐ¾Ð¼Ð¿": 17289,
  "Sist": 24669,
  "La": 6097,
  "Ġiy": 30271,
  "Ġcreations": 17558,
  "Ð¾Ð²ÑĸÑĪ": 21009,
  "éĢ": 4163,
  "exist": 28397,
  "ÉĻrbaycanca": 18471,
  "Depend": 9670,
  "umps": 20021,
  "kol": 15888,
  "à§ĭ": 6503,
  "ĠÑĥÐ¿": 30731,
  "Ġmental": 17781,
  "Ġspoken": 6030,
  "à¹Ģ": 2771,
  "ĠProposal": 20504,
  "Ġforegoing": 21158,
  "Sl": 29533,
  "Ġä¾ĭãģĪãģ°": 24778,
  "rena": 28472,
  "Ġ80": 7926,
  "ĠÕ¯": 18932,
  "ulty": 4950,
  "Ġdrawn": 12337,
  "Ġexpansion": 14901,
  "Ġkont": 5171,
  "ĠNin": 20840,
  "Ã©conom": 22727,
  "Ġprojektami": 15016,
  "ĠPresident": 7403,
  "iPhone": 29606,
  "à¾": 8033,
  "ĠSO": 19933,
  "iza": 12493,
  "Ġbalanced": 15390,
  "ĠÐ¿ÑĢÐ¾Ð³ÑĢÐ°Ð¼": 6426,
  "ulio": 23724,
  "ĠMarkdown": 10310,
  "altung": 25260,
  "Ġgiving": 5009,
  "ĠSpaceX": 19000,
  "alah": 7661,
  "hin": 31906,
  "Senior": 19816,
  "aging": 2392,
  "obe": 17571,
  "Ġsubtle": 12385,
  "Ġcollege": 10584,
  "Ġpriorit": 8435,
  "ÐºÐ¾": 11252,
  "Ġded": 3452,
  "Ġfantastic": 15832,
  "×ł×ĵ": 20243,
  "ÑĢÐ°Ð½Ð¸": 20944,
  "Ġsurvive": 17840,
  "Pra": 27683,
  "Ġdesigning": 16545,
  "iah": 19977,
  "lenga": 12152,
  "Ġa": 214,
  "Ġarrow": 18684,
  "Ġearliest": 15359,
  "Ġmutually": 28947,
  "ĠFeatures": 7802,
  "à°·": 12281,
  "weis": 18734,
  "ÑģÐº": 3587,
  "pers": 15891,
  "ĠEndpoint": 10066,
  "Search": 8196,
  "Rum": 23487,
  "IF": 7410,
  "Ġgarbage": 14817,
  "Ġenterprises": 12568,
  "Ø±Ø§": 15271,
  "ãģŁãĤģ": 14964,
  "wiÄĻks": 21490,
  "pport": 679,
  "utsch": 3907,
  "Ġlayout": 3374,
  "Ġfinance": 15698,
  "Ġdel": 1378,
  "Ġtidak": 14689,
  "ãĤĴãģĶ": 30484,
  "ĠbÃ¢": 26219,
  "Ġmnemonic": 19056,
  "Ġlogged": 9481,
  "Ġëª¨": 31390,
  "rechte": 24404,
  "à§Ī": 22766,
  "ftar": 28250,
  "æľĪ": 12091,
  "2024": 9366,
  "DziÄĻki": 22279,
  "Ø§ÙĦØ§Øª": 17036,
  "ĠParticip": 14977,
  "fy": 24693,
  "jud": 8992,
  "ĠÐ¼Ð°ÑĢ": 26733,
  "144": 18813,
  "ĠìĿ´ë¯¸ì§Ģ": 15079,
  "anym": 28326,
  "cdo": 29577,
  "×ķ×ł×Ļ×Ŀ": 21162,
  "ĠAsk": 14935,
  "ĠÐºÐ¼": 28422,
  "Ġ64": 13873,
  "instance": 13628,
  "Conf": 12095,
  "Ġobsolete": 20102,
  "Æ°Æ¡": 11508,
  "olutions": 2437,
  "è¡ĵ": 17181,
  "rz": 4524,
  "?.": 14707,
  "ANA": 17148,
  "ĠCar": 6164,
  "Ġdemonstrated": 17763,
  "è¦ģç´ł": 7796,
  "Mu": 27670,
  "ccess": 1344,
  "KalturaOttGeneratedAPIClients": 27602,
  "Ã¤m": 17613,
  "Ġcareers": 18258,
  "ĠMexico": 19299,
  "zin": 13164,
  "Ġens": 1770,
  "Ġb": 241,
  "Ġhours": 2689,
  "Ã¤s": 18167,
  "ĠKatie": 17023,
  "Ġusing": 793,
  "Ġmechan": 4575,
  "åĲĮ": 9892,
  "ĠuÅ¼": 9864,
  "×ķ×ĳ×¥": 29176,
  "merge": 28742,
  "Ġright": 702,
  "ãĤ´": 19351,
  "Ġnuts": 29817,
  "ope": 1948,
  "Ġcorn": 26706,
  "Finally": 11159,
  "bÉĽ": 27711,
  "Ġroz": 4178,
  "Lua": 8026,
  "Ġsources": 3739,
  "mus": 18524,
  "Interpret": 27192,
  "Ø«ÙĦ": 16205,
  "Ġimm": 2844,
  "ven": 1350,
  "ä»ĺ": 25318,
  "inn": 6060,
  "46": 5413,
  "Ġsmall": 2139,
  "iffer": 12022,
  "start": 10379,
  "Indaba": 12579,
  "ifications": 3456,
  "īâµ": 29702,
  "Ġsolely": 8014,
  "Ġdiscussing": 9372,
  "Ġpowering": 16121,
  "Ġboundaries": 15427,
  "Ġviewpoint": 16089,
  "Ġkho": 20000,
  "Ġhair": 9116,
  "Ġsmartwatches": 19035,
  "Ġ×©×ĳ": 26809,
  "ringe": 26612,
  "Ġstatute": 16555,
  "Files": 11550,
  "ÙĪØ¯": 9998,
  "Ļ": 204,
  "Ã¼m": 22819,
  "ĠTuesday": 17471,
  "icon": 4439,
  "Ġtraffic": 6184,
  "æ§ĭ": 8258,
  "ĠDol": 8050,
  "Ġconvenient": 9787,
  "ÏģÎ±": 15383,
  "ĠEX": 8581,
  "Red": 7554,
  "Ġkern": 15581,
  "ĠInitialize": 31521,
  "Ġdefin": 2476,
  "Ġdomen": 27891,
  "Subcategories": 18329,
  "ĠTal": 15555,
  "oniecz": 24288,
  "ĠWave": 27994,
  "ĠDevice": 18943,
  "ĠDank": 30013,
  "ķÎ»Î»Î·Î½Î¹ÎºÎ¬": 13424,
  "ĠInks": 30153,
  "Ġcanvas": 14445,
  "Ho": 29481,
  "ĠJes": 13824,
  "Ġclean": 5183,
  "Ġreferences": 5937,
  "MO": 27668,
  "Ð·Ð±ÐµÐºÑĩÐ°": 23430,
  "Ġseemingly": 24287,
  "Ġhelped": 7519,
  "constructor": 14941,
  "Ðĺ": 11983,
  "59": 5886,
  "Ġkiedy": 24980,
  "ĠThen": 6170,
  "Ġgym": 10712,
  "logo": 22048,
  "ĠÑģÐ¾Ð²": 30450,
  "Ġpresented": 9385,
  "Õ¨": 15148,
  "ĠjeÅĽli": 26964,
  "ĠSom": 20731,
  "Drive": 9193,
  "ĠMitgliedervers": 27385,
  "Ġhandlers": 19488,
  "Ġnits": 21563,
  "ĠAutomat": 9897,
  "AP": 6203,
  "ãĤ·": 6409,
  "erge": 10696,
  "Ġproposing": 28551,
  "ĠSe": 2048,
  "×Ķ": 1502,
  "ont": 617,
  "ĠHome": 9129,
  "Ġencomp": 17094,
  "ÐµÐµ": 28158,
  "Ġtenth": 31374,
  "stron": 11225,
  "Ġprodu": 836,
  "nap": 5930,
  "Ġverwenden": 25836,
  "hell": 29721,
  "Ġinterview": 6710,
  "GH": 19124,
  "Must": 26015,
  "json": 19165,
  "ivo": 9246,
  "xistent": 23560,
  "Ġpolished": 28618,
  "ĠÑģÑĤÐ°Ð½Ð´": 27073,
  "ument": 13444,
  "éļĽ": 20490,
  "Ġconflicts": 15025,
  "¯¸ì§Ģ": 14304,
  "Ġlaundering": 22986,
  "ĠFiduciary": 14444,
  "íĮĲ": 31571,
  "Ġrefres": 18206,
  "ä¸Ń": 4098,
  "Ġeconomics": 22058,
  "ĠStudio": 3650,
  "Ġbec": 855,
  "Ġalleged": 10655,
  "abytes": 24911,
  "Ġency": 5604,
  "Ġkac": 26401,
  "ÖĥÕ¥Õ¿Õ«": 25928,
  "ĠAri": 29859,
  "Ġlisting": 15275,
  "ivities": 12953,
  "ãģı": 4818,
  "lagen": 24717,
  "Ġprompts": 13657,
  "Ġthan": 790,
  "Ġslight": 24079,
  "PU": 3558,
  "ì§Ħ": 17738,
  "Ġà¦¶": 22803,
  "Ġeffort": 4402,
  "Ġcharacters": 4447,
  "Ġreads": 10756,
  "Ġsex": 5997,
  "Ġpen": 6217,
  "ĠBrush": 22002,
  "TE": 21430,
  "ÄŁ": 18534,
  "ĠPeter": 12245,
  "irs": 22597,
  "ĠÙĪØª": 30514,
  "Ġaward": 6839,
  "éģĶ": 30926,
  "Îº": 4581,
  "zy": 1330,
  "´ßĬ": 29665,
  "iba": 9721,
  "ortion": 18073,
  "arelawan": 25030,
  "inta": 26554,
  "ĠÐĴÑĸÐºÑĸ": 11712,
  "ĠØ¨Úĳ": 30530,
  "card": 11771,
  "reads": 25196,
  "Ġquo": 30189,
  "ULL": 18511,
  "First": 7647,
  "addy": 28852,
  "Ġtag": 1773,
  "ãĥ©ãĤ¤ãĤ»": 10070,
  "æīĢ": 10817,
  "Ġconclusion": 15962,
  "ÑĢÐµÐ´": 28160,
  "ĠProdu": 26560,
  "fix": 5074,
  "isc": 2350,
  "Tiáº¿ng": 14043,
  "eek": 2611,
  "Ġsqu": 9215,
  "uu": 20635,
  "plore": 3476,
  "Ġfounder": 15665,
  "Ġkung": 30053,
  "plo": 18634,
  "Ð¸ÑĤÐ¸": 21685,
  "ĠFarm": 30042,
  "Ġwilling": 10271,
  "Ġmeng": 11020,
  "Ġdestroy": 15838,
  "Ġlaunched": 4912,
  "ĠMil": 22589,
  "âĨĴ": 6304,
  "ÛĮØª": 30361,
  "ĠNation": 17538,
  "Kundivihira": 17332,
  "×ł×ķ×ª": 20242,
  "è¿°": 16740,
  "ĠMission": 28020,
  "Ġautor": 9598,
  "Ġquantity": 14650,
  "ĠðŁ": 4118,
  "Ġconfused": 14914,
  "ĠManaging": 8621,
  "ov": 760,
  "rive": 2271,
  "Ġjoin": 3169,
  "ocs": 3114,
  "Ġclaims": 4112,
  "Ġfunction": 1438,
  "ĠAirPods": 5620,
  "Ġed": 722,
  "rupted": 15407,
  "Ġ×ĳ×Ľ": 22946,
  "Ġmeas": 3088,
  "Ġfro": 13759,
  "Light": 29502,
  "ĠOntology": 9924,
  "Ð¾Ð»Ð¸": 24056,
  "Ġneu": 18688,
  "Ã¶d": 26728,
  "ĠWorkspace": 24053,
  "é¡Į": 13099,
  "Ġseperti": 20825,
  "ĠFe": 10394,
  "higu": 21460,
  "Ġunfair": 19041,
  "Ġdoubt": 8346,
  "NOT": 29515,
  "Ú©ÙĪØ±Ø¯ÛĮ": 25298,
  "Åĳ": 16862,
  "Ð±Ð½Ð¸": 25217,
  "ÏģÎ¯": 26976,
  "ĠFrench": 5738,
  "lio": 24716,
  "Hello": 7326,
  "Ġgrass": 22813,
  "netic": 24185,
  "lish": 1140,
  "ãĤµ": 8915,
  "gender": 29596,
  "ĠThank": 9061,
  "Ġrunners": 9062,
  "Ġan": 238,
  "ault": 1433,
  "à¤£": 13814,
  "CG": 27623,
  "ĠPap": 14832,
  "omm": 459,
  "Ġà¸«à¸£": 27474,
  "Ġgeographical": 20307,
  "Ġdisclose": 7395,
  "Ġhiding": 21578,
  "Ġbraces": 22901,
  "md": 6052,
  "Ġemploy": 2029,
  "ocz": 13215,
  "Ġ×ŀ×¤": 26845,
  "Ġttgsa": 31590,
  "è§£æŀĲ": 25705,
  "Why": 4154,
  "ĠContents": 8940,
  "Case": 13138,
  "Own": 21424,
  "Ġpopulations": 30561,
  "ÑģÑĭÐ·": 29063,
  "áĢ®áĢ¸": 13383,
  "ramani": 25350,
  "Ð¸ÑĨÐ¸": 12495,
  "ĠWhy": 10030,
  "Ġà¹Ĩ": 31682,
  "'ll": 2109,
  "Ġkarimba": 16752,
  "Ġnative": 3813,
  "Ġíı¬": 23003,
  "ĠIndust": 10300,
  "Ġtherein": 25130,
  "ilies": 10240,
  "Ġworkforce": 14467,
  "Ġconformant": 23199,
  "ĠWhen": 2250,
  "Ġwatch": 3740,
  "roubleshooting": 16304,
  "Ġsurprise": 15687,
  "Ġgoverns": 24025,
  "writing": 12145,
  "Ġlayouts": 16668,
  "IPO": 22128,
  "Ġstrings": 6287,
  "Ġlabour": 18236,
  "ĠDolore": 18394,
  "ĠANSI": 27948,
  "à¸Ńà¸ģ": 17654,
  "Ġfunds": 10172,
  "ÒĽ": 9208,
  "Ġdisallowed": 31486,
  "èªŃ": 18246,
  "Improve": 9896,
  "Ġspending": 12729,
  "Ġ[...": 8416,
  "Ġale": 11392,
  "49": 3366,
  "ãĤ¦ãĤ§": 17242,
  "Ġmeasurable": 21976,
  "Ø³Ø©": 25212,
  "Ġratio": 21250,
  "ĠBenÉĽÉĽ": 25597,
  "ĠRights": 4716,
  "Ġcolour": 20904,
  "rio": 16953,
  "į": 192,
  "Ġonboard": 10550,
  "Ġbegun": 18988,
  "ube": 3583,
  "Ġhandy": 13019,
  "ìĿ´ìĦł": 10047,
  "à½´à¼ĭ": 31335,
  "ê³µ": 11506,
  "Ġattendees": 13673,
  "à¸Ĺà¸¢": 13926,
  "ĠBun": 17505,
  "Prof": 13305,
  "ĠPasc": 12941,
  "Ġdisplay": 1794,
  "Ġrising": 28102,
  "Ġwall": 11581,
  "Ġhass": 18105,
  "ĠJac": 18687,
  "Ġcartaz": 18992,
  "icable": 29790,
  "ery": 1781,
  "ãģ®": 915,
  "Ġnum": 1106,
  "Ġlargest": 5617,
  "ĠJet": 9725,
  "ĠGLAM": 15083,
  "154": 22887,
  "rison": 29639,
  "Ġputs": 10453,
  "art": 389,
  "ĠIntegration": 19669,
  "ĠÐºÐ¸ÑĢ": 22842,
  "Ġfuel": 16897,
  "Ġappears": 4707,
  "2006": 12361,
  "ĠUnder": 7748,
  "wij": 21488,
  "stiftels": 27588,
  "Ġcentury": 8624,
  "Ġlegend": 21792,
  "åĿ": 26149,
  "oment": 12919,
  "Ġduty": 15804,
  "ĠAccounts": 13934,
  "ÐµÐ½Ð°": 21854,
  "Well": 10212,
  "è¤ĩæķ°": 27461,
  "Ġclar": 4798,
  "Ġenrollment": 21366,
  "ĠFunctions": 18067,
  "rivial": 11257,
  "NS": 2565,
  "TM": 4285,
  "Ġnang": 7423,
  "Ġmajority": 6660,
  "ĠLaun": 25503,
  "Ġkpa": 9452,
  "Ġfixes": 6771,
  "Speaking": 22202,
  "Domain": 25981,
  "ç½®": 13112,
  "angk": 11040,
  "Seed": 27689,
  "BIL": 13428,
  "ĠÐ¼Ð¾Ð²Ð¸": 15036,
  "Ġbuyers": 22020,
  "PROV": 26987,
  "Ġistnie": 27029,
  "®": 110,
  "ictitious": 26576,
  "ant": 409,
  "Ġseamlessly": 12616,
  "Ġentrepreneurs": 20506,
  "Ġwar": 3006,
  "os": 320,
  "ĠPull": 20772,
  "Ġfandom": 24817,
  "links": 26087,
  "Ġmute": 23654,
  "Ġkole": 16979,
  "ĠTeddy": 31611,
  "Ð¾Ð³": 2367,
  "Ġkamani": 23206,
  "zik": 26127,
  "ĠDetroit": 19666,
  "Ġß£ßĮ": 31623,
  "Ġemployees": 3837,
  "resents": 5298,
  "Ġmanuals": 27045,
  "Ġallegedly": 23274,
  "MT": 19806,
  "oran": 29731,
  "Ġdetr": 23925,
  "estival": 12027,
  "ĠFrom": 4946,
  "ìĹħ": 30736,
  "Ġserver": 2384,
  "OV": 5722,
  "Ã³wn": 18709,
  "upper": 27774,
  "ibib": 30145,
  "Ò£": 4666,
  "emat": 21614,
  "Ġcod": 2543,
  "Ġsua": 22657,
  "Normal": 29517,
  "Nu": 31808,
  "åĭķ": 15071,
  "à§ĩ": 2312,
  "ãģ¨ãģį": 30563,
  "uesday": 16044,
  "Ġstruck": 31156,
  "dependent": 17370,
  "Ġcal": 3541,
  "Jack": 27653,
  "ĠApples": 25197,
  "Ġperiodically": 21094,
  "ÑĤÐ¾": 6174,
  "æĪĳ": 20342,
  "Ġtekstu": 24439,
  "ĠReader": 20398,
  "aces": 1935,
  "Ġ×Ĺ": 6750,
  "CA": 2377,
  "preserving": 20489,
  "ĠbaÅĭsim": 14267,
  "ĠFunction": 19997,
  "Ġescalate": 23279,
  "ĠExit": 25213,
  "ĠMetadata": 25498,
  "Ġworthy": 21122,
  "Ġtell": 3668,
  "èĢħ": 6667,
  "Ġ'": 1598,
  "ĠPolytechn": 29272,
  "ĠUAs": 18084,
  "°Ģ": 5383,
  "Ġnine": 15179,
  "Ġjust": 984,
  "andon": 12485,
  "cred": 29574,
  "fe": 7721,
  "achiakuta": 17881,
  "Ð°Ð±": 23743,
  "ien": 1218,
  "witzer": 13601,
  "Ġslavery": 19223,
  "osen": 6491,
  "bies": 16839,
  "Ġnews": 2625,
  "×Ļ×ł×Ļ×Ŀ": 28731,
  "Ġseal": 23798,
  "ÛĮ": 1071,
  "ĠLu": 26421,
  "Ġdiacritics": 31618,
  "ĠDoing": 26915,
  "Pran": 23483,
  "ĠEng": 1633,
  "Ġoversighters": 19025,
  "linked": 23534,
  "iance": 2509,
  "Ġdiscretion": 9933,
  "è¯ģ": 30881,
  "ãģĵãģ¨": 5408,
  "ĠPicard": 27415,
  "Ġà¬¹": 22978,
  "ĠProcess": 5092,
  "ĠÐĸ": 18063,
  "ÙĨÙĪ": 15272,
  "anga": 9032,
  "Ġleaves": 18682,
  "Ã¼n": 11670,
  "cling": 20045,
  "tly": 21482,
  "rules": 16356,
  "usun": 22529,
  "ĠNetflix": 23349,
  "Ġdá»±": 19904,
  "çĶŁ": 7534,
  "Ġaccessoire": 25125,
  "ĠShop": 18190,
  "Ġstandardized": 10602,
  "Ġz": 559,
  "ÑĮÑĪ": 30356,
  "Bi": 18479,
  "road": 14096,
  "arena": 26475,
  "win": 6956,
  "Wizard": 22390,
  "ãĤ«": 12265,
  "owy": 13196,
  "ĠÄĳáº§u": 28633,
  "General": 8967,
  "ĠCONTRACT": 29378,
  "Ġanaly": 5302,
  "Focus": 23472,
  "ĠRwanda": 19342,
  "ÑĭÐ»Ñĭ": 28878,
  "Ġaccessed": 9862,
  "Ð³ÑĬ": 6037,
  "Angular": 23228,
  "igan": 4347,
  "à¸Ńà¸ĩ": 6423,
  "×ľ": 1312,
  "Ġmemory": 5069,
  "âĢĵ": 2835,
  "ĠChampions": 27416,
  "×ĳ×ĵ": 28822,
  "ĠDown": 28049,
  "uly": 2534,
  "¤ĩ": 17937,
  "iano": 4752,
  "51": 6434,
  "Ø§ÙĦØª": 23876,
  "Ġillegal": 14010,
  "Ġ1981": 20273,
  "ĠCameroon": 25623,
  "Ġallows": 2275,
  "Ð¼Ð°Ð½": 30255,
  "ĠÙĤØ¯": 18945,
  "è©³": 17824,
  "Ġcontr": 8914,
  "à±Ĩ": 11866,
  "Ġlif": 1819,
  "Ġmilitary": 15450,
  "lington": 17099,
  "Ġdrag": 8439,
  "Ġsensor": 2227,
  "Ġimported": 11675,
  "ÑĬ": 1945,
  "ĠSamsung": 9574,
  "zyt": 25216,
  "thlet": 17012,
  "ĠHyde": 25704,
  "aining": 20019,
  "×¨×Ľ×Ļ×Ŀ": 17278,
  "Ġclicking": 8082,
  "Ġ02": 10606,
  "Caselli": 27515,
  "Updates": 17748,
  "Ġniet": 11088,
  "ĠFig": 24972,
  "à¤¼à¤¾": 19714,
  "BS": 8267,
  "Ġnetworking": 11685,
  "Ġjob": 2710,
  "Ġerror": 2166,
  "Ġresignation": 29344,
  "Ġscratch": 13408,
  "à¸«à¸¡à¸§à¸Ķà¸«à¸¡": 10328,
  "éĽ»": 23232,
  "generated": 9500,
  "Ġkiller": 28092,
  "ĠAsked": 11096,
  "Ø´ÙĥÙĦ": 16637,
  "Ġteam": 1160,
  "ÛĨØ±Ú©Ø¬Ùĩ": 12637,
  "Ġ2001": 5063,
  "Ġwater": 5317,
  "coming": 6508,
  "Ġwebpage": 21740,
  "ĠInstantCommons": 19520,
  "pherd": 31543,
  "ear": 595,
  "ĠFit": 3897,
  "ound": 565,
  "ĠØ§ÙĦØªÙĤ": 22057,
  "à²": 4331,
  "Ġincredibly": 11161,
  "nas": 31942,
  "ĠAPPLICABLE": 29419,
  "bird": 29567,
  "ĠCommunication": 20422,
  "Ġautocomplete": 21343,
  "prim": 18157,
  "ĠÑįÐ¼": 16705,
  "Ð¸ÑĤÑĮ": 21181,
  "ä»¬": 18224,
  "ĠWikipedian": 17293,
  "Ġmuit": 29799,
  "multiple": 31515,
  "ĠØ³": 4555,
  "ĠBlocker": 28505,
  "Ġalumnus": 26355,
  "iv": 394,
  "Ġelsewhere": 8849,
  "Ġbacklog": 14900,
  "Ġunderstand": 2239,
  "æ¥Ń": 17865,
  "ville": 21487,
  "Ġmeetings": 7938,
  "Ġspecific": 950,
  "ĠInternationalization": 10960,
  "ĠPascal": 13423,
  "Ex": 1742,
  "Â«": 24757,
  "Ġscientists": 13085,
  "Four": 22352,
  "Ġclearer": 18197,
  "ĠCommon": 6325,
  "Ġconcerning": 11680,
  "nienia": 27751,
  "Ġ×Ķ×ŀ×§": 23110,
  "ìĸ": 4201,
  "31": 4100,
  "lex": 2832,
  "ĠSpain": 9737,
  "cias": 18744,
  "ĠTurkish": 14015,
  "ition": 643,
  "Terms": 15116,
  "Ġincent": 12993,
  "ĠPast": 28030,
  "ling": 1724,
  "éĢĻ": 22030,
  "Ãµes": 12601,
  "repo": 15165,
  "ĠmÃ³": 16909,
  "Mode": 20582,
  "Ġenormous": 24592,
  "limited": 6826,
  "jek": 3281,
  "Ġoccurrence": 22999,
  "Found": 21413,
  "wecken": 31197,
  "Ide": 29488,
  "Ġhousing": 13111,
  "Ġhouse": 9570,
  "Ġcomma": 10399,
  "nahmen": 29627,
  "Ġabandon": 13243,
  "Ġsponsor": 25630,
  "irmed": 30798,
  "áĢĽ": 6028,
  "ĠSeite": 30574,
  "Ġinitial": 3681,
  "Shift": 26858,
  "FranÃ§ais": 17288,
  "Ġkontni": 30919,
  "ived": 2093,
  "Ġstronger": 10794,
  "anakan": 13459,
  "Ġeducational": 5832,
  "Ġmood": 18582,
  "irls": 19975,
  "ĠManifest": 15343,
  "Ġà¦ķà¦°": 10190,
  "èªŃãģ¿": 27468,
  "ÑĤÐ°ÑĢÐ°ÑĪÐºÐµÐ²ÑĸÑĨÐ°": 19767,
  "åŁºéĩĳ": 31019,
  "Ġconcent": 14938,
  "ÑĢÐ°Ð·": 15296,
  "ÑİÑĤÑĮÑģÑı": 30708,
  "ĠPokÃ©": 12024,
  "Blog": 20560,
  "alar": 19895,
  "ë¡Ŀ": 24242,
  "ification": 1864,
  "Ġsui": 10727,
  "MSA": 31802,
  "Ø´": 2546,
  "ĳãĥ¼ãĤµ": 18550,
  "unes": 21587,
  "ĠAustria": 26978,
  "aar": 27709,
  "Ġinteligencia": 27154,
  "ĠRock": 17521,
  "loven": 8538,
  "Ġqual": 5266,
  "ĠWill": 5733,
  "Ġbeyond": 4876,
  "Ġskip": 15338,
  "ict": 787,
  "ĠìłĢìŀĳ": 9780,
  "chrom": 26278,
  "Ġannounce": 8007,
  "nych": 4197,
  "Separ": 27452,
  "ĠRF": 26438,
  "PT": 8362,
  "isory": 5729,
  "Ġconsumer": 6284,
  "ĠÐ¤Ð¾ÑĢ": 31200,
  "Ġtech": 3073,
  "Ġcour": 1668,
  "artistic": 30089,
  "Ġcoordinating": 27227,
  "çı¾": 18463,
  "Ġbasketball": 24593,
  "ĠMaps": 21628,
  "Ac": 10079,
  "ana": 1508,
  "ĠkaÅ¼dego": 31353,
  "ĠEpisode": 11430,
  "Ġwuhi": 20505,
  "Ġadvertisements": 20466,
  "Ġcontinuous": 9399,
  "en": 224,
  "Star": 30399,
  "osures": 12706,
  "aliforn": 4005,
  "Ġinalienable": 19247,
  "Ġhog": 27934,
  "Ð½Ð¾Ð³Ð¾": 13239,
  "Ġfuck": 29768,
  "Ñŀ": 6257,
  "ĠCollaboration": 19749,
  "Ġlala": 23672,
  "Cymraeg": 18485,
  "×ķ×ĳ×ľ": 31107,
  "agename": 12823,
  "ĠLinking": 20808,
  "Ġauthorize": 12535,
  "rote": 4669,
  "Ġwszystk": 8447,
  "agn": 6488,
  "itors": 9563,
  "Ġcategorization": 15001,
  "Ġtargeting": 14228,
  "ĠportuguÃªs": 19505,
  "Ġvacu": 8260,
  "Å¼enia": 17614,
  "à½ĳ": 10768,
  "Ġspokesperson": 17321,
  "Ġbagatel": 29075,
  "isÃ©": 27873,
  "ÏīÎ½": 24422,
  "Auth": 18297,
  "rives": 20084,
  "ĠFacebook": 9186,
  "Ġdealt": 26365,
  "Ġpadding": 22296,
  "Ġsends": 18856,
  "ĠìłĦ": 24220,
  "Ġshows": 3876,
  "Ġnewspaper": 16285,
  "fund": 9675,
  "Ġencoding": 6768,
  "åīµ": 16241,
  "Ġseu": 28134,
  "Ġear": 2575,
  "ĠCustom": 5454,
  "nis": 12665,
  "LX": 9308,
  "ĠNevertheless": 27407,
  "ĠBridge": 18637,
  "Ġcomputers": 7178,
  "otion": 14801,
  "ĠDocumentation": 11718,
  "Jan": 21419,
  "]].": 16638,
  "ĠCREATIVE": 23686,
  "Ø³ØªÙĪ": 23032,
  "ĠChinese": 6036,
  "Ã»n": 18383,
  "æıĲ": 9400,
  "Ġthrowing": 25566,
  "brow": 11971,
  "ĠCur": 12923,
  "á»ħn": 31579,
  "ĠStew": 28228,
  "Ð»Ð¸ÐºÐ°": 17704,
  "åł´": 5798,
  "anwhile": 14777,
  "Ġiw": 23890,
  "Ġportf": 30555,
  "Ġviolation": 5880,
  "Å¡": 2988,
  "iduciary": 9932,
  "sta": 15957,
  "ĠCoca": 29880,
  "äº§": 22939,
  "ĠTuring": 15195,
  "angka": 19994,
  "ĠDistrict": 12712,
  "ople": 906,
  "Ġeconom": 4743,
  "Ġhunt": 26271,
  "Ġproven": 10738,
  "um": 396,
  "Ġnewer": 9728,
  "chord": 26279,
  "Ġtok": 5936,
  "áī³áīµ": 31428,
  "him": 12194,
  "×ķ×£": 12979,
  "Handler": 15835,
  "Ġciting": 13753,
  "fakes": 31900,
  "Ġurban": 28865,
  "RFC": 19813,
  "Ġallowed": 3490,
  "ober": 1470,
  "Ġ2008": 4497,
  "ustry": 25008,
  "Ø²ÙĬØ©": 23008,
  "Ġspeedy": 18243,
  "d": 72,
  "Ġtest": 1063,
  "azÉĻrbaycanca": 26623,
  "ĠØ§ÙĦÙĦØº": 12293,
  "ĠGDPR": 10556,
  "embly": 10592,
  "Ġtr": 454,
  "Ġsamples": 8747,
  "Ġpresence": 8843,
  "Ġ×Ļ×ķ×¦×¨×Ļ×Ŀ": 14334,
  "Ġfallback": 13056,
  "Corporate": 27501,
  "ÐµÐ½ÑĮ": 13884,
  "anst": 21528,
  "ilt": 1528,
  "Ġunlike": 7159,
  "Ġndu": 24837,
  "Ġassurance": 23903,
  "ĠAthlet": 19928,
  "ĠCroat": 26288,
  "Ġsc": 596,
  "ÙĦØºØ©": 23215,
  "Ġposter": 5616,
  "Ġpah": 26195,
  "ios": 8114,
  "ÅĤad": 12289,
  "arai": 24834,
  "ĠBrow": 5598,
  "oked": 18104,
  "Ġfraudulent": 25600,
  "ĠâĹı": 9190,
  "à¸±": 3371,
  "Ġseemed": 17765,
  "Orig": 16212,
  "hiri": 28581,
  "Ġgoods": 9374,
  "ÙĬØ²": 25097,
  "ĠÐºÐ¾Ð´": 13576,
  "ĠJean": 21234,
  "Ġextraordinary": 28782,
  "å·¥åħ·": 27423,
  "ellung": 16028,
  "Bad": 17340,
  "Ġdostarczanie": 29154,
  "ĠAr": 872,
  "Ġ×ľ×Ķ×": 8166,
  "ĠBrav": 30034,
  "Ġthird": 1868,
  "Ġprocess": 931,
  "iams": 16348,
  "worth": 8652,
  "×ŀ×ĵ": 28619,
  "Safe": 17357,
  "Ġkomp": 11424,
  "ĠBuilder": 30750,
  "ĠìĿ´ìļ©": 15023,
  "gn": 6955,
  "Bul": 20558,
  "Ġlabels": 5407,
  "å®Łè¡Į": 19065,
  "istry": 6449,
  "Intel": 26881,
  "Ġassembly": 5309,
  "]),": 29560,
  "Ġadvertis": 10804,
  "ĠyÉĽn": 19706,
  "Ġfiltered": 24547,
  "ĠMedical": 27160,
  "venue": 4598,
  "ĠComment": 19538,
  "ĠHet": 21665,
  "Ġsparse": 23812,
  "ytu": 21067,
  "{": 95,
  "Ġtul": 16872,
  "Ġconver": 9235,
  "ĠÑĩÑĭ": 25455,
  "ĠðŁĮ": 30826,
  "Israel": 21137,
  "Ġpark": 12000,
  "Ġdeserial": 21721,
  "ĠAgain": 16140,
  "Ð°ÑĤÐ¸": 16116,
  "People": 6575,
  "ĠAnderson": 20970,
  "Ġanticipate": 23343,
  "Hokin": 27579,
  "Ð°Ð½Ð°": 10290,
  "ython": 6958,
  "ĠÐºÐ¾Ð½Ðº": 27417,
  "Ġu": 923,
  "ãģ¾ãģĽ": 10766,
  "ilen": 23676,
  "vantages": 30595,
  "ĠAramaic": 30303,
  "ĠRahmen": 19343,
  "Ġaction": 2954,
  "Ġricher": 21656,
  "éĹ´": 27343,
  "Roz": 15111,
  "Ġmagyar": 30799,
  "Comp": 4051,
  "aciÃ³": 10479,
  "Ġdig": 4167,
  "lassian": 2017,
  "Ġaudiobook": 27425,
  "ë°": 16373,
  "Ġpri": 2435,
  "´°âµ": 19187,
  "Shona": 25370,
  "serve": 15283,
  "Ġthousands": 7127,
  "urdÃ®": 21294,
  "inc": 7493,
  "Law": 16324,
  "Ido": 22356,
  "ĠLawson": 30752,
  "Ġtoward": 8567,
  "Ġlibr": 2868,
  "Ġhorizont": 19676,
  "Ġaka": 17963,
  "ĠNaN": 25718,
  "orthern": 16480,
  "Ġstrangers": 23952,
  "gina": 17917,
  "§áı": 19184,
  "Ġconnected": 4622,
  "ipped": 16849,
  "ÑģÐ¾": 25060,
  "ĠIss": 6311,
  "Ġnevertheless": 26853,
  "Ġws": 6354,
  "Re": 997,
  "Ġ×ŀ×Ļ×ł×Ļ×ŀ": 24560,
  "business": 23512,
  "inar": 9554,
  "Ø¸Ø§Ùħ": 17215,
  "rift": 29638,
  "ĠmyÅĽlÄħ": 29438,
  "wik": 6255,
  "æľī": 6659,
  "ĩ": 186,
  "Ð¾ÑģÑĥÐ´": 30923,
  "Ġbeste": 22836,
  "Ð´Ð°Ð¹": 26918,
  "550": 29454,
  "Ġsender": 25361,
  "zh": 5727,
  "ĠInstitute": 7184,
  "ĠPe": 5904,
  "Tune": 18509,
  "ÑĭÐ»": 5673,
  "Ġmaker": 18361,
  "åħ·": 20245,
  "Ġ×§×Ļ×ĺ×¡": 16313,
  "Ð³Ð¾": 20923,
  "ìĿ¸": 8942,
  "Ġease": 10239,
  "à½¢": 13012,
  "Ġantivirus": 11351,
  "ÙħÙĬ": 11646,
  "567": 25961,
  "Ġchooser": 30460,
  "ounter": 5344,
  "ĠAz": 7212,
  "oard": 1567,
  "á»ģu": 15432,
  "Ġlaboris": 18398,
  "ÑĮÑİ": 30357,
  "ĠÏĥ": 9003,
  "unch": 4569,
  "Ġfix": 2390,
  "Ġalgorithmic": 26916,
  "Ġfacilit": 6515,
  "Ġindependently": 10474,
  "å¯¹": 25640,
  "Ġspare": 30126,
  "olski": 10055,
  "Ġpossible": 1831,
  "Ġwhere": 916,
  "Ġ×ľ×Ķ×ª": 29026,
  "Ġmeter": 30336,
  "test": 4185,
  "ĠSometimes": 13485,
  "cker": 28346,
  "collect": 13975,
  "with": 3880,
  "Ġroom": 7763,
  "Ġmass": 5489,
  "ĠzuÉ£ulana": 15847,
  "Ġenclosed": 27387,
  "wec": 10219,
  "ungg": 25191,
  "Ġrestoration": 21834,
  "Ġcomparator": 20377,
  "h": 76,
  "ãĤĪ": 4271,
  "Ġhosted": 5184,
  "êµ¬": 19631,
  "oteric": 16921,
  "Ð´Ð¼ÑĥÑĢÑĤ": 24423,
  "Ġpath": 3387,
  "xhtml": 31991,
  "SlovenÄįina": 31459,
  "Ġproposal": 4002,
  "Ray": 31823,
  "Ġeffects": 7112,
  "Ġkorzystanie": 31096,
  "Ġdealing": 9276,
  "ÅĤos": 14167,
  "Ġlang": 5899,
  "ãĤ¨": 11625,
  "ãĥ«": 2184,
  "fang": 24694,
  "Ã¼rkmen": 23231,
  "è®¸åı¯": 13134,
  "Ġachieve": 5683,
  "à¸²à¹Ģà¸Ľ": 26694,
  "backup": 28462,
  "ĠÐ¡Ð¿": 28834,
  "ĠMills": 18619,
  "«": 108,
  "agan": 18030,
  "ĠMajor": 21629,
  "Ġtroub": 7592,
  "ĠWordPress": 6476,
  "Ġsenior": 10099,
  "ĠVITO": 26510,
  "ĠPowers": 28032,
  "employ": 25142,
  "ĠLiz": 16482,
  "agh": 18610,
  "isin": 18569,
  "rin": 20628,
  "ĠWEBSIT": 23321,
  "vert": 2191,
  "ĠPeng": 23735,
  "Ġtweak": 23247,
  "Uk": 21435,
  "Ġbackgrounds": 27055,
  "Ġtreat": 5289,
  "Ġnominated": 15447,
  "fÃ¼": 9811,
  "ê²": 6102,
  "Ġattract": 8595,
  "ĵuvre": 10203,
  "fixed": 13642,
  "ãĥĲ": 12268,
  "Ġweak": 15978,
  "ĠMulti": 17787,
  "Automatically": 21363,
  "Ġplates": 28198,
  "ì": 170,
  "Ã¶ÃŁ": 30489,
  "roll": 2724,
  "del": 15124,
  "Access": 5311,
  "]).": 13725,
  "Ð°Ñģ": 6448,
  "Ġlab": 2267,
  "ĠRad": 20016,
  "Ġgetting": 3872,
  "Ġbeaut": 7735,
  "Ġcertificate": 22138,
  "ĠBuilding": 9082,
  "Ġlineup": 21038,
  "Ġskelet": 25813,
  "bis": 22395,
  "Ġoccur": 8339,
  "ĠDownload": 9587,
  "uth": 5528,
  "ĠPrivate": 15571,
  "SMIL": 31835,
  "ĠMov": 12478,
  "ĵ×Ļ×Ķ": 14763,
  "Ġclever": 24011,
  "Ġtasks": 3610,
  "Ġtaxp": 12785,
  "PF": 7327,
  "Ġuseful": 2677,
  "Ġreducing": 11119,
  "âĪŀ,": 25910,
  "Ġaccur": 3706,
  "ãĤĪãģĨãģª": 22159,
  "Ġstrength": 13091,
  "ĠTheater": 22649,
  "Ø§Ø¨": 4750,
  "ĠUnivers": 5708,
  "Ġnested": 9690,
  "Ġomit": 17172,
  "íĺĳíļĮ": 25938,
  "ÑĸÐ¼ÐµÑĨÑĮ": 18458,
  "Ġlett": 8495,
  "atta": 21951,
  "rated": 21475,
  "Ġdollars": 14006,
  "ineligible": 23602,
  "Ġinvestigation": 12606,
  "Tor": 27693,
  "Politik": 14007,
  "å®": 2661,
  "tti": 26777,
  "zym": 9545,
  "ĠInter": 5030,
  "Ø£": 6626,
  "Ġpacked": 24131,
  "ĠMailing": 15568,
  "Ġreuse": 5389,
  "Fast": 20564,
  "Ġtow": 23651,
  "Ġpromises": 18226,
  "ĠayopÉĶin": 31045,
  "Ó¯": 23571,
  "Ġsud": 10098,
  "Ġhel": 19354,
  "discipl": 27261,
  "Ġreceive": 3416,
  "Ġmetropolitan": 28352,
  "Ġarrived": 18417,
  "Ġlik": 7210,
  "ÙĪÙĦÙĬ": 23872,
  "Ġtypos": 24005,
  "ĠHen": 12262,
  "IVE": 11963,
  "ĠSweden": 25510,
  "install": 10050,
  "Ġinteractive": 6773,
  "Ġhigh": 1401,
  "ĠMunicipal": 29145,
  "105": 18764,
  "criptions": 6761,
  "ica": 4487,
  "Ġuse": 468,
  "anyumasan": 20921,
  "gris": 15256,
  "Ġreadable": 18747,
  "ĠDNS": 3511,
  "Ġfar": 3148,
  "Ġwork": 446,
  "Ġju": 8310,
  "ë¥¸": 13366,
  "lob": 1370,
  "ception": 7837,
  "Øµ": 2360,
  "Ġay": 7022,
  "See": 2091,
  "ston": 9231,
  "Ġarrangement": 15807,
  "Ġoutlines": 21732,
  "Status": 15069,
  "ias": 10679,
  "Ġbase": 4072,
  "Ġspecifies": 13840,
  "ĠLing": 24987,
  "ĠEx": 1295,
  "Ġwysokiej": 31492,
  "ĠOAuth": 25012,
  "Cloning": 25450,
  "Ġbits": 12006,
  "ACL": 16695,
  "PUB": 5624,
  "ÏĨ": 12669,
  "Ġzani": 21715,
  "Ġhier": 7664,
  "ĠAlh": 28427,
  "ä»»": 28547,
  "ãĥĥãĤ·ãĥ¥": 17322,
  "Äĩ": 1425,
  "Ġtradition": 12372,
  "ĠÃ¤r": 15519,
  "henomen": 22746,
  "è¨Īç®Ĺ": 12168,
  "syntax": 20633,
  "Ġvocabulary": 11818,
  "licher": 26462,
  "ìĭŃìĭľìĺ¤": 24613,
  "ed": 233,
  "Ġobjections": 18763,
  "êłĿ": 19433,
  "Ġsacrific": 31437,
  "Digital": 8454,
  "Ġ1974": 30912,
  "ĠIll": 5204,
  "Ġretreat": 26640,
  "eces": 8908,
  "Ġfirmie": 28650,
  "Ġauditing": 20173,
  "ACT": 19587,
  "ĠGames": 10720,
  "ĠChain": 19417,
  "ĠÐłÐµÑģÐ¿ÑĥÐ±": 24337,
  "exp": 10020,
  "Ġbrutal": 21018,
  "Ġeffectiveness": 21151,
  "ĠCrow": 13478,
  "Ð¾ÐºÑĥ": 22014,
  "Ġ1930": 18717,
  "Ġlea": 28165,
  "Ġnewspapers": 21300,
  "Ġplans": 4905,
  "Õ«Õ¶": 18957,
  "Ġnewsletter": 12789,
  "ongolian": 31578,
  "Ġtin": 9211,
  "Ġstarting": 4316,
  "Ġrates": 10723,
  "ãĤĤãģĤãĤĬãģ¾ãģĻ": 30806,
  "Error": 12632,
  "irundi": 22598,
  "ÙĥÙĦ": 10612,
  "Ġtrack": 1566,
  "ĠFortune": 31240,
  "eman": 19287,
  "Ġshoes": 16998,
  "ĠNCA": 18675,
  "Ġbela": 23699,
  "ÑģÑı": 7443,
  "ÛĲ": 14752,
  "Ġpraca": 31004,
  "Ġr": 375,
  "Ġskin": 17105,
  "à¦°à¦ķ": 20190,
  "Ġrzeczyw": 20523,
  "ÐµÐ»Ð°ÑĢÑĥÑģÐºÐ°Ñı": 11174,
  "ĠCommun": 7512,
  "ĠSoft": 25283,
  "Unit": 11895,
  "ĠÃĩ": 28639,
  "ĠSonos": 6889,
  "Ġfetched": 31480,
  "Ġcop": 3474,
  "Ġviáº¿t": 16612,
  "æīĭ": 18351,
  "Ġcorruption": 30458,
  "icu": 16413,
  "ervers": 25075,
  "Ġbrackets": 9403,
  "ynchron": 12077,
  "ĠBit": 5991,
  "Ġstyl": 26953,
  "ÛĮØ´": 30362,
  "ĠIsn": 30636,
  "lings": 19840,
  "Ġdetects": 20132,
  "Ġpleas": 13109,
  "Ġfly": 14086,
  "ibilit": 16008,
  "Ġacceptance": 18859,
  "Ġfundamentals": 21195,
  "Ġmeasure": 6427,
  "weight": 9608,
  "ĠTa": 9839,
  "æŁĲ": 21326,
  "Ġsupplies": 22961,
  "resolution": 12957,
  "ĠÑĥÑĢ": 19555,
  "se": 357,
  "ÞĢ": 27805,
  "Ġãģ§ãģĻ": 19207,
  "Ġexactly": 4689,
  "uther": 24873,
  "dÅº": 21451,
  "LocalesOf": 27265,
  "ĠTesting": 23181,
  "ĠzespoÅĤach": 21080,
  "chron": 6633,
  "veys": 29845,
  "ĠbyÅĤo": 26409,
  "ĠZooKeeper": 31539,
  "Ġohong": 26991,
  "ĠArbitrator": 22167,
  "gone": 26069,
  "Ġsubstituted": 12861,
  "Ġdisreg": 30178,
  "Ġeven": 1182,
  "?,": 31719,
  "Ġtoys": 16415,
  "uls": 10887,
  "profile": 27030,
  "àº": 11195,
  "ence": 665,
  "Ġproduct": 1096,
  "vio": 15896,
  "ĠIdentity": 8860,
  "Ġapps": 2769,
  "Ġmart": 27906,
  "Ô±": 24762,
  "Ġdisconn": 25169,
  "ÙħØ§ÙĨ": 28245,
  "Capt": 13139,
  "Ġscrut": 19687,
  "nÃŃ": 27749,
  "ĠAngell": 19616,
  "âĢĿ": 706,
  "ĠSE": 14105,
  "ĠTimeline": 25562,
  "Ġheard": 8396,
  "çīĪ": 6885,
  "ĠTs": 23694,
  "ĠUses": 28831,
  "ĠobjÄĻ": 28303,
  "ãĤŃãĥ": 5719,
  "Ġoccup": 21098,
  "Ġvi": 2021,
  "Ġcontinuation": 21885,
  "Ġmarginal": 17300,
  "Ġbrings": 7183,
  "ĠSponsors": 25778,
  "Ġcode": 825,
  "139": 11879,
  "Ġspraw": 15243,
  "ĠMr": 14123,
  "åľĸåĥı": 24530,
  "ĠÐ¦": 15577,
  "niÄĩ": 14566,
  "à¨ª": 26634,
  "ĠWikipedi": 4041,
  "yane": 31994,
  "Ġreasonably": 9756,
  "scanning": 28584,
  "Í": 139,
  "Ġsafely": 13931,
  "mbH": 23131,
  "Ġdistinction": 12380,
  "ÙĥÙī": 20989,
  "Ġturned": 7788,
  "resp": 3188,
  "á¹Ń": 25606,
  "ĠEntreprene": 22153,
  "Ġswitches": 17270,
  "Configuring": 14674,
  "Ġsharp": 19727,
  "ĠBUT": 28078,
  "Ġindepend": 4043,
  "individual": 15257,
  "à°ķ": 4719,
  "reen": 2054,
  "×ķ×ł": 4678,
  "Ġtro": 16375,
  "cers": 14724,
  "ÏĢÎ±Î¯": 25540,
  "Parsing": 24661,
  "Ġtorn": 27837,
  "Ġcircles": 23626,
  "Ġat": 401,
  "IX": 21417,
  "ĠCoach": 11710,
  "Ġindependent": 5968,
  "Ġmark": 1067,
  "Ġunparalleled": 27590,
  "ç¤": 6898,
  "Ġ51": 23917,
  "Ġconvince": 27283,
  "Ġprogrammers": 11153,
  "ĠPot": 28029,
  "Posted": 4625,
  "ĠÐ¸Ð¼Ð°": 28582,
  "Ġjud": 4277,
  "Ġcompanion": 15849,
  "ç³": 15908,
  "Ġà°¤": 14939,
  "Ġyour": 360,
  "Ġsomeone": 2859,
  "lNeverCry": 7017,
  "114": 17885,
  "Ġescaped": 31017,
  "othing": 5095,
  "Ġproduce": 5401,
  "November": 13149,
  "gry": 20863,
  "?\"": 14025,
  "ÅĽ": 1393,
  "ãĥ¼": 1203,
  "ĠExperience": 9794,
  "Ġalien": 20770,
  "omat": 5696,
  "ribusi": 30167,
  "chedul": 17135,
  "She": 11372,
  "Ġplacing": 11439,
  "Almost": 19528,
  "ĠSanta": 27967,
  "Ġnost": 17446,
  "rus": 15138,
  "Ġskal": 13891,
  "venth": 21852,
  "Ġpam": 9217,
  "Mer": 31796,
  "Ġcarefully": 12106,
  "Ġpersons": 14262,
  "Ġmateria": 25141,
  "ĠÃ¼ber": 7549,
  "Ġoperations": 3873,
  "Getting": 10946,
  "req": 14771,
  "uset": 22528,
  "Ġsave": 4364,
  "ĠMalaju": 22959,
  "mean": 22896,
  "Ġdatatype": 31600,
  "Ġcaus": 4920,
  "utable": 11592,
  "ç´ł": 5969,
  "ìŀ": 3773,
  "Ġunresolved": 20007,
  "ĠJobs": 14870,
  "---": 17709,
  "Ġsupervisory": 24427,
  "Ġsupp": 2725,
  "it": 226,
  "ĠDehydr": 26647,
  "º": 122,
  "Ġalternative": 4805,
  "Ġva": 10248,
  "Ġbell": 16935,
  "ĠWPWP": 27347,
  "Ġscenes": 16246,
  "êĻ": 11006,
  "ĠTelegram": 10195,
  "Ġcontribut": 1289,
  "Ġbanks": 29787,
  "akar": 26407,
  "ĠTid": 19940,
  "ĠController": 20170,
  "ĠHost": 19335,
  "ĠØ±": 7599,
  "Ġperfectly": 12596,
  "arte": 24992,
  "ydney": 18312,
  "Ġminor": 4657,
  "ĠTHAT": 14587,
  "ĠCEO": 5983,
  "raud": 16470,
  "aÅĤ": 5480,
  "Ġsecond": 2045,
  "Ġrealizing": 26721,
  "ampire": 16563,
  "Support": 7200,
  "Ġmath": 17043,
  "orting": 13805,
  "ĠdÃ©f": 31041,
  "ĠAura": 29860,
  "Ġparenthes": 13051,
  "ÑĤÑı": 30151,
  "fÃ¼ll": 23253,
  "ĠÙĪÙĤØ¯": 25273,
  "tom": 26112,
  "ĠCrunch": 31135,
  "ĠkÃ¼": 26403,
  "Ġchapter": 10265,
  "NDC": 29516,
  "Ġwords": 3078,
  "IoT": 31775,
  "Ġsysops": 17272,
  "ĠjuÅ¼": 17255,
  "ĠSpring": 10910,
  "ĠÎ¼Îµ": 29215,
  "attribut": 12790,
  "ĠStarter": 23854,
  "åľ": 3499,
  "Ġnotebook": 19990,
  "Ġbathrooms": 23226,
  "week": 31989,
  "Ġpivotal": 31544,
  "Ġwhich": 531,
  "Above": 21068,
  "à¸²à¸°": 22857,
  "ĠSPH": 25708,
  "ĠManagement": 4644,
  "ĠGeoJSON": 23348,
  "ĠArc": 17047,
  "ĠfaÊ»": 28824,
  "à¤§": 15593,
  "ÑĥÐ±": 9994,
  "Ġfollowers": 16532,
  "ld": 405,
  "Ġrecht": 21568,
  "Ġfrag": 9876,
  "ik": 309,
  "Ġreplied": 26813,
  "ĠCons": 3643,
  "Ø¦": 8032,
  "Ġcharges": 14529,
  "Ġ×ŀ×¢": 16153,
  "Ġwidocz": 28792,
  "Ġreaction": 22525,
  "ke": 2102,
  "ãĤ¦ãĤ£ãĤŃãĥ¡ãĥĩãĤ£ãĤ¢": 13987,
  "à¨ľ": 20943,
  "ographs": 11465,
  "ĠMay": 2616,
  "CP": 5414,
  "Ġconstructed": 12806,
  "Ġultimate": 11735,
  "ĠNev": 18676,
  "Ġprovin": 26544,
  "Ġseen": 4272,
  "Ġweit": 30031,
  "Ġwied": 9564,
  "Ġapproach": 3124,
  "encia": 13022,
  "Kind": 17896,
  "Ġexception": 4198,
  "igating": 29863,
  "Ġdelivering": 10803,
  "Ġpublik": 17567,
  "EO": 3755,
  "Ø±Ùģ": 17037,
  "Ġlangages": 14290,
  "isal": 27872,
  "à½Ĭ": 28445,
  "Ġworkaround": 26472,
  "Ġexamines": 25133,
  "Ġkun": 9451,
  "Kom": 14345,
  "However": 5065,
  "Ġbrowsing": 7769,
  "ĠSpiceworks": 8823,
  "ĠÑĤÐ°": 9071,
  "ington": 6308,
  "ĠNavig": 16495,
  "two": 19848,
  "ĠColorado": 29135,
  "bootstrap": 18514,
  "athy": 28408,
  "Ġpoly": 9649,
  "Ġcorporate": 8445,
  "Ġfailure": 8434,
  "Ġinsert": 6460,
  "esterday": 17810,
  "abei": 23179,
  "ĠLos": 15992,
  "Wikipedia": 2431,
  "ĠElectric": 31191,
  "Deep": 21908,
  "Ġris": 5026,
  "ĠØ§ÙĦØ¹ÙħÙĦ": 23182,
  "Ġkolej": 31442,
  "Ġhalfway": 31022,
  "Ġdiff": 3056,
  "ĠKevin": 31642,
  "iment": 3762,
  "Ġvehicles": 29302,
  "ĠAlgeria": 20516,
  "Ø§ÙĪ": 16996,
  "Pres": 20588,
  "function": 12433,
  "Ġreporter": 7898,
  "Shark": 28616,
  "ĠXP": 26676,
  "Besides": 31737,
  "30": 2401,
  "×ŀ×ķ×ł": 13631,
  "Ġstatistics": 8506,
  "ĠRoadmap": 28811,
  "Ġshouldn": 11070,
  "Ġforward": 3974,
  "ĠUnicode": 5911,
  "ãĤ¹ãĥĨ": 21039,
  "aeological": 31071,
  "Ġatawa": 30102,
  "ĠpÃ¡": 13757,
  "thing": 1721,
  "ĠTurk": 11733,
  "Ġprzejrzyst": 27574,
  "etti": 16922,
  "Ed": 13706,
  "ĠìŀĪëĬĶ": 17225,
  "emu": 9704,
  "Ġfailed": 9081,
  "Ġtour": 11204,
  "2026": 8233,
  "Ìį": 6624,
  "çīĪæĿĥ": 23177,
  "áĥĿ": 19449,
  "Ġproprietary": 8446,
  "icherd": 14307,
  "Andrew": 24167,
  "ayers": 16943,
  "29": 3636,
  "ĠNYC": 29181,
  "Ġwis": 22491,
  "ìľ¼ë¡ľ": 11172,
  "Ù¾ÛĮÚĪÛĮØ§": 24213,
  "broken": 29149,
  "Ġ==": 30854,
  "Ġdecrease": 24479,
  "Ġms": 24827,
  "English": 6829,
  "Ġadopt": 3081,
  "Ġsaw": 7420,
  "ĠØ£ÙĨ": 7853,
  "Meta": 6574,
  "[\"": 22392,
  "aught": 9530,
  "rod": 10237,
  "including": 4410,
  "Ġ×Ļ×ĵ×Ļ": 24196,
  "à°°": 3588,
  "ĠÐºÑĭÐ»": 28425,
  "àªĹ": 23142,
  "Ġsilimi": 30911,
  "ĠØ§ÙĦØ¨Ø±": 28308,
  "ãĤŃ": 4531,
  "Ġdetection": 8073,
  "then": 6578,
  "reements": 19872,
  "Ġcropped": 18431,
  "Ġinsignificant": 31509,
  "Complete": 27044,
  "ienced": 28389,
  "ĠshÉĽÅĭa": 11509,
  "Ġordered": 10814,
  "Ġsnipp": 14703,
  "ĠnarzÄĻdzi": 13400,
  "berapa": 22690,
  "ĠzuÉ£ul": 13988,
  "Ġkalinli": 25700,
  "Ġattack": 4353,
  "Ġtek": 11051,
  "Ġincidents": 15653,
  "//": 22332,
  "èĢ": 4544,
  "icism": 19909,
  "kcji": 25653,
  "Ġupdated": 3634,
  "Ġvacation": 25584,
  "ĠNas": 23813,
  "ìłģìĿ¸": 27225,
  "éģ©çĶ¨": 17753,
  "Ð»Ñı": 6544,
  "Ġbel": 1838,
  "Ġsog": 24796,
  "Ġreader": 9742,
  "Ġtoken": 5981,
  "Ġresh": 17550,
  "Ġtechnique": 10911,
  "ĠHel": 28110,
  "license": 7830,
  "Å¡e": 30712,
  "Ġrug": 20004,
  "ĠAwareness": 19096,
  "ãĥ¡ãĥ³ãĥĪ": 27242,
  "Both": 17342,
  "reason": 16384,
  "Ġ×ķ×Ķ": 24146,
  "utes": 17464,
  "ĠAfghanistan": 23435,
  "Ġletting": 11485,
  "com": 1531,
  "Sloven": 17907,
  "ĠosiÄħgnÄħÄĩ": 29304,
  "Ġreporting": 3531,
  "Ġsequentially": 21169,
  "ĠusÅĤugi": 21273,
  "Ġdecyz": 19769,
  "Ã©mbang": 17032,
  "Ġrights": 1120,
  "Ġins": 1472,
  "Ġclic": 15532,
  "ĠÐ£": 7744,
  "rije": 23733,
  "Removing": 17232,
  "Ġhat": 11404,
  "oms": 1571,
  "ĠBased": 13506,
  "isse": 18570,
  "Ġscholarship": 19712,
  "ĠÒ³": 21184,
  "posing": 22815,
  "Ġcombinations": 19541,
  "ĠCassandra": 17287,
  "Univers": 21057,
  "ilar": 2127,
  "Ġobjection": 18762,
  "Ġidentical": 10150,
  "Devices": 15433,
  "Ġdáº«n": 22507,
  "ulative": 24916,
  "Ġrange": 3912,
  "from": 9202,
  "Ġkeeps": 8945,
  "ibo": 26477,
  "Ġverda": 30322,
  "toStringTag": 14330,
  "????????????????????????????????": 29246,
  "Ð¡": 5254,
  "la": 1487,
  "ĠjakoÅĽci": 24206,
  "CR": 11960,
  "ãĥ©ãĤ°": 30746,
  "Nov": 26019,
  "ãĤ¯ãĥĪ": 14588,
  "Ò½": 15904,
  "uel": 7724,
  "ãĤĬãģ¾ãģĻ": 6044,
  "ĠKalshi": 31695,
  "ĠWebD": 28307,
  "Ġà¤Ķà¤°": 14699,
  "ãģ£ãģ¦ãģĦãģ¾ãģĻ": 12121,
  "Ġphishing": 10699,
  "2008": 17701,
  "OSD": 24087,
  "ĠÎ´": 22927,
  "Ø«Ø±": 27009,
  "ĠMe": 3420,
  "ĠPNG": 22596,
  "Ġempowered": 28817,
  "å±": 8468,
  "ĠLeopold": 24586,
  "ëĵ": 10856,
  "Ġaqu": 26170,
  "Ġwish": 4365,
  "Ġ×Ķ×ĵ": 18776,
  "ensors": 16006,
  "Ġgrown": 13606,
  "Ġmonit": 6602,
  "ĠEU": 5296,
  "²àº": 21493,
  "Ġvel": 18544,
  "Ġspeech": 10266,
  "Ġclothes": 28242,
  "Ġpiece": 6840,
  "Ð¸Ð´": 18088,
  "Ġsub": 655,
  "Ġmovies": 8844,
  "bd": 22394,
  "Ġcontributions": 4356,
  "Ġbh": 27895,
  "ĠGuard": 13041,
  "onde": 15619,
  "Ġà¤¯": 14503,
  "ĠÐĺ": 7434,
  "ĠTools": 9517,
  "Ġteachers": 13692,
  "Ġobtained": 7710,
  "language": 8030,
  "áĢ¬áĤı": 8088,
  "Ġto": 244,
  "Ġvicinity": 29406,
  "beta": 29566,
  "à·ĥ": 20312,
  "Ġmodo": 28296,
  "bs": 12885,
  "ç¬¬åĽĽ": 21298,
  "Ġlos": 9114,
  "Ð°ÐºÐµÐ´Ð¾Ð½ÑģÐºÐ¸": 12414,
  "ĠEngland": 19482,
  "rd": 8768,
  "ks": 795,
  "ĠDropbox": 17276,
  "ĠNone": 25022,
  "ĠÑĤÐµÐ»": 26765,
  "æ¡Ī": 21321,
  "à¶º": 18293,
  "Ġgo": 648,
  "Ġresearch": 1910,
  "Ġmagaz": 7859,
  "ZwiÄĻks": 29559,
  "roud": 12502,
  "ÐĽ": 14750,
  "Ġinventor": 24488,
  "Ġsequences": 13372,
  "cient": 29573,
  "ãĤ°": 5996,
  "ÅĦsczi": 30781,
  "stantial": 23401,
  "ĠFis": 26393,
  "Frequently": 11365,
  "ĠPiano": 24934,
  "Ġconfuse": 30377,
  "uba": 14124,
  "Timed": 31168,
  "eras": 8659,
  "Ari": 21399,
  "asinan": 29810,
  "jal": 9416,
  "³´": 9949,
  "ĠOptimizer": 23307,
  "êłĢêłŀ": 31303,
  "Ġinstru": 11651,
  "Ġ1928": 28299,
  "ask": 5235,
  "Pal": 11766,
  "Ġjustification": 23922,
  "Ġitalic": 14647,
  "Ġexpires": 25148,
  "ßĭ": 16866,
  "äºĮ": 9076,
  "Ð¾Ð½ÑĤ": 24074,
  "ocat": 16465,
  "bone": 20603,
  "Ġhub": 14101,
  "ants": 1961,
  "Ġfees": 4909,
  "Ð¸Ð¹": 6370,
  "ĠKar": 9140,
  "Jcb": 31780,
  "Ã¨ng": 14528,
  "Ġexceed": 9586,
  "ĠdziaÅĤ": 8850,
  "asters": 15261,
  "Res": 5159,
  "Ġreturned": 6553,
  "RozwiÄħz": 27399,
  "etta": 24856,
  "software": 13823,
  "Ġpali": 29754,
  "<s>": 0,
  "Ġqualifiers": 19614,
  "ĠSocial": 7886,
  "Ġjournalism": 15028,
  "ĠjÄĻzy": 11639,
  "Ġë§Į": 31304,
  "ein": 15883,
  "Ġcheckbox": 28479,
  "à¸§à¸¢": 18272,
  "èĩªçĶ±": 16739,
  "×Ĳ×ª": 21019,
  "Ġdies": 8286,
  "Partners": 23085,
  "Ġdream": 12682,
  "ĠChristina": 31150,
  "BC": 7553,
  "Ġtax": 2187,
  "ÙĤØ¯": 14928,
  "ĠPC": 4924,
  "êłĢ": 12992,
  "Ġhan": 18003,
  "ikat": 18616,
  "Ø¸Ø±": 21191,
  "çĽ´æİ¥": 22271,
  "ä¿": 6479,
  "áıĻ": 20203,
  "ãģ®ä¸Ń": 22760,
  "Ġshortcut": 8337,
  "ªħ": 27792,
  "ĠExt": 15588,
  "ĠPubSubHubbub": 31284,
  "ĠRadio": 16987,
  "ĠClean": 24868,
  "days": 23520,
  "Ġseparator": 18234,
  "Ġcomputational": 16577,
  "Ġfilen": 8820,
  "ĠÐ´Ð¾Ð»": 28499,
  "Ġlogins": 28430,
  "Ġtiny": 19216,
  "Ġenthusiast": 31339,
  "ÑĢÐ°Ñī": 30366,
  "znej": 7333,
  "ĠMon": 4849,
  "Ġsolved": 13457,
  "ĠKan": 15609,
  "ĠBrowser": 11524,
  "à¦¸à¦®": 21232,
  "irma": 26368,
  "Ġcleanup": 20366,
  "Ġ~": 15160,
  "TAG": 24674,
  "ĠMond": 11035,
  "Das": 29466,
  "Ġcollabor": 2083,
  "ãģªãģĳãĤĮãģ°": 25951,
  "lyde": 19261,
  "ioni": 9328,
  "ĠDAMA": 17874,
  "Ġschedules": 29078,
  "Ġbulk": 23213,
  "ĠVorb": 26509,
  "erly": 15920,
  "ĠuÅ¼y": 18731,
  "Ġenthusi": 14333,
  "Ġfallen": 30796,
  "Ġ×ŀ×ª": 17137,
  "Ġsleek": 22093,
  "itives": 26187,
  "ITS": 24144,
  "Ġcapable": 11298,
  "Ġdifferenti": 28370,
  "ĠbÃ¡": 22508,
  "Ġintercept": 26598,
  "ublish": 5778,
  "anguages": 6704,
  "elijk": 14005,
  "ĠIr": 16440,
  "Ġsolid": 9651,
  "uskara": 13689,
  "ĠniemieckojÄĻzycz": 31678,
  "Ġawareness": 10324,
  "ĠFotograf": 21347,
  "cloud": 14144,
  "Ġnajleps": 15412,
  "èª¿": 30649,
  "Ġparticipates": 20222,
  "Ġinventory": 31310,
  "áĭŃ": 18303,
  "Ġangg": 26213,
  "ĠTarget": 26301,
  "Ð»Ð°ÑĢ": 17552,
  "Change": 11299,
  "iquip": 26752,
  "Names": 10347,
  "Ġquoted": 14595,
  "Ġ400": 15642,
  "ĠEven": 5027,
  "à¹Į:": 25620,
  "Êģ": 20649,
  "Ġvariation": 30411,
  "à¸ĭ": 18643,
  "Ġalla": 19368,
  "58": 7008,
  "Ġbetreff": 31596,
  "çĦ¶": 24537,
  "atyw": 27849,
  "TemplateData": 19617,
  "ÙĬÙģ": 17574,
  "Ġempresas": 29326,
  "rug": 12977,
  "ĠWikimania": 7005,
  "ĠStaff": 14155,
  "Ġpresumably": 31491,
  "å¯¾": 11165,
  "ÑĢÐµÑĤ": 13238,
  "Ġbatter": 21544,
  "ICE": 9177,
  "Ġhope": 5393,
  "uch": 1121,
  "ĠOx": 23801,
  "Ġfitness": 4085,
  "c": 71,
  "Ġspecial": 2711,
  "ĠmaniÃ¨re": 26541,
  "Ġchoice": 4683,
  "ìĭŃìĭľ": 24300,
  "angle": 15219,
  "ĠIntegrator": 23207,
  "Ġ1000": 11235,
  "ľà¦¨": 9110,
  "ĠFind": 12033,
  "owisk": 19272,
  "Ġleather": 28166,
  "Ġdonation": 9614,
  "Ġlaptop": 6387,
  "Ġauch": 9324,
  "wot": 31983,
  "raft": 3911,
  "Wikisource": 25237,
  "Ġcausal": 30904,
  "]ãĢĤ": 24682,
  "Ð¸Ð¸": 16491,
  "Ø²": 3257,
  "ĠComputation": 14572,
  "Ġplugins": 11725,
  "Ġhere": 1397,
  "ensus": 5175,
  "ĠSwift": 10480,
  "ë": 169,
  "ĠVerfÃ¼gung": 22308,
  "Ġindirect": 11850,
  "æł": 5558,
  "Ġalgorithms": 8091,
  "Ġeditorial": 8244,
  "Ġinvested": 21061,
  "ĠCity": 6400,
  "ĠMigrate": 21630,
  "×¢": 3385,
  "ĠFIF": 28083,
  "yd": 4330,
  "à¤¡": 7366,
  "238": 26792,
  "à¬Ĩ": 12516,
  "ãĤ³ãĥ¢": 21331,
  "ãĥ¼ãĥĦãĥªãĥ¼": 21999,
  "ĠDirect": 4076,
  "Am": 4302,
  "Ġdefining": 10407,
  "Ġsuggestion": 7933,
  "ĠDistribute": 24949,
  "ĠDeclar": 11526,
  "Ġdeclarations": 13087,
  "Ġë§": 13015,
  "Íĺ-": 23432,
  "Ġportions": 16125,
  "azione": 9060,
  "Launch": 28911,
  "eople": 3736,
  "nament": 27750,
  "ãĥļãĥ¼ãĤ¸": 18087,
  "Ø°": 5693,
  "Ġreinforce": 25744,
  "Notes": 9886,
  "ĠNy": 30130,
  "Ġanswers": 5621,
  "As": 1707,
  "ĠSkill": 25624,
  "Ð¾Ð³ÑĢÐ°Ð¼": 6199,
  "Ġeiner": 10801,
  "ĠÐºÐ°Ð¾": 24516,
  "Ġ500": 9361,
  "Ġpeoples": 18723,
  "she": 22435,
  "Ġsupporting": 6867,
  "Ġdescribes": 6933,
  "ÑĦ": 3290,
  "Ġposture": 26686,
  "ĿßĬ": 27828,
  "tted": 24043,
  "ãĥĦ": 14458,
  "Ġdiesen": 27200,
  "istory": 1965,
  "áĢŃáĢ¯áĢ¸": 20352,
  "Ġtokenization": 28900,
  "Ġhousehold": 21271,
  "ĠRo": 16484,
  "Ġthat": 299,
  "Ġpreview": 8406,
  "Ġwed": 24810,
  "Ð½Ðµ": 9343,
  "ĠCLOS": 13953,
  "Ġcharged": 12765,
  "Ġbay": 20690,
  "Ġcases": 1809,
  "Ġform": 785,
  "Ġ05": 13294,
  "ĠCL": 5293,
  "ÙħØ§Ø²": 28975,
  "yah": 24750,
  "ãĥ³ãĥĢ": 8852,
  "Ġtaxpayers": 27350,
  "eur": 7015,
  "lematic": 12226,
  "ota": 8901,
  "ł×Ĺ": 27832,
  "ĠYeah": 20141,
  "Ð¼": 710,
  "Ġbawah": 21545,
  "Ġintl": 26483,
  "Ġ×ŀ×§": 18248,
  "olph": 23705,
  "Final": 27637,
  "ascade": 11910,
  "mand": 31934,
  "119": 12640,
  "Bur": 20557,
  "ÑĥÐ»ÑĮ": 16691,
  "79": 6527,
  "ðĲĮ": 4256,
  "Ġhomepage": 26903,
  "Ġessential": 3731,
  "enson": 20839,
  "CPU": 31743,
  "Ġsearching": 7461,
  "ĠREC": 28119,
  "Ġfilters": 5747,
  "left": 11019,
  "Ġaudits": 14923,
  "omain": 1258,
  "ĠInformation": 2511,
  "Hok": 25995,
  "Ġviolating": 16630,
  "ĠÐºÐ¾Ð½ÐºÑĢÐµÑĤ": 31652,
  "ëĮĢ": 15159,
  "linking": 29617,
  "Ġcuisine": 29186,
  "Ð°Ð»Ð¸": 13300,
  "ĠAmazon": 2748,
  "240": 26830,
  "ĠDRM": 19662,
  "Protects": 30944,
  "Former": 30330,
  "ĠHin": 30078,
  "Ġoperators": 11081,
  "êłĺ": 8705,
  "achi": 20065,
  "Ġbee": 20747,
  "×ŀ×¦": 19536,
  "ĠÃ¡n": 21509,
  "Ã¡n": 7527,
  "Ø®Ø·": 30637,
  "Ġsaves": 13940,
  "Ġafter": 1277,
  "ĠØ¯Ø§Ø¦": 30996,
  "ĠpiÃ¹": 17177,
  "Ġtam": 11787,
  "Ġhiking": 19922,
  "onk": 11789,
  "Ġ1997": 13343,
  "strap": 7571,
  "wi": 6210,
  "Ġetap": 24013,
  "Ġintense": 23819,
  "Ġdisapp": 8312,
  "×ĳ×Ĺ": 30907,
  "rupt": 5537,
  "Ġpress": 3614,
  "este": 14431,
  "TOO": 27339,
  "164": 21875,
  "languages": 26088,
  "4": 24,
  "Ð¸Ð»": 4247,
  "ĠBaza": 20791,
  "Î®": 9547,
  "Required": 31523,
  "Ġadaptations": 12357,
  "Ġpomo": 30880,
  "Lat": 6785,
  "Ġstays": 12703,
  "ito": 8283,
  "irc": 3119,
  "Ġ×Ļ×ķ×ª×¨": 17720,
  "ĠBath": 24965,
  "Ġdeploying": 20303,
  "Ġmill": 15542,
  "Ġclassify": 22883,
  "ĠDays": 24948,
  "light": 3638,
  "Core": 11181,
  "à¶": 3772,
  "Ġle": 458,
  "Ġmir": 10871,
  "Ó©Ð½ÑĮÑı": 30735,
  "åĪĻ": 30648,
  "Ġëĭ¹ìĭłìĿ´": 29315,
  "ĠÄ": 2132,
  "Where": 7806,
  "Ġtested": 4859,
  "Ġreached": 7274,
  "Ġprimary": 5040,
  "ĠWhich": 18217,
  "jÃ¤": 23527,
  "Ġtrong": 12733,
  "ĠClaude": 12627,
  "à¦·": 6029,
  "Ġsty": 3745,
  "ĠTerm": 17469,
  "ĠVulnerability": 23849,
  "copy": 20606,
  "reci": 5806,
  "Ġcontemporary": 16992,
  "Ġnas": 4814,
  "Ġindustries": 10948,
  "Ġhesitate": 25903,
  "à¦²": 4572,
  "Ġszabl": 11913,
  "Ġmod": 800,
  "Ġpiibu": 9776,
  "Ġweight": 7671,
  "description": 28769,
  "ĠAlt": 18186,
  "Ġscheduled": 17844,
  "ĠSur": 6847,
  "Follow": 20566,
  "Ġexchanges": 31328,
  "record": 30971,
  "vex": 27933,
  "Ġadmin": 1738,
  "Ġlegal": 1418,
  "odge": 17496,
  "ĠChat": 8478,
  "sl": 8370,
  "epsÃ¤n": 27464,
  "Ġcloser": 15264,
  "Ø§ÙĦÙĬ": 14488,
  "rett": 8725,
  "ĠVersioning": 21023,
  "ÏģÎ¬": 23045,
  "Ġsur": 1839,
  "ĠZuckerberg": 12540,
  "Ġwhom": 11419,
  "æĸĩä»¶": 14241,
  "Mercury": 31805,
  "Ġphoto": 3267,
  "Ġsink": 23612,
  "Ġtweeter": 27249,
  "quotation": 28044,
  "con": 1791,
  "Ġlaugh": 20116,
  "ality": 1228,
  "jacent": 14362,
  "????": 5924,
  "osity": 22591,
  "ÙĪÚ": 13268,
  "revs": 31102,
  "ĠHR": 13811,
  "alls": 5704,
  "illa": 3513,
  "accept": 10119,
  "toLocale": 14511,
  "åŃ¦": 9389,
  "åıĸ": 15347,
  "Ġrevers": 29822,
  "æŀĲ": 23195,
  "amba": 18260,
  "atures": 21739,
  "CAG": 10166,
  "Ġdrops": 17724,
  "Ġentirely": 5250,
  "å¤ļãģıãģ®": 29379,
  "ñ": 175,
  "Ġinterpre": 7304,
  "ÑĨÐ¸Ñı": 11467,
  "Ġobject": 1303,
  "Ġgier": 24898,
  "Ġpleased": 17811,
  "Ġdepartment": 13877,
  "Î¹ÏĢÎ±Î¯Î´ÎµÎ¹Î±": 26874,
  "editable": 26206,
  "Ġrenov": 26249,
  "ĠÐºÐ°ÑĢ": 23986,
  "ailable": 1058,
  "Wyc": 31861,
  "owej": 11915,
  "ĠA": 273,
  "TimeZone": 26908,
  "Ġinstalling": 18827,
  "Ġì": 1007,
  "Ġbahasa": 5081,
  "ĠSuper": 12119,
  "Ġsic": 16388,
  "Ġreusing": 23667,
  "ĠÐºÓ©": 17090,
  "Ġview": 1329,
  "ets": 1367,
  "Ġbound": 7272,
  "Linking": 21420,
  "ories": 1010,
  "stronom": 15829,
  "Ġdram": 13765,
  "ation": 264,
  "Sar": 29537,
  "Ġsomew": 6430,
  ".:": 18475,
  "uguÃªs": 7550,
  "Optim": 19672,
  "Ġboom": 28746,
  "ĠVim": 10733,
  "Ð»ÑıÐ´Ð·Ñĸ": 31649,
  "84": 7406,
  "ĠSpa": 25163,
  "Ġsono": 17229,
  "ĠFormats": 30942,
  "Ġdzi": 25414,
  "Ð»Ð½": 28204,
  "Ġwer": 4485,
  "Ġindefinitely": 19777,
  "¥áĥĲáĥłáĥĹáĥ£áĥļáĥĺ": 17880,
  "ĠSettings": 9087,
  "Ġtre": 3003,
  "×Ĺ×ķ×§×Ļ": 31526,
  "Ġprotecting": 9169,
  "REE": 22126,
  "Ġwe": 359,
  "forming": 14453,
  "ÓĢÐ°Ð»": 16218,
  "ĠKul": 26523,
  "hens": 4352,
  "28": 3300,
  "Ð¸Ð»Ðµ": 21148,
  "oka": 26499,
  "ĠRenderObject": 31222,
  "Ġinspiration": 18930,
  "intern": 16381,
  "Ps": 14349,
  "Ġhighlighted": 11144,
  "Ġviewers": 26682,
  "upun": 15998,
  "Ġintegr": 1878,
  "Ġwhen": 691,
  "style": 7352,
  "à¸¹à¹Ī": 7797,
  "ĠADA": 29067,
  "Ġbehaves": 30654,
  "earing": 30218,
  "aley": 22764,
  "ĠÐ±Ð¸ÑĩÐ¸Ð³": 23403,
  "ÐµÑĢÐµÐ»Ð¾": 30503,
  "wh": 2629,
  "ĠSupport": 5203,
  "ĠChen": 21584,
  "ĠÐĴÐ¾": 26948,
  "much": 31936,
  "Urbana": 31342,
  "ecycle": 13500,
  "De": 1987,
  "adapt": 26319,
  "Ġversa": 25338,
  "ĠDell": 13217,
  "Ġbinary": 8381,
  "ĠSchiffer": 14273,
  "ç±į": 31461,
  "Tour": 29547,
  "Ġawkward": 23192,
  "Ġvolunt": 13910,
  "atches": 10863,
  "ĠRepublic": 7851,
  "ĠRu": 30090,
  "ĠBelow": 19644,
  "Ġreliably": 20316,
  "ĠProperty": 10492,
  "Ġspr": 12273,
  "Ell": 22348,
  "Ĳ×Ķ": 27826,
  "Ġstatist": 16554,
  "ĠFebruary": 4156,
  "Ġpoints": 4560,
  "acks": 9342,
  "Ġsin": 11996,
  "iles": 3231,
  "Implementations": 30685,
  "ãĥ©ãĥ¼": 11708,
  "Ġcomputed": 11464,
  "Ġeas": 1298,
  "Ġpo": 3757,
  "Ġorganization": 1527,
  "Ġsixth": 21193,
  "0": 20,
  "Ġdoors": 22675,
  "è¨¼": 28637,
  "Meanwhile": 30906,
  "MF": 5839,
  "ĠBÉĽ": 30033,
  "Ġothers": 2160,
  "iene": 18754,
  "Shortcuts": 23284,
  "Ġetwa": 22870,
  "Ġmindful": 25430,
  "ession": 4441,
  "Ġintegrating": 16605,
  "Ġconstitution": 24016,
  "edom": 4791,
  "endar": 7364,
  "Ġvolumes": 16632,
  "Groups": 29121,
  "Ġgestures": 29157,
  "ĠResearch": 6042,
  "Ġhoáº·c": 16234,
  "ĠÐ¿Ð¾ÑĤ": 22800,
  "Ġlibtheora": 27008,
  "Ġreview": 1297,
  "Ġextend": 7685,
  "Ġesc": 6518,
  "Ġabs": 4372,
  "icter": 26225,
  "Ð½Ð°Ð»": 14865,
  "raine": 16471,
  "'d": 3878,
  "Ġfour": 3158,
  "Ġincomp": 11860,
  "379": 30900,
  "Ġanalyzes": 28846,
  "Ġintr": 12962,
  "ac": 313,
  "Ġrealm": 30474,
  "ÑĥÐ¼": 9993,
  "Ġêł¨": 7468,
  "ĠQuarsh": 17668,
  "Ġpersistent": 18301,
  "Ġliterate": 12809,
  "rush": 31958,
  "ĠFried": 18066,
  "consider": 25716,
  "ĠForm": 5608,
  "Ġaug": 14767,
  "ĠConn": 12767,
  "Ġhall": 15181,
  "Ġbugs": 7633,
  "Ġopartych": 31230,
  "@": 36,
  "Ġeen": 4588,
  "Ġheaded": 22767,
  "JECT": 26004,
  "kk": 14732,
  "Ġê³µìłķ": 31121,
  "Ġflag": 4182,
  "Ġconferences": 13203,
  "PAGENAME": 25952,
  "ĠSubRip": 23080,
  "Ġcush": 29746,
  "Ġgrat": 16080,
  "ĠSpeaker": 31254,
  "Ġrounding": 16722,
  "Ġgrund": 23957,
  "Once": 6463,
  "ooking": 6416,
  "ĠFields": 27344,
  "ä¸¦": 20166,
  "ĠMiller": 20768,
  "urgs": 22577,
  "Ġgiornalismu": 31606,
  "XForms": 29557,
  "Ġchain": 7371,
  "Øº": 3060,
  "arc": 10872,
  "Ġbaseline": 28464,
  "Ð¤": 15902,
  "Ġls": 23671,
  "DF": 2653,
  "ĠTechnologies": 8845,
  "ĠJDK": 20859,
  "ĠBAS": 15579,
  "ĸãĥ©ãĤ¦ãĤ¶": 17407,
  "irth": 7580,
  "Ġgorge": 29932,
  "inger": 8285,
  "à°¬": 16015,
  "werp": 24281,
  "Ġfilled": 16896,
  "itivity": 23620,
  "Ġthereafter": 26577,
  "Ġselbst": 29073,
  "Ġà¬¸": 8963,
  "nyo": 22822,
  "aving": 1955,
  "Ġlever": 13240,
  "Ġonline": 1717,
  "ä»¥ä¸ĭãģ®": 27376,
  "áĢ±áĢ¬": 6941,
  "to": 1074,
  "éĸ©": 28870,
  "Ġsniff": 8754,
  "Ġlisteners": 17776,
  "Ġbetween": 1383,
  "FORM": 21358,
  "Ġregistration": 5504,
  "ĠAuthority": 25734,
  "oning": 8562,
  "ĠPath": 15570,
  "ĠRechts": 30268,
  "control": 18274,
  "åĲİåı°": 27479,
  "Ġzaa": 12283,
  "NC": 8458,
  "ãĥĹãĥĪ": 23117,
  "Ġdali": 19902,
  "ada": 2217,
  "ĠFiltering": 22259,
  "ĠMarathon": 22070,
  "Ġvá»Ľi": 13490,
  "ä¾Ŀ": 30925,
  "lement": 4413,
  "Ġczasu": 22196,
  "agog": 26313,
  "icks": 4922,
  "Ġwelche": 27301,
  "Ġliability": 6883,
  "Ġverw": 16054,
  "Ùĳ": 19194,
  "Ġout": 636,
  "Ġãģĵãģ®": 14384,
  "Overall": 23122,
  "×ķ×ª×¨": 15697,
  "ĠInterface": 15008,
  "Ġsystem": 911,
  "ker": 9418,
  "Al": 2376,
  "ingen": 14405,
  "Ġinformational": 11643,
  "Ġà¨µ": 10460,
  "Ġcausing": 18330,
  "ĠìĤ¬íļĮ": 25607,
  "Ġãģ¤ãģ¾ãĤĬ": 31661,
  "ãĤ¤ãĥ«": 6877,
  "åħ¶ä»ĸ": 23353,
  "Ġbump": 22510,
  "ĠSpec": 3064,
  "erg": 2151,
  "SpruceID": 28503,
  "Ġideal": 10165,
  "Ġek": 11586,
  "ãĥĻ": 16003,
  "ĠAction": 9227,
  "ĠMet": 4553,
  "soever": 20048,
  "Ġcounts": 20163,
  "ans": 483,
  "Ġsport": 30125,
  "prior": 27756,
  "ĠTiáº¿ng": 20746,
  "Ġleb": 17543,
  "inned": 21197,
  "ĠMediaWiki": 3191,
  "public": 8115,
  "Ġsourcing": 23616,
  "Ġnamed": 3848,
  "ĠkpaÅĭ": 19034,
  "Ġmor": 9569,
  "qip": 18527,
  "Ġperfect": 4857,
  "ĠMix": 24924,
  "Ġnak": 27919,
  "separ": 14437,
  "ç®Ģä½ĵ": 16300,
  "Ġseguridad": 23271,
  "mo": 6893,
  "Mailing": 31803,
  "Ġoperated": 15302,
  "Ġtelephone": 19645,
  "ĠMultiple": 21218,
  "Ġconstru": 25255,
  "ĠNormal": 30133,
  "Suomi": 23189,
  "Ġoutlook": 30235,
  "Ġinternationally": 22825,
  "Ġsebagai": 19050,
  "ineet": 18686,
  "Ġemployment": 9380,
  "rm": 31955,
  "èī": 15511,
  "Ġretroactively": 31379,
  "upyter": 13119,
  "aghi": 16442,
  "Max": 29511,
  "ĠzaangaÅ¼": 27599,
  "ĠÄĳá»ĭnh": 18460,
  "sp": 1023,
  "cobbola": 22312,
  "Ĵ": 197,
  "ĠÐĺÐ½": 18382,
  "issions": 2851,
  "ĠpoÅĤ": 23629,
  "kont": 23529,
  "Ġzabez": 21716,
  "Ð»ÐµÐ½": 20059,
  "ĠManager": 8336,
  "Ġìĸ": 13281,
  "ĠDagbani": 9299,
  "Ġriprist": 21241,
  "Anker": 30571,
  "Ġphilosophers": 31140,
  "em": 307,
  "ĠJustice": 9180,
  "Ã¨re": 8716,
  "à¼ĭ": 3343,
  "ason": 1554,
  "ĠVeg": 25067,
  "ëĿ½": 29427,
  "ĠGreen": 10255,
  "Ġambient": 16724,
  "Showing": 31311,
  "DMCA": 31751,
  "ĠÊ»": 5636,
  "Ġdarauf": 27278,
  "aÅĦ": 19826,
  "ĠÐĵ": 7745,
  "Ġprohibits": 23143,
  "Hands": 29483,
  "Map": 14035,
  "ĠBravia": 31691,
  "seud": 7028,
  "ðĲįĤ": 23193,
  "Ġuniversity": 1885,
  "ÐµÐ´": 2122,
  "never": 17040,
  "owars": 16434,
  "Ġfriendly": 13065,
  "Ġprejud": 17573,
  "aku": 11616,
  "ĠPreston": 24082,
  "Ġcompelling": 19366,
  "ðĲįħ": 24356,
  "Ġemp": 4931,
  "ĠgelÃ¶scht": 19074,
  "áĢľáĢĿ": 24315,
  "Ġcoffee": 9611,
  "ipada": 28122,
  "ØªØ§Ø¨": 20913,
  "ronoSync": 25779,
  "Ġnetworks": 5581,
  "wise": 2269,
  "ategories": 4636,
  "Ġgdy": 19955,
  "ãģĻãĤĭãģĵãģ¨": 14261,
  "Ġ×ķ×Ĳ": 21975,
  "ghi": 19381,
  "igte": 27949,
  "Ġfile": 982,
  "Ġbeberapa": 23700,
  "ye": 3881,
  "Ġkin": 28087,
  "×©": 2705,
  "ĠÐºÐ¾Ð»": 30445,
  "band": 12185,
  "Ġenth": 12986,
  "Ġcredential": 14600,
  "hire": 23523,
  "Ġobra": 18718,
  "Index": 9278,
  "idents": 4998,
  "Ġhoused": 29029,
  "Em": 10209,
  "Ġbear": 16934,
  "á»ģn": 16742,
  "Ġsoph": 11579,
  "Ġupheld": 21711,
  "à¹Ģà¸£": 26872,
  "ignore": 16506,
  "aneous": 28601,
  "åı": 2207,
  "Crit": 22341,
  "Ġestablishes": 22984,
  "Services": 16759,
  "ihan": 21090,
  "ĠRight": 9037,
  "ĠPopular": 29188,
  "ĠJohnson": 24256,
  "iks": 21618,
  "ĠUpdate": 13946,
  "Ġekspert": 25800,
  "Ġhonest": 11729,
  "ĠiOS": 6919,
  "à¬ª": 10410,
  "Ġalive": 12244,
  "eche": 24943,
  "hari": 31913,
  "independent": 20061,
  "account": 27174,
  "Ġreliability": 14263,
  "ãģĹãģŁ": 6818,
  "ĠKit": 15263,
  "Ġcorrespondence": 19578,
  "ĠSel": 12468,
  "aurants": 13947,
  "Ġconscious": 28281,
  "ÙĥØ©": 22868,
  "2016": 10919,
  "ĠÑĨ": 10419,
  "Ġsemi": 15737,
  "vertrag": 25327,
  "Ġren": 4465,
  "portal": 30564,
  "Ġblock": 2046,
  "Summary": 17312,
  "Ġproget": 27992,
  "TP": 10350,
  "utr": 18014,
  "Ġbasis": 4111,
  "olved": 2363,
  "Ġautom": 1281,
  "ewn": 30061,
  "Ġpal": 9011,
  "ĠQ": 1522,
  "Ġship": 8147,
  "Ġperlu": 30181,
  "è": 166,
  "×ķ×Ŀ": 11067,
  "ðŁĴ": 21064,
  "ĠLouis": 23402,
  "Ġpublishing": 6195,
  "Ġà¦ħ": 11459,
  "Ġvoter": 28841,
  "Ġcritical": 4538,
  "Ġlenses": 9967,
  "Ġrewritten": 29824,
  "Ġconsists": 9468,
  "iques": 5961,
  "bably": 16341,
  "Ġlosses": 20304,
  "Ġseveral": 1922,
  "IES": 12648,
  "Sound": 19140,
  "Topics": 5378,
  "ĠHackathon": 21301,
  "Ġg": 294,
  "Ġpier": 19232,
  "ast": 578,
  "ĠkÉĶ": 12717,
  "ĠMacintosh": 10833,
  "Ġstan": 20763,
  "ĠDiese": 31451,
  "ĠAre": 5113,
  "Ø¹Ùħ": 12066,
  "×ķ×¤": 7904,
  "entral": 9015,
  "Ġpet": 11209,
  "Ġlorsqu": 29350,
  "Ī": 187,
  "UL": 14045,
  "ĠOs": 20831,
  "ĠSemantics": 19657,
  "ĠHill": 11428,
  "ĠLicenses": 9381,
  "Ġgate": 12695,
  "Ġjustify": 18148,
  "ing": 235,
  "icago": 13768,
  "Ġfinish": 10451,
  "Natuur": 26021,
  "cases": 11772,
  "à¹Ĥà¸Ħà¸£à¸ĩ": 22329,
  "åħ¨ä½ĵ": 27209,
  "assisted": 15607,
  "change": 2809,
  "Ġsearch": 1575,
  "ĠSouthall": 30871,
  "Ġtemporarily": 13696,
  "ĠRegents": 21075,
  "Commits": 3633,
  "Ġtriggered": 13687,
  "ÐĳÐµÐ»Ð°ÑĢÑĥÑģÐºÐ°Ñı": 31087,
  "ĠÐ¼Ð°ÑĪÐ¸Ð½": 19102,
  "Ġretained": 15776,
  "Ġports": 15689,
  "Ġposted": 7047,
  "Ġauf": 4970,
  "Ġgrounds": 16721,
  "Ġchann": 4573,
  "Ġequitable": 17121,
  "Ġscenario": 16247,
  "cancelling": 11376,
  "oko": 18103,
  "ĠWebM": 22745,
  "Å¼Äħ": 30397,
  "oven": 12053,
  "dn": 9938,
  "ening": 3346,
  "Ġletters": 8644,
  "Ġprest": 21735,
  "Ġtalked": 18235,
  "ben": 7413,
  "Ġminimizing": 26727,
  "ç¨ĭå¼ı": 17282,
  "Ġdom": 12004,
  "Ġdist": 1411,
  "Ġmisuse": 17182,
  "Ġfrontend": 11918,
  "Insights": 21323,
  "ĠIMPLIED": 20550,
  "TypedArray": 6576,
  "Ġremoving": 9764,
  "áĢĲ": 3464,
  "ĠSunday": 13195,
  "Common": 9159,
  "Ġupdates": 3163,
  "Ġìĥģ": 20131,
  "Ġhapp": 2028,
  "acific": 19963,
  "estaw": 28042,
  "Ġterminals": 31193,
  "ĠInto": 25223,
  "Ġethical": 12130,
  "Ġsupreme": 28665,
  "Ġbus": 9222,
  "safe": 27768,
  "Ø¸": 5775,
  "emi": 8674,
  "ĠSy": 21589,
  "Ġredu": 2800,
  "Ð°Ð·Ð°": 18941,
  "Ġfrequency": 6428,
  "ĠSQL": 7351,
  "Ġeverywhere": 12522,
  "Ġmeanwhile": 26802,
  "Ġtransferred": 10181,
  "Ġreproduced": 14984,
  "Ġcitizens": 9531,
  "ĠEr": 6494,
  "ĠBeta": 12258,
  "å®ŀ": 20256,
  "wig": 20638,
  "099": 27611,
  "ĠÂ»).": 28814,
  "ĠÚ©ÙĪ": 17700,
  "ednes": 23167,
  "Ġlift": 28502,
  "ĠCOBOL": 13479,
  "otels": 18590,
  "ĠSSL": 29899,
  "ĠMey": 26350,
  "Kl": 31781,
  "Ġecho": 29840,
  "Ġphysicist": 31559,
  "erist": 26179,
  "hibit": 21120,
  "ĠDrop": 9708,
  "Ġascending": 23405,
  "Ġsomething": 2062,
  "ĠDesk": 30699,
  "ÙĪÛĮÚ©ÛĮ": 25104,
  "ĠWikiLatih": 28689,
  "utral": 8131,
  "Ġreplacing": 11110,
  "ĠMu": 21622,
  "Ġtried": 6558,
  "Ġcent": 2294,
  "Ġcar": 3239,
  "Ġmember": 3388,
  "Ġcheapest": 23351,
  "ĠMangino": 29343,
  "paper": 20311,
  "Ġdynam": 6063,
  "mail": 5107,
  "Ġcatalogue": 29105,
  "import": 13778,
  "Ġattachment": 27312,
  "Ġaplikacjach": 29347,
  "ĠBrown": 20379,
  "ĠTher": 22558,
  "wa": 2402,
  "Ó©ÑĢ": 13615,
  "ĠÑĥÐºÑĥÐº": 16786,
  "ĠCrom": 29877,
  "à¸į": 26408,
  "çº§": 23294,
  "ĠÂ©": 19495,
  "ãģ©": 9030,
  "gressive": 18887,
  "ĠTongues": 16305,
  "Mor": 24645,
  "ypass": 28249,
  "Bob": 27620,
  "emili": 29956,
  "Afr": 11758,
  "ificate": 12505,
  "Åĭa": 6507,
  "ÑĨÐ¸ÑĺÐ°": 23035,
  "Ġraise": 11679,
  "áĪį": 12345,
  "Ġ2011": 4397,
  "Ãłng": 23978,
  "matic": 10760,
  "Inf": 21731,
  "Ġord": 5263,
  "Ġattribut": 1432,
  "Ġlib": 4414,
  "Ġcombines": 11317,
  "ãģĬãĤĬ": 31165,
  "ĠkorzystajÄħc": 23214,
  "Ġmag": 3760,
  "set": 4456,
  "Ġhak": 15546,
  "ĠAufbewahrung": 29420,
  "ĠNetzwerks": 27411,
  "ĠKura": 30211,
  "Ġplant": 20057,
  "IGH": 24376,
  "Ġartistic": 9353,
  "Ġknowledge": 1981,
  "ĠDat": 2676,
  "plication": 22609,
  "nost": 26096,
  "ĠGeneral": 5376,
  "angers": 20792,
  "Ġduration": 7662,
  "Ġrecomm": 2074,
  "á¸į": 13679,
  "digital": 21449,
  "Ġnewsletters": 30669,
  "abaya": 29952,
  "Ġinc": 1078,
  "fred": 29592,
  "ĠMS": 12477,
  "ĠBanks": 28073,
  "ographical": 13875,
  "Ļæī": 26162,
  "ðŁı»": 24578,
  "search": 13800,
  "Boston": 29461,
  "Ġwatches": 31103,
  "idden": 5810,
  "Ø«ÙĬØ±": 30857,
  "Ġborrow": 18578,
  "Ġrender": 4890,
  "ĠRed": 8144,
  "Ġmun": 17441,
  "Ġcould": 1233,
  "aire": 16836,
  "ĠJurassic": 22287,
  "ĠGe": 5907,
  "ĠSenior": 5900,
  "ĠArtificial": 14253,
  "ĠÄĳi": 16166,
  "Ġswoich": 25633,
  "èĭ": 13741,
  "Ġinnoc": 24497,
  "Ġneed": 724,
  "ampung": 23949,
  "ĠRegion": 10459,
  "Ġdut": 8662,
  "ĠÐ¿Ð»Ð°ÐºÐ°ÑĤ": 19774,
  "ĠÐ±Ð°Ð¹": 30501,
  "ributor": 20888,
  "ĠShadow": 16584,
  "ĠÙĥÙħØ§": 30905,
  "ÏĢÎ¿": 16221,
  "Ġplanning": 6935,
  "Ð²Ð¾Ð´": 17038,
  "Ġill": 4459,
  "Ġserialized": 29101,
  ",\"": 3344,
  "era": 2799,
  "éŁ": 16870,
  "Ġstored": 4767,
  "Ġblack": 5212,
  "ĠÐ¥": 7967,
  "Ġíĺ": 16662,
  "ÃĦ": 29666,
  "Mass": 19131,
  "Ġhom": 9834,
  "igu": 4745,
  "wnoÅĽÄĩ": 22749,
  "Ġexplaining": 16663,
  "ĠPerfect": 24179,
  "Ġsure": 2619,
  "ĠreprÃ©sent": 27460,
  "transl": 11320,
  "Ġtypical": 12542,
  "ÃŃt": 28435,
  "shot": 8623,
  "Ġcriar": 31500,
  "Ġtough": 24784,
  "ixels": 16538,
  "ĠReb": 19338,
  "ĠShakespeare": 23999,
  "Ġpob": 29753,
  "Ġrus": 24981,
  "video": 11567,
  "Ð³Ð»": 23910,
  "ĠContact": 12318,
  "Ġchoosing": 11466,
  "owanie": 6635,
  "ension": 7897,
  "Ġliberty": 18427,
  "ĠSud": 12016,
  "Ġcannot": 2181,
  "ĠNeg": 25023,
  "Ġconflicting": 30990,
  "Ġfailing": 20267,
  "ÑĢÐ¿ÑģÐºÐ¾Ñħ": 29107,
  "onen": 26174,
  "Ġtalented": 28936,
  "eka": 22782,
  "Ġjoining": 8523,
  "Ġtox": 29792,
  "yman": 30375,
  "Ġdesp": 9352,
  "Ġplastic": 14873,
  "éģķ": 27062,
  "Ġstreams": 10450,
  "Ġseven": 8395,
  "ĠWG": 6489,
  "Ġnearest": 21706,
  "Ġposes": 26196,
  "Ġprofound": 20948,
  "Ġthem": 746,
  "Ġissues": 1365,
  "Ġclearly": 5216,
  "Ġsizes": 10366,
  "Bra": 23463,
  "ĠZero": 12771,
  "ĠDemon": 22113,
  "Ġoptions": 1985,
  "Ã§on": 17116,
  "ĠAst": 16924,
  "ĠPU": 26357,
  "ctioned": 18118,
  "349": 19114,
  "Ġdefines": 5338,
  "focused": 13414,
  "nahme": 31569,
  "Ġsets": 5093,
  "inciples": 22476,
  "Ġregions": 11072,
  "ods": 4768,
  "ĠíĻ": 12360,
  "á»ĳc": 20471,
  "Ġsym": 9959,
  "ÑģÑħÐ¾Ð²ÑĸÑĪ": 21360,
  "OC": 8459,
  "espan": 28347,
  "×ķ×ļ": 23880,
  "nski": 23169,
  "Ġincorrect": 10755,
  "Ġbandwidth": 9510,
  "Ġopening": 10284,
  "Ġregular": 3749,
  "&": 10,
  "ĠFBI": 28084,
  "Ø«": 4437,
  "27": 3851,
  "Ġcryptography": 31043,
  "Ġproyect": 25913,
  "rix": 13210,
  "ãĥ¼ãĥ": 3469,
  "×Ĺ": 3698,
  "Î¬": 5418,
  "System": 7483,
  "Ġditer": 29780,
  "Ġsinging": 19475,
  "Ġover": 848,
  "ĠFinal": 14841,
  "Certain": 23466,
  "mobile": 13439,
  "Ġestablishing": 13090,
  "ĠOOP": 28137,
  "à¸Ħà¸Ńà¸¡à¸¡à¸Ńà¸Ļà¸ª": 16312,
  "gunt": 27729,
  "ç¶ŃåŁºçĻ¾ç§ĳ": 19049,
  "ĠClear": 24870,
  "ĠLake": 30074,
  "Ġ1890": 30539,
  "Ġkick": 11613,
  "Ġprobably": 3589,
  "icularly": 17849,
  "Sur": 17906,
  "ĠEconomic": 11946,
  "Ġvar": 15561,
  "ĠimÃ¡": 25019,
  "Ġhyp": 8476,
  "Ġsilently": 22071,
  "Ġapproved": 7050,
  "anyak": 20114,
  "Ġexecutes": 24120,
  "Ġbasement": 30487,
  "rolled": 9496,
  "Ġbrow": 1254,
  "Ġcom": 334,
  "Ġfiltering": 7312,
  "tre": 10218,
  "ĠMidd": 28023,
  "ao": 23505,
  "inst": 3970,
  "seudo": 25612,
  "ĠHok": 28112,
  "ĠWir": 11815,
  "Ġtrail": 28417,
  "SON": 6207,
  "Ġreproduce": 13617,
  "ziaÅĤ": 29659,
  "Ø§Ø": 3930,
  "Ð¼ÐµÑĤ": 28277,
  "ĠUNESCO": 17241,
  "Ġscan": 9855,
  "geme": 22412,
  "ĠØ§ÙĦØ³": 13855,
  "Ġadvocacy": 16213,
  "Ġtolerance": 31481,
  "Ġenorm": 21701,
  "Ġmethods": 3648,
  "Ġzo": 16020,
  "enne": 20667,
  "cious": 14181,
  "Ġquery": 4825,
  "ĠBal": 11829,
  "ĠkoÅĦ": 31006,
  "neath": 19407,
  "agt": 23703,
  "ĠMad": 7153,
  "éĻ¤": 18388,
  "Ġune": 6367,
  "Ġsatisf": 5767,
  "Ð¼ÐµÐ´": 18707,
  "Ġdisappoint": 12629,
  "ĠzarzÄħdzanie": 31088,
  "Ġecosystem": 4415,
  "iding": 6446,
  "rooms": 14411,
  "ĠØ§ÙĦØ°ÙĬ": 17863,
  "ĠÐ·Ð°Ðº": 28646,
  "Ġlazy": 28328,
  "Ġexcerpt": 16202,
  "istrict": 12322,
  "Ġlong": 1267,
  "Ġsinger": 18793,
  "Äħc": 30290,
  "Ú©": 1939,
  "iÄħ": 3624,
  "à±": 1209,
  "Creator": 16634,
  "Ġreform": 14097,
  "Ġ×ł×ķ×¡": 17743,
  "172": 26783,
  "ĠAnalysis": 11154,
  "ĠCopyright": 3034,
  "amount": 12233,
  "Ġfiber": 24816,
  "Ġobservers": 29119,
  "à¹Į": 7172,
  "à¸Ńà¸¢": 13901,
  "iling": 4714,
  "Ġeliminating": 27305,
  "some": 16359,
  "âĢĻ.": 22643,
  "room": 5357,
  "Ġdell": 16407,
  "ĠMat": 5561,
  "ichen": 27903,
  "),[": 13267,
  "à´®à´": 14605,
  "js": 3921,
  "ÑĥÑħ": 21730,
  "Level": 13386,
  "Ġbundles": 28981,
  "afish": 12086,
  "Ġatrybut": 20543,
  "ania": 1792,
  "ĠbezpÅĤat": 30946,
  "Ġranging": 18647,
  "ĠAT": 18592,
  "Ġdefine": 4956,
  "Ġinappropriate": 12686,
  "Ġbehalf": 5506,
  "ÑĺÐ¸": 25408,
  "Ġpop": 1977,
  "Ġunit": 5534,
  "áĮįáĪŃáĬĽ": 31352,
  "ĠBan": 13222,
  "edit": 13181,
  "ipping": 16850,
  "Ġikkje": 31384,
  "Ġunsubs": 21112,
  "Ġlug": 27926,
  "ĠPaul": 12120,
  "Ġtreaty": 27066,
  "Ġdatas": 14553,
  "Ġdamages": 12381,
  "Ġmetody": 28351,
  "Ġcoinc": 30354,
  "iph": 26443,
  "ìĭł": 13964,
  "Ġanti": 9221,
  "Ġeast": 29838,
  "Ġmaking": 2050,
  "ãĥĪãĥ¼ãĤ¯ãĥ³": 16311,
  "Mat": 9309,
  "Ð½ÑĮÑı": 23287,
  "àŃĩ": 8167,
  "Ġnewsw": 22719,
  "ĠArgent": 13276,
  "Ġ19": 804,
  "Ó©Ð»": 20286,
  "abot": 6402,
  "Ġadjusting": 24274,
  "ĠÐ¾Ð´": 10622,
  "Ġminute": 12363,
  "Ġtali": 19215,
  "Ġensure": 2633,
  "ĠmoÅ¼emy": 24352,
  "à¦Ĺ": 6862,
  "ĠmÃ©s": 14788,
  "Ġflex": 4792,
  "Real": 16543,
  "Ġheart": 6276,
  "Ġheritage": 8620,
  "Ġpreserve": 10449,
  "adium": 10115,
  "ÓĢÐ°": 30929,
  "ĠNordic": 27457,
  "IM": 8270,
  "ĠLibraries": 17218,
  "Ûķ": 3987,
  "nom": 26094,
  "Ð»Ð°": 2892,
  "à¹Ģà¸Ľ": 10040,
  "Ġempower": 9089,
  "nica": 26098,
  "ĠTri": 23695,
  "Ġtunes": 27308,
  "ÙĬØ§Øª": 19394,
  "Filter": 8025,
  "¤Ģ": 27790,
  "nam": 9314,
  "sized": 19846,
  "ĠÐ¿ÑĢÐ¾": 9078,
  "Ġamf": 30340,
  "Ġsil": 4971,
  "amm": 4366,
  "unj": 20728,
  "Ġparse": 8825,
  "Ġbatches": 27900,
  "Ġà¨ĩ": 28628,
  "Based": 15095,
  "ĠßŁ": 13352,
  "nofollow": 27562,
  "Ġlow": 2991,
  "Ġfemale": 27881,
  "lectual": 4986,
  "Pi": 15864,
  "Ġtimestamp": 17745,
  "å¯¾å¿ľ": 29131,
  "ĠMitgliederversammlung": 29422,
  "Ġhyphen": 15801,
  "cost": 31883,
  "ĠmoÅ¼li": 13986,
  "ÙĨØ¯": 9354,
  "czi": 12547,
  "Ġcourse": 4039,
  "ican": 29789,
  "Ġpositives": 22052,
  "ĠXSD": 26677,
  "Ġflavor": 30525,
  "Ġcompetitions": 25436,
  "Ġtransforming": 17191,
  "íĺ": 13449,
  "ä¿Ŀ": 12612,
  "Ġwidget": 13942,
  "Ġassistant": 10319,
  "etry": 19924,
  "Ġdry": 14784,
  "Ġmud": 17986,
  "ĠCVE": 10877,
  "Ġ+/âĪĴ": 26886,
  "Ġwatching": 9392,
  "Ġcrystal": 30790,
  "Ġstolen": 11413,
  "Nap": 19808,
  "Collator": 10336,
  "ĠTrademark": 9373,
  "ĠSher": 16431,
  "Lux": 27663,
  "æŀľ": 13668,
  "SiSwati": 24440,
  "Ġtil": 14066,
  "HP": 9671,
  "mint": 26090,
  "fik": 13728,
  "ĠwÃ¤": 29755,
  "Ġconfirmation": 20386,
  "Ġinstances": 5503,
  "Con": 2268,
  "ĠTar": 24887,
  "å¦Ĥæŀľ": 19723,
  ".):": 28538,
  "isons": 11213,
  "ĠDO": 16466,
  "Ġmilest": 6475,
  "mill": 29619,
  "ÑĥÒ£": 30229,
  "Ġlebih": 19104,
  "Ġambit": 18741,
  "Respons": 29230,
  "Ġ×ł×ķ×©": 27034,
  "ĠEuropean": 4403,
  "ĠLIM": 19330,
  "Ġachievements": 20382,
  "ITO": 20280,
  "Ġkal": 9712,
  "native": 12198,
  "ĠYoshi": 23942,
  "ĠÅĽled": 18369,
  "Neo": 31809,
  "108": 17077,
  "ĠFORTRAN": 31137,
  "Ġà¤ªà¤°": 12609,
  "ĠPill": 19974,
  "ĠFilm": 15221,
  "ĠRome": 17520,
  "Ġà¦¨": 12309,
  "Ġsuites": 23804,
  "ĠWant": 13790,
  "ĠAustralian": 10057,
  "910": 31717,
  "ÐµÑĤÐµ": 24136,
  "Ġswo": 7561,
  "Ġ×ł": 4824,
  "Ġwikil": 9634,
  "ĠCompanies": 18849,
  "ĠLocale": 20013,
  "Ġunstable": 20497,
  "ost": 466,
  "Ġdehydr": 13794,
  "Ġnatively": 19575,
  "Ġovers": 5638,
  "Ġdynamics": 28907,
  "Ġincorrectly": 24432,
  "Ġinvolving": 11455,
  "ķáĥĺáĥĻ": 29707,
  "ĠÐ¿ÑĢÐ¾Ð´ÑĥÐº": 29374,
  "ĠWP": 12698,
  "ose": 590,
  "Ġszczeg": 15388,
  "WI": 29553,
  "ĠÐ¶Ð°Ð½Ð°": 20369,
  "Supp": 22137,
  "orrent": 17228,
  "ies": 385,
  "ĠìĪĺ": 7913,
  "duct": 2413,
  "ersonal": 2433,
  "Ġdashboard": 10067,
  "Hz": 19127,
  "Ġbra": 16410,
  "Ġrefresh": 9752,
  "Ġmaj": 2152,
  "rehens": 5420,
  "áº¿u": 18919,
  "Ġcompan": 14866,
  "tra": 14742,
  "ione": 3991,
  "Ġinstruction": 5746,
  "Ġgly": 22564,
  "Ġappli": 20848,
  "à": 158,
  "Ġexperiencing": 19569,
  "Uh": 4839,
  "Ï": 141,
  "Ġfilms": 15624,
  "nt": 374,
  "ãĤ³ãĥ³ãĥĨãĥ³ãĥĦãĤĴ": 24535,
  "ement": 870,
  "USE": 28697,
  "znym": 27085,
  "ĠSup": 4170,
  "Ġbelieve": 3243,
  "Ġpem": 26194,
  "åĪ©çĶ¨": 8175,
  "Ġstore": 3419,
  "Ġtou": 20661,
  "Ġencyclopedia": 8642,
  "Ġneighb": 16286,
  "ãģ¾": 1476,
  "reme": 3774,
  "Ð½Ð¾Ð³": 30139,
  "Ġincremental": 16628,
  "zer": 4007,
  "uc": 1623,
  "Ġregion": 7105,
  "Å¼s": 20953,
  "AA": 8192,
  "Tab": 12429,
  "ĠNoah": 24121,
  "ago": 8480,
  "Ġgenerate": 4656,
  "means": 21893,
  "à±į": 2301,
  "Ã´n": 21099,
  "Ġsprzeda": 29307,
  "Ġtimer": 28812,
  "Ġunn": 9245,
  "Ġviewed": 8161,
  "ĠObjects": 11336,
  "alifornia": 4022,
  "ĠKah": 18700,
  "Ġanchors": 20424,
  "Ġreload": 4557,
  "Ġsees": 16000,
  "Ġ25": 3043,
  "conditions": 29579,
  "Ġplaced": 5058,
  "à¨µ": 16551,
  "Ġpeace": 14903,
  "Ġindustrial": 18874,
  "char": 11809,
  "Ġlhibre": 29387,
  "Ġowned": 7106,
  "paqsha": 29415,
  "Ġavoidance": 17696,
  "Click": 9410,
  "ĠDocs": 3843,
  "íĥĢ": 29269,
  "ĠAbu": 30629,
  "Ã«n": 18279,
  "Ġath": 9716,
  "Ġhelp": 883,
  "Ð¿": 1155,
  "Ġhire": 18005,
  "ĠMeeting": 13923,
  "§": 104,
  "Ġmel": 10235,
  "101": 14527,
  "à°¥": 30171,
  "RoundingMode": 27532,
  "piecz": 17185,
  "æĶ": 6212,
  "å¼": 5557,
  "Ġokay": 25610,
  "Ġresidents": 8060,
  "ĠSign": 5491,
  "à¸¸": 6744,
  "icework": 8288,
  "ãĥ³ãĥĦ": 15730,
  "Ġmung": 23653,
  "uter": 7818,
  "Ġcame": 4872,
  "åħ±äº«": 13419,
  "×ķ×Ļ×§×Ļ×©×Ļ×ª×ķ×£": 28251,
  "Ġenabling": 6592,
  "Comm": 1371,
  "iÄĩ": 15130,
  "Pak": 26028,
  "resistant": 18671,
  "Ġautomation": 6289,
  "Ġconfigurable": 21913,
  "Ġrenderers": 14654,
  "Ġcut": 6392,
  "ivity": 1849,
  "ATIONS": 25638,
  "omp": 1208,
  "Ġlack": 3972,
  "Ġdess": 27886,
  "Programming": 16782,
  "mis": 31933,
  "05": 8451,
  "ĠNature": 26471,
  "BLACK": 27063,
  "Endpoint": 24453,
  "te": 653,
  "Ġobligation": 9280,
  "Ġâģķ": 17089,
  "Ġq": 8890,
  "waan": 24095,
  "antan": 20824,
  "Ġinfringing": 24172,
  "Ġsniffing": 11540,
  "Ġlapt": 4596,
  "tim": 17390,
  "Ġselect": 1535,
  "Ġcomment": 2623,
  "alu": 17978,
  "egr": 1618,
  "Ġprogrammed": 28934,
  "Ġvision": 6926,
  "ĠLiability": 25732,
  "Ġintegrations": 10304,
  "ĠPhoto": 21927,
  "ynet": 24015,
  "Human": 17894,
  "RTC": 15867,
  "schlieÃŁ": 30663,
  "proof": 9610,
  "Ġbonus": 25857,
  "ĠÑĤÐ¸Ð»": 21888,
  "Ġutility": 11900,
  "ĠwyjÄħt": 28653,
  "ßĵ": 21497,
  "Apps": 16157,
  "ĠUk": 12039,
  "ĠTw": 11409,
  "ĠÒ¯": 17954,
  "separated": 16805,
  "Ġlanding": 9831,
  "Ġannouncements": 15046,
  "Ġunused": 19326,
  "à¦°": 1609,
  "Ġkembali": 23448,
  "Ġrequ": 549,
  "Ġkorpor": 18070,
  "channel": 27952,
  "reich": 26176,
  "Ġitems": 2432,
  "gesch": 26900,
  "usa": 20704,
  "Ġagain": 1680,
  "ravatar": 8536,
  "ages": 550,
  "áģł": 17717,
  "ĠLogo": 12837,
  "Ġcaption": 15386,
  "¾è®¯": 29366,
  "Ġbelief": 11684,
  "ĠpaÉ£": 24086,
  "ĠLib": 12720,
  "Ġkorzyst": 8052,
  "Ġthoughts": 12081,
  "Ġarbitrator": 11517,
  "ĠnÉĽ": 24839,
  "Ġnew": 600,
  "Lampung": 31794,
  "Ġadmits": 30995,
  "Ġmist": 7273,
  "erer": 20032,
  "Ø§Ø¬": 12726,
  "Ġdiagrams": 17252,
  "Ġorchestration": 31518,
  "Ġoun": 24774,
  "falls": 15885,
  "ĠRawlings": 31536,
  "ĠKeep": 12738,
  "appro": 12999,
  "éĸĭçĻº": 22226,
  "ĠEnterprise": 4345,
  "×ł×ĺ": 12098,
  "ĠLin": 17513,
  "970226": 27547,
  "ĠAdvantage": 16574,
  "taining": 24010,
  "name": 3398,
  "zÄĻ": 5108,
  "ĠPen": 13211,
  "ocabulary": 7803,
  "Ġà¬īà¬ĩà¬ķ": 16306,
  "SW": 18506,
  "Ġberecht": 19943,
  "Ġmacro": 10809,
  "syl": 24736,
  "ju": 10850,
  "ĠNa": 10267,
  "ebuerg": 24525,
  "ĠNoDeriv": 30682,
  "font": 22408,
  "ĠPop": 13212,
  "ayout": 7963,
  "eti": 20715,
  "atu": 7659,
  "Ġshar": 12041,
  "ina": 1681,
  "ĠìĤ¬ìļ©íķł": 29179,
  "Ġaligned": 16457,
  "Ġ×ķ×Ļ×§×Ļ×ŀ×ĵ×Ļ×Ķ": 26897,
  "Ġharmon": 11338,
  "à±ĩ": 8420,
  "vian": 26119,
  "Dr": 17889,
  "æĮĩ": 10484,
  "Ġ41": 23921,
  "gener": 3322,
  "ĠCour": 2858,
  "Ġlaun": 2998,
  "Ph": 3126,
  "Ġtexte": 20946,
  "Ġbasics": 15328,
  "URL": 16232,
  "ĠkhÃ´ng": 17233,
  "52": 6781,
  "Build": 7792,
  "Ġayi": 19653,
  "unktion": 27447,
  "ĠAMD": 29077,
  "ĠÐºÐ°ÑĤ": 16580,
  "ãĥ³ãĥĪ": 14207,
  "ided": 4672,
  "Ġbright": 9223,
  "RP": 21426,
  "Ġtense": 24782,
  "Ġau": 9212,
  "ĠCredit": 29016,
  "p": 84,
  "Categories": 8873,
  "Ġartwork": 7296,
  "ĠPulitzer": 25947,
  "ila": 5320,
  "Ġassigned": 10141,
  "anye": 28325,
  "Ġende": 20960,
  "Ġceleb": 12386,
  "ĠThere": 1933,
  "Ġlatest": 3074,
  "Ġfeels": 7514,
  "ĠobsÅĤugi": 25844,
  "Ġpreferred": 8345,
  "ĠPrices": 30569,
  "ÅĦsk": 23022,
  "building": 14578,
  "Ġstre": 4418,
  "acity": 3571,
  "uts": 12015,
  "ferences": 1802,
  "Ġarrest": 25036,
  "An": 2037,
  "iop": 19839,
  "reverse": 29729,
  "Ø§ÙĦØ¬Ø©": 31426,
  "Cla": 22342,
  "Ġvotes": 12383,
  "embea": 18726,
  "ai": 1610,
  "Ġsurrounding": 12854,
  "ìĪĺ": 19857,
  "abricator": 16292,
  "ãģ®ãģ¯": 25157,
  "ĠChris": 13545,
  "gitattributes": 25698,
  "pat": 14052,
  "dog": 22401,
  "ÑĥÐ´Ð°": 28246,
  "Ġpreviously": 5251,
  "ĠLicensors": 30596,
  "ĠEmbed": 25415,
  "usk": 10105,
  "Tim": 9311,
  "ĠConfiguring": 17292,
  "ĠSHACL": 27258,
  "ĠÑĤÐ¾": 18207,
  "rief": 6855,
  "Ġinterrupt": 19419,
  "Ġbasket": 21865,
  "Admin": 7996,
  "ĠLux": 18075,
  "Ġslots": 9382,
  "ĠThanks": 8508,
  "Ġpara": 4754,
  "Ġincidentally": 12134,
  "Ġwie": 9961,
  "ê¸°": 11987,
  "Ġtranslates": 24006,
  "gebra": 29141,
  "Ġvalued": 18710,
  "Ġniemiecko": 29309,
  "Ġswitching": 14622,
  "Ġfiguring": 30927,
  "Ġaccessing": 9470,
  "ì¡°": 27814,
  "Ġfunkc": 13547,
  "Ġstudying": 23114,
  "à¸Ķà¸«à¸¡": 8629,
  "ĠBuild": 11505,
  "enabled": 10697,
  "Ġfotograf": 8981,
  "Ġfloating": 15826,
  "lay": 27741,
  "Ġoxygen": 23639,
  "Ġbreak": 3966,
  "Ġconnection": 3936,
  "éĸ¢": 14624,
  "ije": 11683,
  "Ġsettle": 29064,
  "enggunakan": 19660,
  "ĠImmersive": 21341,
  "oyage": 16058,
  "ãģĨ": 4125,
  "External": 6607,
  "ìĬµ": 7545,
  "ensor": 3846,
  "udu": 13228,
  "Ġapproaches": 9622,
  "ĠJudge": 24224,
  "Ġblockchain": 25309,
  "ĠMIS": 15209,
  "ics": 873,
  "Ġcook": 23622,
  "RDF": 7199,
  "ãģ¦ãģĦ": 3199,
  "Backing": 29460,
  "Ġ95": 15692,
  "Ġthous": 6356,
  "Incre": 17566,
  "Ġlull": 29829,
  "ĠHutchins": 23449,
  "Ġannouncement": 15793,
  "ĠpomocÄħ": 15446,
  "Ġzooi": 28222,
  "Platform": 14978,
  "Ġdescriptions": 12507,
  "Ġjako": 12373,
  "Ġensiklopedia": 27408,
  "Ġsurve": 8165,
  "v": 90,
  "ancial": 4319,
  "eller": 13259,
  "Ġcontribs": 7481,
  "Ġexisting": 2226,
  "ĠÄĳá»": 6718,
  "41": 5351,
  "ĠÑĩÑĭÐ³Ð°ÑĢ": 31625,
  "High": 13142,
  "proved": 28357,
  "ari": 878,
  "Ġdomains": 7693,
  "ÑĶÐ½ÑĤ": 31029,
  "Company": 18302,
  "owan": 15956,
  "ĠØ§Ø³ØªØ®Ø¯Ø§Ùħ": 13920,
  "Ġalert": 3187,
  "Ġprofits": 25193,
  "Ġavoid": 3097,
  "ĠWithin": 21918,
  "Ġstopping": 26343,
  "comm": 2831,
  "Within": 23028,
  "ĠÑĢÐ°": 6015,
  "ICENS": 16764,
  "Ġproductivity": 7608,
  "otted": 19553,
  "CAOB": 5157,
  "elines": 2630,
  "anned": 6995,
  "Ġpartnership": 7709,
  "Ġmiles": 19912,
  "ĠMaintenance": 31104,
  "ĠJoe": 21705,
  "IA": 5072,
  "Ġportfolio": 12782,
  "Ġprohibit": 15781,
  "Talk": 12656,
  "aged": 2957,
  "ĠFlickr": 5533,
  "áĮį": 14656,
  "×ł×Ļ×Ŀ": 15350,
  "',": 11368,
  "FP": 31759,
  "áĥ": 1279,
  "svenska": 21224,
  "áĢħ": 8306,
  "ropolit": 17608,
  "Y": 61,
  "ÅĤÃ³w": 12747,
  "Ġteacher": 23272,
  "icl": 12224,
  "ĠÐ²Ð¸ÐºÐ¾ÑĢÐ¸ÑģÑĤÐ¾Ð²": 31586,
  "ally": 473,
  "ĠUV": 11626,
  "etia": 23678,
  "Ð¼Ð°Ð´": 23879,
  "Ħãĥªãĥ¼": 6899,
  "bÃ¡": 24684,
  "īà¨£": 27822,
  "ĠAdd": 5126,
  "string": 12235,
  "obo": 19393,
  "Ġintermedi": 13546,
  "ĠØªØ±": 21032,
  "×ķ×ŀ×Ļ×Ŀ": 31242,
  "sole": 7831,
  "ĠConfig": 11676,
  "Ŀ": 208,
  "Babel": 24627,
  "apon": 20055,
  "Ġign": 4994,
  "phinx": 21724,
  "Ġwikitext": 9168,
  "Ġdeceptive": 29389,
  "Ġ350": 21741,
  "conom": 3310,
  "ientific": 17598,
  "ëĿ": 27813,
  "ĠEl": 5815,
  "Ġcompar": 5497,
  "Ġexpect": 3108,
  "Ġdangerous": 16792,
  "Ġstudied": 14937,
  "ĠASCII": 13979,
  "oust": 22495,
  "ë¦Ń": 25596,
  "Ġgloves": 31663,
  "erstanding": 13316,
  "acent": 11599,
  "Ġdismiss": 13829,
  "ĠGithub": 26375,
  "ĠTwoje": 23172,
  "Ġrevoked": 28632,
  "Ġbed": 6843,
  "osition": 3176,
  "ÐµÐ½Ð½Ñı": 14932,
  "ĠshÉĽba": 28718,
  "Ġsistemi": 23338,
  "ĠBug": 15216,
  "atur": 9007,
  "ĠKel": 18115,
  "ĨĴ": 4738,
  "ĠPer": 3572,
  "Ġbegin": 3992,
  "Ġinstallation": 6875,
  "ë©´": 15061,
  "Ġpron": 9601,
  "Ġkernel": 19091,
  "Ġ×ľ×Ķ×¢": 24371,
  "Ind": 3733,
  "Ġcrown": 31210,
  "ĠAutoren": 30705,
  "ĠMal": 2691,
  "Newsletter": 31227,
  "Ġeg": 26260,
  "Ġscanned": 17028,
  "Ġlud": 16422,
  "lÃ¢m": 21464,
  "cesz": 25101,
  "ĠCover": 16428,
  "ĠGlass": 12253,
  "ĠConsider": 13929,
  "Ġisland": 26273,
  "Ġrelative": 7515,
  "acza": 29963,
  "ell": 589,
  "ä½ķ": 18814,
  "Ġreveals": 17996,
  "Kar": 12880,
  "ceived": 9699,
  "Ġeuro": 24851,
  "Ġfake": 15173,
  "ĠÐ³ÐµÐ½ÐµÑĢÐ°ÑĨÐ¸ÑĺÐµ": 31409,
  "organization": 24379,
  "ß¡": 14753,
  "ç´°": 22039,
  "ĠCount": 8904,
  "Ġ1977": 20357,
  "ĠStarted": 16723,
  "Õ°Õ¡ÕµÕ¥ÖĢÕ¥Õ¶": 29367,
  "ĠCent": 3113,
  "Ġfascinating": 31573,
  "à°®à°¨": 13666,
  "Ġvote": 6268,
  "Ġunified": 10123,
  "à°¦": 6810,
  "Ġruleset": 5343,
  "Ġscanning": 3189,
  "j": 78,
  "tÃ³": 4260,
  "ĠRec": 2394,
  "à¬¿": 3871,
  "å£«": 29142,
  "åħ±äº«èµĦæºĲ": 23333,
  "Ġllenguat": 12231,
  "Ġimplementations": 5004,
  "Ġdissem": 15795,
  "×ľ×Ļ×ĺ": 28405,
  "Ġpresum": 18833,
  "Ġrestricting": 30633,
  "Ġflat": 9072,
  "ĠØ§ÙĦÙĦØºØ©": 20484,
  "êłħ": 30346,
  "Ġrecipro": 27090,
  "áĢĳ": 13813,
  "Ġagentic": 11502,
  "aked": 10122,
  "endering": 15999,
  "Ġbeta": 9358,
  "Ãºn": 24212,
  "Ġguess": 10147,
  "house": 8553,
  "Ġaccommodation": 21289,
  "indi": 8923,
  "Ġgraphs": 8960,
  "Ġinvestigate": 17221,
  "Ġakt": 8893,
  "Ġspreads": 12855,
  "Ġoccurred": 14981,
  "Ġdesigned": 2284,
  "ended": 1437,
  "ÃŁ": 6211,
  "ĠÐ¼ÓĻ": 25257,
  "Ġtemat": 16185,
  "ales": 2560,
  "Ġsicurezza": 31420,
  "Ø·Ø©": 25393,
  "×Ļ×§×Ļ×©": 14296,
  "Ġunforgettable": 19109,
  "á»ĩc": 25499,
  "ĠEspaÃ±ol": 24424,
  "erving": 16022,
  "ĠAfir": 24126,
  "Ġphotograp": 4180,
  "ÃŃslenska": 30455,
  "Ġphysical": 4865,
  "Ġinnymi": 31326,
  "×§": 3521,
  "ĠHak": 19334,
  "ĠGav": 30019,
  "keeper": 29612,
  "uty": 13481,
  "àº¥àº²àº§": 31231,
  "iral": 12026,
  "umie": 20020,
  "Ġimg": 21690,
  "porting": 14218,
  "à¦ķà¦Ł": 22054,
  "Ġlargely": 9074,
  "à¸µ": 3106,
  "Ġupload": 1457,
  "Ġà¤¬": 10593,
  "ĠCase": 14808,
  "Ġconfigured": 8841,
  "Ġdevelopment": 1651,
  "Ġunsu": 30762,
  "çı¾åľ¨": 27472,
  "Ġà°ľà°°": 15841,
  "ĠChar": 5242,
  "Ġconvinced": 27471,
  "Ġinst": 757,
  "ĠespaÃ±ol": 21943,
  "Query": 10185,
  "Ġautonomous": 19710,
  "Ġstandalone": 16712,
  "ho": 5587,
  "reenshot": 24518,
  "ql": 17928,
  "engine": 17071,
  "yz": 13738,
  "Ġdeveloped": 3678,
  "Ġfootage": 17749,
  "riminals": 25532,
  "Ġprioritize": 11745,
  "Ò": 144,
  "êłį": 18742,
  "ĠArchives": 15000,
  "glasses": 26070,
  "many": 23539,
  "ÃŃn": 13881,
  "ĠcaÅĤ": 10103,
  "ĠSmithsonian": 31296,
  "Ġaccuracy": 9084,
  "Ġears": 14797,
  "Ġbene": 28595,
  "ata": 487,
  "å®Ł": 12346,
  "Ġsynchronous": 31220,
  "Fair": 12646,
  "Ġre": 254,
  "à¸§à¸¡": 28658,
  "quart": 19305,
  "Ġremoved": 4563,
  "Ġpadd": 17425,
  "ĠCertain": 18600,
  "ĠAppro": 15303,
  "Ġ43": 18736,
  "ĠAthletic": 29320,
  "Ġblogging": 28724,
  "Ġjed": 12276,
  "Ġexclusions": 21640,
  "Ġrecommends": 16162,
  "Git": 14712,
  "Ġdefence": 23883,
  "Ġopinions": 9181,
  "åħĪ": 16631,
  "Krist": 29499,
  "ĠOld": 14457,
  "elo": 20754,
  "Ġfra": 5232,
  "ÑĭÐ½": 5365,
  "Ø§ÙĪÙĨ": 28143,
  "Transparency": 30967,
  "Ĭ¸": 11201,
  "Fr": 9802,
  "Ġcollaborator": 24065,
  "æĬĢ": 13405,
  "ovim": 22739,
  "es": 225,
  "Ġaforementioned": 20547,
  "emp": 12239,
  "Ġexit": 23744,
  "æį": 17945,
  "ossary": 25184,
  "Ãłi": 9748,
  "hing": 1463,
  "Ġauxiliary": 23328,
  "ĠTraining": 13106,
  "Ġanalyst": 25291,
  "olly": 13487,
  "contact": 28667,
  "edt": 29763,
  "endo": 12038,
  "ceased": 26316,
  "Image": 13045,
  "Draw": 29468,
  "asonic": 30471,
  "ĠDenmark": 31261,
  "Ġsubscription": 4235,
  "ĠNg": 20039,
  "ĠWireless": 11816,
  "pose": 2103,
  "Ġhexadecimal": 19098,
  "azette": 18153,
  "Ġstead": 28014,
  "ĠFree": 3844,
  "Ġproviders": 5574,
  "Ġ__": 14385,
  "ç¯": 17401,
  "Ġgoverning": 17033,
  "Ġmeer": 18696,
  "Ġreimburs": 23410,
  "ĠSp": 949,
  "ĠPi": 14830,
  "ĠProv": 9467,
  "Ġ1941": 22740,
  "woo": 20113,
  "ĠRegardless": 30688,
  "çķ": 9209,
  "cience": 15648,
  "enced": 10368,
  "Ġä¸Ńæĸĩ": 11575,
  "ĠÐ¿ÑĢÐ°": 6457,
  "acs": 28010,
  "rele": 9956,
  "Ġpurchasing": 21146,
  "styles": 23691,
  "zt": 18531,
  "commons": 12350,
  "ĠÐ¿Ð¾": 7382,
  "Ġsecrets": 13270,
  "Turn": 15489,
  "Ġtests": 4428,
  "Ġroy": 10594,
  "Ð¾Ð½": 2206,
  "onical": 6351,
  "æĿĲ": 11339,
  "Locale": 4284,
  "Ġpitfalls": 22229,
  "çŃī": 13671,
  "Ġly": 10107,
  "Ġlikewise": 28969,
  "riel": 22592,
  "Ġindexed": 28772,
  "á»Ļ": 5269,
  "167": 24020,
  "áŀļ": 27170,
  "ãĥĥãĥī": 18882,
  "oly": 9814,
  "ãĥĥãĥĹ": 11501,
  "áº¥y": 13659,
  "ĠNavajo": 17302,
  "bury": 8274,
  "Ġbread": 19240,
  "ICES": 13360,
  "asy": 4942,
  "Ã¶glich": 24012,
  "×Ĳ×Ŀ": 30552,
  "adu": 3380,
  "YorÃ¹bÃ¡": 31660,
  "angular": 18064,
  "ĠpÃ¥": 9823,
  "David": 19121,
  "ĠReveal": 13848,
  "ĠLee": 20804,
  "ĠPark": 6025,
  "Ġtaun": 25541,
  "akata": 23763,
  "ĠDA": 15973,
  "ĠWales": 12932,
  "Ġwyso": 18877,
  "Ġprem": 12741,
  "Ġlinguag": 19667,
  "fall": 29590,
  "unter": 12926,
  "éĻ": 7813,
  "ĠFitness": 15745,
  "eÅ¡t": 12887,
  "25": 2369,
  "Ġelect": 4651,
  "Ġunst": 13225,
  "ĠKL": 20870,
  "Ġchip": 13235,
  "Naming": 26020,
  "duc": 4056,
  "ĠPerformance": 15734,
  "Ġanimated": 28830,
  "alleries": 8587,
  "áĢ½": 5397,
  "Ġconversion": 16448,
  "ĠIrish": 25850,
  "Ġnomination": 17797,
  "ĠwiÄĻks": 19686,
  "Ġbajo": 27899,
  "ĠLong": 13808,
  "ĠBasic": 9295,
  "since": 15892,
  "ĠPayPal": 19661,
  "jrzyj": 31355,
  "Ġsuite": 6543,
  "Öģ": 26139,
  "ãĥĳãĥ¼ãĤµ": 19633,
  "ĠRole": 24998,
  "Normative": 29518,
  "ĠÑıÐ·ÑĭÐºÐ¾Ð²": 22301,
  "actic": 14479,
  "Ġscheme": 10800,
  "event": 31895,
  "Ð²ÐµÑĤ": 26565,
  "Import": 30684,
  "Ġadvant": 5005,
  "Ġcoordin": 8974,
  "Ġleaving": 7978,
  "ĠAngular": 14286,
  "Ġharm": 4670,
  "Ġcollator": 26776,
  "Daniel": 31541,
  "Ġrarely": 10968,
  "Ġruns": 6038,
  "Ġrespected": 18162,
  "ĠAgreement": 4757,
  "ected": 1236,
  "ĠÙĪÙĬ": 24028,
  "ĠAnnotation": 25838,
  "els": 1339,
  "urch": 6636,
  "ĠÑģÑĮ": 28431,
  "Ïħ": 5802,
  "ĠVisualEditor": 25481,
  "Ã¡l": 12759,
  "Ġdesktops": 22716,
  "Ġincident": 5404,
  "Ġfreelance": 11173,
  "Ġol": 12912,
  "szer": 23550,
  "ĠSi": 13783,
  "ĠMicrodata": 21957,
  "ĠTumb": 21600,
  "Po": 23481,
  "dim": 15881,
  "ĠKam": 19390,
  "éłħ": 15790,
  "ĠEinstein": 20819,
  "Ġspeaks": 28539,
  "ibr": 1979,
  "ãģķãĤĵ": 28607,
  "TION": 15872,
  "aped": 17549,
  "ĠDoc": 23749,
  "Ġ×Ķ×¤×ķ×¡×ĺ×¨": 27314,
  "ĠÑĦÑĥÐ½Ðº": 24265,
  "Ġschools": 6242,
  "arden": 15247,
  "Ġinput": 2902,
  "display": 22188,
  "xml": 9948,
  "ĠExcel": 23965,
  "Ð°Ð½Ð´": 8830,
  "ony": 2104,
  "Ã¹": 4810,
  "Hub": 657,
  "ĠURL": 2912,
  "ĠÄĳáº¿n": 22973,
  "Ġexciting": 9508,
  "Ġregist": 3218,
  "Ġask": 1875,
  "åĩ¦": 13393,
  "Ġupdating": 14535,
  "Ġcosts": 5135,
  "Ġadapting": 17697,
  "ilib": 29842,
  "iaÅĤ": 6221,
  "push": 23545,
  "Ġinterpret": 3630,
  "PS": 5688,
  "writ": 6530,
  "ĠAl": 1424,
  "Ġcriminal": 11546,
  "ĠáĬ¥": 18373,
  "Ġitem": 4391,
  "ĠRDF": 7971,
  "Ġfolder": 8154,
  "Ġcine": 29743,
  "ĠIFR": 29917,
  "Ġprakt": 22119,
  "Ġregul": 3297,
  "ĠFP": 24971,
  "Ban": 8983,
  "Ġcost": 2548,
  "Sip": 31826,
  "lick": 1268,
  "Ġug": 22763,
  "Ġdiritto": 17982,
  "files": 14359,
  "index": 6594,
  "Ġarchivo": 26774,
  "posed": 23960,
  "Ġpositioned": 21160,
  "Ġhell": 23806,
  "kan": 4286,
  "Ġstart": 1093,
  "Ġunchanged": 22307,
  "ĠProjects": 6141,
  "Norfuk": 29247,
  "Ġsupervised": 29109,
  "okÃ©": 11251,
  "ãĥ«ãĥ¼ãĥ«": 7119,
  "exhaustive": 28398,
  "Ġwarranty": 14635,
  "ä¾Ľ": 10486,
  "Ġoutcomes": 8065,
  "ĠIhnen": 12822,
  "ĠOER": 30109,
  "uz": 5691,
  "Ġ00": 10093,
  "Hidden": 27648,
  "Ġ1972": 23095,
  "ĠLind": 23775,
  "à©Ĥ": 18846,
  "ĠOpenDNS": 26788,
  "ĠÑģÒ¯ÑĢÓ©ÑĤÑĤ": 27437,
  "Ġds": 12460,
  "Ġlipu": 29832,
  "aa": 1422,
  "ĠRebirth": 23411,
  "ë©Ķ": 27245,
  "Ã³ÅĤ": 3832,
  "Publishing": 18504,
  "column": 22120,
  "wide": 4161,
  "ĠKern": 11055,
  "ĠAgentic": 24403,
  "phishing": 27757,
  "mp": 7132,
  "ĠGeo": 14434,
  "Ġbiking": 22511,
  "zero": 17936,
  "Ġpoint": 1583,
  "ĠHy": 9848,
  "rios": 29984,
  "ÑĤÐµ": 10270,
  "Tele": 29551,
  "ĠWikiquote": 29435,
  "ĠZwecke": 25241,
  "Ġregulated": 21109,
  "ĠCoalition": 26939,
  "Ġfarm": 16404,
  "ë©": 9424,
  "agraph": 9840,
  "_": 67,
  "ĠChanging": 20917,
  "Ġstake": 10716,
  "ĠTro": 27975,
  "ugh": 13735,
  "arf": 27911,
  "}.": 22443,
  "ĠAvoid": 28738,
  "Ġforgotten": 21380,
  "ues": 808,
  "Ġfee": 10578,
  "ĠJefferson": 31298,
  "ĠJews": 13249,
  "×¦×ľ": 24239,
  "Ġhandles": 12779,
  "Question": 30858,
  "Ġcount": 1318,
  "Ġêłİ": 24138,
  "Ġmarg": 12374,
  "ãĥŀãĥĥãĥĹ": 31092,
  "eor": 31892,
  "Ġling": 9437,
  "Ġtool": 947,
  "WG": 2150,
  "ï¿½ï¿½ï¿½ï¿½": 1771,
  "ĠDurobo": 24951,
  "Ġfir": 752,
  "ĠRap": 15233,
  "Ġwil": 15534,
  "onditions": 15620,
  "gu": 1377,
  "acji": 3463,
  "owanych": 23690,
  "Ġsufficient": 5088,
  "Ġcalled": 1541,
  "Ġoptimization": 8631,
  "ä": 162,
  "Ġidentifiable": 10286,
  "Ó¦": 27802,
  "66": 5192,
  "Global": 9803,
  "llo": 10404,
  "Ġcommitment": 10779,
  "awi": 11645,
  "Ġrecovered": 26556,
  "Ġsouth": 16391,
  "Ġnavigate": 6046,
  "Ġfab": 27876,
  "Activities": 21220,
  "ìĽĲ": 15076,
  "éł": 7338,
  "ĠZ": 1519,
  "Ġaggreg": 7170,
  "far": 29589,
  "iom": 11775,
  "Ġadvisors": 25726,
  "Ġcreat": 7511,
  "anna": 15331,
  "1999": 28843,
  "Ġdemons": 28480,
  "Ðĵ": 8119,
  "Alemannisch": 22336,
  "Ġsilos": 21173,
  "Ġparser": 5649,
  "Ġguide": 3530,
  "isili": 19891,
  "Ġpermanently": 9292,
  "Ġ180": 17651,
  "Ġub": 15515,
  "ĠMysterious": 18620,
  "ĠSamuel": 24328,
  "ĠTwojego": 31023,
  "lim": 3637,
  "Ġways": 2528,
  "ĠUSE": 20202,
  "Ġavatars": 30307,
  "obert": 8722,
  "pract": 23544,
  "ĠMTV": 26351,
  "Op": 23480,
  "JPG": 17350,
  "EAR": 25986,
  "çº": 11783,
  "ĠAccessories": 17141,
  "Ġatt": 837,
  "Ġdei": 9125,
  "è«¾": 24522,
  "ĠÑĤÑĥÑĢÐ°": 28497,
  "Ġfilename": 13997,
  "Ð½Ð°Ñı": 21072,
  "ĠÙĤØ§ÙĨ": 25530,
  "requisites": 29334,
  "Commit": 11875,
  "Ġencompasses": 27500,
  "itted": 2555,
  "ISO": 21984,
  "crumbs": 21382,
  "Ò±Ð»Ð´ÑĭÐ·": 24606,
  "hal": 8463,
  "ĠICAD": 13788,
  "Ġsculpture": 18420,
  "RS": 2660,
  "ãģ¨ãģĹãģ¦": 16126,
  "Ġportion": 7619,
  "ĠQue": 13577,
  "Ġpili": 16397,
  "Ġph": 725,
  "etzt": 27134,
  "Î½": 3059,
  "Ġneces": 29816,
  "Ġdisagreement": 25761,
  "Ġhelping": 6600,
  "ĠExpert": 8078,
  "ĠÑĥ": 3128,
  "ened": 14074,
  "Ġpriv": 1095,
  "forder": 19991,
  "ĠSecurities": 20993,
  "à¤°à¤¸": 30601,
  "Ġqu": 558,
  "Ø§ÛĮ": 25014,
  "Ġclothing": 25091,
  "Ġà¹Ģ": 19206,
  "orage": 2173,
  "ijÃ´": 24040,
  "Ġmost": 913,
  "ĠWikipedia": 803,
  "Ġrig": 13804,
  "Nordfriisk": 29306,
  "ĠDefin": 11270,
  "ĠLIMIT": 19783,
  "ĠMuslims": 25815,
  "ĠØ¨ÙĦ": 26770,
  "Ġhon": 5453,
  "ĠNintendo": 25028,
  "ĠHistory": 8686,
  "ambique": 30681,
  "voy": 31979,
  "Ġcenters": 14567,
  "utations": 29883,
  "Rest": 8877,
  "rana": 22783,
  "à¸²à¸«à¸£": 18434,
  "ĠDashboard": 19312,
  "ibers": 30143,
  "Want": 14720,
  "Ġdark": 8897,
  "Ġcomfortable": 6945,
  "Ġìĸ¸ìĸ´": 22248,
  "dimensional": 16812,
  "çłģ": 20481,
  "resh": 6410,
  "ability": 1167,
  "ĠExecut": 23964,
  "also": 11216,
  "ĠspÃ©c": 23811,
  "ãĢģ": 1824,
  "ycz": 4899,
  "è¨Ń": 21083,
  "Ġrepository": 1011,
  "Ġbescher": 13649,
  "ĠrÃ¨": 30065,
  "Translation": 13390,
  "Ġbroken": 9895,
  "Ð°Ð¼": 3975,
  "ĠbÄĻdÄħ": 23648,
  "Josh": 31779,
  "Ġrzec": 16980,
  "st": 283,
  "iÃ³n": 11000,
  "è®¸": 12839,
  "etisi": 26272,
  "Fine": 10346,
  "çĶµ": 30580,
  "ĠModule": 4433,
  "å¤ļãģı": 24416,
  "Ġprogressive": 21135,
  "Ġhis": 1525,
  "Kaltura": 7805,
  "ĠAcademic": 23306,
  "ĠÐĽ": 11828,
  "æĸ¼": 18825,
  "ÙģØŃØ©": 19743,
  "Ġë§ģíģ¬": 31305,
  "Ġmechanical": 17193,
  "Ã¼h": 28401,
  "Ġinformation": 592,
  "Ġzost": 14878,
  "chtsgrund": 17303,
  "ĠPublication": 21990,
  "Ġemerging": 9660,
  "ĠartÃŃculos": 23302,
  "Ġnotice": 2803,
  "yarn": 30975,
  "inese": 5243,
  "Ġcredited": 16682,
  "ĠklientÃ³w": 17823,
  "Editing": 8633,
  "è¨³": 28636,
  "Ġreplies": 26812,
  "local": 15499,
  "HD": 13709,
  "áĢ¬ê©»": 30577,
  "ìļ": 3721,
  "aczego": 21237,
  "±ê³¼": 11193,
  "antu": 21675,
  "ĠÐºÐ»Ð°ÑģÐ¸ÑĦ": 31619,
  "Ġà¸§": 29694,
  "Ġqualif": 11443,
  "ĠKom": 12046,
  "Ġillustrations": 18368,
  "Used": 24353,
  "ĠCI": 9229,
  "Ġrevenue": 6396,
  "Ġlam": 27925,
  "ĠâĨ": 16579,
  "Ġà°Ĩ": 21879,
  "inent": 14769,
  "ĠPod": 17490,
  "ÙĤÙĦ": 20181,
  "Ġboards": 25446,
  "æĭ": 10090,
  "ĠWenn": 24904,
  "Ġsurface": 10029,
  "Ġce": 10101,
  "ĠDiamond": 24296,
  "Ġextreme": 6713,
  "Ġwomen": 6441,
  "Ð¾ÑĢÑĤÐ¾": 25311,
  "Ġexamine": 30276,
  "çŃ": 7955,
  "Ð´ÑĥÐº": 13843,
  "à¸²à¸§": 30472,
  "uan": 7875,
  "Korzyst": 31787,
  "Ġngo": 24841,
  "andbox": 8393,
  "iff": 3764,
  "iat": 9939,
  "zb": 8203,
  "Ġcredible": 23039,
  "Ġhumanity": 13035,
  "ÑĤÐ°ÑĢÐ°": 16706,
  "êłĲ": 19432,
  "Block": 8872,
  "ĠObviously": 26913,
  "ĠCanadian": 11492,
  "Ø¨Ø§": 20955,
  "Ġemoji": 25113,
  "ned": 7018,
  "orb": 8563,
  "Ġarm": 19363,
  "Even": 8456,
  "pagename": 26103,
  "vÃ©": 29646,
  "Ġ(\"": 4527,
  "riz": 19972,
  "ĠLaboratory": 27488,
  "Ġbarriers": 11750,
  "Ġdiagnost": 31468,
  "nio": 18525,
  "Ġcurat": 16670,
  "International": 9653,
  "Ġmatches": 8501,
  "Http": 27649,
  "Scape": 18936,
  "Ġaside": 18052,
  "aste": 10576,
  "ĠBlackboard": 17760,
  "ĠQueens": 31318,
  "Did": 16318,
  "ported": 17114,
  "à¦®": 3349,
  "ener": 666,
  "éĽĨ": 17258,
  "emble": 14172,
  "Ġlicense": 1033,
  "ĠãģĵãĤĮ": 15914,
  "Ġà¤¤": 15288,
  "ĠMatt": 18050,
  "shit": 30589,
  "à¬ķà¬°à¬£": 29397,
  "There": 1711,
  "24": 2339,
  "à¦¾à¦Ĥ": 13298,
  "assic": 18691,
  "ĠÐ´Ð¾": 9162,
  "à¦¿": 2193,
  "ĠWelch": 24905,
  "cht": 4700,
  "ĠFa": 22616,
  "Ġtemperature": 17876,
  "Ã©tis": 29035,
  "Ġdefinitions": 8004,
  "wikimedia": 11928,
  "Ġevalu": 4691,
  "infringement": 31154,
  "ĠGravatar": 9240,
  "fere": 624,
  "ĠSin": 18606,
  "Ġtwe": 9553,
  "Ġêł": 2928,
  "kund": 31925,
  "Ġrollback": 25577,
  "Ġholidays": 12167,
  "ondition": 20891,
  "grid": 30172,
  "ĠAn": 1573,
  "Ġintegrate": 9267,
  "ÅĦ": 3578,
  "Ġzwischen": 31113,
  "ä»ķ": 17119,
  "veals": 16918,
  "Ġmidnight": 21138,
  "Ġtecnolog": 27839,
  "Ġclassification": 9751,
  "irty": 11483,
  "Ġfifth": 12680,
  "forth": 24960,
  "Ġzwrot": 29034,
  "×Ļ×¡×ĺ": 25634,
  "ogether": 6858,
  "Ġminors": 20937,
  "ĠMalay": 4521,
  "ĠUyeda": 24554,
  "Õ¡Õ¶": 14995,
  "Ġseats": 22651,
  "magyar": 21350,
  "ĠInstances": 21045,
  "opoly": 29969,
  "ran": 1027,
  "Ġspecifics": 30329,
  "ĠÙĪÙħÙĨ": 30516,
  "2": 22,
  "oned": 24790,
  "çĲ": 5049,
  "NU": 6147,
  "Date": 6205,
  "ĠKil": 25082,
  "Ġorange": 27998,
  "zeichnet": 24555,
  "urity": 868,
  "quire": 3882,
  "Ġdung": 16408,
  "ĠìłĢìŀĳë¬¼": 22185,
  "ĠCommunications": 10198,
  "usufbekov": 31635,
  "Ġbunch": 12915,
  "Ġreceiving": 8335,
  "Ġcharact": 2066,
  "ÑģÑĤÐ°": 13582,
  "urge": 22575,
  "Ġ94": 21910,
  "Ġquirks": 30192,
  "Instead": 18972,
  "Ã©g": 15266,
  "Ġknowingly": 24414,
  "antwort": 20024,
  "ĠDid": 19982,
  "Ġdiese": 16261,
  "ln": 24714,
  "ØªØ§": 21769,
  "cos": 3879,
  "Ġtechnolog": 11856,
  "ĠpÅĤyt": 29319,
  "Ġdow": 11798,
  "Ġbien": 20692,
  "Ġ×Ĳ×ķ": 11307,
  "Ġmetadata": 5211,
  "arbonite": 1916,
  "Ã§Ãµes": 13028,
  "Ġkonfig": 29031,
  "239": 20219,
  "Ġ96": 26791,
  "Ġpregn": 17572,
  "Ã³": 730,
  "Her": 29482,
  "Ġrenowned": 25943,
  "ours": 2295,
  "ĠLeg": 13810,
  "Ġsensors": 6927,
  "Ġãģ¤": 27817,
  "ä¸Ĭ": 5958,
  "Ġextensively": 20997,
  "ĠFROM": 23362,
  "Ġwielu": 25832,
  "åŁŁ": 18951,
  "blog": 27712,
  "Ġduri": 26218,
  "ĠMag": 7087,
  "ĠTest": 6970,
  "enia": 7343,
  "user": 6482,
  "adjust": 29922,
  "allenges": 19105,
  "Ġinteraction": 9274,
  "Ġluck": 17998,
  "Sing": 12181,
  "Ġstructs": 25536,
  "atore": 19874,
  "sb": 31962,
  "ĠResults": 12787,
  "crib": 1404,
  "Ġwrit": 1321,
  "ĠÙħ": 1230,
  "âĢĻ,": 28121,
  "à´": 4162,
  "ĠÚ©Ø§": 12571,
  "ÙĦÙģ": 11248,
  "Ġbagian": 23248,
  "Bibli": 19118,
  "Ġ21": 3362,
  "irefox": 1942,
  "VO": 15118,
  "Ġwho": 856,
  "ĠTV": 3138,
  "Ġstood": 20765,
  "ĠLeadership": 24396,
  "ĠPolski": 29991,
  "ĠXHTML": 7689,
  "Ġintroducing": 14967,
  "ĠÐ½Ðµ": 5752,
  "atre": 16879,
  "ĠtatarÃ§a": 27841,
  "äºº": 7249,
  "Ġtransactions": 9605,
  "XQuery": 14355,
  "itti": 21837,
  "ĠTrustees": 23137,
  "luence": 6822,
  "63": 6950,
  "Extensions": 14642,
  "à¤¥": 17526,
  "Ġforma": 20098,
  "Ġartif": 9858,
  "ĠAMC": 29076,
  "kulu": 27740,
  "iso": 16893,
  "ĠNames": 28155,
  "Ġextending": 18740,
  "Ġmanages": 11648,
  "ĠPurpose": 26363,
  "Ġleads": 7847,
  "Ġclose": 3597,
  "Ġ({{": 29923,
  "within": 24191,
  "Term": 19143,
  "ĠáĢ¡": 9758,
  "ÑİÑĤ": 21967,
  "à¸Ļ": 2041,
  "way": 2114,
  "Ġnive": 12917,
  "åĲ«": 16154,
  "Trademark": 15699,
  "Ġcontainers": 17626,
  "key": 6138,
  "£p": 16861,
  "Ġpomys": 18939,
  "%).": 31710,
  "Ġsimilarly": 14175,
  "rite": 7133,
  "Ġeditors": 3833,
  "Ġminimis": 2290,
  "Ġ×¡": 7228,
  "''": 15473,
  "Ġiteration": 6343,
  "ĠCad": 20722,
  "ĠbezpieczeÅĦstwo": 31365,
  "ãĤ¯": 3130,
  "Ġcyberbullying": 11722,
  "lecting": 30261,
  "Ġreferenced": 9404,
  "ĠOTRS": 4807,
  "ĠKid": 26521,
  "Ġram": 15987,
  "ĠØ§Ø³Øª": 13349,
  "Ġholding": 14583,
  "iser": 8037,
  "ĠartÃŃcul": 12051,
  "pa": 3904,
  "åħ¨": 8517,
  "adin": 24895,
  "Ġtemplates": 2076,
  "Ġrev": 2807,
  "ikel": 3644,
  "ĠSÃªndÃ¢": 17466,
  "ÐĳÐ°ÑĪ": 31086,
  "âĢĶ": 1346,
  "izont": 18082,
  "ĠInstaller": 27318,
  "Ġanche": 22503,
  "ĠS": 281,
  "Ġut": 2842,
  "Ġwill": 503,
  "Ġbackbone": 26591,
  "ĠMIT": 16950,
  "¤×ĵ×Ļ×Ķ": 9546,
  "ĠAutom": 11498,
  "ÑĥÐ´": 8497,
  "Ġwoofer": 31687,
[...]
