{
  "version": "1.0",
  "truncation": null,
  "padding": null,
  "added_tokens": [
    {
      "id": 0,
      "content": "<s>",
      "single_word": false,
      "lstrip": false,
      "rstrip": false,
      "normalized": false,
      "special": true
    },
    {
      "id": 1,
      "content": "</s>",
      "single_word": false,
      "lstrip": false,
      "rstrip": false,
      "normalized": false,
      "special": true
    },
    {
      "id": 2,
      "content": "<unk>",
      "single_word": false,
      "lstrip": false,
      "rstrip": false,
      "normalized": false,
      "special": true
    },
    {
      "id": 3,
      "content": "<pad>",
      "single_word": false,
      "lstrip": false,
      "rstrip": false,
      "normalized": false,
      "special": true
    },
    {
      "id": 4,
      "content": "<mask>",
      "single_word": false,
      "lstrip": false,
      "rstrip": false,
      "normalized": false,
      "special": true
    }
  ],
  "normalizer": null,
  "pre_tokenizer": {
    "type": "ByteLevel",
    "add_prefix_space": false,
    "trim_offsets": true,
    "use_regex": true
  },
  "post_processor": {
    "type": "ByteLevel",
    "add_prefix_space": true,
    "trim_offsets": false,
    "use_regex": true
  },
  "decoder": {
    "type": "ByteLevel",
    "add_prefix_space": true,
    "trim_offsets": true,
    "use_regex": true
  },
  "model": {
    "type": "BPE",
    "dropout": null,
    "unk_token": "<unk>",
    "continuing_subword_prefix": null,
    "end_of_word_suffix": null,
    "fuse_unk": false,
    "byte_fallback": false,
    "ignore_merges": false,
    "vocab": {
      "<s>": 0,
      "</s>": 1,
      "<unk>": 2,
      "<pad>": 3,
      "<mask>": 4,
      "!": 5,
      "\"": 6,
      "#": 7,
      "$": 8,
      "%": 9,
      "&": 10,
      "'": 11,
      "(": 12,
      ")": 13,
      "*": 14,
      "+": 15,
      ",": 16,
      "-": 17,
      ".": 18,
      "/": 19,
      "0": 20,
      "1": 21,
      "2": 22,
      "3": 23,
      "4": 24,
      "5": 25,
      "6": 26,
      "7": 27,
      "8": 28,
      "9": 29,
      ":": 30,
      ";": 31,
      "<": 32,
      "=": 33,
      ">": 34,
      "?": 35,
      "@": 36,
      "A": 37,
      "B": 38,
      "C": 39,
      "D": 40,
      "E": 41,
      "F": 42,
      "G": 43,
      "H": 44,
      "I": 45,
      "J": 46,
      "K": 47,
      "L": 48,
      "M": 49,
      "N": 50,
      "O": 51,
      "P": 52,
      "Q": 53,
      "R": 54,
      "S": 55,
      "T": 56,
      "U": 57,
      "V": 58,
      "W": 59,
      "X": 60,
      "Y": 61,
      "Z": 62,
      "[": 63,
      "\\": 64,
      "]": 65,
      "^": 66,
      "_": 67,
      "`": 68,
      "a": 69,
      "b": 70,
      "c": 71,
      "d": 72,
      "e": 73,
      "f": 74,
      "g": 75,
      "h": 76,
      "i": 77,
      "j": 78,
      "k": 79,
      "l": 80,
      "m": 81,
      "n": 82,
      "o": 83,
      "p": 84,
      "q": 85,
      "r": 86,
      "s": 87,
      "t": 88,
      "u": 89,
      "v": 90,
      "w": 91,
      "x": 92,
      "y": 93,
      "z": 94,
      "{": 95,
      "}": 96,
      "~": 97,
      "¡": 98,
      "¢": 99,
      "£": 100,
      "¤": 101,
      "¥": 102,
      "¦": 103,
      "§": 104,
      "¨": 105,
      "©": 106,
      "ª": 107,
      "«": 108,
      "¬": 109,
      "®": 110,
      "¯": 111,
      "°": 112,
      "±": 113,
      "²": 114,
      "³": 115,
      "´": 116,
      "µ": 117,
      "¶": 118,
      "·": 119,
      "¸": 120,
      "¹": 121,
      "º": 122,
      "»": 123,
      "¼": 124,
      "½": 125,
      "¾": 126,
      "¿": 127,
      "Â": 128,
      "Ã": 129,
      "Ä": 130,
      "Å": 131,
      "Æ": 132,
      "Ç": 133,
      "È": 134,
      "É": 135,
      "Ê": 136,
      "Ë": 137,
      "Ì": 138,
      "Í": 139,
      "Î": 140,
      "Ï": 141,
      "Ð": 142,
      "Ñ": 143,
      "Ò": 144,
      "Ó": 145,
      "Ô": 146,
      "Õ": 147,
      "Ö": 148,
      "×": 149,
      "Ø": 150,
      "Ù": 151,
      "Ú": 152,
      "Û": 153,
      "Ü": 154,
      "Ý": 155,
      "Þ": 156,
      "ß": 157,
      "à": 158,
      "á": 159,
      "â": 160,
      "ã": 161,
      "ä": 162,
      "å": 163,
      "æ": 164,
      "ç": 165,
      "è": 166,
      "é": 167,
      "ê": 168,
      "ë": 169,
      "ì": 170,
      "í": 171,
      "î": 172,
      "ï": 173,
      "ð": 174,
      "ñ": 175,
      "ò": 176,
      "Ċ": 177,
      "Ġ": 178,
      "Ģ": 179,
      "ģ": 180,
      "Ĥ": 181,
      "ĥ": 182,
      "Ħ": 183,
      "ħ": 184,
      "Ĩ": 185,
      "ĩ": 186,
      "Ī": 187,
      "ī": 188,
      "Ĭ": 189,
      "ĭ": 190,
      "Į": 191,
      "į": 192,
      "İ": 193,
      "ı": 194,
      "Ĳ": 195,
      "ĳ": 196,
      "Ĵ": 197,
      "ĵ": 198,
      "Ķ": 199,
      "ķ": 200,
      "ĸ": 201,
      "Ĺ": 202,
      "ĺ": 203,
      "Ļ": 204,
      "ļ": 205,
      "Ľ": 206,
      "ľ": 207,
      "Ŀ": 208,
      "ŀ": 209,
      "Ł": 210,
      "ł": 211,
      "Ń": 212,
      "Ġt": 213,
      "Ġa": 214,
      "in": 215,
      "he": 216,
      "on": 217,
      "re": 218,
      "er": 219,
      "at": 220,
      "or": 221,
      "Ġs": 222,
      "Ġthe": 223,
      "en": 224,
      "es": 225,
      "it": 226,
      "Ġc": 227,
      "an": 228,
      "Ġp": 229,
      "Ġw": 230,
      "is": 231,
      "ou": 232,
      "ed": 233,
      "Ġf": 234,
      "ing": 235,
      "al": 236,
      "Ġo": 237,
      "Ġan": 238,
      "ion": 239,
      "Ġd": 240,
      "Ġb": 241,
      "ic": 242,
      "le": 243,
      "Ġto": 244,
      "Ġm": 245,
      "Ġin": 246,
      "ar": 247,
      "ro": 248,
      "Ġand": 249,
      "Ġof": 250,
      "ent": 251,
      "as": 252,
      "Ġn": 253,
      "Ġre": 254,
      "us": 255,
      "om": 256,
      "Ġl": 257,
      "ct": 258,
      "Ġth": 259,
      "Ġe": 260,
      "il": 261,
      "Ġy": 262,
      "ve": 263,
      "ation": 264,
      "Ġh": 265,
      "ot": 266,
      "et": 267,
      "Ġyou": 268,
      "Ġis": 269,
      "ly": 270,
      "im": 271,
      "Ġfor": 272,
      "ĠA": 273,
      "ig": 274,
      "ch": 275,
      "am": 276,
      "ĠC": 277,
      "ers": 278,
      "ut": 279,
      "un": 280,
      "ĠS": 281,
      "ow": 282,
      "st": 283,
      "ĠT": 284,
      "Ġbe": 285,
      "ĠI": 286,
      "id": 287,
      "ag": 288,
      "ol": 289,
      "Ġon": 290,
      "ce": 291,
      "ad": 292,
      "Ġ(": 293,
      "Ġg": 294,
      "Ġpro": 295,
      "âĢ": 296,
      "ĠW": 297,
      "Ġor": 298,
      "Ġthat": 299,
      "ith": 300,
      "ay": 301,
      "Ġcon": 302,
      "Ġus": 303,
      "el": 304,
      "ab": 305,
      "ur": 306,
      "em": 307,
      "Ġv": 308,
      "ik": 309,
      "ul": 310,
      "Ġwith": 311,
      "if": 312,
      "ac": 313,
      "ate": 314,
      "Ġst": 315,
      "op": 316,
      "Ġit": 317,
      "ĠM": 318,
      "Ġal": 319,
      "os": 320,
      "ri": 321,
      "Ġas": 322,
      "ãģ": 323,
      "ĠP": 324,
      "ect": 325,
      "Ġde": 326,
      "ment": 327,
      "ir": 328,
      "pp": 329,
      "ter": 330,
      "ity": 331,
      "ess": 332,
      "od": 333,
      "Ġcom": 334,
      "ver": 335,
      "ub": 336,
      "her": 337,
      "est": 338,
      "Ð°": 339,
      "Ġex": 340,
      "Ġare": 341,
      "ia": 342,
      "qu": 343,
      "ec": 344,
      "Ġ2": 345,
      "ist": 346,
      "oc": 347,
      "ĠD": 348,
      "ĠG": 349,
      "igh": 350,
      "age": 351,
      "ra": 352,
      "Ġwh": 353,
      "our": 354,
      "pl": 355,
      "Ġnot": 356,
      "se": 357,
      "ĠÐ": 358,
      "Ġwe": 359,
      "Ġyour": 360,
      "for": 361,
      "ĠB": 362,
      "ang": 363,
      "ĠF": 364,
      "Ġk": 365,
      "ore": 366,
      "Ġcan": 367,
      "ak": 368,
      "out": 369,
      "ive": 370,
      "ew": 371,
      "à¸": 372,
      "ure": 373,
      "nt": 374,
      "Ġr": 375,
      "Ġby": 376,
      "Ġ1": 377,
      "ight": 378,
      "ork": 379,
      "Ġun": 380,
      "pt": 381,
      "ill": 382,
      "ort": 383,
      "and": 384,
      "ies": 385,
      "rom": 386,
      "ĠL": 387,
      "ĠH": 388,
      "art": 389,
      "ud": 390,
      "ions": 391,
      "ĠR": 392,
      "ain": 393,
      "iv": 394,
      "nd": 395,
      "um": 396,
      "âĢĻ": 397,
      "ip": 398,
      "form": 399,
      "ĠE": 400,
      "Ġat": 401,
      "Ġcont": 402,
      "able": 403,
      "ĠThe": 404,
      "ld": 405,
      "Ġfrom": 406,
      "up": 407,
      "og": 408,
      "ant": 409,
      "ãĤ": 410,
      "end": 411,
      "Ġthis": 412,
      "Ġ20": 413,
      "Ġse": 414,
      "ave": 415,
      "ust": 416,
      "áĢ": 417,
      "The": 418,
      "iz": 419,
      "à¤": 420,
      "ĠU": 421,
      "ĠO": 422,
      "Ġsu": 423,
      "Ġad": 424,
      "ãĥ": 425,
      "Ø§": 426,
      "ial": 427,
      "edia": 428,
      "ere": 429,
      "Ġhe": 430,
      "à¦": 431,
      "'s": 432,
      "Ð¸": 433,
      "Ġsh": 434,
      "lic": 435,
      "Ġch": 436,
      "res": 437,
      "Ð¾": 438,
      "ther": 439,
      "ack": 440,
      "Ġim": 441,
      "cc": 442,
      "Ġsp": 443,
      "ens": 444,
      "ĠN": 445,
      "Ġwork": 446,
      "Ġ×": 447,
      "Ðµ": 448,
      "ÑĢ": 449,
      "are": 450,
      "ĠâĢ": 451,
      "Ð½": 452,
      "Ġ\"": 453,
      "Ġtr": 454,
      "Ġhave": 455,
      "ard": 456,
      "ib": 457,
      "Ġle": 458,
      "omm": 459,
      "ire": 460,
      "Ġapp": 461,
      "ich": 462,
      "cl": 463,
      "ie": 464,
      "Ġar": 465,
      "ost": 466,
      "Ġab": 467,
      "Ġuse": 468,
      "ated": 469,
      "Ġcomp": 470,
      "Ġall": 471,
      "ide": 472,
      "ally": 473,
      "ations": 474,
      "ase": 475,
      "Ġdo": 476,
      "ĠWik": 477,
      "Ġen": 478,
      "all": 479,
      "so": 480,
      "ile": 481,
      "Ġint": 482,
      "ans": 483,
      "per": 484,
      "ould": 485,
      "Ġte": 486,
      "ata": 487,
      "ject": 488,
      "ine": 489,
      "ÑĤ": 490,
      "Ġwhe": 491,
      "ons": 492,
      "Ġj": 493,
      "ÙĦ": 494,
      "ult": 495,
      "Ġ-": 496,
      "ail": 497,
      "ĠIn": 498,
      "Ġrep": 499,
      "ory": 500,
      "ĠJ": 501,
      "Ġwas": 502,
      "Ġwill": 503,
      "ap": 504,
      "ome": 505,
      "Ġother": 506,
      "th": 507,
      "ue": 508,
      "Ġacc": 509,
      "ite": 510,
      "rou": 511,
      "ber": 512,
      "Ġmore": 513,
      "Ġne": 514,
      "ice": 515,
      "Ġany": 516,
      "ign": 517,
      "Ġpl": 518,
      "×Ļ": 519,
      "Ġso": 520,
      "Ġres": 521,
      "ok": 522,
      "ame": 523,
      ".[": 524,
      "du": 525,
      "Ñģ": 526,
      "Ġhas": 527,
      "Ġalso": 528,
      "ple": 529,
      "rib": 530,
      "Ġwhich": 531,
      "Ð»": 532,
      "act": 533,
      "formation": 534,
      "vel": 535,
      "ep": 536,
      "ass": 537,
      "ode": 538,
      "à°": 539,
      "his": 540,
      "gr": 541,
      "low": 542,
      "Ġcomm": 543,
      "Ðº": 544,
      "ind": 545,
      "Ġdis": 546,
      "Ġbut": 547,
      "Ġper": 548,
      "Ġrequ": 549,
      "ages": 550,
      "gh": 551,
      "Ġup": 552,
      "eb": 553,
      "der": 554,
      "ĠV": 555,
      "ors": 556,
      "ach": 557,
      "Ġqu": 558,
      "Ġz": 559,
      "erv": 560,
      "ff": 561,
      "one": 562,
      "Ġmay": 563,
      "ance": 564,
      "ound": 565,
      "Ġcre": 566,
      "clud": 567,
      "Ġme": 568,
      "angu": 569,
      "ments": 570,
      "ific": 571,
      "ime": 572,
      "ong": 573,
      "ĠComm": 574,
      "ike": 575,
      "ĠSt": 576,
      "Ġpart": 577,
      "ast": 578,
      "ink": 579,
      "×Ļ×": 580,
      "ĠK": 581,
      "opy": 582,
      "xt": 583,
      "av": 584,
      "ge": 585,
      "Ġour": 586,
      "ree": 587,
      "Ġif": 588,
      "ell": 589,
      "ose": 590,
      "00": 591,
      "Ġinformation": 592,
      "Ġadd": 593,
      "ates": 594,
      "ear": 595,
      "Ġsc": 596,
      "Ġdes": 597,
      "ph": 598,
      "Ġcl": 599,
      "Ġnew": 600,
      "aw": 601,
      "Ùħ": 602,
      "Ġdata": 603,
      "ary": 604,
      "Ñĥ": 605,
      "In": 606,
      "You": 607,
      "Ġthey": 608,
      "Ġtheir": 609,
      "tern": 610,
      "Ġpub": 611,
      "right": 612,
      "Ġfe": 613,
      "ĠØ": 614,
      "ll": 615,
      "ative": 616,
      "ont": 617,
      "ount": 618,
      "ark": 619,
      "ake": 620,
      "yp": 621,
      "Ġits": 622,
      "ual": 623,
      "fere": 624,
      "ft": 625,
      "ents": 626,
      "×ķ": 627,
      "ord": 628,
      "Ġabout": 629,
      "ru": 630,
      "Ġinclud": 631,
      "Ġman": 632,
      "iew": 633,
      "¿½": 634,
      "ction": 635,
      "Ġout": 636,
      "ous": 637,
      "Ã©": 638,
      "Ġlangu": 639,
      "ï¿½": 640,
      "ace": 641,
      ").": 642,
      "ition": 643,
      "Ġprov": 644,
      "opyright": 645,
      "ribut": 646,
      "Ġlic": 647,
      "Ġgo": 648,
      "Ġspec": 649,
      "Ġaut": 650,
      "ob": 651,
      "Ġpre": 652,
      "te": 653,
      "Ġone": 654,
      "Ġsub": 655,
      "ical": 656,
      "Hub": 657,
      "Ġev": 658,
      "yst": 659,
      "itHub": 660,
      "Ġpage": 661,
      "ateg": 662,
      "ÙĬ": 663,
      "ices": 664,
      "ence": 665,
      "ener": 666,
      "ove": 667,
      "Ġlike": 668,
      "..": 669,
      "Ð´": 670,
      "ress": 671,
      "ĠâĢĶ": 672,
      "Ġpr": 673,
      "ook": 674,
      "),": 675,
      "Ġ202": 676,
      "ces": 677,
      "lease": 678,
      "pport": 679,
      "Ġsome": 680,
      "ility": 681,
      "ipedia": 682,
      "Ġ$": 683,
      "oad": 684,
      "ection": 685,
      "ature": 686,
      "Ġhow": 687,
      "ng": 688,
      "ĠIt": 689,
      "ÙĪ": 690,
      "Ġwhen": 691,
      "Ġsuch": 692,
      "Ġweb": 693,
      "ML": 694,
      "int": 695,
      "Ġrec": 696,
      "Ġ3": 697,
      "erm": 698,
      "ry": 699,
      "Ø§ÙĦ": 700,
      "Ġ201": 701,
      "Ġright": 702,
      "own": 703,
      "Ġimp": 704,
      "ond": 705,
      "âĢĿ": 706,
      "velop": 707,
      "ĠCommons": 708,
      "Ġag": 709,
      "Ð¼": 710,
      "riv": 711,
      "ish": 712,
      "Ġbu": 713,
      "ĠPro": 714,
      "erson": 715,
      "gram": 716,
      "Ġem": 717,
      "row": 718,
      "ings": 719,
      "ĠGitHub": 720,
      "Ġno": 721,
      "Ġed": 722,
      "Ġsec": 723,
      "Ġneed": 724,
      "Ġph": 725,
      "Ġcons": 726,
      "Ġused": 727,
      "ense": 728,
      "ating": 729,
      "Ã³": 730,
      "lect": 731,
      "Ġart": 732,
      "ystem": 733,
      "×ķ×": 734,
      "ah": 735,
      "Ø±": 736,
      "Ġval": 737,
      "Ġcopyright": 738,
      "osit": 739,
      "Ð²": 740,
      "imedia": 741,
      "Ġsee": 742,
      "gan": 743,
      "ÙĨ": 744,
      "ĠAI": 745,
      "Ġthem": 746,
      "very": 747,
      "Ġfol": 748,
      "Ġdef": 749,
      "ĠRe": 750,
      "ible": 751,
      "Ġfir": 752,
      "ays": 753,
      "ian": 754,
      "Ġproject": 755,
      "Ġtrans": 756,
      "Ġinst": 757,
      "ĠUn": 758,
      "Ñĭ": 759,
      "ov": 760,
      "Ġthese": 761,
      "ware": 762,
      "ĠFor": 763,
      "Ġtime": 764,
      "Ġset": 765,
      "Ġact": 766,
      "Ġfil": 767,
      "Ġlist": 768,
      "ne": 769,
      "ise": 770,
      "Ġpublic": 771,
      "rit": 772,
      "ied": 773,
      "use": 774,
      "pen": 775,
      "Ġaccess": 776,
      "à¹": 777,
      "Ġbeen": 778,
      "iss": 779,
      "Ġi": 780,
      "Ġcol": 781,
      "ĠThis": 782,
      "Ġonly": 783,
      "chn": 784,
      "Ġform": 785,
      "Ġind": 786,
      "ict": 787,
      "Ġthere": 788,
      "ï¿½ï¿½": 789,
      "Ġthan": 790,
      "Ġoff": 791,
      "ident": 792,
      "Ġusing": 793,
      "ÅĤ": 794,
      "ks": 795,
      "à¥": 796,
      "Ġinto": 797,
      "ild": 798,
      "Ġcontent": 799,
      "Ġmod": 800,
      "Ġexam": 801,
      "Ġchang": 802,
      "ĠWikipedia": 803,
      "Ġ19": 804,
      "TML": 805,
      "ert": 806,
      "ss": 807,
      "ues": 808,
      "Ġdevelop": 809,
      "Ġserv": 810,
      "Ġob": 811,
      "Ġsupport": 812,
      "Ġdif": 813,
      "Ġshould": 814,
      "Ġmat": 815,
      "ee": 816,
      "ĠWikimedia": 817,
      "les": 818,
      "ited": 819,
      "Ġunder": 820,
      "empl": 821,
      "cess": 822,
      "Ġfollow": 823,
      "Ġrel": 824,
      "Ġcode": 825,
      "ript": 826,
      "ĠWeb": 827,
      "à¬": 828,
      "ocu": 829,
      "Ġprogram": 830,
      "Ġreposit": 831,
      "ĠâĢľ": 832,
      "ced": 833,
      "Äħ": 834,
      "hen": 835,
      "Ġprodu": 836,
      "Ġatt": 837,
      "Ġkn": 838,
      "roup": 839,
      "Ġrequest": 840,
      "hat": 841,
      "ĠØ§ÙĦ": 842,
      "Ġreg": 843,
      "Ġprot": 844,
      "iki": 845,
      "Ġback": 846,
      "aj": 847,
      "Ġover": 848,
      "Ġass": 849,
      "Ġlanguage": 850,
      "Ġiss": 851,
      "Ġexp": 852,
      "Ġloc": 853,
      "Øª": 854,
      "Ġbec": 855,
      "Ġwho": 856,
      "Ġget": 857,
      "Ġfeature": 858,
      "wn": 859,
      "ization": 860,
      "arch": 861,
      "rough": 862,
      "Ġpe": 863,
      "lp": 864,
      "Ġdoes": 865,
      "'t": 866,
      "ivers": 867,
      "urity": 868,
      "ull": 869,
      "ement": 870,
      "ĠYou": 871,
      "ĠAr": 872,
      "ics": 873,
      "ased": 874,
      "ities": 875,
      "acy": 876,
      "Ġgener": 877,
      "ari": 878,
      "Ġwould": 879,
      "á»": 880,
      "alk": 881,
      "Ġwhat": 882,
      "Ġhelp": 883,
      "ĠCh": 884,
      "Ġinter": 885,
      "wo": 886,
      "Ġav": 887,
      "Ġac": 888,
      "Ġperson": 889,
      "Ġuser": 890,
      "ning": 891,
      "view": 892,
      "olog": 893,
      "ersion": 894,
      "ract": 895,
      "unity": 896,
      "Ġfirst": 897,
      "ade": 898,
      "hed": 899,
      "Ġmake": 900,
      "Ġbet": 901,
      "ÄĻ": 902,
      "ser": 903,
      "emb": 904,
      "Ġexample": 905,
      "ople": 906,
      "Ġfun": 907,
      "ĠHTML": 908,
      "any": 909,
      "ax": 910,
      "Ġsystem": 911,
      "cept": 912,
      "Ġmost": 913,
      "Ġla": 914,
      "ãģ®": 915,
      "Ġwhere": 916,
      "Ð³": 917,
      "Ġke": 918,
      "ype": 919,
      "Ñĸ": 920,
      "ource": 921,
      "Ġorgan": 922,
      "Ġu": 923,
      "Ġrem": 924,
      "ular": 925,
      "ĠIf": 926,
      "Ñı": 927,
      "Ġthrough": 928,
      "ale": 929,
      "its": 930,
      "Ġprocess": 931,
      "ough": 932,
      "This": 933,
      "Ġwere": 934,
      "ify": 935,
      "cy": 936,
      "ful": 937,
      "Ġele": 938,
      "ator": 939,
      "If": 940,
      "Ġver": 941,
      "led": 942,
      "à§": 943,
      "Ġhead": 944,
      "ix": 945,
      "Ġà¤": 946,
      "Ġtool": 947,
      "Ġent": 948,
      "ĠSp": 949,
      "Ġspecific": 950,
      "ting": 951,
      "feren": 952,
      "For": 953,
      "io": 954,
      "we": 955,
      "ocument": 956,
      "ten": 957,
      "Ġ5": 958,
      "ones": 959,
      "Ġmy": 960,
      "ring": 961,
      "Ġprovid": 962,
      "Ġsim": 963,
      "Ġtechn": 964,
      "Ġpar": 965,
      "Ġevery": 966,
      "TC": 967,
      "ck": 968,
      "raph": 969,
      "ruct": 970,
      "irect": 971,
      "ines": 972,
      "Ġro": 973,
      "ftware": 974,
      "Ġyear": 975,
      "Ġusers": 976,
      "esp": 977,
      "ient": 978,
      "Ġown": 979,
      "oth": 980,
      "Ġ4": 981,
      "Ġfile": 982,
      "Ġlink": 983,
      "Ġjust": 984,
      "Ġlaw": 985,
      "Ð·": 986,
      "Ġrequire": 987,
      "Ġmet": 988,
      "oy": 989,
      "Ġbl": 990,
      "Ġdisc": 991,
      "andard": 992,
      "ause": 993,
      "ional": 994,
      "let": 995,
      "Ġallow": 996,
      "Re": 997,
      "cript": 998,
      "Ġext": 999,
      "Ġpeople": 1000,
      "Ġopt": 1001,
      "ox": 1002,
      "Ġdesign": 1003,
      "oint": 1004,
      "Ġinv": 1005,
      "Ġam": 1006,
      "Ġì": 1007,
      "Ġdet": 1008,
      "az": 1009,
      "ories": 1010,
      "Ġrepository": 1011,
      "Ġtempl": 1012,
      "pert": 1013,
      "êł": 1014,
      "ock": 1015,
      "get": 1016,
      "Ġcall": 1017,
      "ci": 1018,
      "ug": 1019,
      "ever": 1020,
      "Ġsa": 1021,
      "fore": 1022,
      "sp": 1023,
      "orld": 1024,
      "Ġmin": 1025,
      "ek": 1026,
      "ran": 1027,
      "ered": 1028,
      "Ġknow": 1029,
      "pro": 1030,
      "Ġleg": 1031,
      "Ġapplic": 1032,
      "Ġlicense": 1033,
      "Ġwant": 1034,
      "Ġmust": 1035,
      "ĠWe": 1036,
      "ier": 1037,
      "oss": 1038,
      "inal": 1039,
      "Ġ/": 1040,
      "Ġedit": 1041,
      "air": 1042,
      "iel": 1043,
      "×¨": 1044,
      "urre": 1045,
      "pr": 1046,
      "Ġco": 1047,
      "ÑĮ": 1048,
      "UTC": 1049,
      "fter": 1050,
      "Ġfree": 1051,
      "Ø¯": 1052,
      "ustom": 1053,
      "Ġopen": 1054,
      "Ġ200": 1055,
      "99": 1056,
      "min": 1057,
      "ailable": 1058,
      "urn": 1059,
      "Ġthen": 1060,
      "Ġfollowing": 1061,
      "eg": 1062,
      "Ġtest": 1063,
      "ases": 1064,
      "olic": 1065,
      "ãĢ": 1066,
      "Ġmark": 1067,
      "ferent": 1068,
      "atform": 1069,
      "lass": 1070,
      "ÛĮ": 1071,
      "Ġphot": 1072,
      "ically": 1073,
      "to": 1074,
      "ÉĽ": 1075,
      "ys": 1076,
      "ick": 1077,
      "Ġinc": 1078,
      "à¨": 1079,
      "line": 1080,
      "ational": 1081,
      "ized": 1082,
      "Ġresp": 1083,
      "Ġread": 1084,
      "Ġund": 1085,
      "ÑĢÐ°": 1086,
      "Ġsame": 1087,
      "20": 1088,
      "reat": 1089,
      "ash": 1090,
      "Ġway": 1091,
      "rop": 1092,
      "Ġstart": 1093,
      "Ġlicens": 1094,
      "Ġpriv": 1095,
      "Ġproduct": 1096,
      "iversity": 1097,
      "Ġstat": 1098,
      "ize": 1099,
      "olut": 1100,
      "iness": 1101,
      "ĠY": 1102,
      "Ġdifferent": 1103,
      "ules": 1104,
      "ern": 1105,
      "Ġnum": 1106,
      "Ã¡": 1107,
      "ym": 1108,
      "Ķ×": 1109,
      "red": 1110,
      "Ġwithout": 1111,
      "We": 1112,
      "Ġret": 1113,
      "arb": 1114,
      "Ø©": 1115,
      "ung": 1116,
      "Ġconf": 1117,
      "Ġavailable": 1118,
      "Ġpartic": 1119,
      "Ġrights": 1120,
      "uch": 1121,
      "ined": 1122,
      "Ġcateg": 1123,
      "Ġtext": 1124,
      "ĠÑ": 1125,
      "Ġincluding": 1126,
      "Ġnow": 1127,
      "Ġname": 1128,
      "Ġdec": 1129,
      "Ġprof": 1130,
      "app": 1131,
      "ually": 1132,
      "Ġaccount": 1133,
      "Ġdocument": 1134,
      "Ġvalue": 1135,
      "Ġfiles": 1136,
      "read": 1137,
      "resent": 1138,
      "Ġtop": 1139,
      "lish": 1140,
      "Ġ[": 1141,
      "...": 1142,
      "Ġterm": 1143,
      "Ġgu": 1144,
      "ĠDe": 1145,
      "SS": 1146,
      "uss": 1147,
      "ious": 1148,
      "usiness": 1149,
      "Ġworks": 1150,
      "plement": 1151,
      "ital": 1152,
      "hip": 1153,
      "Ġsecurity": 1154,
      "Ð¿": 1155,
      "Ġstandard": 1156,
      "ĠGo": 1157,
      "Ġprob": 1158,
      "hes": 1159,
      "Ġteam": 1160,
      "mat": 1161,
      "ĠÐ¿": 1162,
      "hor": 1163,
      "Ġoper": 1164,
      "ĠApp": 1165,
      "Ġident": 1166,
      "ability": 1167,
      "ince": 1168,
      "Ġgroup": 1169,
      "ext": 1170,
      "Ġsoftware": 1171,
      "Ġwell": 1172,
      "Ġfind": 1173,
      "Ġ.": 1174,
      "Ġà¦": 1175,
      "aking": 1176,
      "ner": 1177,
      "ĠTh": 1178,
      "ote": 1179,
      "amp": 1180,
      "Ġperm": 1181,
      "Ġeven": 1182,
      "Ġmany": 1183,
      "Ã¤": 1184,
      "Ġ7": 1185,
      "Ġcreate": 1186,
      "Ġbuild": 1187,
      "fer": 1188,
      "Ġorig": 1189,
      "ross": 1190,
      "Ġtwo": 1191,
      "Ġartic": 1192,
      "old": 1193,
      "Ġstr": 1194,
      "ĠCC": 1195,
      "ower": 1196,
      "ames": 1197,
      "less": 1198,
      "PI": 1199,
      "ts": 1200,
      "ŀ×": 1201,
      "Ġdi": 1202,
      "ãĥ¼": 1203,
      "Ġna": 1204,
      "Ġhad": 1205,
      "Ġcustom": 1206,
      "Ġlook": 1207,
      "omp": 1208,
      "à±": 1209,
      "Ġpur": 1210,
      "Å¼": 1211,
      "St": 1212,
      "Ġsm": 1213,
      "Ġcommunity": 1214,
      "ãģĻ": 1215,
      "Ġresult": 1216,
      "elf": 1217,
      "ien": 1218,
      "Ġspe": 1219,
      "Ø¨": 1220,
      "ield": 1221,
      "Ġmain": 1222,
      "áº": 1223,
      "Ġeach": 1224,
      "other": 1225,
      "Ġgr": 1226,
      "Ġer": 1227,
      "ality": 1228,
      "eng": 1229,
      "ĠÙħ": 1230,
      "urrent": 1231,
      "Ð¹": 1232,
      "Ġcould": 1233,
      "Ġwhile": 1234,
      "Ġnon": 1235,
      "ected": 1236,
      "Ġche": 1237,
      "Ġdirect": 1238,
      "Ġbecause": 1239,
      "ex": 1240,
      "ience": 1241,
      "Ġ&": 1242,
      "ef": 1243,
      "pos": 1244,
      "Ġplatform": 1245,
      "Ġdon": 1246,
      "ified": 1247,
      "ission": 1248,
      "Ġsource": 1249,
      "Ġfeatures": 1250,
      "Ġser": 1251,
      "ĠServ": 1252,
      "work": 1253,
      "Ġbrow": 1254,
      "lem": 1255,
      "ily": 1256,
      "Ð°Ð½": 1257,
      "omain": 1258,
      "li": 1259,
      "uring": 1260,
      "talk": 1261,
      "Ġimage": 1262,
      "ential": 1263,
      "Ġthose": 1264,
      "Ġrun": 1265,
      "Ġlanguages": 1266,
      "Ġlong": 1267,
      "lick": 1268,
      "Ġimplement": 1269,
      "ĠTe": 1270,
      "Ġend": 1271,
      "Ġversion": 1272,
      "Ġadv": 1273,
      "Ã¼": 1274,
      "Ø³": 1275,
      "'re": 1276,
      "Ġafter": 1277,
      "ny": 1278,
      "áĥ": 1279,
      "ibility": 1280,
      "Ġautom": 1281,
      "omet": 1282,
      "phones": 1283,
      "Ġsign": 1284,
      "Ġdown": 1285,
      "als": 1286,
      "Ġprovide": 1287,
      "Ġvari": 1288,
      "Ġcontribut": 1289,
      "Ġvis": 1290,
      "Ġconsid": 1291,
      "Ø¹": 1292,
      "Ġmult": 1293,
      "Ġintern": 1294,
      "ĠEx": 1295,
      "ideo": 1296,
      "Ġreview": 1297,
      "Ġeas": 1298,
      "Ġ6": 1299,
      "ĠâĢĵ": 1300,
      "ward": 1301,
      "ĠAd": 1302,
      "Ġobject": 1303,
      "ĠX": 1304,
      "lis": 1305,
      "10": 1306,
      "the": 1307,
      "Ar": 1308,
      "Ã¨": 1309,
      "Ġpersonal": 1310,
      "site": 1311,
      "×ľ": 1312,
      "Ġfound": 1313,
      "pload": 1314,
      "dit": 1315,
      "ives": 1316,
      "Ġperform": 1317,
      "Ġcount": 1318,
      "Ġrest": 1319,
      "Ġcontro": 1320,
      "Ġwrit": 1321,
      "ili": 1322,
      "ming": 1323,
      "Ġreport": 1324,
      "und": 1325,
      "akes": 1326,
      "Ġbeing": 1327,
      "ĠAPI": 1328,
      "Ġview": 1329,
      "zy": 1330,
      "ä¸": 1331,
      "Ġtools": 1332,
      "ath": 1333,
      "Ġbefore": 1334,
      "atch": 1335,
      "Ġworld": 1336,
      "Ùģ": 1337,
      "ĠAt": 1338,
      "els": 1339,
      "Ġexpl": 1340,
      "Ð±": 1341,
      "Ġexper": 1342,
      "ĠAnd": 1343,
      "ccess": 1344,
      "Ġ0": 1345,
      "âĢĶ": 1346,
      "Ġdev": 1347,
      "ween": 1348,
      "Ġcase": 1349,
      "ven": 1350,
      "Ġbest": 1351,
      "Ġrules": 1352,
      "oun": 1353,
      "Ġmon": 1354,
      "Ġpost": 1355,
      "Ġcontain": 1356,
      "Åĭ": 1357,
      "Ġboth": 1358,
      "Ġchar": 1359,
      "Ġcomput": 1360,
      "itt": 1361,
      "eta": 1362,
      "oud": 1363,
      "Ġinclude": 1364,
      "Ġissues": 1365,
      "erial": 1366,
      "ets": 1367,
      "ãģ«": 1368,
      "Ġinf": 1369,
      "lob": 1370,
      "Comm": 1371,
      "Ġshare": 1372,
      "edi": 1373,
      "Ãł": 1374,
      "ãģ¯": 1375,
      "Ġheadphones": 1376,
      "gu": 1377,
      "Ġdel": 1378,
      "Ġ2016": 1379,
      "ology": 1380,
      "Ġnumber": 1381,
      "put": 1382,
      "Ġbetween": 1383,
      "ering": 1384,
      "ĠCont": 1385,
      "Ġconn": 1386,
      "Ð°ÑĢ": 1387,
      "Ġtra": 1388,
      "Ġ×Ķ×": 1389,
      "ead": 1390,
      "Ġmade": 1391,
      "Ġni": 1392,
      "ÅĽ": 1393,
      "Ġstill": 1394,
      "Ġaud": 1395,
      "ograph": 1396,
      "Ġhere": 1397,
      "Ġtemplate": 1398,
      "To": 1399,
      "Ġcurrent": 1400,
      "Ġhigh": 1401,
      "ogle": 1402,
      "Ġrele": 1403,
      "crib": 1404,
      "ĠInt": 1405,
      "Ġâ": 1406,
      "Ġel": 1407,
      "AT": 1408,
      "à¸²": 1409,
      "Ġpolic": 1410,
      "Ġdist": 1411,
      "ĠÐº": 1412,
      "Ġfr": 1413,
      "Ġwithin": 1414,
      "Ġimages": 1415,
      "Ġshow": 1416,
      "Ġchanges": 1417,
      "Ġlegal": 1418,
      "ures": 1419,
      "Ġupd": 1420,
      "embers": 1421,
      "aa": 1422,
      "ism": 1423,
      "ĠAl": 1424,
      "Äĩ": 1425,
      "Ġfield": 1426,
      "Ġdep": 1427,
      "Ġauthor": 1428,
      "}}": 1429,
      "ĠAm": 1430,
      "Ġeng": 1431,
      "Ġattribut": 1432,
      "ault": 1433,
      "Ġlog": 1434,
      "ank": 1435,
      "ird": 1436,
      "ended": 1437,
      "Ġfunction": 1438,
      "Ġexist": 1439,
      "Ñĩ": 1440,
      "oci": 1441,
      "not": 1442,
      "ìĿ": 1443,
      "ze": 1444,
      "ĠÑģ": 1445,
      "Ġbusiness": 1446,
      "igital": 1447,
      "][": 1448,
      "{{": 1449,
      "rodu": 1450,
      "ange": 1451,
      "Ġdomain": 1452,
      "ÃŃ": 1453,
      "Ġ10": 1454,
      "ploy": 1455,
      "Ġimport": 1456,
      "Ġupload": 1457,
      "ites": 1458,
      "Ġcor": 1459,
      "vern": 1460,
      "19": 1461,
      "Ġissue": 1462,
      "hing": 1463,
      "à¦¾": 1464,
      "Ġservices": 1465,
      "Ġcho": 1466,
      "ision": 1467,
      "ands": 1468,
      "ÙĤ": 1469,
      "ober": 1470,
      "ream": 1471,
      "Ġins": 1472,
      "Wik": 1473,
      "ember": 1474,
      "Ġlocal": 1475,
      "ãģ¾": 1476,
      "ocus": 1477,
      "Ñħ": 1478,
      "Ġá": 1479,
      "ples": 1480,
      "oop": 1481,
      "ule": 1482,
      "ĠUnited": 1483,
      "ural": 1484,
      "Ġyears": 1485,
      "Ġdiscuss": 1486,
      "la": 1487,
      "Ġposs": 1488,
      "ference": 1489,
      "Ġlat": 1490,
      "ĠCon": 1491,
      "ĠHow": 1492,
      "vent": 1493,
      "play": 1494,
      "Ġelement": 1495,
      "ins": 1496,
      "kt": 1497,
      "Ġcomple": 1498,
      "Ġaddress": 1499,
      "ved": 1500,
      "Ġeff": 1501,
      "×Ķ": 1502,
      "à½": 1503,
      "Ġproblem": 1504,
      "Ġstep": 1505,
      "Ġquest": 1506,
      "istr": 1507,
      "ana": 1508,
      "ÐµÐ½": 1509,
      "Ùĩ": 1510,
      "ĠOct": 1511,
      "Wiki": 1512,
      "Ġsubject": 1513,
      "Ġprotection": 1514,
      "Ġoriginal": 1515,
      "×ª": 1516,
      "ãģ§": 1517,
      "ivid": 1518,
      "ĠZ": 1519,
      "erest": 1520,
      "ĠSh": 1521,
      "ĠQ": 1522,
      "Ġprojects": 1523,
      "Ġlim": 1524,
      "Ġhis": 1525,
      "ĠTr": 1526,
      "Ġorganization": 1527,
      "ilt": 1528,
      "Ð°Ð»": 1529,
      "Ġlar": 1530,
      "com": 1531,
      "ki": 1532,
      "Ġsection": 1533,
      "adem": 1534,
      "Ġselect": 1535,
      "à¤¾": 1536,
      "Ġtyp": 1537,
      "itut": 1538,
      "Ġemail": 1539,
      "Ġpages": 1540,
      "Ġcalled": 1541,
      "Ġder": 1542,
      "000": 1543,
      "Ġsince": 1544,
      "Ġanother": 1545,
      "Ġgood": 1546,
      "Ġvery": 1547,
      ".\"": 1548,
      "ool": 1549,
      "hod": 1550,
      "Ġtype": 1551,
      "Ġreturn": 1552,
      "apt": 1553,
      "ason": 1554,
      "Ġbeh": 1555,
      "à¸²à¸": 1556,
      "Ġsing": 1557,
      "ries": 1558,
      "Ġtransl": 1559,
      "ret": 1560,
      "Ġreal": 1561,
      "Ġimpro": 1562,
      "Ġchange": 1563,
      "Ã¢": 1564,
      "ÑĨ": 1565,
      "Ġtrack": 1566,
      "oard": 1567,
      "ators": 1568,
      "lobal": 1569,
      "Ġsens": 1570,
      "oms": 1571,
      "ĠGoogle": 1572,
      "ĠAn": 1573,
      "ources": 1574,
      "Ġsearch": 1575,
      "Ġenc": 1576,
      "gest": 1577,
      "Ġdid": 1578,
      "Ġmaterial": 1579,
      "ray": 1580,
      "ĠAs": 1581,
      "Ġaddition": 1582,
      "Ġpoint": 1583,
      "áĢº": 1584,
      "ertain": 1585,
      "Ġra": 1586,
      "Ġvideo": 1587,
      "ÑĪ": 1588,
      "Ġë": 1589,
      "Ġ{{": 1590,
      "essional": 1591,
      "Ġsomet": 1592,
      "Ġcontrol": 1593,
      "Ùī": 1594,
      "ĠCre": 1595,
      "Ġappro": 1596,
      "ĠOctober": 1597,
      "Ġ'": 1598,
      "iple": 1599,
      "Ġdetail": 1600,
      "tain": 1601,
      "uk": 1602,
      "orm": 1603,
      "ars": 1604,
      "arly": 1605,
      "Ùĥ": 1606,
      "Ġacross": 1607,
      "iÄĻ": 1608,
      "à¦°": 1609,
      "ai": 1610,
      "abor": 1611,
      "etwork": 1612,
      "back": 1613,
      "Ġcle": 1614,
      "vers": 1615,
      "Ġtake": 1616,
      "ãĤĴ": 1617,
      "egr": 1618,
      "ither": 1619,
      "ãģĦ": 1620,
      "ÉĶ": 1621,
      "Ġbas": 1622,
      "uc": 1623,
      "Ġminim": 1624,
      "ĠData": 1625,
      "Ã¶": 1626,
      "Ġbased": 1627,
      "lished": 1628,
      "Ġprivacy": 1629,
      "Ġrequests": 1630,
      "Ġet": 1631,
      "ĠMeta": 1632,
      "ĠEng": 1633,
      "imes": 1634,
      "Ġargu": 1635,
      "Ġwiki": 1636,
      "oin": 1637,
      "Ġwebsite": 1638,
      "It": 1639,
      "ral": 1640,
      "Ġerr": 1641,
      "12": 1642,
      "×Ļ×Ŀ": 1643,
      "de": 1644,
      "yn": 1645,
      "Ġconst": 1646,
      "ividual": 1647,
      "ji": 1648,
      "here": 1649,
      "Ġwhether": 1650,
      "Ġdevelopment": 1651,
      "How": 1652,
      "usic": 1653,
      "ãĥ³": 1654,
      "\",": 1655,
      "load": 1656,
      "Ġfocus": 1657,
      "agement": 1658,
      "Ġlead": 1659,
      "Ã³w": 1660,
      "Ġdefault": 1661,
      "Ġlicenses": 1662,
      "Ġstud": 1663,
      "ÐºÐ¸": 1664,
      "Ġformat": 1665,
      "Ġservice": 1666,
      "ĠSec": 1667,
      "Ġcour": 1668,
      "yle": 1669,
      "Ġplease": 1670,
      "Ġparticular": 1671,
      "ready": 1672,
      "Ġest": 1673,
      "ĠÐ¼": 1674,
      "ledge": 1675,
      "Ġpull": 1676,
      "à§į": 1677,
      "ann": 1678,
      "ĠPl": 1679,
      "Ġagain": 1680,
      "ina": 1681,
      "Ġmight": 1682,
      "Ġmeans": 1683,
      "erc": 1684,
      "ems": 1685,
      "olution": 1686,
      "Ø¬": 1687,
      "ĠNot": 1688,
      "ren": 1689,
      "ency": 1690,
      "ura": 1691,
      "Ġrese": 1692,
      "ĠServices": 1693,
      "bit": 1694,
      "ness": 1695,
      "Ġmethod": 1696,
      "Ġmuch": 1697,
      "Ġorder": 1698,
      "Ġfull": 1699,
      "Ġconc": 1700,
      "ÑģÑĤ": 1701,
      "Ġmess": 1702,
      "Ġbetter": 1703,
      "ĳ×": 1704,
      "Ġpass": 1705,
      "16": 1706,
      "As": 1707,
      "ĠÐ½": 1708,
      "ua": 1709,
      "ãĤĭ": 1710,
      "There": 1711,
      "Ġextens": 1712,
      "Ġarticle": 1713,
      "of": 1714,
      "par": 1715,
      "alt": 1716,
      "Ġonline": 1717,
      "Ġelements": 1718,
      "Pro": 1719,
      "Ġcompany": 1720,
      "thing": 1721,
      "Ad": 1722,
      "ior": 1723,
      "ling": 1724,
      "Ġhand": 1725,
      "ially": 1726,
      "Ġkeep": 1727,
      "cription": 1728,
      "Ġcheck": 1729,
      "ather": 1730,
      "Ġdem": 1731,
      "Ġaround": 1732,
      "ording": 1733,
      "ĠÐ±": 1734,
      "Ġà°": 1735,
      "Ġfew": 1736,
      "Ð°ÑĤ": 1737,
      "Ġadmin": 1738,
      "ÐµÑĢ": 1739,
      "Ġ2025": 1740,
      "Ġprogramming": 1741,
      "Ex": 1742,
      "iqu": 1743,
      "ately": 1744,
      "ric": 1745,
      "ãģ¦": 1746,
      "Ġclass": 1747,
      "ently": 1748,
      "ĠNew": 1749,
      "inked": 1750,
      "Ġclick": 1751,
      "ĠUS": 1752,
      "Ġgovern": 1753,
      "Ġsound": 1754,
      "Ġthough": 1755,
      "ĠCode": 1756,
      "Ġlear": 1757,
      "ructure": 1758,
      "mber": 1759,
      "áı": 1760,
      "Ġrelease": 1761,
      "Ġrequired": 1762,
      "Ġrece": 1763,
      "erst": 1764,
      "13": 1765,
      "Ġinterest": 1766,
      "Ġindividual": 1767,
      "por": 1768,
      "ĠInd": 1769,
      "Ġens": 1770,
      "ï¿½ï¿½ï¿½ï¿½": 1771,
      "ãģĹ": 1772,
      "Ġtag": 1773,
      "ĠGroup": 1774,
      "When": 1775,
      "Ġ8": 1776,
      "ĠÙĪ": 1777,
      "ĠFound": 1778,
      "íķ": 1779,
      "ords": 1780,
      "ery": 1781,
      "Ġdat": 1782,
      "Ġmedia": 1783,
      "Ġbackup": 1784,
      "Ġautomat": 1785,
      "enc": 1786,
      "Ġbran": 1787,
      "amet": 1788,
      "15": 1789,
      "OM": 1790,
      "con": 1791,
      "ania": 1792,
      "Ġcontin": 1793,
      "Ġdisplay": 1794,
      "Ġevent": 1795,
      "Ġshe": 1796,
      "Ġref": 1797,
      "18": 1798,
      "day": 1799,
      "Ġalready": 1800,
      "Ġrepresent": 1801,
      "ferences": 1802,
      "ĠÂ": 1803,
      "Ġgiv": 1804,
      "ashable": 1805,
      "Ġterms": 1806,
      "vious": 1807,
      "ĠÑĤ": 1808,
      "Ġcases": 1809,
      "Ġfl": 1810,
      "Ġcreated": 1811,
      "Ġmembers": 1812,
      "Ġpropert": 1813,
      "Ġpract": 1814,
      "Ġsystems": 1815,
      "Ġprofessional": 1816,
      "ĠÐ´": 1817,
      "Ġstatus": 1818,
      "Ġlif": 1819,
      "Ð¾Ð²": 1820,
      "ĠSo": 1821,
      "ĠØ¨": 1822,
      "ĠAct": 1823,
      "ãĢģ": 1824,
      "Ġthink": 1825,
      "Sp": 1826,
      "go": 1827,
      "ĠBl": 1828,
      "ĠHowever": 1829,
      "arbon": 1830,
      "Ġpossible": 1831,
      "au": 1832,
      "Ġ2026": 1833,
      "Ġdepend": 1834,
      "Ġsever": 1835,
      "14": 1836,
      "ij": 1837,
      "Ġbel": 1838,
      "Ġsur": 1839,
      "ä½": 1840,
      "Ġsite": 1841,
      "Ġplay": 1842,
      "aster": 1843,
      "ably": 1844,
      "ights": 1845,
      "Ġmonth": 1846,
      "What": 1847,
      "Ġ18": 1848,
      "ivity": 1849,
      "Ġabove": 1850,
      "Ġgreat": 1851,
      "Ġarch": 1852,
      "Ġcommun": 1853,
      "Ġdescrib": 1854,
      "Ġproducts": 1855,
      "me": 1856,
      "ĠThey": 1857,
      "ining": 1858,
      "Ġcategory": 1859,
      "Ġimportant": 1860,
      "ãģ¾ãģĻ": 1861,
      "Th": 1862,
      "ĠThat": 1863,
      "ification": 1864,
      "Ġcoll": 1865,
      "Web": 1866,
      "ways": 1867,
      "Ġthird": 1868,
      "Ġsk": 1869,
      "ĠTo": 1870,
      "aim": 1871,
      "over": 1872,
      "Ġeither": 1873,
      "ĠMashable": 1874,
      "Ġask": 1875,
      "ãĤĮ": 1876,
      "Ġplace": 1877,
      "Ġintegr": 1878,
      "uman": 1879,
      "tt": 1880,
      "Ġpower": 1881,
      "ĠBack": 1882,
      "Ġlevel": 1883,
      "ecess": 1884,
      "Ġuniversity": 1885,
      "Ġ×ľ": 1886,
      "cz": 1887,
      "àŃ": 1888,
      "ĠÐ²": 1889,
      "fort": 1890,
      "flow": 1891,
      "Ġanal": 1892,
      "ogn": 1893,
      "clus": 1894,
      "Ġsaid": 1895,
      "inkedIn": 1896,
      "Ġbr": 1897,
      "ĠOn": 1898,
      "Ġexperience": 1899,
      "Ġka": 1900,
      "Ġorganiz": 1901,
      "Ġlinks": 1902,
      "Ġsingle": 1903,
      "Ġreason": 1904,
      "lasses": 1905,
      "ilities": 1906,
      "umm": 1907,
      "ĠEn": 1908,
      "Ġapplication": 1909,
      "Ġresearch": 1910,
      "sers": 1911,
      "Ġcertain": 1912,
      "Ġfact": 1913,
      "iref": 1914,
      "ĠFoundation": 1915,
      "arbonite": 1916,
      "land": 1917,
      "×Ĳ": 1918,
      "Ġnetwork": 1919,
      "Ġlast": 1920,
      "ects": 1921,
      "Ġseveral": 1922,
      "Ġaff": 1923,
      "Ġdigital": 1924,
      "Ġ--": 1925,
      "Ġcompl": 1926,
      "be": 1927,
      "rict": 1928,
      "uture": 1929,
      "Ġcollect": 1930,
      "Ġcomputer": 1931,
      "17": 1932,
      "ĠThere": 1933,
      "Ġport": 1934,
      "aces": 1935,
      "Ġcap": 1936,
      "Ġapply": 1937,
      "Ġpolicy": 1938,
      "Ú©": 1939,
      "ED": 1940,
      "ĠáĢ": 1941,
      "irefox": 1942,
      "ches": 1943,
      "man": 1944,
      "ÑĬ": 1945,
      "eting": 1946,
      "ĠCSS": 1947,
      "ope": 1948,
      "ĠHe": 1949,
      "Ġher": 1950,
      "aring": 1951,
      "root": 1952,
      "ilot": 1953,
      "ache": 1954,
      "aving": 1955,
      "Cont": 1956,
      "Ġann": 1957,
      "ĠWork": 1958,
      "aut": 1959,
      "dition": 1960,
      "ants": 1961,
      ".âĢĿ": 1962,
      "ĠCreative": 1963,
      "ention": 1964,
      "istory": 1965,
      "Ð¾Ð»": 1966,
      "\".": 1967,
      "Ġhard": 1968,
      "achine": 1969,
      "Ch": 1970,
      "af": 1971,
      "Ġkey": 1972,
      "ãĢĤ": 1973,
      "Ġdelet": 1974,
      "ategory": 1975,
      "50": 1976,
      "Ġpop": 1977,
      "isk": 1978,
      "ibr": 1979,
      "ĠVersion": 1980,
      "Ġknowledge": 1981,
      "Ġmultiple": 1982,
      "Ġoften": 1983,
      "Ġnam": 1984,
      "Ġoptions": 1985,
      "Ġbrowser": 1986,
      "De": 1987,
      "oz": 1988,
      "asa": 1989,
      "ĠIntern": 1990,
      "Ġphotograph": 1991,
      "Wh": 1992,
      "icro": 1993,
      "ĠMedia": 1994,
      "ãģ¨": 1995,
      "orth": 1996,
      "ĠOpen": 1997,
      "ãģĮ": 1998,
      "ĠApple": 1999,
      "Ġsteps": 2000,
      "ademark": 2001,
      "port": 2002,
      "Ñį": 2003,
      "Ġ9": 2004,
      "ĠWh": 2005,
      "ored": 2006,
      "Ġadded": 2007,
      "Ġprovided": 2008,
      "che": 2009,
      "ØŃ": 2010,
      "Ġuses": 2011,
      "urther": 2012,
      "ium": 2013,
      "ublic": 2014,
      "23": 2015,
      "É£": 2016,
      "lassian": 2017,
      "erstand": 2018,
      "ON": 2019,
      "ety": 2020,
      "Ġvi": 2021,
      "ĠMan": 2022,
      "ĠPr": 2023,
      "ĠBut": 2024,
      "Ġtoo": 2025,
      "indow": 2026,
      "æĸ": 2027,
      "Ġhapp": 2028,
      "Ġemploy": 2029,
      "On": 2030,
      "ĠMac": 2031,
      "Ġdie": 2032,
      "Ġworking": 2033,
      "ffic": 2034,
      "epend": 2035,
      "Ġbuilt": 2036,
      "An": 2037,
      "Ġfre": 2038,
      "vir": 2039,
      "Ġny": 2040,
      "à¸Ļ": 2041,
      "Ġunt": 2042,
      "Ġguid": 2043,
      ".,": 2044,
      "Ġsecond": 2045,
      "Ġblock": 2046,
      "ani": 2047,
      "ĠSe": 2048,
      "ective": 2049,
      "Ġmaking": 2050,
      "ÐºÐ°": 2051,
      "à¹Ī": 2052,
      "side": 2053,
      "reen": 2054,
      "áĢ¬": 2055,
      "Ġcommon": 2056,
      "Ð¾ÑĢ": 2057,
      "Ġconfig": 2058,
      "Ġide": 2059,
      "ĠThese": 2060,
      "Ġstandards": 2061,
      "Ġsomething": 2062,
      ".)": 2063,
      "ĠCol": 2064,
      "ĠWH": 2065,
      "Ġcharact": 2066,
      "Ãª": 2067,
      "Ġalways": 2068,
      "Ġcontact": 2069,
      "ondon": 2070,
      "ER": 2071,
      "Ġnorm": 2072,
      "ĠLinkedIn": 2073,
      "Ġrecomm": 2074,
      "Ġtechnology": 2075,
      "Ġtemplates": 2076,
      "Ġspeak": 2077,
      "ler": 2078,
      "ali": 2079,
      "Ġexcept": 2080,
      "ĠLe": 2081,
      "Ġnext": 2082,
      "Ġcollabor": 2083,
      "Ã§": 2084,
      "Ġinit": 2085,
      "Ġrend": 2086,
      "Ġglobal": 2087,
      "ĠUniversity": 2088,
      "Ġparamet": 2089,
      "Ġparticip": 2090,
      "See": 2091,
      "ists": 2092,
      "ived": 2093,
      "Ġnecess": 2094,
      "Ġinstall": 2095,
      "round": 2096,
      "tic": 2097,
      "çĶ": 2098,
      "Ġop": 2099,
      "Ġappl": 2100,
      "Ġimprove": 2101,
      "ke": 2102,
      "pose": 2103,
      "ony": 2104,
      "Ġcopy": 2105,
      "ables": 2106,
      "Ġsubs": 2107,
      "à¥į": 2108,
      "'ll": 2109,
      "ton": 2110,
      "Ġdone": 2111,
      "irt": 2112,
      "ĠEnglish": 2113,
      "way": 2114,
      "ëĭ": 2115,
      "ĠLondon": 2116,
      "je": 2117,
      "ka": 2118,
      "Ġbook": 2119,
      "ĠRep": 2120,
      "Ø§Øª": 2121,
      "ÐµÐ´": 2122,
      "Ġmean": 2123,
      "ĠØª": 2124,
      "æľ": 2125,
      "Ġreally": 2126,
      "ilar": 2127,
      "uters": 2128,
      "Ġdirectly": 2129,
      "ES": 2130,
      "ä»": 2131,
      "ĠÄ": 2132,
      "Ġvalues": 2133,
      "Ġdevelopers": 2134,
      "ms": 2135,
      "Ġstate": 2136,
      "face": 2137,
      "à¸Ń": 2138,
      "Ġsmall": 2139,
      "Ġdevice": 2140,
      "ves": 2141,
      "Ġlay": 2142,
      "chool": 2143,
      "ocial": 2144,
      "Ġappear": 2145,
      "Ġcommit": 2146,
      "Ġrepositories": 2147,
      "Ġbelow": 2148,
      "Ġ×©": 2149,
      "WG": 2150,
      "erg": 2151,
      "Ġmaj": 2152,
      "Ġhost": 2153,
      "Ġprom": 2154,
      "Ġpropos": 2155,
      "Ġworkflow": 2156,
      "Ġrespons": 2157,
      "ĠÎ": 2158,
      "Ġthree": 2159,
      "Ġothers": 2160,
      "Ġconsider": 2161,
      "ĠâĪ": 2162,
      "Ġattribute": 2163,
      "viron": 2164,
      "çļ": 2165,
      "Ġerror": 2166,
      "Ġrepl": 2167,
      "une": 2168,
      "Ġpublished": 2169,
      "Ġcover": 2170,
      "sh": 2171,
      "Ġequ": 2172,
      "orage": 2173,
      "Ġlot": 2174,
      "opilot": 2175,
      "rivacy": 2176,
      "Ġautomatically": 2177,
      "ynt": 2178,
      "Ġpay": 2179,
      "ĠWith": 2180,
      "Ġcannot": 2181,
      "ĠBackup": 2182,
      "âĢľ": 2183,
      "ãĥ«": 2184,
      "à°¿": 2185,
      "ya": 2186,
      "Ġtax": 2187,
      "Ġcrit": 2188,
      "Ġfuture": 2189,
      "Ġline": 2190,
      "vert": 2191,
      "ãĤ¹": 2192,
      "à¦¿": 2193,
      "Ġlet": 2194,
      "Ġable": 2195,
      "anguage": 2196,
      "based": 2197,
      "ara": 2198,
      "Ġexpress": 2199,
      "çļĦ": 2200,
      "vant": 2201,
      "Ġtable": 2202,
      "Ġdra": 2203,
      "ĠLic": 2204,
      "à¤¿": 2205,
      "Ð¾Ð½": 2206,
      "åı": 2207,
      "Ġvia": 2208,
      "Ġfeed": 2209,
      "ecut": 2210,
      "Ġprovides": 2211,
      "Ġsug": 2212,
      "Ġplan": 2213,
      "oot": 2214,
      "anc": 2215,
      "ĠCl": 2216,
      "ada": 2217,
      "Ð¸Ð½": 2218,
      "ava": 2219,
      "Ġpermission": 2220,
      "à¤°": 2221,
      "×ķ×ª": 2222,
      "sing": 2223,
      "Ġsl": 2224,
      "ĠReuters": 2225,
      "Ġexisting": 2226,
      "Ġsensor": 2227,
      "Ġfac": 2228,
      "ĠPlease": 2229,
      "Ġscript": 2230,
      "Ð¶": 2231,
      "Ġ12": 2232,
      "Ġcontext": 2233,
      "Ġmodel": 2234,
      "ĠâĪĻ": 2235,
      "ĠMod": 2236,
      "ĠPre": 2237,
      "ĠStates": 2238,
      "Ġunderstand": 2239,
      "Ġdetails": 2240,
      "Not": 2241,
      "sw": 2242,
      "Ġque": 2243,
      "ATWG": 2244,
      "Ġlife": 2245,
      "Script": 2246,
      "ni": 2247,
      "ron": 2248,
      "ĠAg": 2249,
      "ĠWhen": 2250,
      "ĠBe": 2251,
      "ĠArq": 2252,
      "Ġgiven": 2253,
      "'ve": 2254,
      "Ġpot": 2255,
      "Ġpres": 2256,
      "Ġwr": 2257,
      "Ġvers": 2258,
      "Ġsepar": 2259,
      "Ġtry": 2260,
      "ĠInst": 2261,
      "ĠAtlassian": 2262,
      "Ġdistribut": 2263,
      "Ġtak": 2264,
      "Ġtalk": 2265,
      "ication": 2266,
      "Ġlab": 2267,
      "Con": 2268,
      "wise": 2269,
      "Ġpat": 2270,
      "rive": 2271,
      "Ġprin": 2272,
      "Ġassoci": 2273,
      "Ġsimple": 2274,
      "Ġallows": 2275,
      "oÅĤ": 2276,
      "anced": 2277,
      "Ġwik": 2278,
      "Ġload": 2279,
      "ĠPh": 2280,
      "arent": 2281,
      "Ġquality": 2282,
      "Ġsimilar": 2283,
      "Ġdesigned": 2284,
      "Ġstrateg": 2285,
      "Ġlarge": 2286,
      "Ġpa": 2287,
      "rap": 2288,
      "Ġlaws": 2289,
      "Ġminimis": 2290,
      "OS": 2291,
      "no": 2292,
      "itive": 2293,
      "Ġcent": 2294,
      "ours": 2295,
      "Ġresults": 2296,
      "Ġchoose": 2297,
      "Ġsuggest": 2298,
      "AR": 2299,
      "Ġ×Ĳ": 2300,
      "à±į": 2301,
      "Ġconnect": 2302,
      "Ġengine": 2303,
      "ĠKing": 2304,
      "Ġclaim": 2305,
      "11": 2306,
      "na": 2307,
      "ini": 2308,
      "Ġmen": 2309,
      "illion": 2310,
      "Ġprotect": 2311,
      "à§ĩ": 2312,
      "omson": 2313,
      "hi": 2314,
      "äº": 2315,
      "otype": 2316,
      "Ġstream": 2317,
      "ĠFirefox": 2318,
      "obile": 2319,
      "Ġtechnical": 2320,
      "Ġbranch": 2321,
      "ĠÐ°": 2322,
      "Ġold": 2323,
      "icated": 2324,
      "ĠÐ¸": 2325,
      "Ġaudio": 2326,
      "dom": 2327,
      "tings": 2328,
      "ination": 2329,
      "Ġfin": 2330,
      "arget": 2331,
      "Ġless": 2332,
      "ãģª": 2333,
      "ners": 2334,
      "sc": 2335,
      "×ł": 2336,
      "Ġthings": 2337,
      "Ġprivate": 2338,
      "24": 2339,
      "Tr": 2340,
      "ĠÙĦ": 2341,
      "ĠCopilot": 2342,
      "osed": 2343,
      "ĠÐ¾": 2344,
      "Ġdefined": 2345,
      "Ġmajor": 2346,
      "lu": 2347,
      "ration": 2348,
      "ram": 2349,
      "isc": 2350,
      "Ġfam": 2351,
      "Ġmakes": 2352,
      "ieve": 2353,
      "Ġday": 2354,
      "Ġgive": 2355,
      "prot": 2356,
      "abase": 2357,
      "Ġspecification": 2358,
      "prise": 2359,
      "Øµ": 2360,
      "Ġhuman": 2361,
      "ĠAb": 2362,
      "olved": 2363,
      "ĠRes": 2364,
      "Ġê": 2365,
      "Ġsay": 2366,
      "Ð¾Ð³": 2367,
      "Ġrestrict": 2368,
      "25": 2369,
      "Ġduring": 2370,
      "Ġmusic": 2371,
      "Ġexpert": 2372,
      "Ġweek": 2373,
      "ired": 2374,
      "Ġneeds": 2375,
      "Al": 2376,
      "CA": 2377,
      "ising": 2378,
      "ĠIs": 2379,
      "ĠCommunity": 2380,
      "Ġproperty": 2381,
      "Ø®": 2382,
      "ĠUR": 2383,
      "Ġserver": 2384,
      "Ġwritten": 2385,
      "à¸¡": 2386,
      "Ġtrademark": 2387,
      "Ġ)": 2388,
      "ances": 2389,
      "Ġfix": 2390,
      "Ġmov": 2391,
      "aging": 2392,
      "adoop": 2393,
      "ĠRec": 2394,
      "Format": 2395,
      "Ġspeed": 2396,
      "ger": 2397,
      "áİ": 2398,
      "ĠOr": 2399,
      "ovember": 2400,
      "30": 2401,
      "wa": 2402,
      "ãĤ¤": 2403,
      "Ġregard": 2404,
      "Ġdoesn": 2405,
      "iter": 2406,
      "Ġ×ĳ×": 2407,
      "Ġgeneral": 2408,
      "Ġarticles": 2409,
      "ĠQu": 2410,
      "gor": 2411,
      "Ġ15": 2412,
      "duct": 2413,
      "Ġrecogn": 2414,
      "Ġinstead": 2415,
      "part": 2416,
      "Ġenviron": 2417,
      "Ġcategories": 2418,
      "Ġmaintain": 2419,
      "ood": 2420,
      "ĠInc": 2421,
      "Ġcloud": 2422,
      "Ġquestions": 2423,
      "Ġagainst": 2424,
      "à®": 2425,
      "Ġput": 2426,
      "Ġtrust": 2427,
      "Ġneeded": 2428,
      "Ġrelated": 2429,
      "Ġincre": 2430,
      "Wikipedia": 2431,
      "Ġitems": 2432,
      "ersonal": 2433,
      "Ġsaf": 2434,
      "Ġpri": 2435,
      "Ġentire": 2436,
      "olutions": 2437,
      "ĠYour": 2438,
      "den": 2439,
      "dict": 2440,
      "arm": 2441,
      "uration": 2442,
      "Release": 2443,
      "Ġviol": 2444,
      "oid": 2445,
      "åħ": 2446,
      "alth": 2447,
      "Ġmove": 2448,
      "26": 2449,
      "Un": 2450,
      "Ġincluded": 2451,
      "ees": 2452,
      "ats": 2453,
      "Ġben": 2454,
      ",[": 2455,
      "AI": 2456,
      "by": 2457,
      "×ĵ": 2458,
      "ĠĊ": 2459,
      "Ġcamp": 2460,
      "Ġfair": 2461,
      "Ġvol": 2462,
      "ĠProt": 2463,
      "Ġimplementation": 2464,
      "Ġconcern": 2465,
      ",âĢĿ": 2466,
      "à©": 2467,
      "ised": 2468,
      "Î±": 2469,
      "eric": 2470,
      "Ġpresent": 2471,
      "azon": 2472,
      "oh": 2473,
      "Ġcy": 2474,
      "eder": 2475,
      "Ġdefin": 2476,
      "Ġknown": 2477,
      "Ġtypes": 2478,
      "Ġtas": 2479,
      "Ġglasses": 2480,
      "Ġstyle": 2481,
      "Ð¸Ñı": 2482,
      "Ġprevious": 2483,
      "val": 2484,
      "åĪ": 2485,
      "èª": 2486,
      "Ġ16": 2487,
      "Ø§ÙĨ": 2488,
      "Ġinform": 2489,
      "ĠComp": 2490,
      "ãģŁ": 2491,
      "Ġvalid": 2492,
      "Ġsignific": 2493,
      "uj": 2494,
      "Ġcult": 2495,
      "ĠWebroot": 2496,
      "Ġeditor": 2497,
      "ched": 2498,
      "ga": 2499,
      "Ġbre": 2500,
      "ĠSee": 2501,
      "Ġinteract": 2502,
      "ctions": 2503,
      "Ġgraph": 2504,
      "Ġincludes": 2505,
      "Ġeasy": 2506,
      "40": 2507,
      "SA": 2508,
      "iance": 2509,
      "isions": 2510,
      "ĠInformation": 2511,
      "poses": 2512,
      "yntax": 2513,
      "File": 2514,
      "Loc": 2515,
      "Ġtit": 2516,
      "Ġoffic": 2517,
      "Ġremain": 2518,
      "ropri": 2519,
      "Ġcomplete": 2520,
      "Cre": 2521,
      "ane": 2522,
      "ĠCarbonite": 2523,
      "time": 2524,
      "Ġdate": 2525,
      "Ġinvest": 2526,
      "Ġtarget": 2527,
      "Ġways": 2528,
      "lection": 2529,
      "Ġnames": 2530,
      "Ġperformance": 2531,
      "Ġcountry": 2532,
      "indows": 2533,
      "uly": 2534,
      "ØĮ": 2535,
      "Ġ×ŀ×": 2536,
      "Ġbehav": 2537,
      "ique": 2538,
      "Ġorganizations": 2539,
      "GL": 2540,
      "ja": 2541,
      "ving": 2542,
      "Ġcod": 2543,
      "opt": 2544,
      "Ġreturns": 2545,
      "Ø´": 2546,
      "åĲ": 2547,
      "Ġcost": 2548,
      "Ġmachine": 2549,
      "ãģķ": 2550,
      "ĠGu": 2551,
      "Ġprice": 2552,
      "Ġsecure": 2553,
      "Ġactually": 2554,
      "itted": 2555,
      "Ġdiscussion": 2556,
      "ps": 2557,
      "×ĳ": 2558,
      "Ġsend": 2559,
      "ales": 2560,
      "Ġbig": 2561,
      "Ġtoget": 2562,
      "ĠNovember": 2563,
      "Ġapplications": 2564,
      "NS": 2565,
      "Ġnever": 2566,
      "Ġzesp": 2567,
      "Ġgoing": 2568,
      "ĠÐ¿ÑĢ": 2569,
      "ĠKingdom": 2570,
      "Ġtogether": 2571,
      "ma": 2572,
      "ĠWHATWG": 2573,
      "ðŁ": 2574,
      "Ġear": 2575,
      "ami": 2576,
      "Ġwhy": 2577,
      "eed": 2578,
      "save": 2579,
      "uf": 2580,
      "wit": 2581,
      "Ġsumm": 2582,
      "ush": 2583,
      "ãĥĪ": 2584,
      "Ġvarious": 2585,
      "Ġextension": 2586,
      "rast": 2587,
      "Ò¯": 2588,
      "Ġesp": 2589,
      "Ġden": 2590,
      "à¸ģ": 2591,
      "Ġchild": 2592,
      "ĠSecurity": 2593,
      "ĠNotes": 2594,
      "gorith": 2595,
      "App": 2596,
      "sch": 2597,
      "Ġintrodu": 2598,
      "Ġeduc": 2599,
      "Ġdocumentation": 2600,
      "Ġdeli": 2601,
      "oor": 2602,
      "Ġ17": 2603,
      "Ġoffer": 2604,
      "ĠØ§ÙĦÙħ": 2605,
      "Ġteams": 2606,
      "Ġdownload": 2607,
      "Ġinternet": 2608,
      "Ġarguments": 2609,
      "IR": 2610,
      "eek": 2611,
      "emplate": 2612,
      "Ġsmart": 2613,
      "sel": 2614,
      "Ġes": 2615,
      "ĠMay": 2616,
      "Ġevents": 2617,
      "Ġadministr": 2618,
      "Ġsure": 2619,
      "Ġadditional": 2620,
      "ĠÙģ": 2621,
      "Ġsit": 2622,
      "Ġcomment": 2623,
      "Ġ11": 2624,
      "Ġnews": 2625,
      "à¹ī": 2626,
      "Ġfields": 2627,
      "ires": 2628,
      "wh": 2629,
      "elines": 2630,
      "ellig": 2631,
      "Ġmessage": 2632,
      "Ġensure": 2633,
      "yt": 2634,
      "anies": 2635,
      "ĠAll": 2636,
      "ternal": 2637,
      "Ġ30": 2638,
      "Ġaccept": 2639,
      "ged": 2640,
      "áĪ": 2641,
      "Ġtakes": 2642,
      "ĠMark": 2643,
      "izing": 2644,
      "Ġmanagement": 2645,
      "Sh": 2646,
      "like": 2647,
      "Ġfit": 2648,
      "Ġhistory": 2649,
      "aced": 2650,
      "ĠStud": 2651,
      "Ab": 2652,
      "DF": 2653,
      "]]": 2654,
      "ĠAccess": 2655,
      "ifi": 2656,
      "Ġrather": 2657,
      "ĠTechn": 2658,
      "Ġclear": 2659,
      "RS": 2660,
      "å®": 2661,
      "Ġpol": 2662,
      "Ġkind": 2663,
      "bu": 2664,
      "×ŀ×": 2665,
      "oring": 2666,
      "ãģĵ": 2667,
      "ework": 2668,
      "Ġsuccess": 2669,
      "Ġresources": 2670,
      "Ġactive": 2671,
      "Ġmatch": 2672,
      "altura": 2673,
      "point": 2674,
      "pache": 2675,
      "ĠDat": 2676,
      "Ġuseful": 2677,
      "ologies": 2678,
      "Ġcountries": 2679,
      "ĠPrivacy": 2680,
      "ĠIntl": 2681,
      "Ġdays": 2682,
      "Ġcome": 2683,
      "aps": 2684,
      "Ġbecome": 2685,
      "Ġdeterm": 2686,
      "Ġlater": 2687,
      "GitHub": 2688,
      "Ġhours": 2689,
      "empt": 2690,
      "ĠMal": 2691,
      "force": 2692,
      "ĠOne": 2693,
      "ĠJava": 2694,
      "ittle": 2695,
      "dz": 2696,
      "att": 2697,
      "Ġbro": 2698,
      "Ġalgorith": 2699,
      "ared": 2700,
      "ama": 2701,
      "QL": 2702,
      "nie": 2703,
      "uation": 2704,
      "×©": 2705,
      "Ġfurther": 2706,
      "ĠAir": 2707,
      "ĠCom": 2708,
      "ulner": 2709,
      "Ġjob": 2710,
      "Ġspecial": 2711,
      "rid": 2712,
      "ÓĻ": 2713,
      "Ġda": 2714,
      "Ð¾Ð´": 2715,
      "Ġspace": 2716,
      "Ġleast": 2717,
      "Ġfeel": 2718,
      "Ġgovernment": 2719,
      "Ġrecommend": 2720,
      "prototype": 2721,
      "anie": 2722,
      "Ġpict": 2723,
      "roll": 2724,
      "Ġsupp": 2725,
      "Ð½Ð°": 2726,
      "soft": 2727,
      "Ġjur": 2728,
      "Ġbuilding": 2729,
      "Ġpurpose": 2730,
      "Ġconsidered": 2731,
      "board": 2732,
      "Â®": 2733,
      "orn": 2734,
      "aries": 2735,
      "Ġitself": 2736,
      "à¥ĩ": 2737,
      "ocuments": 2738,
      "Ġuntil": 2739,
      "ux": 2740,
      "Ġcare": 2741,
      "ĠHadoop": 2742,
      "Ġpurposes": 2743,
      "PA": 2744,
      "ĠSer": 2745,
      "Ġ14": 2746,
      "Ġprim": 2747,
      "ĠAmazon": 2748,
      "Ġquestion": 2749,
      "anning": 2750,
      "Ġansw": 2751,
      "avig": 2752,
      "earch": 2753,
      "Ġfund": 2754,
      "Ġrelevant": 2755,
      "itect": 2756,
      "amb": 2757,
      "ĠCan": 2758,
      "Ġexecut": 2759,
      "ĠNo": 2760,
      "Ġotherwise": 2761,
      "Ġstarted": 2762,
      "Commons": 2763,
      "Ġnecessary": 2764,
      "Sec": 2765,
      "Ġtri": 2766,
      "Ġsong": 2767,
      "ecially": 2768,
      "Ġapps": 2769,
      "Ġcreating": 2770,
      "à¹Ģ": 2771,
      "Ġeverything": 2772,
      "Im": 2773,
      "Î¹": 2774,
      "Ġgrow": 2775,
      "ĠMicro": 2776,
      "Ġshort": 2777,
      "ĠReg": 2778,
      "Ġmodern": 2779,
      "Ġsignificant": 2780,
      "Ġà¨": 2781,
      "Ġsays": 2782,
      "Ġsocial": 2783,
      "ĠAN": 2784,
      "ĠCategory": 2785,
      "Ø§Ø±": 2786,
      "Ġoption": 2787,
      "CSS": 2788,
      "ply": 2789,
      "ĠAf": 2790,
      "ĠAcc": 2791,
      "Ġconcept": 2792,
      "ĠWikip": 2793,
      "Ġconsist": 2794,
      "ĠContent": 2795,
      "jp": 2796,
      "pre": 2797,
      "urop": 2798,
      "era": 2799,
      "Ġredu": 2800,
      "Ġonce": 2801,
      "Ġcomb": 2802,
      "Ġnotice": 2803,
      "ĠØ£": 2804,
      "ĠProject": 2805,
      "oo": 2806,
      "Ġrev": 2807,
      "Ġlittle": 2808,
      "change": 2809,
      "unt": 2810,
      "Ġetc": 2811,
      "ĠÐ½Ð°": 2812,
      "ropriate": 2813,
      "Int": 2814,
      "atter": 2815,
      "Ġfail": 2816,
      "ĠPersonal": 2817,
      "ĠzespoÅĤ": 2818,
      "Get": 2819,
      "ody": 2820,
      "Ġcompon": 2821,
      "Ġimpact": 2822,
      "Ġremov": 2823,
      "ĠÄĳ": 2824,
      "ĠLicense": 2825,
      "ID": 2826,
      "ĠCap": 2827,
      "ĠUse": 2828,
      "Ġquick": 2829,
      "Ã©s": 2830,
      "comm": 2831,
      "lex": 2832,
      "level": 2833,
      "Ġrefer": 2834,
      "âĢĵ": 2835,
      "Ġvirt": 2836,
      "Ġ13": 2837,
      "×Ļ×ª": 2838,
      "Ġoffers": 2839,
      "à¥Ģ": 2840,
      "×¤": 2841,
      "Ġut": 2842,
      "roid": 2843,
      "Ġimm": 2844,
      "Ġcompanies": 2845,
      "Ġeveryone": 2846,
      "Ġcurrently": 2847,
      "Ġlimit": 2848,
      "Ġà¬": 2849,
      "ĠDes": 2850,
      "issions": 2851,
      "è¨": 2852,
      "ĠÃ": 2853,
      "Ġti": 2854,
      "Ġwon": 2855,
      "Ġlive": 2856,
      "Ġhold": 2857,
      "ĠCour": 2858,
      "Ġsomeone": 2859,
      "Ġwriting": 2860,
      "Ġlimited": 2861,
      "jpg": 2862,
      "now": 2863,
      "sites": 2864,
      "Ġpack": 2865,
      "icate": 2866,
      "Ġmail": 2867,
      "Ġlibr": 2868,
      "à°¾": 2869,
      "Ġprotected": 2870,
      "Ġcorre": 2871,
      "Ġprior": 2872,
      "olve": 2873,
      "Ġstorage": 2874,
      "Ġenough": 2875,
      "Ġdiscl": 2876,
      "ĠService": 2877,
      "Ġelse": 2878,
      "AN": 2879,
      "×Ľ": 2880,
      "Ġess": 2881,
      "ament": 2882,
      "ĠWeek": 2883,
      "Ġvulner": 2884,
      "à¸Ķ": 2885,
      "Ġrule": 2886,
      "ĠInternet": 2887,
      "Ġtaken": 2888,
      "Ġpair": 2889,
      "Ġdaa": 2890,
      "Ð¾Ð¼": 2891,
      "Ð»Ð°": 2892,
      "Ġmeet": 2893,
      "Ġ198": 2894,
      "Ġprocessing": 2895,
      "Ġdecision": 2896,
      "ĠnyÉĽ": 2897,
      "ko": 2898,
      "Î¿": 2899,
      "Ġ+": 2900,
      "lete": 2901,
      "Ġinput": 2902,
      "Ġred": 2903,
      "Ġef": 2904,
      "ots": 2905,
      "ika": 2906,
      "áĢ¯": 2907,
      "Ġ2024": 2908,
      "Ġtopic": 2909,
      "Ġidentity": 2910,
      "Ġcomplex": 2911,
      "ĠURL": 2912,
      "self": 2913,
      "abled": 2914,
      "Ġdevices": 2915,
      "ercial": 2916,
      "bers": 2917,
      "iod": 2918,
      "Ø·": 2919,
      "à¼": 2920,
      "Ġdu": 2921,
      "Ġbox": 2922,
      "ÐµÑĤ": 2923,
      "Ġenable": 2924,
      "ahasa": 2925,
      "Ġrequirements": 2926,
      "box": 2927,
      "Ġêł": 2928,
      "ĠAut": 2929,
      "ements": 2930,
      "Ġalong": 2931,
      "Ġactiv": 2932,
      "Ġprograms": 2933,
      "Ġtesting": 2934,
      "Ġgrant": 2935,
      "Ġcharacter": 2936,
      "Note": 2937,
      "Ġ@": 2938,
      "org": 2939,
      "urs": 2940,
      "ĠÐ·": 2941,
      "Ġdescription": 2942,
      "Ġfilter": 2943,
      "Ġinterface": 2944,
      "TT": 2945,
      "upport": 2946,
      "Ê»": 2947,
      "Ñİ": 2948,
      "Ġsolutions": 2949,
      "oub": 2950,
      "Ġdocuments": 2951,
      "Ġlikely": 2952,
      "IN": 2953,
      "Ġaction": 2954,
      "ĠsiÄĻ": 2955,
      "ĠIm": 2956,
      "aged": 2957,
      "à¸«": 2958,
      "Ġindust": 2959,
      "Ġlearn": 2960,
      "ken": 2961,
      "ala": 2962,
      "abilities": 2963,
      "Ġsubm": 2964,
      "Ġestab": 2965,
      "Ġpotential": 2966,
      "Ġ...": 2967,
      "Ġtoday": 2968,
      "ĠUser": 2969,
      "ĠOff": 2970,
      "×Ļ×ķ": 2971,
      "Ġapplicable": 2972,
      "Ġgroups": 2973,
      "gin": 2974,
      "×ĺ": 2975,
      "Ġfont": 2976,
      "Ġhaving": 2977,
      "ĠThomson": 2978,
      "æĸĩ": 2979,
      "come": 2980,
      "ging": 2981,
      "ater": 2982,
      "ott": 2983,
      "Ġrisk": 2984,
      "ume": 2985,
      "Our": 2986,
      "cing": 2987,
      "Å¡": 2988,
      "ÏĦ": 2989,
      "Ġwide": 2990,
      "Ġlow": 2991,
      "oll": 2992,
      "ĠPart": 2993,
      "ĠGit": 2994,
      "Ð½Ð¸": 2995,
      "though": 2996,
      "Ġaccording": 2997,
      "Ġlaun": 2998,
      "Ġenter": 2999,
      "ey": 3000,
      "hold": 3001,
      "Ġ#": 3002,
      "Ġtre": 3003,
      "ĠWorld": 3004,
      "Ġ199": 3005,
      "Ġwar": 3006,
      "ãĤĬ": 3007,
      "ciples": 3008,
      "22": 3009,
      "ih": 3010,
      "arily": 3011,
      "Ġusually": 3012,
      "irst": 3013,
      "ĠLanguage": 3014,
      "Ġfirm": 3015,
      "EC": 3016,
      "ii": 3017,
      "ncy": 3018,
      "tr": 3019,
      "Ġdue": 3020,
      "ĠApr": 3021,
      "ÐµÐ»": 3022,
      "Ġwrite": 3023,
      "urope": 3024,
      "ĠSc": 3025,
      "riend": 3026,
      "ira": 3027,
      "Ġespecially": 3028,
      "HTML": 3029,
      "where": 3030,
      "orpor": 3031,
      "Ġwy": 3032,
      "Ġma": 3033,
      "ĠCopyright": 3034,
      "ĠGener": 3035,
      "Ġprevent": 3036,
      "Ġdescribed": 3037,
      "Ġversions": 3038,
      "IT": 3039,
      "Pl": 3040,
      "Ì±": 3041,
      "Ġli": 3042,
      "Ġ25": 3043,
      "ĠFile": 3044,
      "ption": 3045,
      "uds": 3046,
      "à¤¨": 3047,
      "Ġenvironment": 3048,
      "èªŀ": 3049,
      "ters": 3050,
      "reement": 3051,
      "iting": 3052,
      "uni": 3053,
      "Ġ×ķ": 3054,
      "Ġzu": 3055,
      "Ġdiff": 3056,
      "Ġrelations": 3057,
      "za": 3058,
      "Î½": 3059,
      "Øº": 3060,
      "Ġtree": 3061,
      "ury": 3062,
      "ĠØ¹": 3063,
      "ĠSpec": 3064,
      "Ġcontains": 3065,
      "Ġdeleted": 3066,
      "ĠMicrosoft": 3067,
      "MA": 3068,
      "aff": 3069,
      "isdict": 3070,
      "Ġbar": 3071,
      "à¸£": 3072,
      "Ġtech": 3073,
      "Ġlatest": 3074,
      "Ġbenef": 3075,
      "At": 3076,
      "Ġschool": 3077,
      "Ġwords": 3078,
      "ilit": 3079,
      "Ġdeal": 3080,
      "Ġadopt": 3081,
      "Ġsettings": 3082,
      "ÅĽci": 3083,
      "aign": 3084,
      "Ġsites": 3085,
      "Ġstructure": 3086,
      "à¸§": 3087,
      "Ġmeas": 3088,
      "Ġremove": 3089,
      "'m": 3090,
      "most": 3091,
      "Ġmem": 3092,
      "imate": 3093,
      "stract": 3094,
      "Ġperiod": 3095,
      "Ġmatter": 3096,
      "Ġavoid": 3097,
      "Ġcourt": 3098,
      "User": 3099,
      "ges": 3100,
      "nov": 3101,
      "ĠØ§": 3102,
      "anu": 3103,
      "Ġnat": 3104,
      "ĠTH": 3105,
      "à¸µ": 3106,
      "ãĥª": 3107,
      "Ġexpect": 3108,
      "Ġproblems": 3109,
      "EN": 3110,
      "icit": 3111,
      "Ġmobile": 3112,
      "ĠCent": 3113,
      "ocs": 3114,
      "erms": 3115,
      "Ġbrowsers": 3116,
      "Ġ,": 3117,
      "Ġhome": 3118,
      "irc": 3119,
      "ape": 3120,
      "avor": 3121,
      "Ġ[[": 3122,
      "Ġorigin": 3123,
      "Ġapproach": 3124,
      "attery": 3125,
      "Ph": 3126,
      "ðĲ": 3127,
      "ĠÑĥ": 3128,
      "Ġocc": 3129,
      "ãĤ¯": 3130,
      "ÑģÐºÐ¸": 3131,
      "Ġza": 3132,
      "earn": 3133,
      "Ġupdate": 3134,
      "Ã´": 3135,
      "Ġtimes": 3136,
      "Ġsolution": 3137,
      "ĠTV": 3138,
      "opp": 3139,
      "ĠEdit": 3140,
      "ender": 3141,
      "à¤ķ": 3142,
      "Ġpublish": 3143,
      "Ġprofile": 3144,
      "Ġstrong": 3145,
      "ued": 3146,
      "Ġturn": 3147,
      "Ġfar": 3148,
      "ĠWindows": 3149,
      "ãĤ£": 3150,
      "ãĥĥ": 3151,
      "Ġagree": 3152,
      "letion": 3153,
      "Ġdatabase": 3154,
      "Time": 3155,
      "Ġsent": 3156,
      "Ġsort": 3157,
      "Ġfour": 3158,
      "Ġbi": 3159,
      "Ġadapt": 3160,
      "Ġchall": 3161,
      "overed": 3162,
      "Ġupdates": 3163,
      "Ġlearning": 3164,
      "lig": 3165,
      "åŃ": 3166,
      "Ġsup": 3167,
      "Ġunless": 3168,
      "Ġjoin": 3169,
      "Ġagent": 3170,
      "ĠÙħÙĨ": 3171,
      "Ġobjects": 3172,
      "Ġum": 3173,
      "Ġparent": 3174,
      "Ġmillion": 3175,
      "osition": 3176,
      "ills": 3177,
      "ending": 3178,
      "Ġappropriate": 3179,
      "Ġassemb": 3180,
      "Ġreading": 3181,
      "Ġpolicies": 3182,
      "Ġcompliance": 3183,
      "Ġparameters": 3184,
      "bol": 3185,
      "arter": 3186,
      "Ġalert": 3187,
      "resp": 3188,
      "Ġscanning": 3189,
      "ysis": 3190,
      "ĠMediaWiki": 3191,
      "elligence": 3192,
      "cont": 3193,
      "Ġí": 3194,
      "ino": 3195,
      "Ġhig": 3196,
      "Ġarbit": 3197,
      "osted": 3198,
      "ãģ¦ãģĦ": 3199,
      "Ġannoun": 3200,
      "CC": 3201,
      "ml": 3202,
      "Ġx": 3203,
      "Ġyet": 3204,
      "Ġstring": 3205,
      "Ġtrue": 3206,
      "Ġinstitut": 3207,
      "Add": 3208,
      "ĠCourt": 3209,
      "ba": 3210,
      "hors": 3211,
      "Ó©": 3212,
      "ìĹ": 3213,
      "onse": 3214,
      "Ġpast": 3215,
      "tee": 3216,
      "Ð²Ð°": 3217,
      "Ġregist": 3218,
      "Ġeasily": 3219,
      "aus": 3220,
      "Ã²": 3221,
      "Ġnote": 3222,
      "iving": 3223,
      "ĠOb": 3224,
      "ĠJune": 3225,
      "Ġlooking": 3226,
      "Ġexplain": 3227,
      "Ġassociated": 3228,
      "Ġsam": 3229,
      "icult": 3230,
      "iles": 3231,
      "Ġcomes": 3232,
      "ump": 3233,
      "Ø§Ùħ": 3234,
      "Ġmarket": 3235,
      "ĠEnter": 3236,
      "zen": 3237,
      "rel": 3238,
      "Ġcar": 3239,
      "ĠDo": 3240,
      "áĢŃ": 3241,
      "à¦¨": 3242,
      "Ġbelieve": 3243,
      "Ġalgorithm": 3244,
      "eo": 3245,
      "ele": 3246,
      "Ñĺ": 3247,
      "å¤": 3248,
      "anish": 3249,
      "ĠAss": 3250,
      "Ð½Ñĭ": 3251,
      "Ġanyone": 3252,
      "Ġsubst": 3253,
      "Ġoperation": 3254,
      "IRED": 3255,
      "??": 3256,
      "Ø²": 3257,
      "ĠÚ©": 3258,
      "Ġnavig": 3259,
      "ift": 3260,
      "Ġaltern": 3261,
      "Ġexact": 3262,
      "Ġrequires": 3263,
      "Ġparty": 3264,
      "Ġcopyrighted": 3265,
      "Ġgenerally": 3266,
      "Ġphoto": 3267,
      "Ġfeedback": 3268,
      "Ġjurisdict": 3269,
      "cent": 3270,
      "gress": 3271,
      "ti": 3272,
      "ouse": 3273,
      "lying": 3274,
      "istic": 3275,
      "à¤¤": 3276,
      "ÙĬØ©": 3277,
      "Ġlonger": 3278,
      "IS": 3279,
      "iet": 3280,
      "jek": 3281,
      "Îµ": 3282,
      "Ġ:": 3283,
      "Ġß": 3284,
      "Ġsyntax": 3285,
      "alif": 3286,
      "Ð´Ð°": 3287,
      "ãģķãĤĮ": 3288,
      "Ã«": 3289,
      "ÑĦ": 3290,
      "×Ŀ": 3291,
      "ëĬ": 3292,
      "ero": 3293,
      "Ġearly": 3294,
      "ĠWhat": 3295,
      "à¦¤": 3296,
      "Ġregul": 3297,
      "Ġvirtual": 3298,
      "ĠApril": 3299,
      "28": 3300,
      "alf": 3301,
      "Ġbattery": 3302,
      "Ġgot": 3303,
      "nder": 3304,
      "ĠEurope": 3305,
      "Ġcontract": 3306,
      "ãĥ©": 3307,
      "Ġidentify": 3308,
      "Array": 3309,
      "conom": 3310,
      "Ġnormal": 3311,
      "Please": 3312,
      "cell": 3313,
      "Ġspecified": 3314,
      "ĠØ§ÙĦØ": 3315,
      "Ġcustomers": 3316,
      "Ġinternal": 3317,
      "Ġseparate": 3318,
      "Ġofficial": 3319,
      "200": 3320,
      "En": 3321,
      "gener": 3322,
      "overy": 3323,
      "ister": 3324,
      "Ġisn": 3325,
      "osing": 3326,
      "ĠPublic": 3327,
      "ĠBu": 3328,
      "ĠJuly": 3329,
      "Ġmodels": 3330,
      "ditions": 3331,
      "encies": 3332,
      "60": 3333,
      "Ġaway": 3334,
      "Ġwa": 3335,
      "Ġdz": 3336,
      "ĠDOM": 3337,
      "ĠGerm": 3338,
      "ĠLaw": 3339,
      "ĠEm": 3340,
      "Ġemb": 3341,
      "Ġcorrect": 3342,
      "à¼ĭ": 3343,
      ",\"": 3344,
      "Äį": 3345,
      "ening": 3346,
      "Ġreference": 3347,
      "áĢ±": 3348,
      "à¦®": 3349,
      "Ġreprodu": 3350,
      "ĠVer": 3351,
      "Ġamong": 3352,
      "Ġstudents": 3353,
      "Ġbehavior": 3354,
      "pret": 3355,
      "reg": 3356,
      "Ġdin": 3357,
      "Ġdial": 3358,
      "Ġthreat": 3359,
      "ĠSm": 3360,
      "Ġasp": 3361,
      "Ġ21": 3362,
      "Ġhowever": 3363,
      "Ġsimply": 3364,
      "ĠSept": 3365,
      "49": 3366,
      "itions": 3367,
      "asing": 3368,
      "ĠTerms": 3369,
      "ubator": 3370,
      "à¸±": 3371,
      "Ġlocation": 3372,
      "ĠAmeric": 3373,
      "Ġlayout": 3374,
      "DL": 3375,
      "Õ¡": 3376,
      "Ġtab": 3377,
      "heck": 3378,
      "Ġfaster": 3379,
      "adu": 3380,
      "outh": 3381,
      "Ġintended": 3382,
      "Ġsupports": 3383,
      "ëĬĶ": 3384,
      "×¢": 3385,
      "enn": 3386,
      "Ġpath": 3387,
      "Ġmember": 3388,
      "Ġmention": 3389,
      "ĠShe": 3390,
      "Ð»Ð¸": 3391,
      "ructions": 3392,
      "Ġshared": 3393,
      "Ġeffective": 3394,
      "ĠCloud": 3395,
      "So": 3396,
      "down": 3397,
      "name": 3398,
      "Ġword": 3399,
      "Ġmer": 3400,
      "omen": 3401,
      "Ġvan": 3402,
      "raw": 3403,
      "Ġ100": 3404,
      "umber": 3405,
      "Ġbug": 3406,
      "ĠArt": 3407,
      "Ġlicensed": 3408,
      "Ġconditions": 3409,
      "ĠPolic": 3410,
      "Ð°Ðº": 3411,
      "à¸ĩ": 3412,
      "Ġuns": 3413,
      "Ġhelps": 3414,
      "ãĥ³ãĥ": 3415,
      "Ġreceive": 3416,
      "70": 3417,
      "è¦": 3418,
      "Ġstore": 3419,
      "ĠMe": 3420,
      "Ġphotos": 3421,
      "çĶ¨": 3422,
      "About": 3423,
      "Media": 3424,
      "ìł": 3425,
      "Ġtot": 3426,
      "Ġdecl": 3427,
      "Ġprz": 3428,
      "Ġrecord": 3429,
      "Ġdeveloper": 3430,
      "Ã¼r": 3431,
      "Ġvisit": 3432,
      "Ġworkflows": 3433,
      "atory": 3434,
      "otify": 3435,
      "ĠApache": 3436,
      "ĠMarch": 3437,
      "anding": 3438,
      "ãĤ¢": 3439,
      "ãĤ¦": 3440,
      "Ġability": 3441,
      "Ġdoing": 3442,
      "Ġencour": 3443,
      "Ġdidn": 3444,
      "ĠLevel": 3445,
      "ĠPar": 3446,
      "Ġagents": 3447,
      "Ġtechnologies": 3448,
      "And": 3449,
      "Äģ": 3450,
      "Ġve": 3451,
      "Ġded": 3452,
      "à¤¸": 3453,
      "igned": 3454,
      "ebru": 3455,
      "ifications": 3456,
      "Ġlists": 3457,
      "arbuds": 3458,
      "ìĿ´": 3459,
      "ĠProtection": 3460,
      "zyst": 3461,
      "ìĦ": 3462,
      "acji": 3463,
      "áĢĲ": 3464,
      "à¦¯": 3465,
      "ansl": 3466,
      "×Ļ×Ķ": 3467,
      "×ķ×¨": 3468,
      "ãĥ¼ãĥ": 3469,
      "Ġinfring": 3470,
      "ĠSoftware": 3471,
      "ëĭ¤": 3472,
      "ĠSeptember": 3473,
      "Ġcop": 3474,
      "ley": 3475,
      "plore": 3476,
      "umb": 3477,
      "These": 3478,
      "ĠWiki": 3479,
      "Ġexamples": 3480,
      "Ġminut": 3481,
      "):": 3482,
      "Ġod": 3483,
      "Ġusage": 3484,
      "elcome": 3485,
      "ĠFr": 3486,
      "Ġ×¢": 3487,
      "Ġparties": 3488,
      "Ġsupported": 3489,
      "Ġallowed": 3490,
      "Ġplatforms": 3491,
      "ĠAdv": 3492,
      "Ġarchitect": 3493,
      "clusive": 3494,
      "Ġspeakers": 3495,
      "anuary": 3496,
      "OU": 3497,
      "dent": 3498,
      "åľ": 3499,
      "ĠÃ©": 3500,
      "Ġmo": 3501,
      "Ġever": 3502,
      "à¸¥": 3503,
      "áĢĢ": 3504,
      "Ġmonths": 3505,
      "Ġdraft": 3506,
      "ku": 3507,
      "mium": 3508,
      "Ġtem": 3509,
      "ĠSome": 3510,
      "ĠDNS": 3511,
      "à¸Ĺ": 3512,
      "illa": 3513,
      "Ġquot": 3514,
      "ruction": 3515,
      "Ġdecisions": 3516,
      "Ġexplicit": 3517,
      "ĠWorking": 3518,
      "Ġapplies": 3519,
      "party": 3520,
      "×§": 3521,
      "hent": 3522,
      "Ġthing": 3523,
      "ĠUK": 3524,
      "ĠVis": 3525,
      "Ġscreen": 3526,
      "Ġoutside": 3527,
      "Ġà¤ķ": 3528,
      "Ġtopics": 3529,
      "Ġguide": 3530,
      "Ġreporting": 3531,
      "Ġuploaded": 3532,
      "Ġpopular": 3533,
      "Ġidea": 3534,
      "rastructure": 3535,
      "--": 3536,
      "US": 3537,
      "son": 3538,
      "Ûģ": 3539,
      "Ġside": 3540,
      "Ġcal": 3541,
      "Ġbit": 3542,
      "ĠCo": 3543,
      "ÐµÐº": 3544,
      "cluding": 3545,
      "Ġwebsites": 3546,
      "Ġindustry": 3547,
      "cher": 3548,
      "ÛĴ": 3549,
      "Ġcur": 3550,
      "elp": 3551,
      "ãģĤ": 3552,
      "Ġ24": 3553,
      "Ġabstract": 3554,
      "Ġmanage": 3555,
      "Ġsetup": 3556,
      "List": 3557,
      "PU": 3558,
      "hib": 3559,
      "hana": 3560,
      "Ã¥": 3561,
      "lege": 3562,
      "ĠBr": 3563,
      "ĠBusiness": 3564,
      "à¤Ĥ": 3565,
      "Ġenh": 3566,
      "ĠAndroid": 3567,
      "21": 3568,
      "cul": 3569,
      "Ġmind": 3570,
      "acity": 3571,
      "ĠPer": 3572,
      "ections": 3573,
      "Ġ2022": 3574,
      "Ġ2023": 3575,
      "Ġactivity": 3576,
      "ground": 3577,
      "ÅĦ": 3578,
      "leg": 3579,
      "Ġng": 3580,
      "ĠAug": 3581,
      "ĠIP": 3582,
      "ube": 3583,
      "à¸¢": 3584,
      "Ġleft": 3585,
      "ideos": 3586,
      "ÑģÐº": 3587,
      "à°°": 3588,
      "Ġprobably": 3589,
      "ĠTeam": 3590,
      "ĠPal": 3591,
      "quest": 3592,
      "ĠBy": 3593,
      "ĠLua": 3594,
      "ĠJanuary": 3595,
      "Ġcreation": 3596,
      "Ġclose": 3597,
      "à¥ĭ": 3598,
      "Ġbecom": 3599,
      "ĠDevelop": 3600,
      "Ġbroad": 3601,
      "Ġcross": 3602,
      "Ġworth": 3603,
      "Ġfast": 3604,
      "ider": 3605,
      "áĢ¸": 3606,
      "ief": 3607,
      "Ġassist": 3608,
      "Ġresponse": 3609,
      "Ġtasks": 3610,
      "selves": 3611,
      "35": 3612,
      "lock": 3613,
      "Ġpress": 3614,
      "Ġbad": 3615,
      "ops": 3616,
      "ĠÐ³": 3617,
      "Ð¾ÑĤ": 3618,
      "fully": 3619,
      "Ġcommunities": 3620,
      "Ġtitle": 3621,
      "IC": 3622,
      "No": 3623,
      "iÄħ": 3624,
      "kl": 3625,
      "zÄħ": 3626,
      "Ġcr": 3627,
      "Ġnie": 3628,
      "Ġ2021": 3629,
      "Ġinterpret": 3630,
      "Ġ50": 3631,
      "Ġexperien": 3632,
      "Commits": 3633,
      "Ġupdated": 3634,
      "respond": 3635,
      "29": 3636,
      "lim": 3637,
      "light": 3638,
      "Ġful": 3639,
      "alid": 3640,
      "Ġdrive": 3641,
      "Ġhol": 3642,
      "ĠCons": 3643,
      "ikel": 3644,
      "Ġcompet": 3645,
      "Ġ2012": 3646,
      "Ġproviding": 3647,
      "Ġmethods": 3648,
      "Ġfrequ": 3649,
      "ĠStudio": 3650,
      "OR": 3651,
      "With": 3652,
      "].": 3653,
      "ê³": 3654,
      "Ġil": 3655,
      "Ġfavor": 3656,
      "Ġmal": 3657,
      "Ġya": 3658,
      "otel": 3659,
      "ÐµÐ¼": 3660,
      "Ġcompat": 3661,
      "ĠString": 3662,
      "Ġsche": 3663,
      "Ġphys": 3664,
      "Ġeffic": 3665,
      "ĠÂ§": 3666,
      "Ġ%": 3667,
      "Ġtell": 3668,
      "Ġsem": 3669,
      "Ġself": 3670,
      "ises": 3671,
      "Ġunique": 3672,
      "ĠOur": 3673,
      "à°Ĥ": 3674,
      "×Ļ×§": 3675,
      "Ġeval": 3676,
      "Ã³n": 3677,
      "Ġdeveloped": 3678,
      "espace": 3679,
      "Ġoperating": 3680,
      "Ġinitial": 3681,
      "Bu": 3682,
      "Ġein": 3683,
      "ĠID": 3684,
      "ĠMich": 3685,
      "ĠÐĴ": 3686,
      "Ġ×Ľ": 3687,
      "Ġadding": 3688,
      "Ġclient": 3689,
      "spec": 3690,
      "Ġinternational": 3691,
      "Ġindividuals": 3692,
      "clusion": 3693,
      "opping": 3694,
      "Rec": 3695,
      "ha": 3696,
      "ych": 3697,
      "×Ĺ": 3698,
      "Ġfall": 3699,
      "Ġinnov": 3700,
      "ĠSystem": 3701,
      "ĠSony": 3702,
      "Ġdeploy": 3703,
      "áĢĻ": 3704,
      "à¤¯": 3705,
      "Ġaccur": 3706,
      "Ġ2020": 3707,
      "Ġinstance": 3708,
      "Ġrunning": 3709,
      "Ø³Øª": 3710,
      "Ġreleases": 3711,
      "Ġáİ": 3712,
      "Ġconstruct": 3713,
      "Ġtags": 3714,
      "Ġapplied": 3715,
      "ĠAfric": 3716,
      "Ġrelationship": 3717,
      "ded": 3718,
      "net": 3719,
      "çī": 3720,
      "ìļ": 3721,
      "Ġloss": 3722,
      "osure": 3723,
      "ips": 3724,
      "Ġanything": 3725,
      "Ġrecent": 3726,
      "Ġcontribute": 3727,
      "Ġeasier": 3728,
      "Ġargument": 3729,
      "ĠIndones": 3730,
      "Ġessential": 3731,
      "All": 3732,
      "Ind": 3733,
      "Man": 3734,
      "aÄĩ": 3735,
      "eople": 3736,
      "list": 3737,
      "Æ°": 3738,
      "Ġsources": 3739,
      "Ġwatch": 3740,
      "Ġmiss": 3741,
      "Ġyang": 3742,
      "ading": 3743,
      "Ġproper": 3744,
      "Ġsty": 3745,
      "irm": 3746,
      "Ġpartners": 3747,
      "Ġauthors": 3748,
      "Ġregular": 3749,
      "Ġfunctions": 3750,
      "efined": 3751,
      "wards": 3752,
      "Ġreleased": 3753,
      "Ġconcerns": 3754,
      "EO": 3755,
      "Gener": 3756,
      "Ġpo": 3757,
      "Ġom": 3758,
      "Ġboard": 3759,
      "Ġmag": 3760,
      "Ġliter": 3761,
      "iment": 3762,
      "idence": 3763,
      "iff": 3764,
      "ograp": 3765,
      "ĠKaltura": 3766,
      "Ġinstructions": 3767,
      "ÑĨÐ¸": 3768,
      "Ġreceived": 3769,
      "Ġanalysis": 3770,
      "ht": 3771,
      "à¶": 3772,
      "ìŀ": 3773,
      "reme": 3774,
      "Ġsize": 3775,
      "itation": 3776,
      "Ġpi": 3777,
      "Ġearbuds": 3778,
      "igen": 3779,
      "Ġexternal": 3780,
      "ĠBY": 3781,
      "Ġsharing": 3782,
      "Ð¾Ðº": 3783,
      "ÑĥÑĢ": 3784,
      "ÑĥÑģ": 3785,
      "Ġaccessibility": 3786,
      "Ġoptim": 3787,
      "Ġprofessionals": 3788,
      "ä½ľ": 3789,
      "Ġdeliver": 3790,
      "AL": 3791,
      "AM": 3792,
      "Be": 3793,
      "Cl": 3794,
      "OT": 3795,
      "ima": 3796,
      "owered": 3797,
      "ĠWIRED": 3798,
      "ĠMusic": 3799,
      "à¸Ħ": 3800,
      "ÑĤÐ¸": 3801,
      "Ġtraining": 3802,
      "Ġinsights": 3803,
      "39": 3804,
      "ev": 3805,
      "lier": 3806,
      "oice": 3807,
      "sk": 3808,
      "áģ": 3809,
      "atives": 3810,
      "Ġsat": 3811,
      "ison": 3812,
      "Ġnative": 3813,
      "ĠshÉĽ": 3814,
      "Ġcred": 3815,
      "Ġnoise": 3816,
      "ĠXML": 3817,
      "Ġcorrespond": 3818,
      "àŃį": 3819,
      "Ġmeaning": 3820,
      "Ġprinc": 3821,
      "Ġsafe": 3822,
      "Ġactivities": 3823,
      "cast": 3824,
      "date": 3825,
      "Ġpod": 3826,
      "Ġreach": 3827,
      "Ġge": 3828,
      "Ġstates": 3829,
      "Ġ×ĳ": 3830,
      "Ġ×Ķ": 3831,
      "Ã³ÅĤ": 3832,
      "Ġeditors": 3833,
      "ymbol": 3834,
      "ĠÑĩ": 3835,
      "ĠWhile": 3836,
      "Ġemployees": 3837,
      "Ġlabel": 3838,
      "ĠJavaScript": 3839,
      "Ġnatural": 3840,
      "OB": 3841,
      "ÑĹ": 3842,
      "ĠDocs": 3843,
      "ĠFree": 3844,
      "Ġadvert": 3845,
      "ensor": 3846,
      "Ġje": 3847,
      "Ġnamed": 3848,
      "Ġlibrary": 3849,
      "TTP": 3850,
      "27": 3851,
      "Aut": 3852,
      "Use": 3853,
      "free": 3854,
      "Ġach": 3855,
      "pped": 3856,
      "ured": 3857,
      "ãĤĤ": 3858,
      "Ġarray": 3859,
      "ãģ®ãĥ": 3860,
      "Ġcontaining": 3861,
      "Best": 3862,
      "Data": 3863,
      "SP": 3864,
      "book": 3865,
      "rics": 3866,
      "Ġsale": 3867,
      "Ġlove": 3868,
      "orts": 3869,
      "à°¨": 3870,
      "à¬¿": 3871,
      "Ġgetting": 3872,
      "Ġoperations": 3873,
      "ãģĻãĤĭ": 3874,
      "Ġperforms": 3875,
      "Ġshows": 3876,
      "istration": 3877,
      "'d": 3878,
      "cos": 3879,
      "with": 3880,
      "ye": 3881,
      "quire": 3882,
      "ĠWikim": 3883,
      "ney": 3884,
      "Ġblog": 3885,
      "Ġconfiguration": 3886,
      "Ġmailing": 3887,
      "100": 3888,
      "ients": 3889,
      "atic": 3890,
      "orial": 3891,
      "Ġmit": 3892,
      "Ġmom": 3893,
      "asc": 3894,
      "ership": 3895,
      "Ġprogress": 3896,
      "ĠFit": 3897,
      "xtens": 3898,
      "Ġconsent": 3899,
      "Ġamount": 3900,
      "Ġculture": 3901,
      "95": 3902,
      "fr": 3903,
      "pa": 3904,
      "ĠÙĬ": 3905,
      "Ġcirc": 3906,
      "utsch": 3907,
      "ager": 3908,
      "ãģĭ": 3909,
      "raf": 3910,
      "raft": 3911,
      "Ġrange": 3912,
      "ĠStandard": 3913,
      "Ġtransfer": 3914,
      "Ġloading": 3915,
      "ederal": 3916,
      "ĠPolicy": 3917,
      "Is": 3918,
      "bre": 3919,
      "bar": 3920,
      "js": 3921,
      "uuni": 3922,
      "×Ķ×": 3923,
      "Ġface": 3924,
      "Ġmid": 3925,
      "Ġgives": 3926,
      "Ð°Ð¹": 3927,
      "ĠBest": 3928,
      "ãĤ¿": 3929,
      "Ø§Ø": 3930,
      "Ð½Ð¾": 3931,
      "grade": 3932,
      "×Ļ×ł": 3933,
      "ĠSpotify": 3934,
      "Ġrole": 3935,
      "Ġconnection": 3936,
      "Ġsometimes": 3937,
      "Ġdeletion": 3938,
      "fficient": 3939,
      "which": 3940,
      "Te": 3941,
      "à·": 3942,
      "inate": 3943,
      "Ġ22": 3944,
      "ĠÐļ": 3945,
      "Ġscope": 3946,
      "rypt": 3947,
      "Ġbuy": 3948,
      "Ġattempt": 3949,
      "Ġgeneration": 3950,
      "Ġowner": 3951,
      "ĠAPIs": 3952,
      "Ġpractices": 3953,
      "Ġresponsible": 3954,
      "Se": 3955,
      "Top": 3956,
      "Text": 3957,
      "ole": 3958,
      "Ã£": 3959,
      "åĬ": 3960,
      "ival": 3961,
      "Ġ×Ļ": 3962,
      "ĠJust": 3963,
      "Ġwhole": 3964,
      "ticle": 3965,
      "Ġbreak": 3966,
      "Ġdifficult": 3967,
      "Some": 3968,
      "br": 3969,
      "inst": 3970,
      "Ġmode": 3971,
      "Ġlack": 3972,
      "Ġhim": 3973,
      "Ġforward": 3974,
      "Ð°Ð¼": 3975,
      "Ġ23": 3976,
      "ĠCommit": 3977,
      "Ġlocale": 3978,
      "Ġcontinue": 3979,
      "ĠServer": 3980,
      "Ġhigher": 3981,
      "just": 3982,
      "nown": 3983,
      "ty": 3984,
      "Î»": 3985,
      "Ïģ": 3986,
      "Ûķ": 3987,
      "áī": 3988,
      "Ġpers": 3989,
      "isi": 3990,
      "ione": 3991,
      "Ġbegin": 3992,
      "ĠGhana": 3993,
      "ĠFebru": 3994,
      "oke": 3995,
      "ĠProgram": 3996,
      "Ġreli": 3997,
      "Ġremote": 3998,
      "áº£": 3999,
      "Ġinfrastructure": 4000,
      "Ġparameter": 4001,
      "Ġproposal": 4002,
      "witch": 4003,
      "ĠÙģÙĬ": 4004,
      "aliforn": 4005,
      "word": 4006,
      "zer": 4007,
      "è¡": 4008,
      "Ġter": 4009,
      "Ġsense": 4010,
      "estern": 4011,
      "Ġmax": 4012,
      "ĠAv": 4013,
      "str": 4014,
      "Ġstay": 4015,
      "umn": 4016,
      "Ġcommercial": 4017,
      "Ġparts": 4018,
      "Ġthemselves": 4019,
      "ìĹĲ": 4020,
      "Ġminutes": 4021,
      "alifornia": 4022,
      "gg": 4023,
      "rant": 4024,
      "×¡": 4025,
      "Ġopport": 4026,
      "Ġmis": 4027,
      "ĠAust": 4028,
      "ocks": 4029,
      "ĠDay": 4030,
      "place": 4031,
      "see": 4032,
      "licens": 4033,
      "Ġchanged": 4034,
      "Ġediting": 4035,
      "Ġpermissions": 4036,
      "Ġfram": 4037,
      "Ã¢n": 4038,
      "Ġcourse": 4039,
      "Ġaffili": 4040,
      "ĠWikipedi": 4041,
      "New": 4042,
      "Ġindepend": 4043,
      "íķľ": 4044,
      "Ġpractice": 4045,
      "Ġpattern": 4046,
      "Ġeducation": 4047,
      "ĠAccount": 4048,
      "ĠAugust": 4049,
      "()": 4050,
      "Comp": 4051,
      "DN": 4052,
      "ingu": 4053,
      "Ġvideos": 4054,
      "Ġintel": 4055,
      "duc": 4056,
      "Ġmeeting": 4057,
      "yped": 4058,
      "ĠProf": 4059,
      "Ġphone": 4060,
      "ahi": 4061,
      "ĠAlso": 4062,
      "Ġfunctionality": 4063,
      "Ġpicture": 4064,
      "AS": 4065,
      "OL": 4066,
      "mer": 4067,
      "nh": 4068,
      "such": 4069,
      "áĭ": 4070,
      "Ġsi": 4071,
      "Ġbase": 4072,
      "Ġbring": 4073,
      "ros": 4074,
      "pping": 4075,
      "ĠDirect": 4076,
      "ively": 4077,
      "umer": 4078,
      "Ġhealth": 4079,
      "Ġbutton": 4080,
      "Ġ2017": 4081,
      "Ġoblig": 4082,
      "ktop": 4083,
      "Ġtranslation": 4084,
      "Ġfitness": 4085,
      "Ġtotal": 4086,
      "eature": 4087,
      "pare": 4088,
      "×ŀ": 4089,
      "áĤ": 4090,
      "áĬ": 4091,
      "enior": 4092,
      "Ġcam": 4093,
      "Ġbo": 4094,
      "ãĤī": 4095,
      "Ġshall": 4096,
      "Ġoutput": 4097,
      "ä¸Ń": 4098,
      "Ġcollaboration": 4099,
      "31": 4100,
      "36": 4101,
      "Ã¬": 4102,
      "Ġdr": 4103,
      "Ġstaff": 4104,
      "ĠOther": 4105,
      "ÑģÑĮ": 4106,
      "Ġlisted": 4107,
      "Ġinvolved": 4108,
      "Ġvariety": 4109,
      "Ġreports": 4110,
      "Ġbasis": 4111,
      "Ġclaims": 4112,
      "Õ¡Õ": 4113,
      "Do": 4114,
      "cle": 4115,
      "×Ĵ": 4116,
      "ĠÑĢ": 4117,
      "ĠðŁ": 4118,
      "Ġsom": 4119,
      "Ġpush": 4120,
      "Ġwsp": 4121,
      "Ġconvers": 4122,
      "Ġiter": 4123,
      "ĠMembers": 4124,
      "ãģĨ": 4125,
      "sequ": 4126,
      "à¸ļ": 4127,
      "ĠEdition": 4128,
      "Ġcollection": 4129,
      "áº¿": 4130,
      "entials": 4131,
      "Ġreflect": 4132,
      "ozilla": 4133,
      "Ġdefinition": 4134,
      "cosystem": 4135,
      "uck": 4136,
      "ßĬ": 4137,
      "ë¥": 4138,
      "itor": 4139,
      "Ġcapt": 4140,
      "alse": 4141,
      "Ġdeals": 4142,
      "Ġdelete": 4143,
      "Ġcomments": 4144,
      "ĠDocument": 4145,
      "Ġchart": 4146,
      "ĠNational": 4147,
      "ÙĦÙī": 4148,
      "ÑĥÐ»": 4149,
      "Ġprocesses": 4150,
      "Ġpurch": 4151,
      "Ġvisual": 4152,
      "Ġinside": 4153,
      "Why": 4154,
      "ĠEditor": 4155,
      "ĠFebruary": 4156,
      "By": 4157,
      "PR": 4158,
      "ooth": 4159,
      "pi": 4160,
      "wide": 4161,
      "à´": 4162,
      "éĢ": 4163,
      "Īëĭ¤": 4164,
      "Ġsol": 4165,
      "Ġdan": 4166,
      "Ġdig": 4167,
      "used": 4168,
      "Ġlight": 4169,
      "ĠSup": 4170,
      "cember": 4171,
      "ĠWatch": 4172,
      "ayu": 4173,
      "áĢĶ": 4174,
      "Ġtrad": 4175,
      "Ġjak": 4176,
      "Ġprint": 4177,
      "Ġroz": 4178,
      "ego": 4179,
      "Ġphotograp": 4180,
      "Ġmulti": 4181,
      "Ġflag": 4182,
      "44": 4183,
      "Your": 4184,
      "test": 4185,
      "ĠbÉĽ": 4186,
      "chan": 4187,
      "ĠTemplate": 4188,
      "Ġalt": 4189,
      "ĠDis": 4190,
      "à¸ª": 4191,
      "à¸´": 4192,
      "Ð¸ÑĢ": 4193,
      "Ġintelligence": 4194,
      "Ġquite": 4195,
      "Ġìŀ": 4196,
      "nych": 4197,
      "Ġexception": 4198,
      "Other": 4199,
      "joy": 4200,
      "ìĸ": 4201,
      "Ġsz": 4202,
      "enge": 4203,
      "Ġcard": 4204,
      "alam": 4205,
      "Ġoh": 4206,
      "Ġdriv": 4207,
      "Ġdrop": 4208,
      "Ġdeb": 4209,
      "ecause": 4210,
      "Ġseems": 4211,
      "Ġenforce": 4212,
      "atively": 4213,
      "Ġlicensing": 4214,
      "ìĿĺ": 4215,
      "Ġ×©×ľ": 4216,
      "Ġimmedi": 4217,
      "ĠWeekly": 4218,
      "ypedArray": 4219,
      "Learn": 4220,
      "One": 4221,
      "Open": 4222,
      "Ġpan": 4223,
      "Ġmar": 4224,
      "Ġnar": 4225,
      "ceed": 4226,
      "oper": 4227,
      "ĠEC": 4228,
      "Ġauthent": 4229,
      "ajÄħ": 4230,
      "Ġaccounts": 4231,
      "à±ģ": 4232,
      "Ġmessages": 4233,
      "Ġiniti": 4234,
      "Ġsubscription": 4235,
      "Ġcomponents": 4236,
      "45": 4237,
      "Book": 4238,
      "Ġsoci": 4239,
      "ouch": 4240,
      "Ġmed": 4241,
      "ĠCOM": 4242,
      "ĠSet": 4243,
      "ĠPa": 4244,
      "Ġwhose": 4245,
      "formance": 4246,
      "Ð¸Ð»": 4247,
      "Ġcompil": 4248,
      "Ġupon": 4249,
      "Ġaccessible": 4250,
      "Ġobtain": 4251,
      "Ġcustomer": 4252,
      "Ġtracking": 4253,
      "Ġphotographs": 4254,
      "ĠIncubator": 4255,
      "ðĲĮ": 4256,
      "Go": 4257,
      "PD": 4258,
      "comp": 4259,
      "tÃ³": 4260,
      "Ãº": 4261,
      "Ù¾": 4262,
      "Ġba": 4263,
      "Ġmap": 4264,
      "ĠAR": 4265,
      "ute": 4266,
      "ãģ£": 4267,
      "Ġexc": 4268,
      "istor": 4269,
      "Ġcontents": 4270,
      "ãĤĪ": 4271,
      "Ġseen": 4272,
      "Ġhet": 4273,
      "à¦¬": 4274,
      "Ð¸ÐºÐ¸": 4275,
      "Ġjour": 4276,
      "Ġjud": 4277,
      "à°²": 4278,
      "ĠStat": 4279,
      "á»¥": 4280,
      "Ġeffect": 4281,
      "Ġerrors": 4282,
      "Ġstreaming": 4283,
      "Locale": 4284,
      "TM": 4285,
      "kan": 4286,
      "page": 4287,
      "inary": 4288,
      "eries": 4289,
      "Ġpain": 4290,
      "ications": 4291,
      "ĠSection": 4292,
      "Ġcommand": 4293,
      "Ġsimpl": 4294,
      "Ġmarketing": 4295,
      "ength": 4296,
      "Ġoriginality": 4297,
      "Ġguidelines": 4298,
      "Ġstrategy": 4299,
      "Ġcampaign": 4300,
      "Ġintroduced": 4301,
      "Am": 4302,
      "VE": 4303,
      "lt": 4304,
      "Ø¶": 4305,
      "ç´": 4306,
      "Ġtu": 4307,
      "anks": 4308,
      "Ġbal": 4309,
      "owe": 4310,
      "Ġvon": 4311,
      "ĠMore": 4312,
      "ĠList": 4313,
      "nej": 4314,
      "Ġallowing": 4315,
      "Ġstarting": 4316,
      "Ġcontributors": 4317,
      "Ġthought": 4318,
      "ancial": 4319,
      "Ġfamily": 4320,
      "ohn": 4321,
      "ĠnyÉĽla": 4322,
      "×Ļ×ķ×ª": 4323,
      "ĠVisual": 4324,
      "Ġframework": 4325,
      "AC": 4326,
      "ION": 4327,
      "des": 4328,
      "fect": 4329,
      "yd": 4330,
      "à²": 4331,
      "iden": 4332,
      "Ġalmost": 4333,
      "Ġ26": 4334,
      "ĠDigital": 4335,
      "ĠÐĲ": 4336,
      "Ġheld": 4337,
      "ibly": 4338,
      "Ġprefer": 4339,
      "Ġfilm": 4340,
      "ĠArch": 4341,
      "Ġcategor": 4342,
      "ĠTHE": 4343,
      "Ġannounced": 4344,
      "ĠEnterprise": 4345,
      "fig": 4346,
      "igan": 4347,
      "ĠIE": 4348,
      "aci": 4349,
      "izes": 4350,
      "Ġindex": 4351,
      "hens": 4352,
      "Ġattack": 4353,
      "Ġbecame": 4354,
      "ifying": 4355,
      "Ġcontributions": 4356,
      "Ġattribution": 4357,
      "Ġquickly": 4358,
      "wiki": 4359,
      "zi": 4360,
      "Ġtw": 4361,
      "Ġtaking": 4362,
      "orter": 4363,
      "Ġsave": 4364,
      "Ġwish": 4365,
      "amm": 4366,
      "ĠSim": 4367,
      "ĠSaf": 4368,
      "ãģĿ": 4369,
      "à¤®": 4370,
      "ĠOT": 4371,
      "Ġabs": 4372,
      "à¬¾": 4373,
      "Ġìł": 4374,
      "ĠDecember": 4375,
      "Ġregarding": 4376,
      "Ġcampus": 4377,
      "ĠIndonesia": 4378,
      "65": 4379,
      "gen": 4380,
      "Ġ=": 4381,
      "head": 4382,
      "Ġpick": 4383,
      "Ġbott": 4384,
      "ĠCalifornia": 4385,
      "unte": 4386,
      "agram": 4387,
      "Ġgame": 4388,
      "ulation": 4389,
      "acing": 4390,
      "Ġitem": 4391,
      "ĠktÃ³": 4392,
      "rome": 4393,
      "áĢķ": 4394,
      "oney": 4395,
      "phone": 4396,
      "Ġ2011": 4397,
      "Ġinflu": 4398,
      "Ġcontrols": 4399,
      "Ġskills": 4400,
      "Ġdetermine": 4401,
      "Ġeffort": 4402,
      "ĠEuropean": 4403,
      "ĠCommittee": 4404,
      "áĤı": 4405,
      "Edit": 4406,
      "OP": 4407,
      "ta": 4408,
      "Ïĥ": 4409,
      "including": 4410,
      "Ġfriend": 4411,
      "Ġdoub": 4412,
      "lement": 4413,
      "Ġlib": 4414,
      "Ġecosystem": 4415,
      "ams": 4416,
      "Ġgen": 4417,
      "Ġstre": 4418,
      "Ġnotes": 4419,
      "Ð¸Ðº": 4420,
      "Ġneg": 4421,
      "ategor": 4422,
      "Ġ2019": 4423,
      "Ġactions": 4424,
      "Ġformer": 4425,
      "wood": 4426,
      "egal": 4427,
      "Ġtests": 4428,
      "Ð¿ÐµÐ´": 4429,
      "lickr": 4430,
      "Ġbasic": 4431,
      "Ġhappen": 4432,
      "ĠModule": 4433,
      "Ġwikis": 4434,
      "\")": 4435,
      "\".[": 4436,
      "Ø«": 4437,
      "Ġaim": 4438,
      "icon": 4439,
      "ãģį": 4440,
      "ession": 4441,
      "Ġarea": 4442,
      "ibu": 4443,
      "apan": 4444,
      "Ġcalls": 4445,
      "Ã¶r": 4446,
      "Ġcharacters": 4447,
      "ëĭĪëĭ¤": 4448,
      "Ġestablished": 4449,
      "Can": 4450,
      "Code": 4451,
      "PL": 4452,
      "Qu": 4453,
      "do": 4454,
      "nal": 4455,
      "set": 4456,
      "ìĬ": 4457,
      "ìľ": 4458,
      "Ġill": 4459,
      "ĠÑı": 4460,
      "ĠÅĭ": 4461,
      "rew": 4462,
      "Ġsav": 4463,
      "Ġinsp": 4464,
      "Ġren": 4465,
      "Ġprojek": 4466,
      "Ġscale": 4467,
      "ĠReview": 4468,
      "Ġforms": 4469,
      "Ġextra": 4470,
      "Ġrespect": 4471,
      "Ġadvanced": 4472,
      "ĠExchange": 4473,
      "ãģ§ãģĻ": 4474,
      "Ġderiv": 4475,
      "Ġprinciples": 4476,
      "Ġsummary": 4477,
      "Ġanswer": 4478,
      "32": 4479,
      "38": 4480,
      "Tube": 4481,
      "Äĥ": 4482,
      "onym": 4483,
      "atal": 4484,
      "Ġwer": 4485,
      "Ġfore": 4486,
      "ica": 4487,
      "ifier": 4488,
      "à¤²": 4489,
      "ĠâĢĺ": 4490,
      "Ð½Ñı": 4491,
      "Ġenabled": 4492,
      "ĠJud": 4493,
      "ÙĪØ±": 4494,
      "Ġsetting": 4495,
      "Ġdifference": 4496,
      "Ġ2008": 4497,
      "Ġfront": 4498,
      "ÑĩÐ°": 4499,
      "Ġcovering": 4500,
      "Ġengineering": 4501,
      "ĠObject": 4502,
      "Ġembed": 4503,
      "eal": 4504,
      "Ã±": 4505,
      "ĠÕ": 4506,
      "Ġfinal": 4507,
      "Ġfalse": 4508,
      "ĠAnt": 4509,
      "ols": 4510,
      "ached": 4511,
      "Ġdeg": 4512,
      "Ġyourself": 4513,
      "à¬°": 4514,
      "ĠApplic": 4515,
      "Ġtypically": 4516,
      "Ġpassed": 4517,
      "Ġproperties": 4518,
      "Ġcyber": 4519,
      "ĠDaten": 4520,
      "ĠMalay": 4521,
      "è¦ģ": 4522,
      "log": 4523,
      "rz": 4524,
      "×Ł": 4525,
      "ides": 4526,
      "Ġ(\"": 4527,
      "oph": 4528,
      "ĠGet": 4529,
      "à¸¹": 4530,
      "ãĤŃ": 4531,
      "Ð¸Ð¼": 4532,
      "Ġtransform": 4533,
      "Ġlocated": 4534,
      "embang": 4535,
      "áº¡": 4536,
      "Ġleading": 4537,
      "Ġcritical": 4538,
      "Ġmenu": 4539,
      "Ġchildren": 4540,
      "Ġalerts": 4541,
      "Let": 4542,
      "More": 4543,
      "èĢ": 4544,
      "ĠÃł": 4545,
      "iny": 4546,
      "isp": 4547,
      "Ġmac": 4548,
      "ĠSch": 4549,
      "ĠSouth": 4550,
      "adata": 4551,
      "eline": 4552,
      "ĠMet": 4553,
      "ĠStr": 4554,
      "ĠØ³": 4555,
      "Ð´Ñĭ": 4556,
      "Ġreload": 4557,
      "á»ĩ": 4558,
      "ä¸Ģ": 4559,
      "Ġpoints": 4560,
      "Ġpolit": 4561,
      "ĠComments": 4562,
      "Ġremoved": 4563,
      "cks": 4564,
      "di": 4565,
      "yond": 4566,
      "Ġposit": 4567,
      "Ġflow": 4568,
      "unch": 4569,
      "akan": 4570,
      "ĠHere": 4571,
      "à¦²": 4572,
      "Ġchann": 4573,
      "Ġdisput": 4574,
      "Ġmechan": 4575,
      "Ġincorpor": 4576,
      "Ġaudit": 4577,
      "ĠPlatform": 4578,
      "Ġideas": 4579,
      "Ġtrusted": 4580,
      "Îº": 4581,
      "åĽ": 4582,
      "hether": 4583,
      "Ġsw": 4584,
      "Ġcore": 4585,
      "Ġposition": 4586,
      "Ġnational": 4587,
      "Ġeen": 4588,
      "abling": 4589,
      "ĠPort": 4590,
      "Ġcomfort": 4591,
      "Ġareas": 4592,
      "ĠJim": 4593,
      "Ġpublication": 4594,
      "iction": 4595,
      "Ġlapt": 4596,
      "Ġ2009": 4597,
      "venue": 4598,
      "Ġinterested": 4599,
      "Ġcontinu": 4600,
      "ĠCollege": 4601,
      "Ġreplace": 4602,
      "Ġmovement": 4603,
      "Ġenterprise": 4604,
      "Ġphotographer": 4605,
      "cut": 4606,
      "æ³": 4607,
      "æĪ": 4608,
      "æĹ": 4609,
      "Ġaware": 4610,
      "Ġsn": 4611,
      "Ġsyn": 4612,
      "Ġtook": 4613,
      "ĠSub": 4614,
      "Ġproced": 4615,
      "à¤ª": 4616,
      "ÐµÐ·": 4617,
      "icht": 4618,
      "action": 4619,
      "Ġstatement": 4620,
      "Å¼e": 4621,
      "Ġconnected": 4622,
      "Ġdedicated": 4623,
      "Ġfully": 4624,
      "Posted": 4625,
      "yw": 4626,
      "Ġir": 4627,
      "Ġsections": 4628,
      "Ġband": 4629,
      "asi": 4630,
      "ĠSince": 4631,
      "uru": 4632,
      "Ġ28": 4633,
      "ĠGlobal": 4634,
      "Intern": 4635,
      "ategories": 4636,
      "Ġ2018": 4637,
      "Ġactual": 4638,
      "Ġbehind": 4639,
      "Ġasked": 4640,
      "Ġpowerful": 4641,
      "Contact": 4642,
      "Ġhardware": 4643,
      "ĠManagement": 4644,
      "Sc": 4645,
      "nen": 4646,
      "ì§": 4647,
      "Ġwid": 4648,
      "Ġfive": 4649,
      "using": 4650,
      "Ġelect": 4651,
      "Ġvend": 4652,
      "Ġkar": 4653,
      "à¦ķ": 4654,
      "Ġcreative": 4655,
      "Ġgenerate": 4656,
      "Ġminor": 4657,
      "Ġseries": 4658,
      "Ġmaterials": 4659,
      "Ġstudent": 4660,
      "Ġchalleng": 4661,
      "ĠAustral": 4662,
      "jÄĻ": 4663,
      "known": 4664,
      "mark": 4665,
      "Ò£": 4666,
      "Ú¾": 4667,
      "Ġcovered": 4668,
      "rote": 4669,
      "Ġharm": 4670,
      "aming": 4671,
      "ided": 4672,
      "ĠWestern": 4673,
      "uli": 4674,
      "oding": 4675,
      "ĠLa": 4676,
      "Ġenjoy": 4677,
      "×ķ×ł": 4678,
      "Ġcolor": 4679,
      "ĠØ§ÙĦØª": 4680,
      "ĠìĿ": 4681,
      "Ġ2007": 4682,
      "Ġchoice": 4683,
      "ĠÂ«": 4684,
      "Ġintegration": 4685,
      "Ġguidance": 4686,
      "Ġrestrictions": 4687,
      "Ġreduce": 4688,
      "Ġexactly": 4689,
      "ĠGerman": 4690,
      "Ġevalu": 4691,
      "ìĸ´": 4692,
      "MI": 4693,
      "åł": 4694,
      "Ġpor": 4695,
      "Ġpom": 4696,
      "Ġdas": 4697,
      "Ġdla": 4698,
      "Ġber": 4699,
      "cht": 4700,
      "reshold": 4701,
      "apter": 4702,
      "overs": 4703,
      "Ġexpected": 4704,
      "Ġ60": 4705,
      "Ġcapabilities": 4706,
      "Ġappears": 4707,
      "Ġarchitecture": 4708,
      "Kit": 4709,
      "×¦": 4710,
      "è¯": 4711,
      "Ġaf": 4712,
      "ora": 4713,
      "iling": 4714,
      "ĠPR": 4715,
      "ĠRights": 4716,
      "ĠOR": 4717,
      "Ġcompletion": 4718,
      "à°ķ": 4719,
      "ÙĪÙĨ": 4720,
      "Ġrecently": 4721,
      "useum": 4722,
      "à¹Ħ": 4723,
      "à¥¤": 4724,
      "ĠArray": 4725,
      "Ġlevels": 4726,
      "Ġvolunte": 4727,
      "ĠECMA": 4728,
      "67": 4729,
      "Press": 4730,
      "si": 4731,
      "à¯": 4732,
      "æĿ": 4733,
      "ë¡": 4734,
      "Ġãĥ": 4735,
      "ĠÙĨ": 4736,
      "ĠÃ¨": 4737,
      "ĨĴ": 4738,
      "eria": 4739,
      "Ġsus": 4740,
      "Ġsell": 4741,
      "itable": 4742,
      "Ġeconom": 4743,
      "ether": 4744,
      "igu": 4745,
      "ĠCheck": 4746,
      "Ġprop": 4747,
      "Ġrac": 4748,
      "ups": 4749,
      "Ø§Ø¨": 4750,
      "Ġgoal": 4751,
      "iano": 4752,
      "Ġassign": 4753,
      "Ġpara": 4754,
      "Ġparticularly": 4755,
      "While": 4756,
      "ĠAgreement": 4757,
      "Ġinfringement": 4758,
      "33": 4759,
      "Carbonite": 4760,
      "Part": 4761,
      "da": 4762,
      "hemat": 4763,
      "Ġpus": 4764,
      "Ġist": 4765,
      "aches": 4766,
      "Ġstored": 4767,
      "ods": 4768,
      "Ġrate": 4769,
      "ĠEv": 4770,
      "ously": 4771,
      "Ġservers": 4772,
      "prof": 4773,
      "Ġrespond": 4774,
      "ĠÑį": 4775,
      "ãĥ¼ãĤ": 4776,
      "Art": 4777,
      "itute": 4778,
      "à¸²à¸£": 4779,
      "Ġdetailed": 4780,
      "rench": 4781,
      "Rel": 4782,
      "code": 4783,
      "data": 4784,
      "jÄħ": 4785,
      "my": 4786,
      "su": 4787,
      "uff": 4788,
      "inux": 4789,
      "orient": 4790,
      "edom": 4791,
      "Ġflex": 4792,
      "una": 4793,
      "ĠIT": 4794,
      "ores": 4795,
      "Ġuna": 4796,
      "áĢĦ": 4797,
      "Ġclar": 4798,
      "awa": 4799,
      "Ġspecifications": 4800,
      "urrency": 4801,
      "ĠNews": 4802,
      "ĠAccessibility": 4803,
      "è¨Ģ": 4804,
      "Ġalternative": 4805,
      "ĠMichigan": 4806,
      "ĠOTRS": 4807,
      "Here": 4808,
      "nu": 4809,
      "Ã¹": 4810,
      "Ĥ¬": 4811,
      "Ġdest": 4812,
      "Ġbud": 4813,
      "Ġnas": 4814,
      "omin": 4815,
      "Ġthus": 4816,
      "ĠSw": 4817,
      "ãģı": 4818,
      "Ð°Ð·": 4819,
      "que": 4820,
      "à¸Ľ": 4821,
      "ĠHead": 4822,
      "enses": 4823,
      "Ġ×ł": 4824,
      "Ġquery": 4825,
      "Ġnumbers": 4826,
      "ĠTech": 4827,
      "Ġlogo": 4828,
      "ĠTrans": 4829,
      "íķĺ": 4830,
      "ĠInternational": 4831,
      "Ġimprovements": 4832,
      "ĠReport": 4833,
      "Ġpayment": 4834,
      "ìļ©": 4835,
      "Ġmaxim": 4836,
      "Dis": 4837,
      "FDL": 4838,
      "Uh": 4839,
      "Ġ]": 4840,
      "Ġslow": 4841,
      "ences": 4842,
      "rol": 4843,
      "asons": 4844,
      "Ġlower": 4845,
      "imb": 4846,
      "ĠAny": 4847,
      "Ġgain": 4848,
      "ĠMon": 4849,
      "Ġexerc": 4850,
      "istics": 4851,
      "ĠBar": 4852,
      "ĠFran": 4853,
      "Ġunivers": 4854,
      "ĠRoad": 4855,
      "à¦¼": 4856,
      "Ġperfect": 4857,
      "Ġcolumn": 4858,
      "Ġtested": 4859,
      ".\"[": 4860,
      "Ġdemon": 4861,
      "Ġbrand": 4862,
      "Ġnamespace": 4863,
      "ĠAmerican": 4864,
      "Ġphysical": 4865,
      "specific": 4866,
      "Or": 4867,
      "lands": 4868,
      "nect": 4869,
      "vi": 4870,
      "Ġtim": 4871,
      "Ġcame": 4872,
      "isl": 4873,
      "Ġles": 4874,
      "ĠSie": 4875,
      "Ġbeyond": 4876,
      "ĠIh": 4877,
      "adget": 4878,
      "lich": 4879,
      "ÑĤÐ°": 4880,
      "Ġjest": 4881,
      "Ġresolution": 4882,
      "cluded": 4883,
      "Ø¯ÙĬ": 4884,
      "ĠÑĺ": 4885,
      "ĠDev": 4886,
      "Ġadvoc": 4887,
      "ÅĽÄĩ": 4888,
      "Ġlarger": 4889,
      "Ġrender": 4890,
      "Ġpromot": 4891,
      "Ð¾Ð³Ð¾": 4892,
      "Ġtrademarks": 4893,
      "Ġsubmit": 4894,
      "ĠCenter": 4895,
      "áĢŃáĢ¯": 4896,
      "37": 4897,
      "RC": 4898,
      "ycz": 4899,
      "ati": 4900,
      "Ġban": 4901,
      "olving": 4902,
      "Ġaren": 4903,
      "ĠUp": 4904,
      "Ġplans": 4905,
      "Ġsoon": 4906,
      "Ġresource": 4907,
      "Ġcreators": 4908,
      "Ġfees": 4909,
      "ĠÂ»": 4910,
      "going": 4911,
      "Ġlaunched": 4912,
      "34": 4913,
      "80": 4914,
      "Com": 4915,
      "Sub": 4916,
      "ca": 4917,
      "ky": 4918,
      "å¹": 4919,
      "Ġcaus": 4920,
      "Ġwrote": 4921,
      "icks": 4922,
      "ifies": 4923,
      "ĠPC": 4924,
      "Ġsequ": 4925,
      "áĢŀ": 4926,
      "Ġshown": 4927,
      "ensive": 4928,
      "allery": 4929,
      "oken": 4930,
      "Ġemp": 4931,
      "Ġà¦ª": 4932,
      "Wikimedia": 4933,
      "Ġmoment": 4934,
      "ducation": 4935,
      "but": 4936,
      "ror": 4937,
      "ÖĢ": 4938,
      "ß¬": 4939,
      "ĠÙĥ": 4940,
      "inch": 4941,
      "asy": 4942,
      "ample": 4943,
      "ĠMar": 4944,
      "ĠMost": 4945,
      "ĠFrom": 4946,
      "Ġkl": 4947,
      "ustain": 4948,
      "ãĥĩ": 4949,
      "ulty": 4950,
      "à°¯": 4951,
      "ificial": 4952,
      "aven": 4953,
      "Ġmanual": 4954,
      "Ġprett": 4955,
      "Ġdefine": 4956,
      "Ġmarked": 4957,
      "ÛĮÚ": 4958,
      "Ġimplemented": 4959,
      "Ġviews": 4960,
      "Ġdistin": 4961,
      "iÄĻki": 4962,
      "Ġbasa": 4963,
      "à¸«à¸¡": 4964,
      "ĠSmart": 4965,
      "Me": 4966,
      "VG": 4967,
      "aur": 4968,
      "×ĳ×": 4969,
      "Ġauf": 4970,
      "Ġsil": 4971,
      "ene": 4972,
      "ese": 4973,
      "Ġdam": 4974,
      "Ġdiv": 4975,
      "Ġmi": 4976,
      "ĠAc": 4977,
      "Ġstory": 4978,
      "ĠGr": 4979,
      "ends": 4980,
      "Ġ×§": 4981,
      "Ġplus": 4982,
      "Ġplug": 4983,
      "ĠIts": 4984,
      "Ġedition": 4985,
      "lectual": 4986,
      "idential": 4987,
      "Ġ197": 4988,
      "Ġentry": 4989,
      "Ġcharge": 4990,
      "Any": 4991,
      "Eng": 4992,
      "rist": 4993,
      "Ġign": 4994,
      "requ": 4995,
      "Ġfa": 4996,
      "Ġang": 4997,
      "idents": 4998,
      "Ġones": 4999,
      "Ġkom": 5000,
      "Ġcompared": 5001,
      "ÑĥÐº": 5002,
      "Ġpublications": 5003,
      "Ġimplementations": 5004,
      "Ġadvant": 5005,
      "Ġframe": 5006,
      "Ġtranslations": 5007,
      "Ġrepresentation": 5008,
      "Ġgiving": 5009,
      "Ġspeaker": 5010,
      "Ġearlier": 5011,
      "ENT": 5012,
      "Ã£o": 5013,
      "47": 5014,
      "Des": 5015,
      "Up": 5016,
      "cie": 5017,
      "pis": 5018,
      "å¾": 5019,
      "çĽ": 5020,
      "Ġfoot": 5021,
      "ĠCamp": 5022,
      "ĠSon": 5023,
      "ĠSchool": 5024,
      "ĠÐľ": 5025,
      "Ġris": 5026,
      "ĠEven": 5027,
      "Ø§Ø¯": 5028,
      "Ġworked": 5029,
      "ĠInter": 5030,
      "Ġpercent": 5031,
      "Ġtherefore": 5032,
      "Ġmodify": 5033,
      "ÑĸÐ½": 5034,
      "Ġspecifically": 5035,
      "ÃŃa": 5036,
      "Ġopin": 5037,
      "åı¯": 5038,
      "Ġcentral": 5039,
      "Ġprimary": 5040,
      "ĠANC": 5041,
      "Ġaspects": 5042,
      "Ġmentioned": 5043,
      "Ġholder": 5044,
      "quirements": 5045,
      "ĠFitbit": 5046,
      "oriented": 5047,
      "eit": 5048,
      "çĲ": 5049,
      "reens": 5050,
      "isf": 5051,
      "Ġbody": 5052,
      "Ġbegan": 5053,
      "pper": 5054,
      "ĠFl": 5055,
      "antic": 5056,
      "Ġrepo": 5057,
      "Ġplaced": 5058,
      "ÑĥÐ½": 5059,
      "à¹ģ": 5060,
      "ï¿½ï¿½ï¿½": 5061,
      "ĠYouTube": 5062,
      "Ġ2001": 5063,
      "Ġbusinesses": 5064,
      "However": 5065,
      "Spanish": 5066,
      "ĠPrin": 5067,
      "ifiable": 5068,
      "Ġmemory": 5069,
      "Ġreliable": 5070,
      "Ġpretty": 5071,
      "IA": 5072,
      "co": 5073,
      "fix": 5074,
      "rs": 5075,
      "æ¬": 5076,
      "æĮ": 5077,
      "Ġou": 5078,
      "Ġanim": 5079,
      "Ġdost": 5080,
      "Ġbahasa": 5081,
      "icode": 5082,
      "Ġeth": 5083,
      "ige": 5084,
      "ude": 5085,
      "ustr": 5086,
      "áĢ²": 5087,
      "Ġsufficient": 5088,
      "that": 5089,
      "Ġscience": 5090,
      "âĢĿ,": 5091,
      "ĠProcess": 5092,
      "Ġsets": 5093,
      "Ġbackground": 5094,
      "othing": 5095,
      "Arch": 5096,
      "Ġreplaced": 5097,
      "Ġdraw": 5098,
      "Ġtrying": 5099,
      "Ġfinancial": 5100,
      "åĲĪ": 5101,
      "Ġdelivery": 5102,
      "ifiers": 5103,
      "Ġenhance": 5104,
      "ME": 5105,
      "Under": 5106,
      "mail": 5107,
      "zÄĻ": 5108,
      "Ã®": 5109,
      "Ġwor": 5110,
      "Ġled": 5111,
      "oto": 5112,
      "ĠAre": 5113,
      "agen": 5114,
      "Ġgames": 5115,
      "Ġdeep": 5116,
      "Ġ27": 5117,
      "Ġcancell": 5118,
      "ĠEd": 5119,
      "ĠUs": 5120,
      "Ġaby": 5121,
      "orsk": 5122,
      "Ġgenerated": 5123,
      "Ġrob": 5124,
      "Ø¨Ø±": 5125,
      "ĠAdd": 5126,
      "iliar": 5127,
      "ynam": 5128,
      "Ġextensions": 5129,
      "Ġbranches": 5130,
      "Ġdisplayed": 5131,
      "Ġreasonable": 5132,
      "Ġincrease": 5133,
      "Ġtask": 5134,
      "Ġcosts": 5135,
      "ãģ¦ãģĦãģ¾ãģĻ": 5136,
      "Ġbecomes": 5137,
      "bani": 5138,
      "cre": 5139,
      "ĠÙĤ": 5140,
      "Ġcause": 5141,
      "Ġnature": 5142,
      "ĠSu": 5143,
      "ado": 5144,
      "iring": 5145,
      "illing": 5146,
      "ĠJohn": 5147,
      "Ġlistening": 5148,
      "Ġoverall": 5149,
      "References": 5150,
      "Ġcoord": 5151,
      "Ġ2006": 5152,
      "ĠYork": 5153,
      "ìĿĦ": 5154,
      "Ġáı": 5155,
      "Ġdepends": 5156,
      "CAOB": 5157,
      "Ġstyles": 5158,
      "Res": 5159,
      "WS": 5160,
      "ona": 5161,
      "Ġhar": 5162,
      "ĠAfter": 5163,
      "idi": 5164,
      "elt": 5165,
      "ĠMy": 5166,
      "ĠMove": 5167,
      "irus": 5168,
      "ĠÐ¡": 5169,
      "ĠBoard": 5170,
      "Ġkont": 5171,
      "ĠOut": 5172,
      "Ð¾Ñģ": 5173,
      "Ġimpl": 5174,
      "ensus": 5175,
      "ĠNow": 5176,
      "ÐºÑĸ": 5177,
      "Ġcredit": 5178,
      "Ġimpress": 5179,
      "Ġformal": 5180,
      "Ġmarkup": 5181,
      "Ġdiscussions": 5182,
      "Ġclean": 5183,
      "Ġhosted": 5184,
      "ĠAbout": 5185,
      "ĠOrgan": 5186,
      "Ġsituation": 5187,
      "untu": 5188,
      "ĠÐ·Ð°": 5189,
      "Ġarbitr": 5190,
      "related": 5191,
      "66": 5192,
      "Acc": 5193,
      "fin": 5194,
      "rim": 5195,
      "ä¾": 5196,
      "éģ": 5197,
      "Ġsymbol": 5198,
      "Ġfig": 5199,
      "Ġmoney": 5200,
      "Ġreasons": 5201,
      "imately": 5202,
      "ĠSupport": 5203,
      "ĠIll": 5204,
      "Ġvot": 5205,
      "ograf": 5206,
      "Ġpublicly": 5207,
      "ilding": 5208,
      "Ġfollows": 5209,
      "Ġverify": 5210,
      "Ġmetadata": 5211,
      "Ġblack": 5212,
      "ĠÑĦ": 5213,
      "ĠGovern": 5214,
      "Ġsensitive": 5215,
      "Ġclearly": 5216,
      "Ġproposed": 5217,
      "Ð¾Ð³ÑĢÐ°": 5218,
      "Ġfonts": 5219,
      "generation": 5220,
      "199": 5221,
      "AD": 5222,
      "BL": 5223,
      "Category": 5224,
      "XML": 5225,
      "law": 5226,
      "pe": 5227,
      "Ãµ": 5228,
      "ÓĢ": 5229,
      "ano": 5230,
      "Ġfan": 5231,
      "Ġfra": 5232,
      "Ġmil": 5233,
      "Ġmission": 5234,
      "ask": 5235,
      "ĠIS": 5236,
      "celer": 5237,
      "Ġstruct": 5238,
      "ĠÐ¶": 5239,
      "Ð¸ÑĤ": 5240,
      "riven": 5241,
      "ĠChar": 5242,
      "inese": 5243,
      "Read": 5244,
      "ĠÑĪ": 5245,
      "Ġadvice": 5246,
      "Ġreported": 5247,
      "ÙĩØ§": 5248,
      "Ġdistributed": 5249,
      "Ġentirely": 5250,
      "Ġpreviously": 5251,
      "From": 5252,
      "serv": 5253,
      "Ð¡": 5254,
      "Õ¥": 5255,
      "Ġdro": 5256,
      "Ġmaa": 5257,
      "amples": 5258,
      "idata": 5259,
      "ollow": 5260,
      "ades": 5261,
      "admin": 5262,
      "Ġord": 5263,
      "elayu": 5264,
      "ĠJira": 5265,
      "Ġqual": 5266,
      "Ġ2014": 5267,
      "Ġconsult": 5268,
      "á»Ļ": 5269,
      "ological": 5270,
      "Ġready": 5271,
      "Ġlooks": 5272,
      "ĠContribut": 5273,
      "Ġ×Ķ×ŀ×": 5274,
      "Contents": 5275,
      "ĠPremium": 5276,
      "Ġsongs": 5277,
      "Ġconsistent": 5278,
      "Ġcomponent": 5279,
      "Ġcorresponding": 5280,
      "Ġcamera": 5281,
      "AG": 5282,
      "Copyright": 5283,
      "FS": 5284,
      "bo": 5285,
      "sa": 5286,
      "ÐĲ": 5287,
      "åŁ": 5288,
      "Ġtreat": 5289,
      "orzyst": 5290,
      "Ġcovers": 5291,
      "Ġmerg": 5292,
      "ĠCL": 5293,
      "ster": 5294,
      "ĠPat": 5295,
      "ĠEU": 5296,
      "Ġadjust": 5297,
      "resents": 5298,
      "ĠNote": 5299,
      "Ġinteg": 5300,
      "Ġfreely": 5301,
      "Ġanaly": 5302,
      "Ġrecommended": 5303,
      "Ã§a": 5304,
      "Ġdistribution": 5305,
      "Ġexperts": 5306,
      "ytics": 5307,
      "Ġgranted": 5308,
      "Ġassembly": 5309,
      "Ġimmediately": 5310,
      "Access": 5311,
      "But": 5312,
      "lo": 5313,
      "Î·": 5314,
      "æı": 5315,
      "æĺ": 5316,
      "Ġwater": 5317,
      "icious": 5318,
      "arant": 5319,
      "ila": 5320,
      "ĠAng": 5321,
      "ĠTime": 5322,
      "ela": 5323,
      "aba": 5324,
      "rav": 5325,
      "ĠÐĳ": 5326,
      "à¸ķ": 5327,
      "anda": 5328,
      "ĠHTTP": 5329,
      "eren": 5330,
      "Ġtrade": 5331,
      "inding": 5332,
      "achines": 5333,
      "Ġscal": 5334,
      "itional": 5335,
      "Ġsubt": 5336,
      "ownload": 5337,
      "Ġdefines": 5338,
      "Ġmodule": 5339,
      "ĠArticle": 5340,
      "Ġacadem": 5341,
      "ĠAtt": 5342,
      "Ġruleset": 5343,
      "ounter": 5344,
      "Ġstudy": 5345,
      "ĠBlack": 5346,
      "ĠTechnical": 5347,
      "TimeFormat": 5348,
      "Ġjurisdiction": 5349,
      "Ġthreats": 5350,
      "41": 5351,
      "Most": 5352,
      "Pre": 5353,
      "Template": 5354,
      "ÏĢ": 5355,
      "Ġta": 5356,
      "room": 5357,
      "ĠSci": 5358,
      "ford": 5359,
      "à¸°": 5360,
      "ards": 5361,
      "ÙĦÙĬ": 5362,
      "Ġclients": 5363,
      "Ġpracy": 5364,
      "ÑĭÐ½": 5365,
      "Ġmarks": 5366,
      "à±Ģ": 5367,
      "áĥĲ": 5368,
      "áĥĺ": 5369,
      "Ġbooks": 5370,
      "noÅĽci": 5371,
      "Ġexpertise": 5372,
      "Ġcodes": 5373,
      "ĠCanada": 5374,
      "Ġwidely": 5375,
      "ĠGeneral": 5376,
      "Ġsuper": 5377,
      "Topics": 5378,
      "Ġderivative": 5379,
      "Join": 5380,
      "SH": 5381,
      "ians": 5382,
      "°Ģ": 5383,
      "Â¶": 5384,
      "Ġtick": 5385,
      "Ġswitch": 5386,
      "Ġcele": 5387,
      "Ġmix": 5388,
      "Ġreuse": 5389,
      "usi": 5390,
      "Ġlines": 5391,
      "Ġlength": 5392,
      "Ġhope": 5393,
      "aga": 5394,
      "add": 5395,
      "ĠDepend": 5396,
      "áĢ½": 5397,
      "aily": 5398,
      "ĠInv": 5399,
      "Ġcreates": 5400,
      "Ġproduce": 5401,
      "Ġgets": 5402,
      "Ġprovider": 5403,
      "Ġincident": 5404,
      "Ġreviews": 5405,
      "Ġcommunication": 5406,
      "Ġlabels": 5407,
      "ãģĵãģ¨": 5408,
      "Ġpictures": 5409,
      "ĠDesign": 5410,
      "Ġexplicitly": 5411,
      "Ġbudget": 5412,
      "46": 5413,
      "CP": 5414,
      "PN": 5415,
      "Pods": 5416,
      "iver": 5417,
      "Î¬": 5418,
      "æķ": 5419,
      "rehens": 5420,
      "oral": 5421,
      "uster": 5422,
      "Ġlo": 5423,
      "vey": 5424,
      "Ġhistor": 5425,
      "olit": 5426,
      "Ġstack": 5427,
      "opedia": 5428,
      "ãĥĹ": 5429,
      "à¦ª": 5430,
      "Ð¾Ð±": 5431,
      "Ġcomply": 5432,
      "berg": 5433,
      "Ġagre": 5434,
      "à¨¾": 5435,
      "Ã¡c": 5436,
      "Ġretain": 5437,
      "Ġ70": 5438,
      "Ġclasses": 5439,
      "Ġaffect": 5440,
      "Ġinstalled": 5441,
      "Intl": 5442,
      "Ġbenefit": 5443,
      "Ġregistered": 5444,
      "Ġfavorite": 5445,
      "parency": 5446,
      "Cap": 5447,
      "lov": 5448,
      "wer": 5449,
      "web": 5450,
      "Ġdire": 5451,
      "ilter": 5452,
      "Ġhon": 5453,
      "ĠCustom": 5454,
      "struct": 5455,
      "ĠMDN": 5456,
      "Ð°ÑĪ": 5457,
      "ĠEach": 5458,
      "ãĥ¬": 5459,
      "ãĥŃ": 5460,
      "Ġenables": 5461,
      "Ġsole": 5462,
      "ĠØ¥": 5463,
      "Ġemerg": 5464,
      "ĠFormat": 5465,
      "ĠChrome": 5466,
      "Ġtravel": 5467,
      "ĠÑģÑĤ": 5468,
      "ĠOpenText": 5469,
      "ĠPrime": 5470,
      "Creative": 5471,
      "à¸ģà¸²à¸£": 5472,
      "Ġinstitutions": 5473,
      "Ġcircum": 5474,
      "ì§Ģ": 5475,
      "ë¡ľ": 5476,
      ");": 5477,
      "48": 5478,
      "After": 5479,
      "aÅĤ": 5480,
      "driven": 5481,
      "men": 5482,
      "sub": 5483,
      "Ġur": 5484,
      "erce": 5485,
      "atar": 5486,
      "orig": 5487,
      "isation": 5488,
      "Ġmass": 5489,
      "Ġthreshold": 5490,
      "ĠSign": 5491,
      "ĠWest": 5492,
      "Ġnothing": 5493,
      "à¸·": 5494,
      "ãĤ³": 5495,
      "ĠNetwork": 5496,
      "Ġcompar": 5497,
      "ribution": 5498,
      "Ġprec": 5499,
      "ÙĬØ±": 5500,
      "ooks": 5501,
      "Ġfirms": 5502,
      "Ġinstances": 5503,
      "Ġregistration": 5504,
      "Ġwanted": 5505,
      "Ġbehalf": 5506,
      "Prot": 5507,
      "æľ¬": 5508,
      "Ġolder": 5509,
      "Ġarbitration": 5510,
      "Ġprinciple": 5511,
      "profit": 5512,
      "çĲĨ": 5513,
      "My": 5514,
      "Over": 5515,
      "mi": 5516,
      "po": 5517,
      "ui": 5518,
      "éĸ": 5519,
      "ĠÒ": 5520,
      "Ġage": 5521,
      "onom": 5522,
      "reet": 5523,
      "erve": 5524,
      "aso": 5525,
      "Ġhotel": 5526,
      "ĠAud": 5527,
      "uth": 5528,
      "ĠWord": 5529,
      "ĠMozilla": 5530,
      "ĠDon": 5531,
      "rain": 5532,
      "ĠFlickr": 5533,
      "Ġunit": 5534,
      "ĠLinux": 5535,
      "Ġrepresents": 5536,
      "rupt": 5537,
      "Ã©n": 5538,
      "ints": 5539,
      "Ġago": 5540,
      "Ġconsensus": 5541,
      "Ġregister": 5542,
      "Ġblocks": 5543,
      "Ġresulting": 5544,
      "ĠPlay": 5545,
      "Ġhandle": 5546,
      "ä½¿": 5547,
      "å®ļ": 5548,
      "Ġmatching": 5549,
      "aduate": 5550,
      "ë¥¼": 5551,
      "Ġdemonstr": 5552,
      "Cry": 5553,
      "lar": 5554,
      "more": 5555,
      "type": 5556,
      "å¼": 5557,
      "æł": 5558,
      "ĠfÃ¼r": 5559,
      "unities": 5560,
      "ĠMat": 5561,
      "ĠMax": 5562,
      "ocol": 5563,
      "ĠDep": 5564,
      "ĠÐ¢": 5565,
      "Ġwear": 5566,
      "ĠEducation": 5567,
      "Ġseem": 5568,
      "ĠOF": 5569,
      "ÐµÑģ": 5570,
      "inks": 5571,
      "Ġfollowed": 5572,
      "ĠWebsite": 5573,
      "Ġproviders": 5574,
      "Ġchecks": 5575,
      "Ġhighlight": 5576,
      "Ġaddresses": 5577,
      "Ġtranslate": 5578,
      "Ġfocused": 5579,
      "Ġintegrated": 5580,
      "Ġnetworks": 5581,
      "Ġparticipants": 5582,
      "×ĳ×¨": 5583,
      "ĠdziÄĻki": 5584,
      "pisode": 5585,
      "Type": 5586,
      "ho": 5587,
      "mon": 5588,
      "oni": 5589,
      "Ġwin": 5590,
      "Ġwalk": 5591,
      "ĠSing": 5592,
      "stra": 5593,
      "Ġbez": 5594,
      "ĠIN": 5595,
      "Ġconduct": 5596,
      "ests": 5597,
      "ĠBrow": 5598,
      "ĠRel": 5599,
      "ivil": 5600,
      "uma": 5601,
      "antly": 5602,
      "class": 5603,
      "Ġency": 5604,
      "Ġplaces": 5605,
      "Ġcommons": 5606,
      "Ġpublis": 5607,
      "ĠForm": 5608,
      "Ġassum": 5609,
      "à§ģ": 5610,
      "Ġmetrics": 5611,
      "Ġoptional": 5612,
      "êł¤": 5613,
      "apping": 5614,
      "ĠExplore": 5615,
      "Ġposter": 5616,
      "Ġlargest": 5617,
      "Ġcapital": 5618,
      "Ġexpression": 5619,
      "ĠAirPods": 5620,
      "Ġanswers": 5621,
      "Ġutil": 5622,
      "Ġvulnerability": 5623,
      "PUB": 5624,
      "Ġmissing": 5625,
      "ĠshÉĽli": 5626,
      "Ġprojekt": 5627,
      "%.": 5628,
      "Set": 5629,
      "That": 5630,
      "Val": 5631,
      "buntu": 5632,
      "pack": 5633,
      "Î¼": 5634,
      "Ðļ": 5635,
      "ĠÊ»": 5636,
      "Ġsle": 5637,
      "Ġovers": 5638,
      "Ġmere": 5639,
      "igr": 5640,
      "ĠIdent": 5641,
      "idelines": 5642,
      "ula": 5643,
      "Ġstop": 5644,
      "Ġstand": 5645,
      "Ġ2013": 5646,
      "Ġ2015": 5647,
      "Ġheader": 5648,
      "Ġparser": 5649,
      "leted": 5650,
      "Ġextent": 5651,
      "everCry": 5652,
      "prac": 5653,
      "olute": 5654,
      "ĠÑħ": 5655,
      "Ġcontroll": 5656,
      "Ġstrategic": 5657,
      "Ġadoption": 5658,
      "Ġexperiences": 5659,
      "Ġadvertising": 5660,
      "æ³ķ": 5661,
      "55": 5662,
      "],": 5663,
      "mb": 5664,
      "å°": 5665,
      "ç®": 5666,
      "Ġfine": 5667,
      "ĠTim": 5668,
      "ĠPCAOB": 5669,
      "Ġleave": 5670,
      "Ġcommits": 5671,
      "Ġseek": 5672,
      "ÑĭÐ»": 5673,
      "Ġmathemat": 5674,
      "Ġà¤¸": 5675,
      "Ġ2005": 5676,
      "Ġpermitted": 5677,
      "ounsel": 5678,
      "Ġauthority": 5679,
      "ĠModel": 5680,
      "Ġjurisdictions": 5681,
      "Ġaccurate": 5682,
      "Ġachieve": 5683,
      "Ġmechanism": 5684,
      "Ġcancellation": 5685,
      "ĠMovement": 5686,
      "CL": 5687,
      "PS": 5688,
      "dle": 5689,
      "source": 5690,
      "uz": 5691,
      "zn": 5692,
      "Ø°": 5693,
      "Ġcou": 5694,
      "Ġbes": 5695,
      "omat": 5696,
      "Ġthrow": 5697,
      "utorial": 5698,
      "unction": 5699,
      "ĠDi": 5700,
      "ĠOK": 5701,
      "Ġshopping": 5702,
      "ommend": 5703,
      "alls": 5704,
      "Ġnearly": 5705,
      "Ġmanner": 5706,
      "×ķ×ľ": 5707,
      "ĠUnivers": 5708,
      "Ġchanging": 5709,
      "ÄĻp": 5710,
      "êł£": 5711,
      "Ġrendering": 5712,
      "Apple": 5713,
      "Ġsitu": 5714,
      "ING": 5715,
      "MediaWiki": 5716,
      "Ġcalcul": 5717,
      "Ġefficient": 5718,
      "ãĤŃãĥ": 5719,
      "Ġadvantage": 5720,
      "Ġrisks": 5721,
      "OV": 5722,
      "Work": 5723,
      "iri": 5724,
      "mod": 5725,
      "pass": 5726,
      "zh": 5727,
      "Õ«": 5728,
      "isory": 5729,
      "imal": 5730,
      "ĠSearch": 5731,
      "ĠTam": 5732,
      "ĠWill": 5733,
      "ocal": 5734,
      "ĠDec": 5735,
      "Ġwhite": 5736,
      "Ġnoted": 5737,
      "ĠFrench": 5738,
      "illions": 5739,
      "áĢ®": 5740,
      "ãĥķ": 5741,
      "Ð¸Ñģ": 5742,
      "Ã©d": 5743,
      "ĠItal": 5744,
      "Ġrecip": 5745,
      "Ġinstruction": 5746,
      "Ġfilters": 5747,
      "Ġindic": 5748,
      "Ġassess": 5749,
      "Ġlegisl": 5750,
      "Ġendpoint": 5751,
      "ĠÐ½Ðµ": 5752,
      "ä½ĵ": 5753,
      "Thomson": 5754,
      "Ġannual": 5755,
      "Ġhappy": 5756,
      "Ġcritic": 5757,
      "Ġpaper": 5758,
      "Ġsuggestions": 5759,
      "inois": 5760,
      "ĠØ§ÙĦØ£": 5761,
      "ìĦľ": 5762,
      "åľ¨": 5763,
      "ĠPalembang": 5764,
      "alidator": 5765,
      "html": 5766,
      "Ġsatisf": 5767,
      "Ġsociety": 5768,
      "Pr": 5769,
      "off": 5770,
      "ship": 5771,
      "uit": 5772,
      "Â»": 5773,
      "ÐĴ": 5774,
      "Ø¸": 5775,
      "ĠWar": 5776,
      "rian": 5777,
      "ublish": 5778,
      "pty": 5779,
      "ĠOver": 5780,
      "Ð¸Ð·": 5781,
      "Ġcomprehens": 5782,
      "clude": 5783,
      "à¹ĥ": 5784,
      "Ġmatters": 5785,
      "airs": 5786,
      "ãĥ¼ãĥ«": 5787,
      "Ġworldwide": 5788,
      "ĠTrust": 5789,
      "Ġleaders": 5790,
      "Ġfamiliar": 5791,
      "Ġrecognition": 5792,
      "ĠOffice": 5793,
      "Ġbenefits": 5794,
      "Ġmerge": 5795,
      "Æ°á»": 5796,
      "licensed": 5797,
      "åł´": 5798,
      "BY": 5799,
      "iy": 5800,
      "oom": 5801,
      "Ïħ": 5802,
      "çĻ": 5803,
      "êµ": 5804,
      "Ġair": 5805,
      "reci": 5806,
      "Ġant": 5807,
      "ĠSEC": 5808,
      "ĠTur": 5809,
      "idden": 5810,
      "oped": 5811,
      "ecurity": 5812,
      "forts": 5813,
      "Ġrank": 5814,
      "ĠEl": 5815,
      "ĠJapan": 5816,
      "plete": 5817,
      "×Ļ×¨": 5818,
      "ĠPropert": 5819,
      "Ġsecret": 5820,
      "Ġexpand": 5821,
      "Ġrooms": 5822,
      "String": 5823,
      "Ġrestore": 5824,
      "cribe": 5825,
      "ĠConf": 5826,
      "Ġensuring": 5827,
      "Ġscripts": 5828,
      "Ġpaid": 5829,
      "Ġcultural": 5830,
      "Ġremains": 5831,
      "Ġeducational": 5832,
      "ĠAdvanced": 5833,
      "Ġpatterns": 5834,
      "ĠStatement": 5835,
      "01": 5836,
      "04": 5837,
      "Disc": 5838,
      "MF": 5839,
      "MS": 5840,
      "Number": 5841,
      "cia": 5842,
      "oj": 5843,
      "Å¾": 5844,
      "ìĭ": 5845,
      "Ġtouch": 5846,
      "Ġsix": 5847,
      "Ġsales": 5848,
      "itch": 5849,
      "Ġpow": 5850,
      "Ġmicro": 5851,
      "Ġnh": 5852,
      "Ġnice": 5853,
      "Ġnode": 5854,
      "Ġhy": 5855,
      "utation": 5856,
      "ĠIRS": 5857,
      "Ġconven": 5858,
      "verage": 5859,
      "ĠDisc": 5860,
      "iven": 5861,
      "ĠUlt": 5862,
      "ãĥĳ": 5863,
      "Ġchat": 5864,
      "ÐµÑĢÐ°": 5865,
      "iber": 5866,
      "ĠVideo": 5867,
      "Ġcreator": 5868,
      "Ġscient": 5869,
      "Ġdesktop": 5870,
      "Ġpred": 5871,
      "ĠProduct": 5872,
      "Ġartik": 5873,
      "Ġthroughout": 5874,
      "Ġparsing": 5875,
      "Ġconfirm": 5876,
      "ĠBlog": 5877,
      "Webroot": 5878,
      "ĠRecommend": 5879,
      "Ġviolation": 5880,
      "nowledge": 5881,
      "à¸µà¹Ī": 5882,
      "Ġreproduction": 5883,
      "Ð¸ÐºÐ¸Ð¿ÐµÐ´": 5884,
      "ĠìĿ´": 5885,
      "59": 5886,
      "64": 5887,
      "AQ": 5888,
      "Using": 5889,
      "hr": 5890,
      "ham": 5891,
      "nic": 5892,
      "ted": 5893,
      "àª": 5894,
      "æī": 5895,
      "Ġcit": 5896,
      "isch": 5897,
      "Ġini": 5898,
      "Ġlang": 5899,
      "ĠSenior": 5900,
      "owania": 5901,
      "stream": 5902,
      "ĠTop": 5903,
      "ĠPe": 5904,
      "Ð°Ð²": 5905,
      "quare": 5906,
      "ĠGe": 5907,
      "ĠGFDL": 5908,
      "à°¡": 5909,
      "Ġprze": 5910,
      "ĠUnicode": 5911,
      "Ġproduction": 5912,
      "Ġrequested": 5913,
      "Ġà¤¹": 5914,
      "Ġhighly": 5915,
      "Ġattributes": 5916,
      "Ġdescribe": 5917,
      "Ġparticipate": 5918,
      "Ġconnections": 5919,
      "Trans": 5920,
      "Ġincreasing": 5921,
      "Ġfundament": 5922,
      "ãĥªãĥ¼": 5923,
      "????": 5924,
      "Ġdeclar": 5925,
      "II": 5926,
      "Le": 5927,
      "Many": 5928,
      "Per": 5929,
      "nap": 5930,
      "powered": 5931,
      "words": 5932,
      "ÏĤ": 5933,
      "ĥ½": 5934,
      "Īĺ": 5935,
      "Ġtok": 5936,
      "Ġreferences": 5937,
      "imi": 5938,
      "igible": 5939,
      "Ġongoing": 5940,
      "Ġprohib": 5941,
      "Ð°Ð´": 5942,
      "Ġ29": 5943,
      "Ġkm": 5944,
      "Ġrout": 5945,
      "Ġhear": 5946,
      "Ġlets": 5947,
      "ĠSte": 5948,
      "Ġgoals": 5949,
      "Ġthanks": 5950,
      "Ġserved": 5951,
      "Ġheading": 5952,
      "Ġroll": 5953,
      "Ġlinked": 5954,
      "Ġstatements": 5955,
      "Ġserve": 5956,
      "ĠAddition": 5957,
      "ä¸Ĭ": 5958,
      "}}.": 5959,
      "Ġformats": 5960,
      "iques": 5961,
      "ãģĹãģ¦": 5962,
      "Ġmembership": 5963,
      "Ġgreater": 5964,
      "ĠMacBook": 5965,
      "ĠÙĦØº": 5966,
      "Ġmeasures": 5967,
      "Ġindependent": 5968,
      "ç´ł": 5969,
      "Ġexercise": 5970,
      "ĠIllinois": 5971,
      "Help": 5972,
      "UR": 5973,
      "dy": 5974,
      "lines": 5975,
      "map": 5976,
      "Î¯": 5977,
      "rec": 5978,
      "Ġanonym": 5979,
      "Ġbank": 5980,
      "Ġtoken": 5981,
      "Ġnor": 5982,
      "ĠCEO": 5983,
      "unk": 5984,
      "ĠSource": 5985,
      "owaÄĩ": 5986,
      "ĠTool": 5987,
      "Ġgl": 5988,
      "Ġalthough": 5989,
      "uby": 5990,
      "ĠBit": 5991,
      "ĠFirst": 5992,
      "Ġki": 5993,
      "Ġkit": 5994,
      "ĠHigh": 5995,
      "ãĤ°": 5996,
      "Ġsex": 5997,
      "ãĥĸ": 5998,
      "Ġshik": 5999,
      "ireless": 6000,
      "Ġ2010": 6001,
      "Ġroad": 6002,
      "Ġdirectory": 6003,
      "nya": 6004,
      "Ġcomplain": 6005,
      "Ġhappens": 6006,
      "Ġfreedom": 6007,
      "åŃ¸": 6008,
      "Ġproperly": 6009,
      "Ø§Ø¦": 6010,
      "Ġsusp": 6011,
      "57": 6012,
      "eks": 6013,
      "rang": 6014,
      "ĠÑĢÐ°": 6015,
      "Ŀ¼": 6016,
      "Ġten": 6017,
      "atan": 6018,
      "ald": 6019,
      "Ġmga": 6020,
      "Ġlate": 6021,
      "veal": 6022,
      "ĠSVG": 6023,
      "ids": 6024,
      "ĠPark": 6025,
      "Ġexclusive": 6026,
      "ums": 6027,
      "áĢĽ": 6028,
      "à¦·": 6029,
      "Ġspoken": 6030,
      "iej": 6031,
      "ĠInf": 6032,
      "Ġupgrade": 6033,
      "Ġagreement": 6034,
      "Ġindicate": 6035,
      "ĠChinese": 6036,
      "Ð³ÑĬ": 6037,
      "Ġruns": 6038,
      "Ġselected": 6039,
      "Thank": 6040,
      "Ġcoverage": 6041,
      "ĠResearch": 6042,
      "Ġcompletely": 6043,
      "ãĤĬãģ¾ãģĻ": 6044,
      "Ġchallenge": 6045,
      "Ġnavigate": 6046,
      "Ġcompatible": 6047,
      "Ġcredentials": 6048,
      "69": 6049,
      "Par": 6050,
      "Sim": 6051,
      "md": 6052,
      "yar": 6053,
      "Õ¶": 6054,
      "Õ¸": 6055,
      "Ùĭ": 6056,
      "â°": 6057,
      "æ§": 6058,
      "è§": 6059,
      "inn": 6060,
      "Ġpip": 6061,
      "alle": 6062,
      "Ġdynam": 6063,
      "Ġmot": 6064,
      "Ġnaj": 6065,
      "Ġhab": 6066,
      "ola": 6067,
      "ĠMany": 6068,
      "ĠFeature": 6069,
      "ĠLog": 6070,
      "Ð¾Ð·": 6071,
      "ĠNOT": 6072,
      "iece": 6073,
      "×Ļ×ľ": 6074,
      "elling": 6075,
      "ÙħØ¬": 6076,
      "ÅĤug": 6077,
      "Ġgeneric": 6078,
      "Ġlegit": 6079,
      "Ġperman": 6080,
      "Ġvariable": 6081,
      "Ġexists": 6082,
      "Ġtranslated": 6083,
      "ĠEngine": 6084,
      "Explore": 6085,
      "Ġbelong": 6086,
      "Ġparticipation": 6087,
      "ä»¥": 6088,
      "Create": 6089,
      "Ġtrend": 6090,
      "ĠSpecial": 6091,
      "Phone": 6092,
      "Ġsubstant": 6093,
      "ĠAfrica": 6094,
      "Ġpurchase": 6095,
      "ÛĮÚº": 6096,
      "La": 6097,
      "fol": 6098,
      "gment": 6099,
      "greg": 6100,
      "sim": 6101,
      "ê²": 6102,
      "Ġicon": 6103,
      "Ġopp": 6104,
      "iced": 6105,
      "lean": 6106,
      "Ġnight": 6107,
      "Ġrely": 6108,
      "usion": 6109,
      "Ġlit": 6110,
      "Ġha": 6111,
      "Ġho": 6112,
      "ett": 6113,
      "ĠText": 6114,
      "Ġcondition": 6115,
      "Ġvs": 6116,
      "Ġvac": 6117,
      "ĠLibr": 6118,
      "artment": 6119,
      "ĠRE": 6120,
      "ĠExtens": 6121,
      "Ġappreci": 6122,
      "thon": 6123,
      "itely": 6124,
      "ello": 6125,
      "ĠØ¬": 6126,
      "Ġspecify": 6127,
      "ÙĬÙĨ": 6128,
      "Ġrecovery": 6129,
      "âĢĿ.": 6130,
      "Ġoffice": 6131,
      "Ġmodified": 6132,
      "ĠChina": 6133,
      "iency": 6134,
      "Ġautomated": 6135,
      "ography": 6136,
      "vention": 6137,
      "key": 6138,
      "Ġcriteria": 6139,
      "Ġcoding": 6140,
      "ĠProjects": 6141,
      "Ġlaunch": 6142,
      "æĹ¥": 6143,
      "Ġchallenges": 6144,
      "IL": 6145,
      "Mod": 6146,
      "NU": 6147,
      "PC": 6148,
      "Since": 6149,
      "ban": 6150,
      "uv": 6151,
      "uable": 6152,
      "ß«": 6153,
      "åĮ": 6154,
      "æİ": 6155,
      "ĠÃ¼": 6156,
      "only": 6157,
      "ato": 6158,
      "Ġsch": 6159,
      "iti": 6160,
      "Ġfran": 6161,
      "Ġmus": 6162,
      "Ġoffere": 6163,
      "ĠCar": 6164,
      "Ġground": 6165,
      "Ġvert": 6166,
      "rie": 6167,
      "ĠÐ»": 6168,
      "Ġround": 6169,
      "ĠThen": 6170,
      "ĠUI": 6171,
      "ĠUsers": 6172,
      "ĠOper": 6173,
      "ÑĤÐ¾": 6174,
      "ĠStart": 6175,
      "ĠØŃ": 6176,
      "ÙĬÙĦ": 6177,
      "ÙĪÙĦ": 6178,
      "Ġprodukt": 6179,
      "Ġentity": 6180,
      "Ġamb": 6181,
      "Ġconflic": 6182,
      "Ġdecide": 6183,
      "Ġtraffic": 6184,
      "Ġshowing": 6185,
      "Ġcourts": 6186,
      "Ġdepending": 6187,
      "ĠWhoop": 6188,
      "ujÄħ": 6189,
      "Ġinvestig": 6190,
      "Ġjobs": 6191,
      "PAC": 6192,
      "Ġestablish": 6193,
      "Ġwarrant": 6194,
      "Ġpublishing": 6195,
      "×Ļ×§×Ļ×": 6196,
      "Ġbottom": 6197,
      "ĠÅĭÉĶ": 6198,
      "Ð¾Ð³ÑĢÐ°Ð¼": 6199,
      "Ġinteger": 6200,
      "áĥĲáĥ": 6201,
      "Ġcomprehensive": 6202,
      "AP": 6203,
      "Ass": 6204,
      "Date": 6205,
      "Each": 6206,
      "SON": 6207,
      "gl": 6208,
      "ls": 6209,
      "wi": 6210,
      "ÃŁ": 6211,
      "æĶ": 6212,
      "ç§": 6213,
      "è®": 6214,
      "Ġrow": 6215,
      "Ġtables": 6216,
      "Ġpen": 6217,
      "icip": 6218,
      "Ġinline": 6219,
      "ĠTax": 6220,
      "iaÅĤ": 6221,
      "ĠDem": 6222,
      "ĠGl": 6223,
      "illed": 6224,
      "ĠHelp": 6225,
      "Ġadm": 6226,
      "Ġchance": 6227,
      "ĠØ¯": 6228,
      "Ġgoes": 6229,
      "Ġempty": 6230,
      "aha": 6231,
      "Ġmostly": 6232,
      "Ġprocessed": 6233,
      "ossible": 6234,
      "ãĥ¼ãĤ¹": 6235,
      "ĠIntel": 6236,
      "Ġtracker": 6237,
      "Ġdemand": 6238,
      "Ġequival": 6239,
      "ĠCapX": 6240,
      "ĠCapacity": 6241,
      "Ġschools": 6242,
      "Ġcopies": 6243,
      "zÄħdz": 6244,
      "Ġobligations": 6245,
      "ĠwspÃ³ÅĤ": 6246,
      "Ġwerden": 6247,
      "Ġembedded": 6248,
      "Ġtokens": 6249,
      "Ġoffered": 6250,
      "42": 6251,
      "TS": 6252,
      "Welcome": 6253,
      "uge": 6254,
      "wik": 6255,
      "Ñī": 6256,
      "Ñŀ": 6257,
      "áį": 6258,
      "åį": 6259,
      "èĩ": 6260,
      "Ġult": 6261,
      "ita": 6262,
      "Ġpun": 6263,
      "ished": 6264,
      "Ġmak": 6265,
      "olo": 6266,
      "Ġvary": 6267,
      "Ġvote": 6268,
      "Ġvoice": 6269,
      "Ġalle": 6270,
      "odes": 6271,
      "ĠDav": 6272,
      "Ġkan": 6273,
      "à¸Ĥ": 6274,
      "áĢľ": 6275,
      "Ġheart": 6276,
      "à¦Ĥ": 6277,
      "Ġshape": 6278,
      "Ġ×ĸ": 6279,
      "Ġpartner": 6280,
      "Inst": 6281,
      "Ġmanually": 6282,
      "Ġedits": 6283,
      "Ġconsumer": 6284,
      "Ġdifferences": 6285,
      "Ġ2004": 6286,
      "Ġstrings": 6287,
      "Ġserious": 6288,
      "Ġautomation": 6289,
      "Ġvisible": 6290,
      "Ġlogic": 6291,
      "Ġpractical": 6292,
      "Ġprompt": 6293,
      "Ġtrial": 6294,
      "Ġredirect": 6295,
      "ãĥ¼ãĥī": 6296,
      "ãģĤãĤĭ": 6297,
      "Ġstreng": 6298,
      "ĠPrinciples": 6299,
      "Ġencycl": 6300,
      "86": 6301,
      "fl": 6302,
      "uet": 6303,
      "âĨĴ": 6304,
      "ç«": 6305,
      "Ġwent": 6306,
      "Ġfederal": 6307,
      "ington": 6308,
      "arzÄħdz": 6309,
      "Ġlost": 6310,
      "ĠIss": 6311,
      "agi": 6312,
      "Ġgi": 6313,
      "aya": 6314,
      "ife": 6315,
      "ĠMus": 6316,
      "oday": 6317,
      "Ġweeks": 6318,
      "ĠBas": 6319,
      "ĠEle": 6320,
      "ende": 6321,
      "ÐµÐ²": 6322,
      "Ġaccident": 6323,
      "ĠView": 6324,
      "ĠCommon": 6325,
      "Ġprzy": 6326,
      "ĠRead": 6327,
      "ĠRequirements": 6328,
      "ÑĭÐº": 6329,
      "ario": 6330,
      "Ġcorpor": 6331,
      "à¦°à¦": 6332,
      "Ġformatting": 6333,
      "Ġexceptions": 6334,
      "Ġpresident": 6335,
      "Ġdistribute": 6336,
      "Ġenvironments": 6337,
      "à©Ģ": 6338,
      "Second": 6339,
      "Ġreferred": 6340,
      "Ġefforts": 6341,
      "Ã´ng": 6342,
      "Ġiteration": 6343,
      "Ġmaximum": 6344,
      "68": 6345,
      "Ops": 6346,
      "lin": 6347,
      "nia": 6348,
      "Ñĳ": 6349,
      "ÖĤ": 6350,
      "onical": 6351,
      "Ġsustain": 6352,
      "Ġpra": 6353,
      "Ġws": 6354,
      "Ġdot": 6355,
      "Ġthous": 6356,
      "Ġhit": 6357,
      "ĠAff": 6358,
      "ĠTaj": 6359,
      "ĠMin": 6360,
      "ĠMah": 6361,
      "ĠPres": 6362,
      "ĠPower": 6363,
      "hern": 6364,
      "ested": 6365,
      "ĠDraft": 6366,
      "Ġune": 6367,
      "ĠHer": 6368,
      "ĠOnt": 6369,
      "Ð¸Ð¹": 6370,
      "ĠNorth": 6371,
      "Ġ×ŀ": 6372,
      "ÐµÐ¹": 6373,
      "Ġtrig": 6374,
      "ĠWikidata": 6375,
      "Ã©e": 6376,
      "Ġprac": 6377,
      "Ġlisten": 6378,
      "Ġhelpful": 6379,
      "Ġà¤ª": 6380,
      "Ġvisibility": 6381,
      "Ġrare": 6382,
      "Ġunderstanding": 6383,
      "Ø®Ø¯": 6384,
      "Ġsuccessful": 6385,
      "ĠDevelopment": 6386,
      "Ġlaptop": 6387,
      "Ġcircumst": 6388,
      ").[": 6389,
      "Now": 6390,
      "ares": 6391,
      "Ġcut": 6392,
      "Ġpas": 6393,
      "edn": 6394,
      "icing": 6395,
      "Ġrevenue": 6396,
      "Ġland": 6397,
      "amless": 6398,
      "ĠCy": 6399,
      "ĠCity": 6400,
      "ĠCases": 6401,
      "abot": 6402,
      "ĠMary": 6403,
      "ĠMachine": 6404,
      "term": 6405,
      "ĠBose": 6406,
      "ĠBrit": 6407,
      "Ġko": 6408,
      "ãĤ·": 6409,
      "resh": 6410,
      "Ġspam": 6411,
      "Ġ×ª": 6412,
      "ailability": 6413,
      "à°ª": 6414,
      "ĠCommission": 6415,
      "ooking": 6416,
      "Ġattention": 6417,
      "ugu": 6418,
      "Ġrespective": 6419,
      "Ġà¦ķ": 6420,
      "Ø³ÛĮ": 6421,
      "Ġdependencies": 6422,
      "à¸Ńà¸ĩ": 6423,
      "Ġmoved": 6424,
      "Ġbehavi": 6425,
      "ĠÐ¿ÑĢÐ¾Ð³ÑĢÐ°Ð¼": 6426,
      "Ġmeasure": 6427,
      "Ġfrequency": 6428,
      "Ġrelationships": 6429,
      "Ġsomew": 6430,
      "ĠìŀĪ": 6431,
      "Ġdegree": 6432,
      "Ġacademic": 6433,
      "51": 6434,
      "View": 6435,
      "col": 6436,
      "ns": 6437,
      "non": 6438,
      "press": 6439,
      "Ûĩ": 6440,
      "Ġwomen": 6441,
      "Ġnu": 6442,
      "ilos": 6443,
      "etary": 6444,
      "cha": 6445,
      "iding": 6446,
      "Ġcoming": 6447,
      "Ð°Ñģ": 6448,
      "istry": 6449,
      "ĠDate": 6450,
      "ĠBro": 6451,
      "ĠHar": 6452,
      "izable": 6453,
      "ÙĦÙħ": 6454,
      "Ġscreens": 6455,
      "à¹į": 6456,
      "ĠÐ¿ÑĢÐ°": 6457,
      "Ġà¦¬": 6458,
      "ĠAdmin": 6459,
      "Ġinsert": 6460,
      "ãģ§ãģ¯": 6461,
      "itution": 6462,
      "Once": 6463,
      "Ġlayer": 6464,
      "DFS": 6465,
      "Ġprimarily": 6466,
      "bersecurity": 6467,
      "ĠFrance": 6468,
      "Ġcompatibility": 6469,
      "Ġinnovation": 6470,
      "Ġrozw": 6471,
      "Ġjournal": 6472,
      "Ġdispute": 6473,
      "ãĥĩãĤ£": 6474,
      "Ġmilest": 6475,
      "ĠWordPress": 6476,
      "Åį": 6477,
      "ÐŁ": 6478,
      "ä¿": 6479,
      "é«": 6480,
      "Ġcurrency": 6481,
      "user": 6482,
      "Ġloop": 6483,
      "Ġhum": 6484,
      "etz": 6485,
      "utz": 6486,
      "ida": 6487,
      "agn": 6488,
      "ĠWG": 6489,
      "acje": 6490,
      "osen": 6491,
      "ĠFin": 6492,
      "aka": 6493,
      "ĠEr": 6494,
      "Ð¸ÑģÑĤ": 6495,
      "Ġze": 6496,
      "ĠStreet": 6497,
      "Ġvaluable": 6498,
      "Ġmodules": 6499,
      "Ġobvious": 6500,
      "Ġexpensive": 6501,
      "Ġinteroper": 6502,
      "à§ĭ": 6503,
      "Ġdiscount": 6504,
      "Ġinvite": 6505,
      "Ġundefined": 6506,
      "Åĭa": 6507,
      "coming": 6508,
      "Ġbackups": 6509,
      "Ġautomatic": 6510,
      "ĠOnce": 6511,
      "Ãªn": 6512,
      "Ġnormally": 6513,
      "Ġequal": 6514,
      "Ġfacilit": 6515,
      "ĠInstead": 6516,
      "Transl": 6517,
      "Ġesc": 6518,
      "Ġadministrators": 6519,
      "ĠTechnology": 6520,
      "ê³¼": 6521,
      "Ø³ØªØ®Ø¯": 6522,
      "Ġopportunities": 6523,
      "ä¸Ńæĸĩ": 6524,
      "åł´åĲĪ": 6525,
      "ĠUltra": 6526,
      "79": 6527,
      "Rep": 6528,
      "vision": 6529,
      "writ": 6530,
      "èĥ½": 6531,
      "reach": 6532,
      "orre": 6533,
      "Ġson": 6534,
      "Ġhands": 6535,
      "ĠCall": 6536,
      "Ġconference": 6537,
      "Ġals": 6538,
      "ecz": 6539,
      "ĠBer": 6540,
      "ĠLFS": 6541,
      "ĠRuss": 6542,
      "Ġsuite": 6543,
      "Ð»Ñı": 6544,
      "ĠValidator": 6545,
      "Ġmeant": 6546,
      "Ġagencies": 6547,
      "Ġoffering": 6548,
      "Ġprogramm": 6549,
      "Ã¤r": 6550,
      "áº¥": 6551,
      "Ġposts": 6552,
      "Ġreturned": 6553,
      "ĠAnal": 6554,
      "arsh": 6555,
      "Ġresponsibility": 6556,
      "Ġvolume": 6557,
      "Ġtried": 6558,
      "Î¹Îº": 6559,
      "Ġtreated": 6560,
      "Ġadopted": 6561,
      "Ġbeginning": 6562,
      "Ġintellectual": 6563,
      "ĠktÃ³re": 6564,
      "à¯į": 6565,
      "According": 6566,
      "åŁº": 6567,
      "Ġlegitimate": 6568,
      "ãĥĩãĤ£ãĤ¢": 6569,
      "56": 6570,
      "Coll": 6571,
      "DK": 6572,
      "DR": 6573,
      "Meta": 6574,
      "People": 6575,
      "TypedArray": 6576,
      "Ver": 6577,
      "then": 6578,
      "Åº": 6579,
      "Ġtal": 6580,
      "Ġcz": 6581,
      "oma": 6582,
      "Ġthread": 6583,
      "Ġhalf": 6584,
      "ĠCore": 6585,
      "unately": 6586,
      "ĠTwo": 6587,
      "osh": 6588,
      "hers": 6589,
      "eck": 6590,
      "à¤µ": 6591,
      "Ġenabling": 6592,
      "Ġrepe": 6593,
      "index": 6594,
      "ĠVi": 6595,
      "Ġadds": 6596,
      "ĠØ´": 6597,
      "Ġmanaging": 6598,
      "ĠUnion": 6599,
      "Ġhelping": 6600,
      "tenance": 6601,
      "Ġmonit": 6602,
      "Ġlogos": 6603,
      "Ġimproved": 6604,
      "Ġconstra": 6605,
      "Ġà°µ": 6606,
      "External": 6607,
      "Ġarchive": 6608,
      "Ġnecessarily": 6609,
      "EST": 6610,
      "ĠCompany": 6611,
      "Ġoriginally": 6612,
      "Ġencourage": 6613,
      "è¡Į": 6614,
      "Google": 6615,
      "Ġillustr": 6616,
      "Internet": 6617,
      "88": 6618,
      "Fi": 6619,
      "Further": 6620,
      "ball": 6621,
      "met": 6622,
      "Ä±": 6623,
      "Ìį": 6624,
      "ÑĶ": 6625,
      "Ø£": 6626,
      "ë¦": 6627,
      "ĠÅĽ": 6628,
      "Ġoder": 6629,
      "Ġbot": 6630,
      "arge": 6631,
      "Ġeine": 6632,
      "chron": 6633,
      "ĠSam": 6634,
      "owanie": 6635,
      "urch": 6636,
      "ĠMember": 6637,
      "river": 6638,
      "ĠPage": 6639,
      "ĠBen": 6640,
      "ĠBig": 6641,
      "ĠBel": 6642,
      "akt": 6643,
      "ĠEnd": 6644,
      "Ġpreferences": 6645,
      "ĠiPhone": 6646,
      "ceding": 6647,
      "arbeit": 6648,
      "ungen": 6649,
      "Ġidentified": 6650,
      "Ġfinding": 6651,
      "Ġadvance": 6652,
      "Ã¶n": 6653,
      "Ġinteresting": 6654,
      "ï¿½ï¿½ï¿½ï¿½ï¿½ï¿½ï¿½ï¿½": 6655,
      "ãģĹãģ¾ãģĻ": 6656,
      "Ġfactors": 6657,
      "Ġemployee": 6658,
      "æľī": 6659,
      "Ġmajority": 6660,
      "Ġgrowing": 6661,
      "Ġpackage": 6662,
      "ĠAssoci": 6663,
      "ãĤ¦ãĤ£": 6664,
      "Ġencouraged": 6665,
      "Ġabsolute": 6666,
      "èĢħ": 6667,
      "Ġchannel": 6668,
      "Ġdistinct": 6669,
      "Value": 6670,
      "Ġcircumstances": 6671,
      "BM": 6672,
      "Rem": 6673,
      "aeo": 6674,
      "cil": 6675,
      "eep": 6676,
      "first": 6677,
      "hÃ¢": 6678,
      "rag": 6679,
      "year": 6680,
      "©çĶ¨": 6681,
      "å¸": 6682,
      "åĨ": 6683,
      "Ġbillion": 6684,
      "Ġment": 6685,
      "Ġmut": 6686,
      "ilarly": 6687,
      "Ġforce": 6688,
      "amed": 6689,
      "idate": 6690,
      "ayer": 6691,
      "emini": 6692,
      "Ġalone": 6693,
      "ãģł": 6694,
      "ĠPost": 6695,
      "ĠGlasses": 6696,
      "ĠBiden": 6697,
      "Ġkh": 6698,
      "Ġrul": 6699,
      "Ġcontrib": 6700,
      "à¤¦": 6701,
      "Ġshap": 6702,
      "Ġtele": 6703,
      "anguages": 6704,
      "×Ļ×ĺ": 6705,
      "Ġclosed": 6706,
      "Ġmanip": 6707,
      "×ķ×¡": 6708,
      "Ġunderlying": 6709,
      "Ġinterview": 6710,
      "ĠSpanish": 6711,
      "Ġowners": 6712,
      "Ġextreme": 6713,
      "Arq": 6714,
      "porary": 6715,
      "Ġê²": 6716,
      "Ġgrowth": 6717,
      "ĠÄĳá»": 6718,
      "riendly": 6719,
      "Ġfraud": 6720,
      "ĠTajik": 6721,
      "Every": 6722,
      "Test": 6723,
      "å½": 6724,
      "Ġapl": 6725,
      "inter": 6726,
      "erous": 6727,
      "atible": 6728,
      "Ġsession": 6729,
      "Ġdaily": 6730,
      "Ġtold": 6731,
      "users": 6732,
      "Ġlub": 6733,
      "Ġgit": 6734,
      "elle": 6735,
      "abases": 6736,
      "Ġstable": 6737,
      "ãģ¤": 6738,
      "ocab": 6739,
      "ĠGraph": 6740,
      "pling": 6741,
      "ĠFol": 6742,
      "Ġku": 6743,
      "à¸¸": 6744,
      "ĠEvery": 6745,
      "ãĤ»": 6746,
      "à¤¹": 6747,
      "ĠOS": 6748,
      "acking": 6749,
      "Ġ×Ĺ": 6750,
      "Ġjo": 6751,
      "ails": 6752,
      "à°¤": 6753,
      "à°Ĺ": 6754,
      "ĠState": 6755,
      "uality": 6756,
      "Ġtransparency": 6757,
      "ĠWebKit": 6758,
      "Ġproduced": 6759,
      "Ġacceler": 6760,
      "criptions": 6761,
      "ĠDeutsch": 6762,
      "Ġidentifier": 6763,
      "Ġexperiment": 6764,
      "ĠáĬ": 6765,
      "ĠConduct": 6766,
      "ĠShare": 6767,
      "Ġencoding": 6768,
      "ĠPlus": 6769,
      "Ġletter": 6770,
      "Ġfixes": 6771,
      "Ġfixed": 6772,
      "Ġinteractive": 6773,
      "Ġlibraries": 6774,
      "klore": 6775,
      "Ġauthentication": 6776,
      "ãģĿãģ®": 6777,
      "ĠECMAScript": 6778,
      "ĠIhre": 6779,
      "uetooth": 6780,
      "52": 6781,
      "Extens": 6782,
      "Ident": 6783,
      "James": 6784,
      "Lat": 6785,
      "Option": 6786,
      "RE": 6787,
      "Yes": 6788,
      "aÃ±": 6789,
      "ked": 6790,
      "yek": 6791,
      "åº": 6792,
      "åĩ": 6793,
      "åī": 6794,
      "æ¨": 6795,
      "Ġpatch": 6796,
      "Ġfot": 6797,
      "Ġdash": 6798,
      "imin": 6799,
      "ĠSave": 6800,
      "cel": 6801,
      "ithub": 6802,
      "Ġstuff": 6803,
      "ĠÐĿ": 6804,
      "anges": 6805,
      "ĠLat": 6806,
      "ĠLike": 6807,
      "ĠUr": 6808,
      "Ġshi": 6809,
      "à°¦": 6810,
      "Ġprovision": 6811,
      "Ġsubsequ": 6812,
      "à¥Ī": 6813,
      "Å¼y": 6814,
      "Ġfoundation": 6815,
      "comes": 6816,
      "Ġhandling": 6817,
      "ãģĹãģŁ": 6818,
      "Ġanalytics": 6819,
      "author": 6820,
      "Ġconfigure": 6821,
      "luence": 6822,
      "Ġrestricted": 6823,
      "ĠGuidelines": 6824,
      "Ġconcepts": 6825,
      "limited": 6826,
      "Select": 6827,
      "adgets": 6828,
      "English": 6829,
      "êµŃ": 6830,
      "Firefox": 6831,
      "IP": 6832,
      "Lic": 6833,
      "ael": 6834,
      "jet": 6835,
      "kit": 6836,
      "pop": 6837,
      "wan": 6838,
      "Ġaward": 6839,
      "Ġpiece": 6840,
      "Ġwir": 6841,
      "ĠdÃ©": 6842,
      "Ġbed": 6843,
      "Ġmachines": 6844,
      "archer": 6845,
      "eter": 6846,
      "ĠSur": 6847,
      "Ġbeg": 6848,
      "olves": 6849,
      "Ġ(âĢľ": 6850,
      "ĠWide": 6851,
      "Ġstated": 6852,
      "oping": 6853,
      "ĠMc": 6854,
      "rief": 6855,
      "ightly": 6856,
      "arth": 6857,
      "ogether": 6858,
      "Ġ2000": 6859,
      "Ġseamless": 6860,
      "áĢĿ": 6861,
      "à¦Ĺ": 6862,
      "Ð¾Ð¶": 6863,
      "Ġspaces": 6864,
      "ÐµÐ³": 6865,
      "Ø±Ø¨": 6866,
      "Ġsupporting": 6867,
      "iverse": 6868,
      "ixel": 6869,
      "Ġroot": 6870,
      "Ġreaders": 6871,
      "Ġcontributing": 6872,
      "ĠHealth": 6873,
      "Who": 6874,
      "Ġinstallation": 6875,
      "Ġwrong": 6876,
      "ãĤ¤ãĥ«": 6877,
      "Creating": 6878,
      "Ġinvestment": 6879,
      "Security": 6880,
      "Ġcombination": 6881,
      "Ġvulnerabilities": 6882,
      "Ġliability": 6883,
      "Ġnavigation": 6884,
      "çīĪ": 6885,
      "Ġopportunity": 6886,
      "Ġtraditional": 6887,
      "Ġvolunteer": 6888,
      "ĠSonos": 6889,
      "ĠScience": 6890,
      "53": 6891,
      "Fin": 6892,
      "mo": 6893,
      "media": 6894,
      "oe": 6895,
      "vas": 6896,
      "á¹": 6897,
      "ç¤": 6898,
      "Ħãĥªãĥ¼": 6899,
      "Ġpoz": 6900,
      "Ġyuuni": 6901,
      "ĠAL": 6902,
      "Ġglob": 6903,
      "abe": 6904,
      "urance": 6905,
      "Ġstra": 6906,
      "ĠMult": 6907,
      "ĠPract": 6908,
      "ector": 6909,
      "ĠBecause": 6910,
      "ĠFederal": 6911,
      "andom": 6912,
      "à¤Ĺ": 6913,
      "Ġspent": 6914,
      "Ġdisp": 6915,
      "Ġrecords": 6916,
      "Ġartikel": 6917,
      "Ġtransformation": 6918,
      "ĠiOS": 6919,
      "Ġoverview": 6920,
      "Ġdesigns": 6921,
      "ĠìĤ¬": 6922,
      "egu": 6923,
      "arby": 6924,
      "Ġdecided": 6925,
      "Ġvision": 6926,
      "Ġsensors": 6927,
      "Ġrap": 6928,
      "Ġinterests": 6929,
      "ĠActions": 6930,
      "Spec": 6931,
      "ĠBluetooth": 6932,
      "Ġdescribes": 6933,
      "ĠColl": 6934,
      "Ġplanning": 6935,
      "Ġfacilities": 6936,
      "Ġmoving": 6937,
      "Ġregardless": 6938,
      "Ġrecommendations": 6939,
      "ĠSpecification": 6940,
      "áĢ±áĢ¬": 6941,
      "Ġenforcement": 6942,
      "Ġinitiative": 6943,
      "ĠStrateg": 6944,
      "Ġcomfortable": 6945,
      "ĠEvents": 6946,
      "ĠRecommendation": 6947,
      "02": 6948,
      "43": 6949,
      "63": 6950,
      "NeverCry": 6951,
      "Ob": 6952,
      "dem": 6953,
      "defined": 6954,
      "gn": 6955,
      "win": 6956,
      "yc": 6957,
      "ython": 6958,
      "¯¸": 6959,
      "×ĸ": 6960,
      "×ļ": 6961,
      "Ġcrypt": 6962,
      "Ġwindow": 6963,
      "isa": 6964,
      "Ġok": 6965,
      "Ġdates": 6966,
      "Ġyi": 6967,
      "eth": 6968,
      "ĠAS": 6969,
      "ĠTest": 6970,
      "ried": 6971,
      "ews": 6972,
      "Ġrich": 6973,
      "ĠLive": 6974,
      "ãĥĨ": 6975,
      "Ġspot": 6976,
      "Ġaccord": 6977,
      "Ġanywhere": 6978,
      "Ġcluster": 6979,
      "ypes": 6980,
      "Ġauto": 6981,
      "Ġpremium": 6982,
      "Ġsubc": 6983,
      "Ġagency": 6984,
      "ĠØ§ÙĦØ¹": 6985,
      "Ġremember": 6986,
      "ÛĮØ§": 6987,
      "Ġguarant": 6988,
      "undred": 6989,
      "edians": 6990,
      "Ġengagement": 6991,
      "verse": 6992,
      "Ġminimum": 6993,
      "ĠSecond": 6994,
      "anned": 6995,
      "Ġpassword": 6996,
      "Ġkeeping": 6997,
      "encji": 6998,
      "Ġcollected": 6999,
      "Ġsmaller": 7000,
      "Ġsignificantly": 7001,
      "Ġholds": 7002,
      "ĠGermany": 7003,
      "iÄħz": 7004,
      "ĠWikimania": 7005,
      "Archive": 7006,
      "Ġequivalent": 7007,
      "58": 7008,
      "61": 7009,
      "97": 7010,
      "Act": 7011,
      "Check": 7012,
      "Gu": 7013,
      "chen": 7014,
      "eur": 7015,
      "haps": 7016,
      "lNeverCry": 7017,
      "ned": 7018,
      "Ðľ": 7019,
      "ê°Ģ": 7020,
      "ĠÑĸ": 7021,
      "Ġay": 7022,
      "hest": 7023,
      "arian": 7024,
      "oman": 7025,
      "Ġlives": 7026,
      "Ġexchange": 7027,
      "seud": 7028,
      "ĠÐł": 7029,
      "ĠFrid": 7030,
      "à¸Ī": 7031,
      "à¸ŀ": 7032,
      "ĠLearn": 7033,
      "ĠLegal": 7034,
      "ĠRem": 7035,
      "áĢĴ": 7036,
      "ĠOpt": 7037,
      "Ø§Ø³": 7038,
      "Ġappeal": 7039,
      "eph": 7040,
      "à°µ": 7041,
      "ÐºÑĥ": 7042,
      "Ġrelatively": 7043,
      "á»į": 7044,
      "ĠTele": 7045,
      "ometimes": 7046,
      "Ġposted": 7047,
      "Ġcomputing": 7048,
      "Ġimproving": 7049,
      "Ġapproved": 7050,
      "Ġrepresented": 7051,
      "fortunately": 7052,
      "Ãªs": 7053,
      "Ġmovie": 7054,
      "Ġtitles": 7055,
      "Ġdisclosure": 7056,
      "Ġwyk": 7057,
      "Ġaspect": 7058,
      "UST": 7059,
      "ĠAfrican": 7060,
      "Ġintelig": 7061,
      "ĠAustralia": 7062,
      "Ġsleep": 7063,
      "Ġlegislation": 7064,
      "ĠFriday": 7065,
      "83": 7066,
      "OW": 7067,
      "Tag": 7068,
      "bl": 7069,
      "door": 7070,
      "faces": 7071,
      "friendly": 7072,
      "gent": 7073,
      "yl": 7074,
      "ÉĻ": 7075,
      "æĽ": 7076,
      "ç¶": 7077,
      "Ġ*": 7078,
      "ĠÙĩ": 7079,
      "ĠÛģ": 7080,
      "Ġtur": 7081,
      "Ġcity": 7082,
      "alo": 7083,
      "Ġog": 7084,
      "ilder": 7085,
      "ĠSem": 7086,
      "ĠMag": 7087,
      "ãģĳ": 7088,
      "Ġdead": 7089,
      "Ġunc": 7090,
      "ĠHall": 7091,
      "ãĤ¸": 7092,
      "izer": 7093,
      "izations": 7094,
      "ãĥ»": 7095,
      "Ð¸Ñĩ": 7096,
      "Ġtruly": 7097,
      "ÑĤÑĮ": 7098,
      "Ġupgr": 7099,
      "ella": 7100,
      "Ġscen": 7101,
      "ÑĥÐ²": 7102,
      "Ġ31": 7103,
      "Äħcz": 7104,
      "Ġregion": 7105,
      "Ġowned": 7106,
      "Ġrequirement": 7107,
      "Ġreadings": 7108,
      "Ġstarts": 7109,
      "Ġsigned": 7110,
      "Ġreviewed": 7111,
      "Ġeffects": 7112,
      "à½²": 7113,
      "Ġapprox": 7114,
      "ĠÐ¼Ð¾Ð²": 7115,
      "Ġresearcher": 7116,
      "Ġbelie": 7117,
      "Ġhosting": 7118,
      "ãĥ«ãĥ¼ãĥ«": 7119,
      "Ġexpressed": 7120,
      "ĠInstagram": 7121,
      "ĠRecord": 7122,
      "ĠAccording": 7123,
      "Ġvulnerable": 7124,
      "ĠSupreme": 7125,
      "è¯Ń": 7126,
      "Ġthousands": 7127,
      "90": 7128,
      "BT": 7129,
      "LT": 7130,
      "core": 7131,
      "mp": 7132,
      "rite": 7133,
      "sv": 7134,
      "¤ë": 7135,
      "åĢ": 7136,
      "é¡": 7137,
      "Ġãģ®": 7138,
      "recht": 7139,
      "enz": 7140,
      "itage": 7141,
      "Ġcatch": 7142,
      "Ġfood": 7143,
      "Ġye": 7144,
      "ĠSuch": 7145,
      "ste": 7146,
      "Ġgave": 7147,
      "ĠWn": 7148,
      "ulate": 7149,
      "Ġstation": 7150,
      "Ġital": 7151,
      "ĠMed": 7152,
      "ĠMad": 7153,
      "ĠPeople": 7154,
      "Ġexcell": 7155,
      "ĠDan": 7156,
      "raz": 7157,
      "anging": 7158,
      "Ġunlike": 7159,
      "ortium": 7160,
      "ĠHis": 7161,
      "ĠOf": 7162,
      "Ġads": 7163,
      "Ġsports": 7164,
      "ĠNe": 7165,
      "Ġ×¤": 7166,
      "Ġpredict": 7167,
      "text": 7168,
      "ÙĪÙħ": 7169,
      "Ġaggreg": 7170,
      "Ġartificial": 7171,
      "à¹Į": 7172,
      "Ġrelig": 7173,
      "á»§": 7174,
      "Ġcontributor": 7175,
      "ĠXM": 7176,
      "Ġrulesets": 7177,
      "Ġcomputers": 7178,
      "ographic": 7179,
      "ÉĶÅĭ": 7180,
      "Addition": 7181,
      "ĠÐ±Ð¾Ð»": 7182,
      "Ġbrings": 7183,
      "ĠInstitute": 7184,
      "Ġfinally": 7185,
      "Ġadministrator": 7186,
      "ĠAND": 7187,
      "ĠzaÅĭ": 7188,
      "Ġquotation": 7189,
      "ãģĭãĤī": 7190,
      "Ġbalance": 7191,
      "zÄĻdz": 7192,
      "ĠISO": 7193,
      "Fac": 7194,
      "He": 7195,
      "History": 7196,
      "Of": 7197,
      "Privacy": 7198,
      "RDF": 7199,
      "Support": 7200,
      "lwood": 7201,
      "ä¼": 7202,
      "å¿": 7203,
      "aten": 7204,
      "Ġsold": 7205,
      "Ġcart": 7206,
      "Ġwelcome": 7207,
      "Ġmedi": 7208,
      "enty": 7209,
      "Ġlik": 7210,
      "Ġhundred": 7211,
      "ĠAz": 7212,
      "ĠChe": 7213,
      "ĠSnap": 7214,
      "owied": 7215,
      "ĠIMI": 7216,
      "ido": 7217,
      "idth": 7218,
      "ulu": 7219,
      "ĠGemini": 7220,
      "rach": 7221,
      "ĠFace": 7222,
      "ĠLab": 7223,
      "Ġsear": 7224,
      "Ġselection": 7225,
      "áĢ¹": 7226,
      "ĠNothing": 7227,
      "Ġ×¡": 7228,
      "ommended": 7229,
      "Ġcompare": 7230,
      "Ġcompleted": 7231,
      "Ġnear": 7232,
      "Ġquant": 7233,
      "Ġzero": 7234,
      "ĠKore": 7235,
      "ruce": 7236,
      "ryption": 7237,
      "à¹ĩ": 7238,
      "rought": 7239,
      "Request": 7240,
      "êłŀ": 7241,
      "Ġopened": 7242,
      "ymi": 7243,
      "engg": 7244,
      "Ġsounds": 7245,
      "Ġdependency": 7246,
      "Ġaffected": 7247,
      "portant": 7248,
      "äºº": 7249,
      "Ġexecution": 7250,
      "ĠCentral": 7251,
      "zenia": 7252,
      "Ġeffectively": 7253,
      "ĠWikimedians": 7254,
      "ìľł": 7255,
      "ĠJudaeo": 7256,
      "æ¬¡": 7257,
      "Ø¨Ø±ÙħØ¬": 7258,
      "ĠDependabot": 7259,
      "original": 7260,
      "ĠExplorer": 7261,
      "Ġaccordance": 7262,
      "lwoodward": 7263,
      "Su": 7264,
      "oices": 7265,
      "Ã½": 7266,
      "ç¨": 7267,
      "Ġ?": 7268,
      "Ġáĥ": 7269,
      "inv": 7270,
      "Ġcert": 7271,
      "Ġbound": 7272,
      "Ġmist": 7273,
      "Ġreached": 7274,
      "Ġlas": 7275,
      "ĠCam": 7276,
      "ĠSk": 7277,
      "ĠTypedArray": 7278,
      "Ġgender": 7279,
      "Ġconvert": 7280,
      "ĠGen": 7281,
      "pth": 7282,
      "ĠEPUB": 7283,
      "áĢģ": 7284,
      "áĢĤ": 7285,
      "áĢļ": 7286,
      "ĠName": 7287,
      "Ġworkout": 7288,
      "Ġdoct": 7289,
      "Ġwasn": 7290,
      "Ġresil": 7291,
      "Ġreserv": 7292,
      "ĠVal": 7293,
      "ÙħØ§": 7294,
      "Ġconsum": 7295,
      "Ġartwork": 7296,
      "à¹Ĥ": 7297,
      "ÅĤo": 7298,
      "Ġdeveloping": 7299,
      "Ġserves": 7300,
      "ĠØ§ÙĦØ±": 7301,
      "ĠØ§ÙĦØ¬": 7302,
      "Ġassume": 7303,
      "Ġinterpre": 7304,
      "Ġacqu": 7305,
      "Ġcustomize": 7306,
      "Ø¨ÙĬ": 7307,
      "Ġcopying": 7308,
      "Ġrecognized": 7309,
      "Ġfunding": 7310,
      "Ġalongside": 7311,
      "Ġfiltering": 7312,
      "ãĥ©ãĤ¤": 7313,
      "Ġcopied": 7314,
      "ĠmoÅ¼": 7315,
      "Ġbecoming": 7316,
      "ĠyaÉ£": 7317,
      "ĠProfessional": 7318,
      "Ġrenew": 7319,
      "Ġpropri": 7320,
      "Ġracism": 7321,
      "54": 7322,
      "76": 7323,
      "Apache": 7324,
      "Custom": 7325,
      "Hello": 7326,
      "PF": 7327,
      "Port": 7328,
      "Us": 7329,
      "citation": 7330,
      "fs": 7331,
      "leng": 7332,
      "znej": 7333,
      "©»": 7334,
      "Ùı": 7335,
      "áŀ": 7336,
      "éĥ": 7337,
      "éł": 7338,
      "ê©»": 7339,
      "ĠÅ": 7340,
      "Ġaw": 7341,
      "Ġspl": 7342,
      "enia": 7343,
      "Ġoch": 7344,
      "Ġbund": 7345,
      "Ġinher": 7346,
      "Ġnom": 7347,
      "Ġreject": 7348,
      "Ġhack": 7349,
      "etch": 7350,
      "ĠSQL": 7351,
      "style": 7352,
      "ĠType": 7353,
      "adi": 7354,
      "eld": 7355,
      "emin": 7356,
      "atever": 7357,
      "Ġstage": 7358,
      "Ð°ÑĢÐ°": 7359,
      "ocr": 7360,
      "ĠDomain": 7361,
      "aker": 7362,
      "Ġunknown": 7363,
      "endar": 7364,
      "áĢ¡": 7365,
      "à¤¡": 7366,
      "ĠUN": 7367,
      "ĠUbuntu": 7368,
      "à¦¸": 7369,
      "Ð¸Ñħ": 7370,
      "Ġchain": 7371,
      "ĠJe": 7372,
      "Ġresolve": 7373,
      "à°®": 7374,
      "Ġcommitted": 7375,
      "ĠStorage": 7376,
      "Ġimpossible": 7377,
      "Ġrelation": 7378,
      "Ġack": 7379,
      "cket": 7380,
      "Ð¿ÑĢ": 7381,
      "ĠÐ¿Ð¾": 7382,
      "urrently": 7383,
      "zyb": 7384,
      "Ġengines": 7385,
      "Ġchecking": 7386,
      "Ġgovernance": 7387,
      "ĠOnline": 7388,
      "Ġcollective": 7389,
      "Ġuntuk": 7390,
      "Ġrendere": 7391,
      "Ġcenter": 7392,
      "Ġsaying": 7393,
      "ãģĵãģ®": 7394,
      "Ġdisclose": 7395,
      "ðĲį": 7396,
      "ãĤ¦ãĤ": 7397,
      "Ġconversations": 7398,
      "aciÃ³n": 7399,
      "ìĬ¤": 7400,
      "Ġpositive": 7401,
      "èĩª": 7402,
      "ĠPresident": 7403,
      "ãĤ¦ãĤ£ãĤŃãĥ": 7404,
      "75": 7405,
      "84": 7406,
      "API": 7407,
      "Att": 7408,
      "Bahasa": 7409,
      "IF": 7410,
      "Next": 7411,
      "Whether": 7412,
      "ben": 7413,
      "case": 7414,
      "how": 7415,
      "hosted": 7416,
      "áĮ": 7417,
      "è¿": 7418,
      "Ġãģ¨": 7419,
      "Ġsaw": 7420,
      "Ġcell": 7421,
      "Ġfans": 7422,
      "Ġnang": 7423,
      "ĠSche": 7424,
      "ĠSyntax": 7425,
      "ĠSensor": 7426,
      "adow": 7427,
      "ikip": 7428,
      "acc": 7429,
      "Ġstories": 7430,
      "oses": 7431,
      "ria": 7432,
      "ĠPay": 7433,
      "ĠÐĺ": 7434,
      "akers": 7435,
      "à¸Ĭ": 7436,
      "ĠLast": 7437,
      "ĠUTC": 7438,
      "Ġchosen": 7439,
      "Ġspons": 7440,
      "Ġarg": 7441,
      "Ġnearby": 7442,
      "ÑģÑı": 7443,
      "aching": 7444,
      "Ġzg": 7445,
      "Ġzn": 7446,
      "ancell": 7447,
      "Ġartists": 7448,
      "×ķ×©": 7449,
      "eech": 7450,
      "ĠChief": 7451,
      "Ġ40": 7452,
      "Ġextended": 7453,
      "Ġìľ": 7454,
      "Ġlegacy": 7455,
      "ÛĮÚ©": 7456,
      "Ġincred": 7457,
      "ouncil": 7458,
      "Ġuploader": 7459,
      "à¸²à¸¡": 7460,
      "Ġsearching": 7461,
      "ĠCodeQL": 7462,
      "Ġkeyboard": 7463,
      "Ġcollaborate": 7464,
      "ä»¶": 7465,
      "Ġassociate": 7466,
      "Ġaccepted": 7467,
      "Ġêł¨": 7468,
      "ĠzuÉ£": 7469,
      "ãĥĥãĤ¯": 7470,
      "Ġcarry": 7471,
      "Ġregulatory": 7472,
      "Ġbroadcast": 7473,
      "ĠConsortium": 7474,
      "Ġmalicious": 7475,
      "Recommended": 7476,
      "Ġpersp": 7477,
      "Ġcharts": 7478,
      "ĠnarzÄĻdz": 7479,
      "ĠApplications": 7480,
      "Ġcontribs": 7481,
      "Jameslwoodward": 7482,
      "System": 7483,
      "ae": 7484,
      "hol": 7485,
      "lers": 7486,
      "version": 7487,
      "Ã»": 7488,
      "æŀ": 7489,
      "Ġãģ¯": 7490,
      "ĠÏĦ": 7491,
      "Ġtend": 7492,
      "inc": 7493,
      "order": 7494,
      "Ġbrought": 7495,
      "iche": 7496,
      "icher": 7497,
      "ette": 7498,
      "ĠWi": 7499,
      "ellow": 7500,
      "ĠDR": 7501,
      "ĠGard": 7502,
      "enska": 7503,
      "Ġ×Ĵ": 7504,
      "ĠâĢŀ": 7505,
      "apore": 7506,
      "×Ļ×Ļ×Ŀ": 7507,
      "actions": 7508,
      "Ġzm": 7509,
      "Ġzone": 7510,
      "Ġcreat": 7511,
      "ĠCommun": 7512,
      "ĠKind": 7513,
      "Ġfeels": 7514,
      "Ġrelative": 7515,
      "ĠØ§ÙĦØŃ": 7516,
      "á»¯": 7517,
      "á»ģ": 7518,
      "Ġhelped": 7519,
      "ĠChapter": 7520,
      "à§Ģ": 7521,
      "Ġentertain": 7522,
      "ĠSpace": 7523,
      "Ġlegally": 7524,
      "×¨×Ļ×Ŀ": 7525,
      "minute": 7526,
      "Ã¡n": 7527,
      "Ġbuilds": 7528,
      "Ġvariables": 7529,
      "Ġselector": 7530,
      "Ġbrack": 7531,
      "Dev": 7532,
      "Ġcommonly": 7533,
      "çĶŁ": 7534,
      "ramework": 7535,
      "Ġrecognize": 7536,
      "Ġsupply": 7537,
      "content": 7538,
      "Ġexplained": 7539,
      "Ġassistance": 7540,
      "Ġefficiency": 7541,
      "igenous": 7542,
      "Ġdropdown": 7543,
      "Ġdouble": 7544,
      "ìĬµ": 7545,
      "æĪĲ": 7546,
      "Ġflexible": 7547,
      "çĽ®": 7548,
      "ĠÃ¼ber": 7549,
      "uguÃªs": 7550,
      "ĠAssociation": 7551,
      "éĥ¨": 7552,
      "BC": 7553,
      "Red": 7554,
      "Tam": 7555,
      "brid": 7556,
      "kins": 7557,
      "ris": 7558,
      "Ðł": 7559,
      "ç¾": 7560,
      "Ġswo": 7561,
      "Ġsolve": 7562,
      "ĠcÃ³": 7563,
      "Ġpour": 7564,
      "Ġanch": 7565,
      "Ġdans": 7566,
      "Ġdalam": 7567,
      "Ġmaps": 7568,
      "enture": 7569,
      "Ġhuge": 7570,
      "strap": 7571,
      "Ġprox": 7572,
      "Ġoraz": 7573,
      "Ġconform": 7574,
      "acz": 7575,
      "ĠMuseum": 7576,
      "ãģĽ": 7577,
      "ĠPD": 7578,
      "ĠPan": 7579,
      "irth": 7580,
      "essions": 7581,
      "istent": 7582,
      "ĠDet": 7583,
      "ĠDie": 7584,
      "ĠGree": 7585,
      "rael": 7586,
      "ĠÐŁ": 7587,
      "ĠFre": 7588,
      "ĠLet": 7589,
      "ĠRich": 7590,
      "ĠTheir": 7591,
      "Ġtroub": 7592,
      "Ġappoint": 7593,
      "Ġqueries": 7594,
      "Ġzap": 7595,
      "ĠStyle": 7596,
      "×Ļ×¡": 7597,
      "×Ļ×ĳ": 7598,
      "ĠØ±": 7599,
      "Ġemot": 7600,
      "Ġedge": 7601,
      "Ġaccessor": 7602,
      "à¥ģ": 7603,
      "à¬ķ": 7604,
      "Ġkept": 7605,
      "Ġroles": 7606,
      "print": 7607,
      "Ġproductivity": 7608,
      "Ġstrict": 7609,
      "Start": 7610,
      "ĠExper": 7611,
      "Ġdepict": 7612,
      "}},": 7613,
      "Ġlocales": 7614,
      "ĠTrump": 7615,
      "Ġminimal": 7616,
      "ĠGroups": 7617,
      "ĠÙĪØ§ÙĦ": 7618,
      "Ġportion": 7619,
      "Ġrendered": 7620,
      "ä»£": 7621,
      "ootstrap": 7622,
      "Ġslot": 7623,
      "Ġpatent": 7624,
      "ĠPhot": 7625,
      "Ġsuggested": 7626,
      "Ġpresentation": 7627,
      "ĠGuide": 7628,
      "Ġbiggest": 7629,
      "ĠSeries": 7630,
      "oolean": 7631,
      "å¤§": 7632,
      "Ġbugs": 7633,
      "Cloud": 7634,
      "Ġattacks": 7635,
      "ĠGovernment": 7636,
      "Ġhistorical": 7637,
      "Ġtrends": 7638,
      "ĠLibrary": 7639,
      "Ġwszyst": 7640,
      "ĠMaryland": 7641,
      "ĠFolklore": 7642,
      "1000": 7643,
      "Don": 7644,
      "Def": 7645,
      "Free": 7646,
      "First": 7647,
      "Log": 7648,
      "def": 7649,
      "gra": 7650,
      "parent": 7651,
      "tz": 7652,
      "uh": 7653,
      "uw": 7654,
      "ÏĮ": 7655,
      "ç»": 7656,
      "Ġri": 7657,
      "Ġahead": 7658,
      "atu": 7659,
      "Ġfill": 7660,
      "alah": 7661,
      "Ġduration": 7662,
      "Ġlingu": 7663,
      "Ġhier": 7664,
      "ĠCult": 7665,
      "ĠSil": 7666,
      "ĠSound": 7667,
      "oli": 7668,
      "ãģĪ": 7669,
      "ĠGNU": 7670,
      "Ġweight": 7671,
      "ĠFAQ": 7672,
      "Ġbypass": 7673,
      "Ġcontrast": 7674,
      "anti": 7675,
      "ÑĤÐ¾ÑĢ": 7676,
      "api": 7677,
      "active": 7678,
      "phas": 7679,
      "Ð²Ð¾": 7680,
      "nego": 7681,
      "Ġlocations": 7682,
      "Ġverified": 7683,
      "Ġdiscover": 7684,
      "Ġextend": 7685,
      "Ġmini": 7686,
      "program": 7687,
      "Ġgramm": 7688,
      "ĠXHTML": 7689,
      "Ġmonitor": 7690,
      "Ġ×Ķ×Ĳ": 7691,
      "ìĿĢ": 7692,
      "Ġdomains": 7693,
      "Ġuploading": 7694,
      "ĠTransl": 7695,
      "ÑĨÑĮ": 7696,
      "Ġëĭ": 7697,
      "Ġcontinues": 7698,
      "ancing": 7699,
      "Ġscripting": 7700,
      "Ġ×Ĳ×ª": 7701,
      "Ġsafety": 7702,
      "Ġdefinitely": 7703,
      "Î¿Ïħ": 7704,
      "Ġstructured": 7705,
      "Ġexpectations": 7706,
      "ìłľ": 7707,
      "Ġdeployment": 7708,
      "Ġpartnership": 7709,
      "Ġobtained": 7710,
      "Ġpolitical": 7711,
      "Ġkomun": 7712,
      "Ã§ais": 7713,
      "æĺ¯": 7714,
      "Ð¸ÐºÐ¸Ð¿ÐµÐ´Ð¸Ñı": 7715,
      "ìĬµëĭĪëĭ¤": 7716,
      "CH": 7717,
      "DC": 7718,
      "FC": 7719,
      "Wp": 7720,
      "fe": 7721,
      "mit": 7722,
      "och": 7723,
      "uel": 7724,
      "world": 7725,
      "zes": 7726,
      "Äĵ": 7727,
      "ÅŁ": 7728,
      "Ðĳ": 7729,
      "æŃ": 7730,
      "rem": 7731,
      "Ġmigr": 7732,
      "Ġepisode": 7733,
      "ĠAWS": 7734,
      "Ġbeaut": 7735,
      "olid": 7736,
      "Ġ(#": 7737,
      "abl": 7738,
      "ulary": 7739,
      "ãģ°": 7740,
      "ĠPers": 7741,
      "ĠPol": 7742,
      "ĠDag": 7743,
      "ĠÐ£": 7744,
      "ĠÐĵ": 7745,
      "ĠBank": 7746,
      "áĢ¼": 7747,
      "ĠUnder": 7748,
      "Ø§Ùģ": 7749,
      "ĠNumber": 7750,
      "ÑĢÑĥ": 7751,
      "ults": 7752,
      "inder": 7753,
      "ĠzarzÄħdz": 7754,
      "Ġmaybe": 7755,
      "×Ļ×Ł": 7756,
      "Ð¼Ð°": 7757,
      "Ġphr": 7758,
      "Ġcopyrights": 7759,
      "Ġdiffer": 7760,
      "Ġlocally": 7761,
      "Ġusername": 7762,
      "Ġroom": 7763,
      "Ġdetect": 7764,
      "Ġcallback": 7765,
      "Ġunders": 7766,
      "matter": 7767,
      "áºŃ": 7768,
      "Ġbrowsing": 7769,
      "ä¸ĭ": 7770,
      "ATION": 7771,
      "Ġengage": 7772,
      "Ġemails": 7773,
      "ĠSecure": 7774,
      "Project": 7775,
      "áıį": 7776,
      "ĠOnly": 7777,
      "Ġblocked": 7778,
      "Ġproposals": 7779,
      "Ġexpressions": 7780,
      "Ġfaculty": 7781,
      "isco": 7782,
      "Ġê³": 7783,
      "Ġcodec": 7784,
      "Ġcareer": 7785,
      "Ġpotentially": 7786,
      "ĠØ¹ÙĦÙī": 7787,
      "Ġturned": 7788,
      "Äįina": 7789,
      "Ġexperienced": 7790,
      "Ġmalware": 7791,
      "Build": 7792,
      "Ġprincip": 7793,
      "ĠPaper": 7794,
      "Ġhappened": 7795,
      "è¦ģç´ł": 7796,
      "à¸¹à¹Ī": 7797,
      "Ġvendors": 7798,
      "å¹´": 7799,
      "Ġmathematical": 7800,
      "ublishing": 7801,
      "ĠFeatures": 7802,
      "ocabulary": 7803,
      "aÃ±ol": 7804,
      "Kaltura": 7805,
      "Where": 7806,
      "base": 7807,
      "gy": 7808,
      "mm": 7809,
      "â±": 7810,
      "å¯": 7811,
      "æĢ": 7812,
      "éĻ": 7813,
      "heet": 7814,
      "orama": 7815,
      "ĠsÄħ": 7816,
      "Ġdiverse": 7817,
      "uter": 7818,
      "estions": 7819,
      "ĠDel": 7820,
      "Ġkam": 7821,
      "Ġbyt": 7822,
      "ĠHouse": 7823,
      "ĠHotel": 7824,
      "ĠRing": 7825,
      "ivirus": 7826,
      "áĢ¶": 7827,
      "áĢ·": 7828,
      "ãĥŀ": 7829,
      "license": 7830,
      "sole": 7831,
      "Ġdisabled": 7832,
      "ĠVPN": 7833,
      "ĠØ¦": 7834,
      "Ġrecover": 7835,
      "Ã³b": 7836,
      "ception": 7837,
      "Ã¡s": 7838,
      "ä¸į": 7839,
      "athon": 7840,
      "Ġexplore": 7841,
      "Community": 7842,
      "ĠIntegr": 7843,
      "Ġauthorized": 7844,
      "Ġimportance": 7845,
      "Ġapproval": 7846,
      "Ġleads": 7847,
      "Ġleadership": 7848,
      "Ġcontinued": 7849,
      "æĸ¹": 7850,
      "ĠRepublic": 7851,
      "Ġsummar": 7852,
      "ĠØ£ÙĨ": 7853,
      "ĠtiÅĭ": 7854,
      "ÑģÐºÐ¸Ð¹": 7855,
      "ÑĺÐ°": 7856,
      "Ġdialog": 7857,
      "Ġinterpreted": 7858,
      "Ġmagaz": 7859,
      "ĠWikipedias": 7860,
      "Ġpanel": 7861,
      "Ġfriends": 7862,
      "ollowing": 7863,
      "ĠAdditionally": 7864,
      "ĠÙĦØºØ§Øª": 7865,
      "ĠBritish": 7866,
      "Ġstraight": 7867,
      "Ġcreativity": 7868,
      "Language": 7869,
      "Public": 7870,
      "SE": 7871,
      "cions": 7872,
      "gal": 7873,
      "iu": 7874,
      "uan": 7875,
      "va": 7876,
      "¸°": 7877,
      "ß²": 7878,
      "ĮĢ": 7879,
      "ĴĮ": 7880,
      "Ġtutorial": 7881,
      "Ġak": 7882,
      "Ġaverage": 7883,
      "Ġmillions": 7884,
      "Ġhidden": 7885,
      "ĠSocial": 7886,
      "ĠSquare": 7887,
      "Ġgather": 7888,
      "osp": 7889,
      "eston": 7890,
      "andal": 7891,
      "Ġsuff": 7892,
      "Ø§Ø¹": 7893,
      "Ġheav": 7894,
      "Ġimag": 7895,
      "Ġspend": 7896,
      "ension": 7897,
      "Ġreporter": 7898,
      "ffee": 7899,
      "ongo": 7900,
      "inking": 7901,
      "ÙĬÙĥ": 7902,
      "Ġartist": 7903,
      "×ķ×¤": 7904,
      "Ġobs": 7905,
      "ĠCharter": 7906,
      "ÄĻzy": 7907,
      "Ġkeys": 7908,
      "espaces": 7909,
      "Ġownership": 7910,
      "Ġmeta": 7911,
      "letter": 7912,
      "ĠìĪĺ": 7913,
      "Ġwants": 7914,
      "Ġaccounting": 7915,
      "Ã¤n": 7916,
      "ĠÙħØ¹": 7917,
      "Ġrestored": 7918,
      "Ġexplan": 7919,
      "Ġdistingu": 7920,
      "Ġchoices": 7921,
      "à½Ĥ": 7922,
      "ĠQuality": 7923,
      "Ital": 7924,
      "Example": 7925,
      "Ġ80": 7926,
      "Ġeventually": 7927,
      "Ġsurround": 7928,
      "Ġcapacity": 7929,
      "Content": 7930,
      "Ġseconds": 7931,
      "Ġstrategies": 7932,
      "Ġsuggestion": 7933,
      "Ġsafegu": 7934,
      "Ġvalidation": 7935,
      "Ġacceptable": 7936,
      "ĠMarket": 7937,
      "Ġmeetings": 7938,
      "Ġwait": 7939,
      "Ġcorrectly": 7940,
      "Ġpaths": 7941,
      "Ġunsigned": 7942,
      "Ġvendor": 7943,
      "ĠHeadphone": 7944,
      "Ġmerely": 7945,
      "Ġsubstantial": 7946,
      "ĠìľĦ": 7947,
      "\").": 7948,
      "Because": 7949,
      "HTTP": 7950,
      "Legal": 7951,
      "Ã¸": 7952,
      "Å³": 7953,
      "åĴĮ": 7954,
      "çŃ": 7955,
      "éĩ": 7956,
      "ĠÅĤ": 7957,
      "ıĦ": 7958,
      "Ġcá»§": 7959,
      "Ġbrief": 7960,
      "Ġreveal": 7961,
      "ĠTra": 7962,
      "ayout": 7963,
      "emon": 7964,
      "ulated": 7965,
      "ĠMaster": 7966,
      "ĠÐ¥": 7967,
      "angan": 7968,
      "Ġkp": 7969,
      "ĠLL": 7970,
      "ĠRDF": 7971,
      "ĠEnt": 7972,
      "ãĤĵ": 7973,
      "à¦Ł": 7974,
      "Ð¸ÐºÐ°": 7975,
      "Ġshift": 7976,
      "ibilities": 7977,
      "Ġleaving": 7978,
      "astic": 7979,
      "Inter": 7980,
      "Ġattend": 7981,
      "ĠArab": 7982,
      "Ġà¤®": 7983,
      "Ġ57": 7984,
      "prove": 7985,
      "Ġworksh": 7986,
      "Ġendors": 7987,
      "Ġexplo": 7988,
      "Ġcontained": 7989,
      "Ġaudience": 7990,
      "Ġeligible": 7991,
      "notes": 7992,
      "Wikip": 7993,
      "ÑĨÐ°": 7994,
      "Ġconstruction": 7995,
      "Admin": 7996,
      "Ġmonthly": 7997,
      "Ġasking": 7998,
      "Ġguides": 7999,
      "ãĤ¹ãĤ¿": 8000,
      "Ġtalking": 8001,
      "noÅĽÄĩ": 8002,
      "à©ĩ": 8003,
      "Ġdefinitions": 8004,
      "ĠANY": 8005,
      "commercial": 8006,
      "Ġannounce": 8007,
      "Ġidentifying": 8008,
      "Ġfrequently": 8009,
      "ìŀĳ": 8010,
      "Techn": 8011,
      "Ġaffiliates": 8012,
      "RCE": 8013,
      "Ġsolely": 8014,
      "Ġcouple": 8015,
      "Ġanonymous": 8016,
      "allel": 8017,
      "æĹ¥æľ¬": 8018,
      "Ġmonitoring": 8019,
      "Ġentertainment": 8020,
      "Ġcá»§a": 8021,
      "=\"": 8022,
      "Co": 8023,
      "Find": 8024,
      "Filter": 8025,
      "Lua": 8026,
      "Opt": 8027,
      "cer": 8028,
      "gi": 8029,
      "language": 8030,
      "width": 8031,
      "Ø¦": 8032,
      "à¾": 8033,
      "ëĲ": 8034,
      "Ġsá»": 8035,
      "Ġwur": 8036,
      "iser": 8037,
      "Ġbul": 8038,
      "ico": 8039,
      "asion": 8040,
      "Ġnone": 8041,
      "omas": 8042,
      "ĠCred": 8043,
      "ĠTO": 8044,
      "agers": 8045,
      "Ġgap": 8046,
      "âĢĲ": 8047,
      "Ġven": 8048,
      "ĠMelayu": 8049,
      "ĠDol": 8050,
      "ĠFramework": 8051,
      "Ġkorzyst": 8052,
      "iper": 8053,
      "ĠUsing": 8054,
      "Ġspread": 8055,
      "Ð½Ñĸ": 8056,
      "ÙĦØº": 8057,
      "ĠIns": 8058,
      "Ġresolved": 8059,
      "Ġresidents": 8060,
      "Ġdiss": 8061,
      "orship": 8062,
      "Ġscans": 8063,
      "Inc": 8064,
      "Ġoutcomes": 8065,
      "Ã©r": 8066,
      "Ġrecording": 8067,
      "×ķ×§": 8068,
      "Ġtransition": 8069,
      "oved": 8070,
      "espite": 8071,
      "Reg": 8072,
      "Ġdetection": 8073,
      "Ġ2002": 8074,
      "Ġconfidence": 8075,
      "Ġmaintenance": 8076,
      "Ġdirected": 8077,
      "ĠExpert": 8078,
      "Ġfounded": 8079,
      "iliates": 8080,
      "Ġframes": 8081,
      "Ġclicking": 8082,
      "Ġdatabases": 8083,
      "Ġrefers": 8084,
      "Ġthinking": 8085,
      "augh": 8086,
      "Ġ×ľ×Ĳ": 8087,
      "áĢ¬áĤı": 8088,
      "Ġslightly": 8089,
      "ĠResources": 8090,
      "Ġalgorithms": 8091,
      "itecture": 8092,
      "Ġdupl": 8093,
      "Ġsentence": 8094,
      "ĠAmerica": 8095,
      "ĠSystems": 8096,
      "áº¡n": 8097,
      "Design": 8098,
      "structor": 8099,
      "ãĥķãĤ": 8100,
      "Ã©dia": 8101,
      "ĠConfluence": 8102,
      "ĠEngineering": 8103,
      "Ġdotycz": 8104,
      "Ġconstraints": 8105,
      "Optionally": 8106,
      "07": 8107,
      "98": 8108,
      "Back": 8109,
      "Download": 8110,
      "Key": 8111,
      "call": 8112,
      "czy": 8113,
      "ios": 8114,
      "public": 8115,
      "uat": 8116,
      "Äķ": 8117,
      "Ð¢": 8118,
      "Ðĵ": 8119,
      "à³": 8120,
      "æĬ": 8121,
      "Ġaus": 8122,
      "rep": 8123,
      "rev": 8124,
      "ester": 8125,
      "Ġple": 8126,
      "Ġwat": 8127,
      "Ġfire": 8128,
      "Ġreferen": 8129,
      "ĠCouncil": 8130,
      "utral": 8131,
      "idd": 8132,
      "ags": 8133,
      "Ġproceed": 8134,
      "Ġvoor": 8135,
      "ĠMain": 8136,
      "ĠMUST": 8137,
      "rior": 8138,
      "ĠPython": 8139,
      "Ġnotify": 8140,
      "Ġnotifications": 8141,
      "ĠÐµ": 8142,
      "Ġrat": 8143,
      "ĠRed": 8144,
      "antics": 8145,
      "ĠON": 8146,
      "Ġship": 8147,
      "Ġ×ĵ": 8148,
      "ÑĢÐµ": 8149,
      "Ġlex": 8150,
      "Ġintention": 8151,
      "hishing": 8152,
      "Ġscore": 8153,
      "Ġfolder": 8154,
      "issues": 8155,
      "Ġcolle": 8156,
      "Ġorganized": 8157,
      "à¨°": 8158,
      "Ġprofiles": 8159,
      "Ġdiagram": 8160,
      "Ġviewed": 8161,
      "ĠConnect": 8162,
      "ĠAnn": 8163,
      "Ġfocusable": 8164,
      "Ġsurve": 8165,
      "Ġ×ľ×Ķ×": 8166,
      "àŃĩ": 8167,
      "fficial": 8168,
      "Ã§Ã£o": 8169,
      "Ġpromote": 8170,
      "Ġcontexts": 8171,
      "Conven": 8172,
      "Also": 8173,
      "Ġcycle": 8174,
      "åĪ©çĶ¨": 8175,
      "Ġadministrative": 8176,
      "ĠzespoÅĤy": 8177,
      "Ġlimitation": 8178,
      "ãģ¦ãģĦãĤĭ": 8179,
      "Ġinterpretation": 8180,
      "Ġconversation": 8181,
      "ãĤĪãģĨ": 8182,
      "Ġinfluence": 8183,
      "Ġsequence": 8184,
      "Ġopinion": 8185,
      "ĠAttribution": 8186,
      "å¼ı": 8187,
      "Discover": 8188,
      "Ġgrammar": 8189,
      "ĠdotyczÄħ": 8190,
      "299": 8191,
      "AA": 8192,
      "Es": 8193,
      "Hi": 8194,
      "River": 8195,
      "Search": 8196,
      "TF": 8197,
      "WH": 8198,
      "dated": 8199,
      "equ": 8200,
      "oon": 8201,
      "uce": 8202,
      "zb": 8203,
      "èĳ": 8204,
      "Ġid": 8205,
      "itas": 8206,
      "Ġpseud": 8207,
      "Ġwal": 8208,
      "Ġbur": 8209,
      "Ġlose": 8210,
      "Ġhous": 8211,
      "ĠCla": 8212,
      "Ġgaming": 8213,
      "Ġkon": 8214,
      "aki": 8215,
      "ĠRay": 8216,
      "umni": 8217,
      "ieg": 8218,
      "Ġdisable": 8219,
      "Ġzur": 8220,
      "Ġclone": 8221,
      "Ġevidence": 8222,
      "Ġprices": 8223,
      "×ķ×ĳ": 8224,
      "×ķ×Ł": 8225,
      "Ġtheme": 8226,
      "Ġfold": 8227,
      "emplates": 8228,
      "Ġrelating": 8229,
      "Ð³Ð°": 8230,
      "Ð·Ñĭ": 8231,
      "Ġinvok": 8232,
      "2026": 8233,
      "Ġcontributed": 8234,
      "Ġinfo": 8235,
      "ìĿ¼": 8236,
      "ãģ§ãģį": 8237,
      "Ġtracks": 8238,
      "ÙĥÙĨ": 8239,
      "Ġdemo": 8240,
      "Ġcommunicate": 8241,
      "Another": 8242,
      "åĪĨ": 8243,
      "Ġeditorial": 8244,
      "Ġdengan": 8245,
      "OURCE": 8246,
      "Ġmiddle": 8247,
      "áº£n": 8248,
      "Ġframeworks": 8249,
      "ĠSafari": 8250,
      "ĠProcessing": 8251,
      "Ġfigure": 8252,
      "áĥĺáĥ": 8253,
      "CapX": 8254,
      "ĠDepartment": 8255,
      "NumberFormat": 8256,
      "Ġfundamental": 8257,
      "æ§ĭ": 8258,
      "Ġdynamic": 8259,
      "Ġvacu": 8260,
      "Ġappreciate": 8261,
      "Ġmusical": 8262,
      "Ġscreensh": 8263,
      "Ġhumans": 8264,
      "Ġresearchers": 8265,
      "++": 8266,
      "BS": 8267,
      "Cr": 8268,
      "GOL": 8269,
      "IM": 8270,
      "LD": 8271,
      "Like": 8272,
      "Pages": 8273,
      "bury": 8274,
      "block": 8275,
      "iant": 8276,
      "kc": 8277,
      "ç½": 8278,
      "éĿ": 8279,
      "Ġíķ": 8280,
      "Ġtail": 8281,
      "Ġtheory": 8282,
      "ito": 8283,
      "Ġpuuni": 8284,
      "inger": 8285,
      "Ġdies": 8286,
      "Ġbinding": 8287,
      "icework": 8288,
      "omi": 8289,
      "Ġlu": 8290,
      "Ġlands": 8291,
      "Ġeight": 8292,
      "Ġhor": 8293,
      "Ġhot": 8294,
      "ĠCON": 8295,
      "ĠCorpor": 8296,
      "Ġconvent": 8297,
      "urpose": 8298,
      "ikan": 8299,
      "rij": 8300,
      "mental": 8301,
      "irit": 8302,
      "ĠÐŀ": 8303,
      "ĠBet": 8304,
      "áĢ³": 8305,
      "áĢħ": 8306,
      "à¤ľ": 8307,
      "Ø§ÙĤ": 8308,
      "Ġcha": 8309,
      "Ġju": 8310,
      "à°Ł": 8311,
      "Ġdisapp": 8312,
      "Ġzw": 8313,
      "ĠStream": 8314,
      "Information": 8315,
      "Ã©t": 8316,
      "Ġprefix": 8317,
      "Ġcopyrightable": 8318,
      "ĠRequest": 8319,
      "Ġoffline": 8320,
      "à¬¨": 8321,
      "ĠØ§ÙĦØ¨Ø±ÙħØ¬": 8322,
      "Ġexpose": 8323,
      "ØªÙĪ": 8324,
      "Ġverb": 8325,
      "Ġdiscovery": 8326,
      "Ġìķ": 8327,
      "aza": 8328,
      "ĠIntelligence": 8329,
      "ĠAlthough": 8330,
      "Ġdiscussed": 8331,
      "ĠShow": 8332,
      "à¸²à¸ĩ": 8333,
      "develop": 8334,
      "Ġreceiving": 8335,
      "ĠManager": 8336,
      "Ġshortcut": 8337,
      "Ġrevision": 8338,
      "Ġoccur": 8339,
      "Ġ×¢×ľ": 8340,
      "ĠProgramming": 8341,
      "Ġbringing": 8342,
      "Ġboost": 8343,
      "alaman": 8344,
      "Ġpreferred": 8345,
      "Ġdoubt": 8346,
      "Ġnegative": 8347,
      "Ġsaved": 8348,
      "ĠApplication": 8349,
      "Ġkarim": 8350,
      "Related": 8351,
      "Ġcelebr": 8352,
      "Ġrapid": 8353,
      "Ġapproximately": 8354,
      "Ġexcellent": 8355,
      "ruceID": 8356,
      "Convencions": 8357,
      "èĳĹ": 8358,
      "Bel": 8359,
      "Cons": 8360,
      "IG": 8361,
      "PT": 8362,
      "Sm": 8363,
      "Sensor": 8364,
      "body": 8365,
      "cape": 8366,
      "oi": 8367,
      "person": 8368,
      "ras": 8369,
      "sl": 8370,
      "ses": 8371,
      "wall": 8372,
      "you": 8373,
      "~~": 8374,
      "Ïĩ": 8375,
      "æº": 8376,
      "rest": 8377,
      "organ": 8378,
      "esz": 8379,
      "Ġos": 8380,
      "Ġbinary": 8381,
      "ille": 8382,
      "iga": 8383,
      "under": 8384,
      "ĠSan": 8385,
      "ĠSDK": 8386,
      "ĠWay": 8387,
      "ĠWhere": 8388,
      "ikl": 8389,
      "ĠMA": 8390,
      "Ġwhatever": 8391,
      "ando": 8392,
      "andbox": 8393,
      "ãĤı": 8394,
      "Ġseven": 8395,
      "Ġheard": 8396,
      "ÑĢÐ¸": 8397,
      "ansom": 8398,
      "ailing": 8399,
      "itext": 8400,
      "dule": 8401,
      "Ġcommission": 8402,
      "pha": 8403,
      "Ġoutdoor": 8404,
      "Ã©c": 8405,
      "Ġpreview": 8406,
      "Ġemphas": 8407,
      "Ø±Ùī": 8408,
      "ĠWebsites": 8409,
      "Ġverification": 8410,
      "Ġà¤ħ": 8411,
      "Ġentries": 8412,
      "azing": 8413,
      "egment": 8414,
      "readable": 8415,
      "Ġ[...": 8416,
      "Ġà¦¸": 8417,
      "ĠThus": 8418,
      "Ġbuildings": 8419,
      "à±ĩ": 8420,
      "Ġ08": 8421,
      "ĠControl": 8422,
      "Ġtrain": 8423,
      "Ġpossibly": 8424,
      "kty": 8425,
      "à¸²à¸¢": 8426,
      "ÑĨÑĸ": 8427,
      "Ġraised": 8428,
      "ĠUSB": 8429,
      "Ġarchives": 8430,
      "ĠTherefore": 8431,
      "Deletion": 8432,
      "Ġcommittee": 8433,
      "Ġfailure": 8434,
      "Ġpriorit": 8435,
      "Ġhighest": 8436,
      "Ġsampling": 8437,
      "Ġregulations": 8438,
      "Ġdrag": 8439,
      "áº¿ng": 8440,
      "ilingual": 8441,
      "Ġeconomic": 8442,
      "ĠCampus": 8443,
      "ĠwspÃ³ÅĤprac": 8444,
      "Ġcorporate": 8445,
      "Ġproprietary": 8446,
      "Ġwszystk": 8447,
      "Ġê³µ": 8448,
      "æĹ¥æľ¬èªŀ": 8449,
      "iceworks": 8450,
      "05": 8451,
      "08": 8452,
      "85": 8453,
      "Digital": 8454,
      "EM": 8455,
      "Even": 8456,
      "Gr": 8457,
      "NC": 8458,
      "OC": 8459,
      "UD": 8460,
      "document": 8461,
      "han": 8462,
      "hal": 8463,
      "uci": 8464,
      "vis": 8465,
      "write": 8466,
      "yo": 8467,
      "å±": 8468,
      "inja": 8469,
      "Ġcat": 8470,
      "Ġcivil": 8471,
      "isource": 8472,
      "arr": 8473,
      "Ġnan": 8474,
      "Ġnicht": 8475,
      "Ġhyp": 8476,
      "iger": 8477,
      "ĠChat": 8478,
      "ĠIBM": 8479,
      "ago": 8480,
      "adig": 8481,
      "Ġprote": 8482,
      "uri": 8483,
      "ema": 8484,
      "ĠvÃł": 8485,
      "Ġalign": 8486,
      "ĠPS": 8487,
      "ppose": 8488,
      "ĠDr": 8489,
      "anto": 8490,
      "enden": 8491,
      "áĢ»": 8492,
      "They": 8493,
      "ensitive": 8494,
      "Ġlett": 8495,
      "ÑĥÑĤ": 8496,
      "ÑĥÐ´": 8497,
      "×ķ×ĵ": 8498,
      "Ġtranscluded": 8499,
      "oves": 8500,
      "Ġmatches": 8501,
      "Ġprogrammer": 8502,
      "ĠØ§ÙĦÙĨ": 8503,
      "ĠArts": 8504,
      "Ð³Ð°ÑĢ": 8505,
      "Ġstatistics": 8506,
      "ĠÐ¿Ð¾Ðº": 8507,
      "ĠThanks": 8508,
      "Ġconsidering": 8509,
      "Ġáĭ": 8510,
      "Ġsubjects": 8511,
      "dev": 8512,
      "Ð°ÑĤÐ°": 8513,
      "ameters": 8514,
      "ĠÐ´Ð°": 8515,
      "ĠAgile": 8516,
      "åħ¨": 8517,
      "Local": 8518,
      "ufact": 8519,
      "Ġpackages": 8520,
      "ĠURLs": 8521,
      "Ġsubmitted": 8522,
      "Ġjoining": 8523,
      "Ġprzep": 8524,
      "ĠAdvisory": 8525,
      "Before": 8526,
      "Ġmitig": 8527,
      "Ġterrit": 8528,
      "íķľêµŃ": 8529,
      "áĬķ": 8530,
      "amsung": 8531,
      "á»ĩt": 8532,
      "Ġsync": 8533,
      "Ġethnic": 8534,
      "Ġworry": 8535,
      "ravatar": 8536,
      "Ġticket": 8537,
      "loven": 8538,
      "ä½¿çĶ¨": 8539,
      "Ġcitiz": 8540,
      "Ġshikuru": 8541,
      "ĠElements": 8542,
      "Ġaplik": 8543,
      "ĠKindle": 8544,
      "WHATWG": 8545,
      "Ġ[...]": 8546,
      "Frequ": 8547,
      "GB": 8548,
      "Mal": 8549,
      "Main": 8550,
      "bor": 8551,
      "bana": 8552,
      "house": 8553,
      "tuc": 8554,
      "yes": 8555,
      "Êĭ": 8556,
      "Òĵ": 8557,
      "Ġ>": 8558,
      "Ġ{": 8559,
      "ī¡": 8560,
      "Ġap": 8561,
      "oning": 8562,
      "orb": 8563,
      "orge": 8564,
      "Ġswe": 8565,
      "Ġszyb": 8566,
      "Ġtoward": 8567,
      "Ġmu": 8568,
      "Ġmoral": 8569,
      "Ġnga": 8570,
      "ĠlÃł": 8571,
      "igration": 8572,
      "owych": 8573,
      "ĠIan": 8574,
      "abi": 8575,
      "urable": 8576,
      "quality": 8577,
      "istribut": 8578,
      "ocation": 8579,
      "ĠHeston": 8580,
      "ĠEX": 8581,
      "ĠEs": 8582,
      "ãĤģ": 8583,
      "áĢ¾": 8584,
      "ĠNext": 8585,
      "Ġworkers": 8586,
      "alleries": 8587,
      "ĠJames": 8588,
      "riba": 8589,
      "acts": 8590,
      "Ġscroll": 8591,
      "Ġspecs": 8592,
      "Ġpreced": 8593,
      "Ġtransclusion": 8594,
      "Ġattract": 8595,
      "Ġlock": 8596,
      "á»ĥ": 8597,
      "Ġuw": 8598,
      "Ġextract": 8599,
      "Ġinvolve": 8600,
      "ĠYOU": 8601,
      "Ġconfidential": 8602,
      "plementation": 8603,
      "Ġoperates": 8604,
      "ĠAppRiver": 8605,
      "ampaign": 8606,
      "Ġcouldn": 8607,
      "Ġperformed": 8608,
      "Ġcontrovers": 8609,
      "Ġwrites": 8610,
      "zych": 8611,
      "Ġdeliber": 8612,
      "ĠInterest": 8613,
      "Ġlimits": 8614,
      "Ġtranslating": 8615,
      "Ġë°": 8616,
      "alty": 8617,
      "ĠUSA": 8618,
      "Ġplayer": 8619,
      "Ġheritage": 8620,
      "ĠManaging": 8621,
      "çĶ»": 8622,
      "shot": 8623,
      "Ġcentury": 8624,
      "ARN": 8625,
      "Ġadministration": 8626,
      "Ġkinds": 8627,
      "Ġlimitations": 8628,
      "à¸Ķà¸«à¸¡": 8629,
      "Ġschema": 8630,
      "Ġoptimization": 8631,
      "Ġpainting": 8632,
      "Editing": 8633,
      "atalog": 8634,
      "Ġchannels": 8635,
      "Ġprocedures": 8636,
      "æł¡": 8637,
      "ĠSingapore": 8638,
      "Ġscientific": 8639,
      "Ġprzez": 8640,
      "Ġschol": 8641,
      "Ġencyclopedia": 8642,
      "eminism": 8643,
      "Ġletters": 8644,
      "\"),": 8645,
      "09": 8646,
      "89": 8647,
      "Av": 8648,
      "EL": 8649,
      "TR": 8650,
      "can": 8651,
      "worth": 8652,
      "ying": 8653,
      "yles": 8654,
      "Î³": 8655,
      "íĤ": 8656,
      "ĠÅ¼e": 8657,
      "Ĥĺ": 8658,
      "eras": 8659,
      "itle": 8660,
      "Ġdim": 8661,
      "Ġdut": 8662,
      "Ġbath": 8663,
      "icial": 8664,
      "lear": 8665,
      "Ġmas": 8666,
      "ented": 8667,
      "Ġnull": 8668,
      "Ġhour": 8669,
      "ĠCr": 8670,
      "ĠSol": 8671,
      "Ġgone": 8672,
      "abel": 8673,
      "emi": 8674,
      "acjÄĻ": 8675,
      "Ġalb": 8676,
      "isted": 8677,
      "ĠDPF": 8678,
      "ĠGal": 8679,
      "race": 8680,
      "platform": 8681,
      "Ġwearing": 8682,
      "ĠFund": 8683,
      "ĠFOR": 8684,
      "ĠLocal": 8685,
      "ĠHistory": 8686,
      "ĠHDFS": 8687,
      "format": 8688,
      "ĠOura": 8689,
      "ĠNon": 8690,
      "ĠJoin": 8691,
      "à°¸": 8692,
      "Ġdispl": 8693,
      "Ġqui": 8694,
      "×Ļ×Ĳ": 8695,
      "ÙħÙĦ": 8696,
      "Ġprovisions": 8697,
      "Ġphilos": 8698,
      "Ã³l": 8699,
      "Ġbacked": 8700,
      "ĠArbit": 8701,
      "ought": 8702,
      "Ġmyself": 8703,
      "Ġinvalid": 8704,
      "êłĺ": 8705,
      "sprach": 8706,
      "Ġ2003": 8707,
      "ÑĢÐ°ÑĹ": 8708,
      "Ġstatic": 8709,
      "Ġoperate": 8710,
      "Ġà¦ı": 8711,
      "Ã¤ng": 8712,
      "à±ĭ": 8713,
      "Ġcontribution": 8714,
      "Article": 8715,
      "Ã¨re": 8716,
      "Ð°ÑĢÑĭ": 8717,
      "Ġ×Ķ×¢": 8718,
      "roduction": 8719,
      "Ġuploads": 8720,
      "Ġcorner": 8721,
      "obert": 8722,
      "à½¼": 8723,
      "Ð°Ð»ÑĮ": 8724,
      "rett": 8725,
      "ointer": 8726,
      "Ġplaying": 8727,
      "Ġcertainly": 8728,
      "Ġfacts": 8729,
      "Deutsch": 8730,
      "ÐºÐ°Ñı": 8731,
      "ESOURCE": 8732,
      "ĠPreceding": 8733,
      "Ġengineers": 8734,
      "scope": 8735,
      "screen": 8736,
      "ĠÐ¾ÑĤ": 8737,
      "ederlands": 8738,
      "Ġtargeted": 8739,
      "elligent": 8740,
      "áĪŃ": 8741,
      "bucket": 8742,
      "Ġexecutive": 8743,
      "Ġcomplexity": 8744,
      "Atlassian": 8745,
      "Ġfourth": 8746,
      "Ġsamples": 8747,
      "ê³ł": 8748,
      "ÑĥÑģÑģÐºÐ¸Ð¹": 8749,
      "è¡¨": 8750,
      "Ġcompiler": 8751,
      "Ġexcited": 8752,
      "ĠSafe": 8753,
      "Ġsniff": 8754,
      "Ġevaluate": 8755,
      "Ġsymbols": 8756,
      "ĠProperties": 8757,
      "Ġroadmap": 8758,
      ")(": 8759,
      "Ang": 8760,
      "ET": 8761,
      "Non": 8762,
      "Name": 8763,
      "Serv": 8764,
      "__": 8765,
      "iam": 8766,
      "nce": 8767,
      "rd": 8768,
      "Ó£": 8769,
      "ÛĨ": 8770,
      "á¸": 8771,
      "åĥ": 8772,
      "ĠÃª": 8773,
      "Ġtang": 8774,
      "Ġsessions": 8775,
      "esch": 8776,
      "itled": 8777,
      "Ġcounter": 8778,
      "ĠwiÄĻ": 8779,
      "Ġbah": 8780,
      "leading": 8781,
      "Ġmaster": 8782,
      "aru": 8783,
      "Ġnil": 8784,
      "Ġreality": 8785,
      "omplete": 8786,
      "Ġlabor": 8787,
      "aman": 8788,
      "ĠTre": 8789,
      "ĠToday": 8790,
      "Ġbei": 8791,
      "Ġonto": 8792,
      "Ġgallery": 8793,
      "ĠWhether": 8794,
      "emed": 8795,
      "Ġvast": 8796,
      "ĠPDF": 8797,
      "irl": 8798,
      "Ġcomo": 8799,
      "istan": 8800,
      "plain": 8801,
      "ĠÐĶ": 8802,
      "Ġcand": 8803,
      "aks": 8804,
      "ĠLisp": 8805,
      "ĠHay": 8806,
      "ĠRSS": 8807,
      "ãĤĦ": 8808,
      "Ġ×¨": 8809,
      "Ð»ÑĮ": 8810,
      "ebrew": 8811,
      "×Ļ×©": 8812,
      "earning": 8813,
      "Ġscr": 8814,
      "Ġmanaged": 8815,
      "Ã©p": 8816,
      "Ð´Ðµ": 8817,
      "Ð¼Ð¸": 8818,
      "oving": 8819,
      "Ġfilen": 8820,
      "aja": 8821,
      "Ġissued": 8822,
      "ĠSpiceworks": 8823,
      "Ġtechniques": 8824,
      "Ġparse": 8825,
      "Ġknows": 8826,
      "tood": 8827,
      "à¨ķ": 8828,
      "Ġunde": 8829,
      "Ð°Ð½Ð´": 8830,
      "nyÉĽ": 8831,
      "ounce": 8832,
      "Ġlatter": 8833,
      "ĠSecret": 8834,
      "Ġextensive": 8835,
      "afe": 8836,
      "Ġpopulation": 8837,
      "ÑįÑĢ": 8838,
      "æĸ°": 8839,
      "Ġblocking": 8840,
      "Ġconfigured": 8841,
      "Ġinitially": 8842,
      "Ġpresence": 8843,
      "Ġmovies": 8844,
      "ĠTechnologies": 8845,
      "Ġactively": 8846,
      "Secure": 8847,
      "Ġpriority": 8848,
      "Ġelsewhere": 8849,
      "ĠdziaÅĤ": 8850,
      "Software": 8851,
      "ãĥ³ãĥĢ": 8852,
      "Ã¼rk": 8853,
      "Ġschedule": 8854,
      "Ġadvocates": 8855,
      "æĮģ": 8856,
      "Ġstructures": 8857,
      "ĠContributor": 8858,
      "ĠCLI": 8859,
      "ĠIdentity": 8860,
      "Ġranked": 8861,
      "ĠDavid": 8862,
      "Ġbehaviour": 8863,
      "Ġabsolutely": 8864,
      "Ġextremely": 8865,
      "grained": 8866,
      "ĠØ§ÙĦØ¨Ø±ÙħØ¬Ø©": 8867,
      "ansomware": 8868,
      ")[": 8869,
      "06": 8870,
      "74": 8871,
      "Block": 8872,
      "Categories": 8873,
      "OK": 8874,
      "Out": 8875,
      "Off": 8876,
      "Rest": 8877,
      "Version": 8878,
      "aper": 8879,
      "ej": 8880,
      "lik": 8881,
      "nÄħ": 8882,
      "uje": 8883,
      "uitive": 8884,
      "Æ¡": 8885,
      "ä¹": 8886,
      "åĳ": 8887,
      "éĽ": 8888,
      "ë¶": 8889,
      "Ġq": 8890,
      "Ġing": 8891,
      "Ģìŀĳ": 8892,
      "Ġakt": 8893,
      "rer": 8894,
      "Ġwireless": 8895,
      "Ġoct": 8896,
      "Ġdark": 8897,
      "leting": 8898,
      "Ġtowards": 8899,
      "aria": 8900,
      "ota": 8901,
      "imm": 8902,
      "ĠAP": 8903,
      "ĠCount": 8904,
      "Ġorient": 8905,
      "acock": 8906,
      "ĠMart": 8907,
      "eces": 8908,
      "à¸ĵ": 8909,
      "illance": 8910,
      "ĠRet": 8911,
      "ĠRob": 8912,
      "ĠEconom": 8913,
      "Ġcontr": 8914,
      "ãĤµ": 8915,
      "enda": 8916,
      "ãĥī": 8917,
      "Ð¸Ðµ": 8918,
      "ĠNort": 8919,
      "ĠNov": 8920,
      "Ġappe": 8921,
      "Ġintent": 8922,
      "indi": 8923,
      "phab": 8924,
      "Ġprev": 8925,
      "Ġ35": 8926,
      "Ġ365": 8927,
      "erman": 8928,
      "Ð¼Ðµ": 8929,
      "×ķ×Ĳ": 8930,
      "Ġgenerations": 8931,
      "ĠChrist": 8932,
      "cych": 8933,
      "Ġparallel": 8934,
      "Ġcool": 8935,
      "Ġà¦Ń": 8936,
      "Ġsmooth": 8937,
      "Ø¨Ø§ÙĨ": 8938,
      "Ġ09": 8939,
      "ĠContents": 8940,
      "Ġfunctional": 8941,
      "ìĿ¸": 8942,
      "zeÅĦ": 8943,
      "Ø¬Ùĩ": 8944,
      "Ġkeeps": 8945,
      "Ð¾Ð²Ð°Ð½": 8946,
      "Ġcommunications": 8947,
      "Ġreasoning": 8948,
      "ĠáĢķ": 8949,
      "Ġ90": 8950,
      "Ã§e": 8951,
      "Ġimprovement": 8952,
      "ronic": 8953,
      "ãģªãģĦ": 8954,
      "256": 8955,
      "à®¿": 8956,
      "Ġconcerned": 8957,
      "Ġinformed": 8958,
      "Ġbreach": 8959,
      "Ġgraphs": 8960,
      "Ġgraphics": 8961,
      "ĠzespoÅĤu": 8962,
      "Ġà¬¸": 8963,
      "nowled": 8964,
      "Ġexplains": 8965,
      "ìłģ": 8966,
      "General": 8967,
      "Ġachie": 8968,
      "Ġdigit": 8969,
      "Ġforeign": 8970,
      "Ġclarity": 8971,
      "Ġuniversities": 8972,
      "ĠDevOps": 8973,
      "Ġcoordin": 8974,
      "Ġimpressive": 8975,
      "Ġprecise": 8976,
      "Ġoversight": 8977,
      "Æ°á»£": 8978,
      "Ġconflict": 8979,
      "ĠIssue": 8980,
      "Ġfotograf": 8981,
      "Ġinterpreter": 8982,
      "Ban": 8983,
      "Ret": 8984,
      "Spro": 8985,
      "Table": 8986,
      "Tok": 8987,
      "UI": 8988,
      "bul": 8989,
      "copyright": 8990,
      "css": 8991,
      "jud": 8992,
      "lied": 8993,
      "mes": 8994,
      "rum": 8995,
      "zone": 8996,
      "¬¸": 8997,
      "Ä«": 8998,
      "ÎŃ": 8999,
      "Ú¯": 9000,
      "åĵ": 9001,
      "ìķ": 9002,
      "ĠÏĥ": 9003,
      "Ľi": 9004,
      "Ġapart": 9005,
      "inf": 9006,
      "atur": 9007,
      "itan": 9008,
      "itative": 9009,
      "Ġcited": 9010,
      "Ġpal": 9011,
      "eda": 9012,
      "Ġmand": 9013,
      "aro": 9014,
      "entral": 9015,
      "ils": 9016,
      "oti": 9017,
      "Ġforth": 9018,
      "ĠCR": 9019,
      "unto": 9020,
      "ĠISP": 9021,
      "ady": 9022,
      "ĠWell": 9023,
      "Ġconsequ": 9024,
      "ulo": 9025,
      "Ġstru": 9026,
      "Ġstick": 9027,
      "ĠMake": 9028,
      "rip": 9029,
      "ãģ©": 9030,
      "mente": 9031,
      "anga": 9032,
      "anger": 9033,
      "ĠFull": 9034,
      "ĠLead": 9035,
      "ĠLanguages": 9036,
      "ĠRight": 9037,
      "iva": 9038,
      "ĠEss": 9039,
      "ante": 9040,
      "Ġseason": 9041,
      "áĢ°": 9042,
      "à¦¦": 9043,
      "à¦¹": 9044,
      "à¦ĩ": 9045,
      "apat": 9046,
      "ellen": 9047,
      "ĠØ®": 9048,
      "Ġmanager": 9049,
      "Ġ32": 9050,
      "×ķ×Ĵ": 9051,
      "Ġcolon": 9052,
      "Ġassets": 9053,
      "Ġpersonality": 9054,
      "anych": 9055,
      "ÑĸÐ²": 9056,
      "ÑĸÐºÑĸ": 9057,
      "Ġlinking": 9058,
      "Ġinvited": 9059,
      "azione": 9060,
      "ĠThank": 9061,
      "Ġrunners": 9062,
      "Ġimplementing": 9063,
      "unday": 9064,
      "ĠâĹ": 9065,
      "Ġderived": 9066,
      "Ġencryption": 9067,
      "Ġconstitut": 9068,
      "ãĥ³ãĤ¹": 9069,
      "Examples": 9070,
      "ĠÑĤÐ°": 9071,
      "Ġflat": 9072,
      "ĠSelect": 9073,
      "Ġlargely": 9074,
      "Ġconnecting": 9075,
      "äºĮ": 9076,
      "Ġ×ĳ×Ĳ": 9077,
      "ĠÐ¿ÑĢÐ¾": 9078,
      "à¥ĩà¤Ĥ": 9079,
      "ĠØ£ÙĪ": 9080,
      "Ġfailed": 9081,
      "ĠBuilding": 9082,
      "ĠParis": 9083,
      "Ġaccuracy": 9084,
      "ĠStandards": 9085,
      "Ġsztuc": 9086,
      "ĠSettings": 9087,
      "Ġpushed": 9088,
      "Ġempower": 9089,
      "Ġklient": 9090,
      "Ġdamage": 9091,
      "ĠOrganization": 9092,
      "SHA": 9093,
      "à¸·à¹Ī": 9094,
      "ãĤ³ãĥ³ãĥ": 9095,
      "Ġsituations": 9096,
      "Parameters": 9097,
      "åĮĸ": 9098,
      "ĠGreek": 9099,
      "Ġunderstood": 9100,
      "Document": 9101,
      "Iss": 9102,
      "Symbol": 9103,
      "Windows": 9104,
      "found": 9105,
      "new": 9106,
      "oose": 9107,
      "uro": 9108,
      "Ġich": 9109,
      "ľà¦¨": 9110,
      "Ġcru": 9111,
      "Ġfelt": 9112,
      "Ġbass": 9113,
      "Ġlos": 9114,
      "Ġthumb": 9115,
      "Ġhair": 9116,
      "Ġhaven": 9117,
      "ims": 9118,
      "step": 9119,
      "ĠTik": 9120,
      "Ġbeat": 9121,
      "adio": 9122,
      "ikÃ³w": 9123,
      "open": 9124,
      "Ġdei": 9125,
      "Ġdeath": 9126,
      "ĠDAG": 9127,
      "ĠFac": 9128,
      "ĠHome": 9129,
      "ĠREST": 9130,
      "upy": 9131,
      "áĢ«": 9132,
      "cles": 9133,
      "Ġarrang": 9134,
      "ÑĤÑĥ": 9135,
      "ĠJSON": 9136,
      "apers": 9137,
      "Ġcommands": 9138,
      "ĠKn": 9139,
      "ĠKar": 9140,
      "×ķ×ķ": 9141,
      "Ġmanagers": 9142,
      "ÙĪØ³": 9143,
      "âĢĿ)": 9144,
      "Ġseeing": 9145,
      "ĠReal": 9146,
      "Ġcolors": 9147,
      "ÅĤa": 9148,
      "Ġexposed": 9149,
      "Ġfeatured": 9150,
      "Ġdiscrim": 9151,
      "ashington": 9152,
      "Ġretrie": 9153,
      "Ġtermin": 9154,
      "ussion": 9155,
      "Ġhadoop": 9156,
      "Ð°Ð½Ð½Ñı": 9157,
      "Ġreviewing": 9158,
      "Common": 9159,
      "Ġà°¸": 9160,
      "Ġensures": 9161,
      "ĠÐ´Ð¾": 9162,
      "ĠkaÅ¼": 9163,
      "Ġcollections": 9164,
      "Ġphotography": 9165,
      "æľĢ": 9166,
      "Ġpreserv": 9167,
      "Ġwikitext": 9168,
      "Ġprotecting": 9169,
      "Ġmaintained": 9170,
      "Ġmaintaining": 9171,
      "Ġincreased": 9172,
      "Ġviolate": 9173,
      "ãģĵãĤĮ": 9174,
      "à¸§à¸Ķà¸«à¸¡": 9175,
      "Ġstrongly": 9176,
      "ICE": 9177,
      "AME": 9178,
      "Ġpodcast": 9179,
      "ĠJustice": 9180,
      "Ġopinions": 9181,
      "month": 9182,
      "ê²½": 9183,
      "Ġbegins": 9184,
      "Ġmedium": 9185,
      "ĠFacebook": 9186,
      "Ġsearches": 9187,
      "ÙĬÙĥÙĬ": 9188,
      "íĤ¤ë": 9189,
      "ĠâĹı": 9190,
      "62": 9191,
      "CD": 9192,
      "Drive": 9193,
      "Ge": 9194,
      "LinkedIn": 9195,
      "Mult": 9196,
      "Pop": 9197,
      "SV": 9198,
      "aan": 9199,
      "bi": 9200,
      "fill": 9201,
      "from": 9202,
      "lor": 9203,
      "link": 9204,
      "naj": 9205,
      "rv": 9206,
      "uÉ£": 9207,
      "ÒĽ": 9208,
      "çķ": 9209,
      "è©": 9210,
      "Ġtin": 9211,
      "Ġau": 9212,
      "het": 9213,
      "orrow": 9214,
      "Ġsqu": 9215,
      "Ġcel": 9216,
      "Ġpam": 9217,
      "Ġpure": 9218,
      "ische": 9219,
      "eds": 9220,
      "Ġanti": 9221,
      "Ġbus": 9222,
      "Ġbright": 9223,
      "Ġmog": 9224,
      "Ġmali": 9225,
      "Ġyoung": 9226,
      "ĠAction": 9227,
      "ĠAlex": 9228,
      "ĠCI": 9229,
      "ĠSumm": 9230,
      "ston": 9231,
      "ĠTable": 9232,
      "idad": 9233,
      "ĠWoo": 9234,
      "Ġconver": 9235,
      "access": 9236,
      "ĠMobile": 9237,
      "ãģĬ": 9238,
      "ĠProm": 9239,
      "ĠGravatar": 9240,
      "ĠBahasa": 9241,
      "ĠFurther": 9242,
      "Ġruby": 9243,
      "Ġransomware": 9244,
      "Ġunn": 9245,
      "ivo": 9246,
      "Ġsuitable": 9247,
      "Ð¸ÑĪ": 9248,
      "ĠNations": 9249,
      "Ġupcoming": 9250,
      "ÑĥÐ·": 9251,
      "ĠØ¢": 9252,
      "ÙĪØ¹": 9253,
      "Ġacts": 9254,
      "Ġactors": 9255,
      "ÅĤy": 9256,
      "Ġmoder": 9257,
      "Ġnumerous": 9258,
      "Ġgradu": 9259,
      "ĠÙħØŃ": 9260,
      "Ġsignal": 9261,
      "Ġ03": 9262,
      "tainment": 9263,
      "Ġfewer": 9264,
      "ĠIndia": 9265,
      "Ġsurpr": 9266,
      "Ġintegrate": 9267,
      "ĠAgent": 9268,
      "ĠBefore": 9269,
      "Config": 9270,
      "Although": 9271,
      "ĠRecords": 9272,
      "×ĵ×Ļ×Ķ": 9273,
      "Ġinteraction": 9274,
      "Ò¯ÑĢ": 9275,
      "Ġdealing": 9276,
      "ĠBrand": 9277,
      "Index": 9278,
      "ĠDirector": 9279,
      "Ġobligation": 9280,
      "Ġdrives": 9281,
      "ãģ£ãģ¦": 9282,
      "Ġincorporate": 9283,
      "ĠFranc": 9284,
      "ickson": 9285,
      "Ġignore": 9286,
      "Ġmerged": 9287,
      "Ġcomparison": 9288,
      "Ġmechanisms": 9289,
      "ĠItaly": 9290,
      "ĠPeacock": 9291,
      "Ġpermanently": 9292,
      "folio": 9293,
      "ĠExtension": 9294,
      "ĠBasic": 9295,
      "ĠViá»ĩt": 9296,
      "Ġshipping": 9297,
      "ĠAzure": 9298,
      "ĠDagbani": 9299,
      "Ġmagazine": 9300,
      "87": 9301,
      ":[": 9302,
      "Brow": 9303,
      "Counsel": 9304,
      "DPR": 9305,
      "Er": 9306,
      "LL": 9307,
      "LX": 9308,
      "Mat": 9309,
      "Pay": 9310,
      "Tim": 9311,
      "bas": 9312,
      "mar": 9313,
      "nam": 9314,
      "oÅĽci": 9315,
      "png": 9316,
      "rÃ³": 9317,
      "tons": 9318,
      "uy": 9319,
      "zys": 9320,
      "Ð£": 9321,
      "åİ": 9322,
      "ĠÐ°Ð»": 9323,
      "Ġauch": 9324,
      "rech": 9325,
      "Ġsab": 9326,
      "Ġpoor": 9327,
      "ioni": 9328,
      "Ġinclusive": 9329,
      "ctuation": 9330,
      "chi": 9331,
      "rial": 9332,
      "essage": 9333,
      "isting": 9334,
      "ĠDrive": 9335,
      "Ġnotices": 9336,
      "forward": 9337,
      "Ġunse": 9338,
      "ĠLiter": 9339,
      "ãĥ¡": 9340,
      "lication": 9341,
      "acks": 9342,
      "Ð½Ðµ": 9343,
      "apa": 9344,
      "Ġplenty": 9345,
      "ÑģÑĭ": 9346,
      "à°ļ": 9347,
      "ĠVikip": 9348,
      "cludes": 9349,
      "aston": 9350,
      "ĠKey": 9351,
      "Ġdesp": 9352,
      "Ġartistic": 9353,
      "ÙĨØ¯": 9354,
      "Ġsett": 9355,
      "Ġ1960": 9356,
      "á»±": 9357,
      "Ġbeta": 9358,
      "Ġupper": 9359,
      "ĠSpruceID": 9360,
      "Ġ500": 9361,
      "space": 9362,
      "Ġeditions": 9363,
      "×¨×Ĳ": 9364,
      "à¨Ĥ": 9365,
      "2024": 9366,
      "Ã¤t": 9367,
      "Ġcustomizable": 9368,
      "Ġpursu": 9369,
      "ilipp": 9370,
      "ĠContract": 9371,
      "Ġdiscussing": 9372,
      "ĠTrademark": 9373,
      "Ġgoods": 9374,
      "Ġraw": 9375,
      "Ġargued": 9376,
      "Ġgovernments": 9377,
      "ĠIndian": 9378,
      "Ġdati": 9379,
      "Ġemployment": 9380,
      "ĠLicenses": 9381,
      "Ġslots": 9382,
      "ĠQuiet": 9383,
      "Ġputting": 9384,
      "Ġpresented": 9385,
      "Ġinteractions": 9386,
      "ĠDatabase": 9387,
      "ĠDesktop": 9388,
      "åŃ¦": 9389,
      "à¸¥à¸°": 9390,
      "ĠDeveloper": 9391,
      "Ġwatching": 9392,
      "áīµ": 9393,
      "ĠðŁĶ": 9394,
      "Ġcapture": 9395,
      "rzeb": 9396,
      "Ġmacros": 9397,
      "Ġlaptops": 9398,
      "Ġcontinuous": 9399,
      "æıĲ": 9400,
      "Ġsomewhat": 9401,
      "Ġinteroperability": 9402,
      "Ġbrackets": 9403,
      "Ġreferenced": 9404,
      "èĳĹä½ľ": 9405,
      "ĠÐ¿Ð¾ÐºÐ¾Ð»": 9406,
      "!)": 9407,
      ")=": 9408,
      "Brian": 9409,
      "Click": 9410,
      "Pat": 9411,
      "Pol": 9412,
      "SD": 9413,
      "fa": 9414,
      "iem": 9415,
      "jal": 9416,
      "jar": 9417,
      "ker": 9418,
      "making": 9419,
      "ois": 9420,
      "support": 9421,
      "ßĮ": 9422,
      "âµ": 9423,
      "ë©": 9424,
      "ëĿ¼": 9425,
      "ĵuv": 9426,
      "erd": 9427,
      "atial": 9428,
      "ori": 9429,
      "Ġswit": 9430,
      "Ġci": 9431,
      "Ġwra": 9432,
      "Ġwym": 9433,
      "Ġfetch": 9434,
      "Ġdari": 9435,
      "Ġmuseum": 9436,
      "Ġling": 9437,
      "Ġliving": 9438,
      "Ġeye": 9439,
      "ilig": 9440,
      "ilip": 9441,
      "ĠAD": 9442,
      "ĠSites": 9443,
      "standing": 9444,
      "ĠII": 9445,
      "ados": 9446,
      "ĠMit": 9447,
      "essor": 9448,
[...]
